{
    "vocab": {
        "0": "Ā",
        "1": "ā",
        "2": "Ă",
        "3": "ă",
        "4": "Ą",
        "5": "ą",
        "6": "Ć",
        "7": "ć",
        "8": "Ĉ",
        "9": "ĉ",
        "10": "Ċ",
        "11": "ċ",
        "12": "Č",
        "13": "č",
        "14": "Ď",
        "15": "ď",
        "16": "Đ",
        "17": "đ",
        "18": "Ē",
        "19": "ē",
        "20": "Ĕ",
        "21": "ĕ",
        "22": "Ė",
        "23": "ė",
        "24": "Ę",
        "25": "ę",
        "26": "Ě",
        "27": "ě",
        "28": "Ĝ",
        "29": "ĝ",
        "30": "Ğ",
        "31": "ğ",
        "32": "Ġ",
        "33": "!",
        "34": "\"",
        "35": "#",
        "36": "$",
        "37": "%",
        "38": "&",
        "39": "'",
        "40": "(",
        "41": ")",
        "42": "*",
        "43": "+",
        "44": ",",
        "45": "-",
        "46": ".",
        "47": "/",
        "48": "0",
        "49": "1",
        "50": "2",
        "51": "3",
        "52": "4",
        "53": "5",
        "54": "6",
        "55": "7",
        "56": "8",
        "57": "9",
        "58": ":",
        "59": ";",
        "60": "<",
        "61": "=",
        "62": ">",
        "63": "?",
        "64": "@",
        "65": "A",
        "66": "B",
        "67": "C",
        "68": "D",
        "69": "E",
        "70": "F",
        "71": "G",
        "72": "H",
        "73": "I",
        "74": "J",
        "75": "K",
        "76": "L",
        "77": "M",
        "78": "N",
        "79": "O",
        "80": "P",
        "81": "Q",
        "82": "R",
        "83": "S",
        "84": "T",
        "85": "U",
        "86": "V",
        "87": "W",
        "88": "X",
        "89": "Y",
        "90": "Z",
        "91": "[",
        "92": "\\",
        "93": "]",
        "94": "^",
        "95": "_",
        "96": "`",
        "97": "a",
        "98": "b",
        "99": "c",
        "100": "d",
        "101": "e",
        "102": "f",
        "103": "g",
        "104": "h",
        "105": "i",
        "106": "j",
        "107": "k",
        "108": "l",
        "109": "m",
        "110": "n",
        "111": "o",
        "112": "p",
        "113": "q",
        "114": "r",
        "115": "s",
        "116": "t",
        "117": "u",
        "118": "v",
        "119": "w",
        "120": "x",
        "121": "y",
        "122": "z",
        "123": "{",
        "124": "|",
        "125": "}",
        "126": "~",
        "127": "ġ",
        "128": "Ģ",
        "129": "ģ",
        "130": "Ĥ",
        "131": "ĥ",
        "132": "Ħ",
        "133": "ħ",
        "134": "Ĩ",
        "135": "ĩ",
        "136": "Ī",
        "137": "ī",
        "138": "Ĭ",
        "139": "ĭ",
        "140": "Į",
        "141": "į",
        "142": "İ",
        "143": "ı",
        "144": "Ĳ",
        "145": "ĳ",
        "146": "Ĵ",
        "147": "ĵ",
        "148": "Ķ",
        "149": "ķ",
        "150": "ĸ",
        "151": "Ĺ",
        "152": "ĺ",
        "153": "Ļ",
        "154": "ļ",
        "155": "Ľ",
        "156": "ľ",
        "157": "Ŀ",
        "158": "ŀ",
        "159": "Ł",
        "160": "ł",
        "161": "¡",
        "162": "¢",
        "163": "£",
        "164": "¤",
        "165": "¥",
        "166": "¦",
        "167": "§",
        "168": "¨",
        "169": "©",
        "170": "ª",
        "171": "«",
        "172": "¬",
        "173": "Ń",
        "174": "®",
        "175": "¯",
        "176": "°",
        "177": "±",
        "178": "²",
        "179": "³",
        "180": "´",
        "181": "µ",
        "182": "¶",
        "183": "·",
        "184": "¸",
        "185": "¹",
        "186": "º",
        "187": "»",
        "188": "¼",
        "189": "½",
        "190": "¾",
        "191": "¿",
        "192": "À",
        "193": "Á",
        "194": "Â",
        "195": "Ã",
        "196": "Ä",
        "197": "Å",
        "198": "Æ",
        "199": "Ç",
        "200": "È",
        "201": "É",
        "202": "Ê",
        "203": "Ë",
        "204": "Ì",
        "205": "Í",
        "206": "Î",
        "207": "Ï",
        "208": "Ð",
        "209": "Ñ",
        "210": "Ò",
        "211": "Ó",
        "212": "Ô",
        "213": "Õ",
        "214": "Ö",
        "215": "×",
        "216": "Ø",
        "217": "Ù",
        "218": "Ú",
        "219": "Û",
        "220": "Ü",
        "221": "Ý",
        "222": "Þ",
        "223": "ß",
        "224": "à",
        "225": "á",
        "226": "â",
        "227": "ã",
        "228": "ä",
        "229": "å",
        "230": "æ",
        "231": "ç",
        "232": "è",
        "233": "é",
        "234": "ê",
        "235": "ë",
        "236": "ì",
        "237": "í",
        "238": "î",
        "239": "ï",
        "240": "ð",
        "241": "ñ",
        "242": "ò",
        "243": "ó",
        "244": "ô",
        "245": "õ",
        "246": "ö",
        "247": "÷",
        "248": "ø",
        "249": "ù",
        "250": "ú",
        "251": "û",
        "252": "ü",
        "253": "ý",
        "254": "þ",
        "255": "ÿ",
        "256": "Ċ",
        "257": "Ġt",
        "258": "Ġa",
        "259": "he",
        "260": "in",
        "261": "re",
        "262": "Ġthe",
        "263": "on",
        "264": "er",
        "265": "Ġs",
        "266": "Ġw",
        "267": "at",
        "268": "Ġo",
        "269": "en",
        "270": "Ġc",
        "271": "it",
        "272": "is",
        "273": "an",
        "274": "or",
        "275": "Ġb",
        "276": "es",
        "277": "ed",
        "278": "Ġf",
        "279": "ing",
        "280": "Ġp",
        "281": "ou",
        "282": "Ġan",
        "283": "al",
        "284": "Ġto",
        "285": "ar",
        "286": "Ġm",
        "287": "Ġin",
        "288": "Ġof",
        "289": "Ġh",
        "290": "Ġd",
        "291": "âĢ",
        "292": "as",
        "293": "ic",
        "294": "Ġand",
        "295": "Ġth",
        "296": "le",
        "297": "om",
        "298": "ion",
        "299": "ll",
        "300": "ent",
        "301": "Ġn",
        "302": "Ġl",
        "303": "Ġre",
        "304": "st",
        "305": "ve",
        "306": "Ġe",
        "307": "ly",
        "308": "ro",
        "309": "Ġbe",
        "310": "Ġg",
        "311": "id",
        "312": "ut",
        "313": "ac",
        "314": "ot",
        "315": "ĠT",
        "316": "ĠI",
        "317": "Ġthat",
        "318": "Ġon",
        "319": "ay",
        "320": "ĠS",
        "321": "Ġis",
        "322": "et",
        "323": "im",
        "324": "am",
        "325": "ad",
        "326": "ow",
        "327": "se",
        "328": "ig",
        "329": "Ġfor",
        "330": "âĢĻ",
        "331": "ĠA",
        "332": "ver",
        "333": "ur",
        "334": "ct",
        "335": "ld",
        "336": "ĠC",
        "337": "Ġu",
        "338": "Ġst",
        "339": "Ġy",
        "340": "Ġit",
        "341": "Ġhe",
        "342": "ir",
        "343": "ation",
        "344": "ith",
        "345": "Ġwh",
        "346": "ĠM",
        "347": "ce",
        "348": "ter",
        "349": "ol",
        "350": "Ġwe",
        "351": "il",
        "352": "Ġwith",
        "353": "Ġas",
        "354": "ĠB",
        "355": "ch",
        "356": "ill",
        "357": "nd",
        "358": "ĠP",
        "359": "Ġwas",
        "360": "ers",
        "361": "Ġyou",
        "362": "ke",
        "363": "ĠâĢ",
        "364": "Ġcon",
        "365": "Ġde",
        "366": "Ġr",
        "367": "her",
        "368": "if",
        "369": "ate",
        "370": "ag",
        "371": "Ġat",
        "372": "Ġha",
        "373": "ĠW",
        "374": "Ġse",
        "375": "ĠH",
        "376": "ore",
        "377": "Ġpro",
        "378": "ul",
        "379": "pp",
        "380": "ment",
        "381": "ri",
        "382": "Ġare",
        "383": "ĠD",
        "384": "Ġ1",
        "385": "us",
        "386": "est",
        "387": "ist",
        "388": "Ġcom",
        "389": "and",
        "390": "ĠR",
        "391": "op",
        "392": "ain",
        "393": "ĠThe",
        "394": "Ġ2",
        "395": "igh",
        "396": "rom",
        "397": "end",
        "398": "Ġ(",
        "399": "te",
        "400": "th",
        "401": "od",
        "402": "Ġne",
        "403": "ĠF",
        "404": "um",
        "405": "un",
        "406": "Ġex",
        "407": "res",
        "408": "ab",
        "409": "âĢĿ",
        "410": "Ġnot",
        "411": "ĠN",
        "412": "Ġv",
        "413": "ess",
        "414": "Ġhave",
        "415": "ity",
        "416": "ould",
        "417": "Ġor",
        "418": "Ġby",
        "419": "ort",
        "420": "os",
        "421": "ĠG",
        "422": "ive",
        "423": "Ġfrom",
        "424": "ant",
        "425": "Ġal",
        "426": "'s",
        "427": "oc",
        "428": "Ġsu",
        "429": "art",
        "430": "el",
        "431": "ĠL",
        "432": "Ġsh",
        "433": "Ġthis",
        "434": "em",
        "435": "qu",
        "436": "nt",
        "437": "ight",
        "438": "pe",
        "439": "ust",
        "440": "Ġle",
        "441": "ies",
        "442": "ĠE",
        "443": "Ġch",
        "444": "Ġsa",
        "445": "Ġab",
        "446": "The",
        "447": "out",
        "448": "all",
        "449": "ie",
        "450": "ack",
        "451": "red",
        "452": "00",
        "453": "ĠâĢľ",
        "454": "Ġhas",
        "455": "ally",
        "456": "ĠJ",
        "457": "Ġpl",
        "458": "Ġgo",
        "459": "ard",
        "460": "iv",
        "461": "Ġhis",
        "462": "ome",
        "463": "ap",
        "464": "ost",
        "465": "gh",
        "466": "ear",
        "467": "ĠO",
        "468": "Ġtr",
        "469": "our",
        "470": "Ġj",
        "471": "ak",
        "472": "ud",
        "473": "Ġwor",
        "474": "ast",
        "475": "Ġdo",
        "476": "Ġthey",
        "477": "Ġbut",
        "478": "rou",
        "479": "Ġcan",
        "480": "ge",
        "481": "Ġwill",
        "482": "Ġsaid",
        "483": "Ġwhe",
        "484": "ĠU",
        "485": "Ġk",
        "486": "ich",
        "487": "Ġall",
        "488": "ok",
        "489": "Ġ\"",
        "490": "ide",
        "491": "Ġwho",
        "492": "ame",
        "493": "ans",
        "494": "ther",
        "495": "ial",
        "496": "Ġout",
        "497": "ff",
        "498": "Ġtheir",
        "499": "ong",
        "500": "pl",
        "501": "ice",
        "502": "ure",
        "503": "one",
        "504": "Ġmore",
        "505": "age",
        "506": "ions",
        "507": "act",
        "508": "Ġup",
        "509": "ike",
        "510": "Ġme",
        "511": "ous",
        "512": "ine",
        "513": "Ġad",
        "514": "ep",
        "515": "Ġabout",
        "516": "ated",
        "517": "ra",
        "518": "ber",
        "519": "pt",
        "520": "Ġone",
        "521": "Ġwere",
        "522": "Ġso",
        "523": "Ġus",
        "524": "ect",
        "525": "og",
        "526": "ime",
        "527": "ĠK",
        "528": "ia",
        "529": "Ġhad",
        "530": "are",
        "531": "ub",
        "532": "cc",
        "533": "Ġwould",
        "534": "Ġcl",
        "535": "Ġ20",
        "536": "Ġim",
        "537": "Ġwhich",
        "538": "ind",
        "539": "xt",
        "540": "ue",
        "541": "ake",
        "542": "iz",
        "543": "very",
        "544": "Ġag",
        "545": "Ġte",
        "546": "Ġoff",
        "547": "Ġcomp",
        "548": "Ġun",
        "549": "Ġbeen",
        "550": "Ġint",
        "551": "so",
        "552": "Ġen",
        "553": "per",
        "554": "ign",
        "555": "au",
        "556": "Ġcont",
        "557": "ĠTh",
        "558": "ary",
        "559": "Ġyear",
        "560": "ip",
        "561": "ace",
        "562": "ew",
        "563": "Ġlike",
        "564": "ven",
        "565": "ook",
        "566": "Ġinc",
        "567": "ays",
        "568": "Ġman",
        "569": "Ġpe",
        "570": "ĠIn",
        "571": "ry",
        "572": "ose",
        "573": "Ġres",
        "574": "able",
        "575": "ite",
        "576": "Ġper",
        "577": "ass",
        "578": "ord",
        "579": "Ġsp",
        "580": "ire",
        "581": "Ġother",
        "582": "mer",
        "583": "Ġsome",
        "584": "ile",
        "585": "ib",
        "586": "ence",
        "587": "ĠSt",
        "588": "ople",
        "589": "Ġ201",
        "590": "ks",
        "591": "ations",
        "592": "Ġover",
        "593": "ical",
        "594": "Ġthere",
        "595": "ress",
        "596": "Ġdis",
        "597": "ult",
        "598": "Ġnew",
        "599": "own",
        "600": "Ġalso",
        "601": "Ġthan",
        "602": "Ġar",
        "603": "Ġbec",
        "604": "ru",
        "605": "Ġthem",
        "606": "ance",
        "607": "ough",
        "608": "Ġapp",
        "609": "port",
        "610": "ount",
        "611": "ail",
        "612": "ree",
        "613": "int",
        "614": "Ġpart",
        "615": "Ġyour",
        "616": "Ġwhen",
        "617": "Ġwhat",
        "618": "orm",
        "619": "ond",
        "620": "Ġpeople",
        "621": "fter",
        "622": "Ġsc",
        "623": "ĠCh",
        "624": "av",
        "625": "ase",
        "626": "Ġqu",
        "627": "Ġany",
        "628": "Ġjust",
        "629": "Ġits",
        "630": "ĠY",
        "631": "ach",
        "632": "ction",
        "633": "Ġtime",
        "634": "of",
        "635": "Ġkn",
        "636": "ĠIt",
        "637": "Ġher",
        "638": "Ġ3",
        "639": "ens",
        "640": "lic",
        "641": "Ġrec",
        "642": "reat",
        "643": "Ġmy",
        "644": "Ġget",
        "645": "Ġif",
        "646": "ĠV",
        "647": "ian",
        "648": ".âĢĿ",
        "649": "Ġinto",
        "650": "ound",
        "651": "Ġwork",
        "652": "Ġtw",
        "653": "irst",
        "654": "vel",
        "655": "Ġno",
        "656": "du",
        "657": "ere",
        "658": "ings",
        "659": "ory",
        "660": "ick",
        "661": "ors",
        "662": "Ġour",
        "663": "ition",
        "664": "ident",
        "665": "ob",
        "666": "Ġ-",
        "667": "Ġpre",
        "668": "ove",
        "669": "Ġplay",
        "670": "ang",
        "671": "ink",
        "672": "ause",
        "673": "wn",
        "674": "text",
        "675": "amp",
        "676": "ade",
        "677": "ates",
        "678": "hing",
        "679": "ark",
        "680": "Ġro",
        "681": "Ġpol",
        "682": "Ġshe",
        "683": "vers",
        "684": "Ġco",
        "685": ",âĢĿ",
        "686": "Ġafter",
        "687": "Ġfirst",
        "688": "Ġcould",
        "689": "Ġhow",
        "690": "ĠHe",
        "691": "ne",
        "692": "Ġ19",
        "693": "ious",
        "694": "nder",
        "695": "ild",
        "696": "Ġacc",
        "697": "Ġhim",
        "698": "aw",
        "699": "'t",
        "700": "ons",
        "701": "Ġpo",
        "702": "|>",
        "703": "<|",
        "704": "endof",
        "705": "endoftext",
        "706": "Ġonly",
        "707": "Ġfe",
        "708": "ict",
        "709": "hed",
        "710": "Ġpr",
        "711": "rit",
        "712": "ov",
        "713": "Ġtwo",
        "714": "ish",
        "715": "Ġcomm",
        "716": "âĢľ",
        "717": "Ġspe",
        "718": "form",
        "719": "Ġact",
        "720": "erv",
        "721": "Ġbl",
        "722": "we",
        "723": "Ġbet",
        "724": "Ġdec",
        "725": ".\"",
        "726": "ning",
        "727": "Ġback",
        "728": "Ġmost",
        "729": "ces",
        "730": "ft",
        "731": "ood",
        "732": "ck",
        "733": "ĠâĢĵ",
        "734": "Ġam",
        "735": "oy",
        "736": "Ġdid",
        "737": "rough",
        "738": "iff",
        "739": "ater",
        "740": "round",
        "741": "Ġagain",
        "742": "Ġ4",
        "743": "ual",
        "744": "day",
        "745": "ise",
        "746": "Ġunder",
        "747": "Ġdes",
        "748": "Ġwant",
        "749": "ull",
        "750": "sel",
        "751": "Ġcons",
        "752": "ĠâĢĶ",
        "753": "..",
        "754": "Ġbecause",
        "755": "Ġnow",
        "756": "lud",
        "757": "ents",
        "758": "man",
        "759": "Ġyears",
        "760": "tern",
        "761": "ublic",
        "762": "Ġneed",
        "763": "ec",
        "764": "Ġeven",
        "765": "Ġ$",
        "766": "iss",
        "767": "Ġinv",
        "768": "Ġatt",
        "769": "Ġknow",
        "770": "ĠWe",
        "771": "Ġsee",
        "772": "ments",
        "773": "ced",
        "774": "Ġadd",
        "775": ",\"",
        "776": "old",
        "777": "Ġind",
        "778": "ting",
        "779": "Ġsec",
        "780": "fore",
        "781": "uch",
        "782": "Ġevery",
        "783": "urn",
        "784": "Ġ5",
        "785": "Ġsupp",
        "786": "Ġmake",
        "787": "pect",
        "788": "ĠUn",
        "789": "Ġem",
        "790": "Ġthese",
        "791": "ock",
        "792": "In",
        "793": "oll",
        "794": "Ġwhere",
        "795": "ject",
        "796": "ational",
        "797": "vern",
        "798": "Ġbu",
        "799": "Ġlook",
        "800": "Th",
        "801": "ĠAnd",
        "802": "oss",
        "803": "Ġdon",
        "804": "Ġev",
        "805": "ump",
        "806": "ating",
        "807": "Ġway",
        "808": "Ġbeing",
        "809": "Ġrem",
        "810": "ily",
        "811": "Ġmay",
        "812": "ng",
        "813": "row",
        "814": "lect",
        "815": "iew",
        "816": "Ġthen",
        "817": "Ġright",
        "818": "Ġmany",
        "819": "Ġ[",
        "820": "Ġdiff",
        "821": "Ġdef",
        "822": "ason",
        "823": "Ġrel",
        "824": "Ġcall",
        "825": "ĠBut",
        "826": "ĠTr",
        "827": "les",
        "828": "ied",
        "829": "ased",
        "830": "Ġinclud",
        "831": "Ġthink",
        "832": "aking",
        "833": "Ġreg",
        "834": ").",
        "835": "ont",
        "836": "meric",
        "837": "Ġimp",
        "838": "Ġthrough",
        "839": "ath",
        "840": "ited",
        "841": "rib",
        "842": "Ġsy",
        "843": "Ġshould",
        "844": "Ġpres",
        "845": "Ġsay",
        "846": "Ġfl",
        "847": "uring",
        "848": "Ġlast",
        "849": "ty",
        "850": "Ġthose",
        "851": "ower",
        "852": "Ġvery",
        "853": "other",
        "854": "Ġmuch",
        "855": "000",
        "856": "ities",
        "857": "ific",
        "858": "Ġstate",
        "859": "ĠThis",
        "860": "ative",
        "861": "Ġshow",
        "862": "tle",
        "863": "hen",
        "864": "Ġbr",
        "865": "ss",
        "866": "arg",
        "867": "Ġwell",
        "868": "oth",
        "869": "Ġph",
        "870": "ĠWh",
        "871": "als",
        "872": "und",
        "873": "Ġcount",
        "874": "Ġdoes",
        "875": "Ġdown",
        "876": "Ġown",
        "877": "arly",
        "878": "Ġend",
        "879": "Ġass",
        "880": "Ġbel",
        "881": "Ġuse",
        "882": "ics",
        "883": "ange",
        "884": "ts",
        "885": "--",
        "886": "Ġlong",
        "887": "ĠAmeric",
        "888": "ters",
        "889": "ince",
        "890": "Ġbefore",
        "891": "omet",
        "892": "gr",
        "893": "Ġmon",
        "894": "ward",
        "895": "Ġgovern",
        "896": "Ġstart",
        "897": "Ġreport",
        "898": "ible",
        "899": "Ġke",
        "900": "up",
        "901": "ues",
        "902": "ĠNew",
        "903": "oun",
        "904": "Ġfin",
        "905": "Ġteam",
        "906": "ble",
        "907": "Ġmade",
        "908": "ife",
        "909": "olog",
        "910": "ren",
        "911": "ener",
        "912": "),",
        "913": "Ġsuch",
        "914": "com",
        "915": "Ġ200",
        "916": "erson",
        "917": "ix",
        "918": "Ġsm",
        "919": "ek",
        "920": "rest",
        "921": "âĢĶ",
        "922": "lp",
        "923": "ility",
        "924": "Ġgoing",
        "925": "ism",
        "926": "ful",
        "927": "Ġworld",
        "928": "ually",
        "929": "Ġstud",
        "930": "ists",
        "931": "Ġgood",
        "932": "Ġac",
        "933": "tain",
        "934": "Ġsub",
        "935": "Ġeff",
        "936": "ini",
        "937": "Ġsur",
        "938": "Ġagainst",
        "939": "It",
        "940": "its",
        "941": "Ġgame",
        "942": "Ġset",
        "943": "ork",
        "944": "Ġ6",
        "945": "Ġgu",
        "946": "Ġpoint",
        "947": "Ġent",
        "948": "ys",
        "949": "gan",
        "950": "ars",
        "951": "li",
        "952": "stem",
        "953": "Ġprov",
        "954": "Ġstill",
        "955": "roup",
        "956": "Ġwhile",
        "957": "illion",
        "958": "Ġhelp",
        "959": "Ġlead",
        "960": "ell",
        "961": "ms",
        "962": "ween",
        "963": ".<|",
        "964": "ax",
        "965": "ank",
        "966": "alk",
        "967": "imes",
        "968": "Ġsays",
        "969": "Ġob",
        "970": "cy",
        "971": "Ġprodu",
        "972": "ef",
        "973": "Ġinte",
        "974": "Ġgr",
        "975": "Ġinter",
        "976": "Ġinst",
        "977": "Ġstr",
        "978": "cess",
        "979": "Ġsim",
        "980": "self",
        "981": "Ġconf",
        "982": "Ġcol",
        "983": "Ġtake",
        "984": "io",
        "985": "Ġmin",
        "986": "ures",
        "987": "arch",
        "988": "Ġsame",
        "989": "Ġthough",
        "990": "Ġbetween",
        "991": "ollow",
        "992": "Ġoffic",
        "993": "ever",
        "994": "Ġcr",
        "995": "land",
        "996": "Ġdiffere",
        "997": "ool",
        "998": "uss",
        "999": "ution",
        "1000": "Ġdisc",
        "1001": "air",
        "1002": "Ġop",
        "1003": "ah",
        "1004": "Ġed",
        "1005": "Ġhigh",
        "1006": "read",
        "1007": "Ġnum",
        "1008": "Ġlaw",
        "1009": "Ġsign",
        "1010": "way",
        "1011": "Ġgovernment",
        "1012": "gg",
        "1013": "led",
        "1014": "ĠRe",
        "1015": "ner",
        "1016": "hip",
        "1017": "atch",
        "1018": "hes",
        "1019": "ames",
        "1020": "any",
        "1021": "Ġter",
        "1022": "Ġsomet",
        "1023": "cent",
        "1024": "ten",
        "1025": "velop",
        "1026": "ted",
        "1027": "We",
        "1028": "Ġref",
        "1029": "Ġtrans",
        "1030": "Ġins",
        "1031": "Ġrun",
        "1032": "Ġser",
        "1033": "Ġfound",
        "1034": "Ġthree",
        "1035": "ives",
        "1036": "ave",
        "1037": "Ġmem",
        "1038": "Ġaround",
        "1039": "Ġhere",
        "1040": "ather",
        "1041": "Ġmed",
        "1042": "Ġreal",
        "1043": "Ġused",
        "1044": "ouse",
        "1045": "Ġ10",
        "1046": "ved",
        "1047": "Ġexp",
        "1048": "az",
        "1049": "ĠAr",
        "1050": "cept",
        "1051": "oot",
        "1052": "Ġsystem",
        "1053": "ĠYou",
        "1054": "ci",
        "1055": "Ġreally",
        "1056": "Ġmod",
        "1057": "ving",
        "1058": "con",
        "1059": "cer",
        "1060": "Ġgroup",
        "1061": "Ġsupport",
        "1062": "Ġ7",
        "1063": "Ġcour",
        "1064": "ets",
        "1065": "ale",
        "1066": "nin",
        "1067": "ins",
        "1068": "Ġcar",
        "1069": "Ġret",
        "1070": "Ġhand",
        "1071": "Ġpublic",
        "1072": "Ġspec",
        "1073": "pr",
        "1074": "ph",
        "1075": "ĠLe",
        "1076": "ying",
        "1077": "Ġgreat",
        "1078": "ense",
        "1079": "Ġext",
        "1080": "ton",
        "1081": ".[",
        "1082": "irect",
        "1083": "Ġcur",
        "1084": "Ġfam",
        "1085": "ĠCom",
        "1086": "alth",
        "1087": "Ġhapp",
        "1088": "Ġfact",
        "1089": "Ġexper",
        "1090": "ĠThey",
        "1091": "ĠTrump",
        "1092": "Ġfr",
        "1093": "Ġwom",
        "1094": "ĠIs",
        "1095": "Ġcap",
        "1096": "Ġboth",
        "1097": "Ġday",
        "1098": "Ġfind",
        "1099": "ĠAl",
        "1100": "ular",
        "1101": "Ġread",
        "1102": "ines",
        "1103": "oh",
        "1104": "ices",
        "1105": "Ġdet",
        "1106": "Ġlit",
        "1107": "Ġsl",
        "1108": "Ġrep",
        "1109": "uth",
        "1110": "Ġduring",
        "1111": "ĠSh",
        "1112": "ĠAs",
        "1113": "Ġ0",
        "1114": "Ġserv",
        "1115": "the",
        "1116": "Ġmonth",
        "1117": "ision",
        "1118": "Ġdevelop",
        "1119": "Ġbig",
        "1120": "min",
        "1121": "Ġ8",
        "1122": "Ġperson",
        "1123": "akes",
        "1124": "Ġfollow",
        "1125": "Ġcre",
        "1126": "ĠCl",
        "1127": "Ġiss",
        "1128": "Ġtold",
        "1129": "Ġsince",
        "1130": "ared",
        "1131": "med",
        "1132": "ically",
        "1133": "Ġweek",
        "1134": "ages",
        "1135": "ivers",
        "1136": "Ġwar",
        "1137": "Ġfew",
        "1138": "ording",
        "1139": "Ġcent",
        "1140": "Ġleg",
        "1141": "aj",
        "1142": "ex",
        "1143": "get",
        "1144": "Ġpolit",
        "1145": "ves",
        "1146": "ash",
        "1147": "Ġexpl",
        "1148": "ered",
        "1149": "Ġlot",
        "1150": "ric",
        "1151": "Ġbelie",
        "1152": "ata",
        "1153": "Ġgener",
        "1154": "Ġtoo",
        "1155": "Ġ9",
        "1156": "der",
        "1157": "rent",
        "1158": "Ġopp",
        "1159": "Wh",
        "1160": "Ġrequ",
        "1161": "Ġcontin",
        "1162": "iet",
        "1163": "bers",
        "1164": "anc",
        "1165": "Ġfil",
        "1166": "Ġcor",
        "1167": "ention",
        "1168": "ness",
        "1169": "Ġcle",
        "1170": "Ġresp",
        "1171": "Ġput",
        "1172": "ized",
        "1173": "ĠIf",
        "1174": "Ġanother",
        "1175": "20",
        "1176": "chool",
        "1177": "Ġinf",
        "1178": "Ġsomething",
        "1179": "Ġdifferent",
        "1180": "Ġloc",
        "1181": "ĠDe",
        "1182": "ute",
        "1183": "Ġinvest",
        "1184": "Ġsoc",
        "1185": "Ġpower",
        "1186": "Ġche",
        "1187": "uc",
        "1188": "Ġ'",
        "1189": "Ġpass",
        "1190": "Ġcommun",
        "1191": "Ġlife",
        "1192": "ĠFr",
        "1193": "Ġplan",
        "1194": "ody",
        "1195": "Ġrele",
        "1196": "Ġhead",
        "1197": "ience",
        "1198": "Ġthings",
        "1199": "ned",
        "1200": "thing",
        "1201": "Ġfar",
        "1202": "ox",
        "1203": "Ġart",
        "1204": "Ġposs",
        "1205": "Ġmet",
        "1206": "Ġcamp",
        "1207": "ross",
        "1208": "arge",
        "1209": "Ġvot",
        "1210": "This",
        "1211": "view",
        "1212": "Ġchild",
        "1213": "ier",
        "1214": "ants",
        "1215": "Ġask",
        "1216": "Ġmight",
        "1217": "Ġeach",
        "1218": "ize",
        "1219": "Ġdep",
        "1220": "iness",
        "1221": "Ġ.",
        "1222": "Ġnever",
        "1223": "Ġnext",
        "1224": "ĠFor",
        "1225": "ĠAn",
        "1226": "ield",
        "1227": "Ġsecond",
        "1228": "Ġmark",
        "1229": "Ġquest",
        "1230": "Ġbus",
        "1231": "Ġadv",
        "1232": "ik",
        "1233": "Ġdem",
        "1234": "Ġcome",
        "1235": "Ġgot",
        "1236": "ĠâĢĺ",
        "1237": "ret",
        "1238": "Ġopen",
        "1239": "Ġbest",
        "1240": "ient",
        "1241": "ital",
        "1242": "Ġallow",
        "1243": "...",
        "1244": "ĠThat",
        "1245": "rat",
        "1246": "Ġseem",
        "1247": "Ġpost",
        "1248": "ple",
        "1249": "tem",
        "1250": "nce",
        "1251": "Ġfeel",
        "1252": "ĠPro",
        "1253": "ĠUS",
        "1254": "ug",
        "1255": "Ġpri",
        "1256": "gram",
        "1257": "Ġpercent",
        "1258": "cl",
        "1259": "Ġhome",
        "1260": "Ġdist",
        "1261": "Ġdirect",
        "1262": "ired",
        "1263": "Ġincre",
        "1264": "Ġcontro",
        "1265": "ĠRep",
        "1266": "son",
        "1267": "less",
        "1268": "orn",
        "1269": "osed",
        "1270": "Ġresult",
        "1271": "Ġhard",
        "1272": "Ġcare",
        "1273": "ately",
        "1274": "Ġmillion",
        "1275": "chn",
        "1276": "Ġcomple",
        "1277": "Ġplace",
        "1278": "Ġwithout",
        "1279": "Ġinform",
        "1280": "Ġincluding",
        "1281": "Ġimport",
        "1282": "Ġav",
        "1283": "conom",
        "1284": "Ġhum",
        "1285": "ama",
        "1286": "Ġide",
        "1287": "Ġproble",
        "1288": "Ġbuild",
        "1289": "Ġtop",
        "1290": "Ġnumber",
        "1291": "Ġcountry",
        "1292": "gy",
        "1293": "oney",
        "1294": "aim",
        "1295": "ĠBl",
        "1296": "ral",
        "1297": "tt",
        "1298": "ably",
        "1299": "uro",
        "1300": "Ġstand",
        "1301": "Ġgl",
        "1302": "Ġel",
        "1303": "riend",
        "1304": "Ġfour",
        "1305": "ished",
        "1306": "ways",
        "1307": "Ġpartic",
        "1308": "Ġbetter",
        "1309": "Ġtri",
        "1310": "But",
        "1311": "Ġrecent",
        "1312": "Ġinterest",
        "1313": "Ġmov",
        "1314": "Ġlet",
        "1315": "ration",
        "1316": "co",
        "1317": "Ġseason",
        "1318": "Ġless",
        "1319": "Ġturn",
        "1320": "Ġlittle",
        "1321": "Ġbeh",
        "1322": "Ġmil",
        "1323": "ead",
        "1324": "Ġappro",
        "1325": "ract",
        "1326": "line",
        "1327": "Ġbro",
        "1328": "ling",
        "1329": "ised",
        "1330": "Ġcalled",
        "1331": "app",
        "1332": "10",
        "1333": "Ġcase",
        "1334": "Ġdr",
        "1335": "ĠInd",
        "1336": "Ġrest",
        "1337": "Ġleft",
        "1338": "Ġpop",
        "1339": "Ġann",
        "1340": "ĠZ",
        "1341": "ency",
        "1342": "Ġmove",
        "1343": "ode",
        "1344": "Ġattack",
        "1345": "ina",
        "1346": "ĠThere",
        "1347": "Ġkeep",
        "1348": "Ġfull",
        "1349": "ering",
        "1350": "Ġdidn",
        "1351": "be",
        "1352": "Ġfun",
        "1353": "Ġmain",
        "1354": "ajor",
        "1355": "__",
        "1356": "Ġeffect",
        "1357": "inal",
        "1358": "leg",
        "1359": "Ġprev",
        "1360": "Ġprogram",
        "1361": "Ġusing",
        "1362": "Ġtest",
        "1363": "to",
        "1364": "rem",
        "1365": "Ġpay",
        "1366": "ature",
        "1367": "Ġear",
        "1368": "Ġval",
        "1369": "Ġpolice",
        "1370": "Ġwrit",
        "1371": "Ġform",
        "1372": "Ġeconom",
        "1373": "Ġdata",
        "1374": "Ġnews",
        "1375": "Ġpos",
        "1376": "Ġwin",
        "1377": "Ġchar",
        "1378": "ĠAmerican",
        "1379": "Ġlevel",
        "1380": "Ġsit",
        "1381": "ains",
        "1382": "iving",
        "1383": "uck",
        "1384": "Ġsmall",
        "1385": "ined",
        "1386": "ready",
        "1387": "He",
        "1388": "Ġschool",
        "1389": "Ġlist",
        "1390": "ology",
        "1391": "rap",
        "1392": "ided",
        "1393": "mit",
        "1394": "ploy",
        "1395": "'re",
        "1396": "ger",
        "1397": "Ġeas",
        "1398": "Ġprocess",
        "1399": "ird",
        "1400": "Ġchange",
        "1401": "orth",
        "1402": "Ġwomen",
        "1403": "Ġcurrent",
        "1404": "Ġrece",
        "1405": "Ġprom",
        "1406": "Ġhist",
        "1407": "Ġdri",
        "1408": "Ġ=",
        "1409": "reen",
        "1410": "Ġpresident",
        "1411": "Ġcompany",
        "1412": "used",
        "1413": "Ġmat",
        "1414": "ruct",
        "1415": "Ġalready",
        "1416": "ohn",
        "1417": "ĠUnited",
        "1418": "wit",
        "1419": "Ġty",
        "1420": "Ġwhy",
        "1421": "Ġbre",
        "1422": "Ġunt",
        "1423": "Ġmoney",
        "1424": "Ġsol",
        "1425": "Ġalways",
        "1426": "Ġlater",
        "1427": "Ġexpect",
        "1428": "Ġtechn",
        "1429": "Ġbusiness",
        "1430": "ĠHow",
        "1431": "Ġofficial",
        "1432": "ron",
        "1433": "ĠQ",
        "1434": "ĠOb",
        "1435": "stand",
        "1436": "iversity",
        "1437": "Ġbook",
        "1438": "Ġbo",
        "1439": "ĠPh",
        "1440": "aign",
        "1441": "Ġthing",
        "1442": "Ġclass",
        "1443": "Ġproject",
        "1444": "ases",
        "1445": "Ġclaim",
        "1446": "Ġjob",
        "1447": "Ġinformation",
        "1448": "Ġorgan",
        "1449": "aff",
        "1450": "ĠShe",
        "1451": "Ġtalk",
        "1452": "ards",
        "1453": "ĠBe",
        "1454": "Ġdesign",
        "1455": "Ġstory",
        "1456": "Ġchang",
        "1457": "Ġmajor",
        "1458": "Ġable",
        "1459": "Ġprof",
        "1460": "Ġ--",
        "1461": "lection",
        "1462": "iven",
        "1463": "ertain",
        "1464": "Ġrese",
        "1465": "Ġhealth",
        "1466": "Ġvis",
        "1467": "urs",
        "1468": "Ġfree",
        "1469": "outh",
        "1470": "here",
        "1471": "ĠAd",
        "1472": "Ġoper",
        "1473": "ĠSo",
        "1474": "Ġaway",
        "1475": "ior",
        "1476": "ĠCan",
        "1477": "Ġmust",
        "1478": "Ġcity",
        "1479": "ample",
        "1480": "ians",
        "1481": "rist",
        "1482": "sc",
        "1483": "ural",
        "1484": "Ġhappen",
        "1485": "uthor",
        "1486": "Ġ18",
        "1487": "acy",
        "1488": "urity",
        "1489": "Ġimportant",
        "1490": "Ġkill",
        "1491": "Ġsk",
        "1492": "ption",
        "1493": "Ġest",
        "1494": "ured",
        "1495": "Ġold",
        "1496": "Ġpast",
        "1497": "Ġpat",
        "1498": "ĠSe",
        "1499": "ury",
        "1500": "ending",
        "1501": "Ġdoesn",
        "1502": "ission",
        "1503": "Ġleast",
        "1504": "---",
        "1505": "Ġgrow",
        "1506": "Ġedit",
        "1507": "Ġvar",
        "1508": "ained",
        "1509": "Ġcost",
        "1510": "ney",
        "1511": "ider",
        "1512": "ĠGo",
        "1513": "ides",
        "1514": "Ġdays",
        "1515": "Ġtell",
        "1516": "Ġhop",
        "1517": "Ġcampaign",
        "1518": "side",
        "1519": "Ġstre",
        "1520": "Ġ12",
        "1521": "Ġmen",
        "1522": "Ġcame",
        "1523": "Ġaff",
        "1524": "ĠMar",
        "1525": "Ġconst",
        "1526": "resident",
        "1527": "Ġenough",
        "1528": "Ġview",
        "1529": "ccess",
        "1530": "Ġkind",
        "1531": "ĠSp",
        "1532": "oad",
        "1533": "ern",
        "1534": "Ġmaking",
        "1535": "els",
        "1536": "Ġlarge",
        "1537": "Ġrecord",
        "1538": "50",
        "1539": "ush",
        "1540": "Ġmar",
        "1541": "Ġfriend",
        "1542": "Ġfamily",
        "1543": "âĢ¦",
        "1544": "ley",
        "1545": "Ġelect",
        "1546": "ded",
        "1547": "eral",
        "1548": "Ġpolic",
        "1549": "Ġtax",
        "1550": "ising",
        "1551": "ror",
        "1552": "by",
        "1553": "pped",
        "1554": "ality",
        "1555": "ator",
        "1556": "ified",
        "1557": "As",
        "1558": "ived",
        "1559": "Ġuntil",
        "1560": "arent",
        "1561": "ional",
        "1562": "Ġpolitical",
        "1563": "Ġvide",
        "1564": "Ġdeal",
        "1565": "ries",
        "1566": "alf",
        "1567": "augh",
        "1568": "Ġve",
        "1569": "Ġworking",
        "1570": "ued",
        "1571": "ĠRepublic",
        "1572": "Ġtook",
        "1573": "Ġdeb",
        "1574": "bs",
        "1575": "If",
        "1576": "ister",
        "1577": "Ġline",
        "1578": "ĠJohn",
        "1579": "aining",
        "1580": "Ġair",
        "1581": "---",
        "1582": "Ġes",
        "1583": "ane",
        "1584": "Ġintern",
        "1585": "Ġfore",
        "1586": "iol",
        "1587": "ocrat",
        "1588": "Ġbecome",
        "1589": "Ġactually",
        "1590": "aps",
        "1591": "ony",
        "1592": "Ġmean",
        "1593": "work",
        "1594": "ĠSc",
        "1595": "Ġfund",
        "1596": "ware",
        "1597": "19",
        "1598": "ĠPl",
        "1599": "St",
        "1600": "Ġformer",
        "1601": "Ġoften",
        "1602": "ĠEuro",
        "1603": "ott",
        "1604": "Ġwon",
        "1605": "ann",
        "1606": "Ġgive",
        "1607": "Ġaccording",
        "1608": "Ġever",
        "1609": "most",
        "1610": "eng",
        "1611": "year",
        "1612": "Ġprote",
        "1613": "wh",
        "1614": "aring",
        "1615": "Ġgames",
        "1616": "ison",
        "1617": "Ġhuman",
        "1618": "Ġbas",
        "1619": "ization",
        "1620": "Ġreturn",
        "1621": "Ġtimes",
        "1622": "Ġorder",
        "1623": "ĠRuss",
        "1624": "Ġword",
        "1625": "Ġbit",
        "1626": "ĠDem",
        "1627": "Ġname",
        "1628": "oint",
        "1629": "11",
        "1630": "Ġsever",
        "1631": "ĠCon",
        "1632": "ĠAll",
        "1633": "Ġpar",
        "1634": "Ġdev",
        "1635": "icle",
        "1636": "for",
        "1637": "uture",
        "1638": "ither",
        "1639": "Ġ199",
        "1640": "ĠMc",
        "1641": "ĠAt",
        "1642": "Ġwr",
        "1643": "raft",
        "1644": "Ġsing",
        "1645": "Ġperform",
        "1646": "ĠSy",
        "1647": "Ġmarket",
        "1648": "Ġfac",
        "1649": "Ġcharac",
        "1650": "There",
        "1651": "iqu",
        "1652": "ĠOr",
        "1653": "ene",
        "1654": "idd",
        "1655": "ĠMay",
        "1656": "Ġra",
        "1657": "Ġdoing",
        "1658": "Ġappear",
        "1659": "ER",
        "1660": "ched",
        "1661": "Ġplayers",
        "1662": "Ġla",
        "1663": "Ġnight",
        "1664": "Ġlear",
        "1665": "aken",
        "1666": "rop",
        "1667": "ats",
        "1668": "mber",
        "1669": "Ġtoday",
        "1670": "Ġearly",
        "1671": "Ġ15",
        "1672": "Ġseen",
        "1673": "//",
        "1674": "Ġhaving",
        "1675": "Ġ,",
        "1676": "Ġpot",
        "1677": "Ġchildren",
        "1678": "Ġevent",
        "1679": "Ġmedia",
        "1680": "Ġsocial",
        "1681": "Ġcrit",
        "1682": "ĠPresident",
        "1683": "Ġwhether",
        "1684": "Ġseveral",
        "1685": "Ġcontrol",
        "1686": "idence",
        "1687": "Ġmeet",
        "1688": "sh",
        "1689": "Ġmilit",
        "1690": "Ġpress",
        "1691": "Ġwent",
        "1692": "artment",
        "1693": "Ġfive",
        "1694": "Ġyoung",
        "1695": "ories",
        "1696": "Ġprop",
        "1697": "iously",
        "1698": "Ġsure",
        "1699": "Ġequ",
        "1700": "Ġbeg",
        "1701": "Ġquestion",
        "1702": "Ġocc",
        "1703": "une",
        "1704": "Ġlikely",
        "1705": "vert",
        "1706": "Ġmembers",
        "1707": "br",
        "1708": "Ġcertain",
        "1709": "ands",
        "1710": "Ġeng",
        "1711": "Ġwater",
        "1712": "ĠYork",
        "1713": "Ġexample",
        "1714": "ots",
        "1715": "ĠCol",
        "1716": "Ġarg",
        "1717": "Ġside",
        "1718": "Ġdone",
        "1719": "Ġvers",
        "1720": "enn",
        "1721": "Ġant",
        "1722": "Ġinvol",
        "1723": "ee",
        "1724": "ĠMr",
        "1725": "ĠStates",
        "1726": "ĠEurope",
        "1727": "ended",
        "1728": "let",
        "1729": "Ġalong",
        "1730": "Ġshort",
        "1731": "Ġsuccess",
        "1732": "ential",
        "1733": "Ġmonths",
        "1734": "ball",
        "1735": "Ġhour",
        "1736": "Ġ11",
        "1737": "ium",
        "1738": "ĠSte",
        "1739": "iver",
        "1740": "ially",
        "1741": "And",
        "1742": "Ġsex",
        "1743": "lf",
        "1744": "Ġwithin",
        "1745": "Ġdesc",
        "1746": "imate",
        "1747": "Ġcourse",
        "1748": "Ġfight",
        "1749": "urch",
        "1750": "ubl",
        "1751": "Ġamong",
        "1752": "Ġactiv",
        "1753": "uff",
        "1754": "âĢĵ",
        "1755": "ague",
        "1756": "Ġonce",
        "1757": "ster",
        "1758": "Ġfuture",
        "1759": "Ġinvestig",
        "1760": "ulation",
        "1761": "rew",
        "1762": "Ġpossible",
        "1763": "ĠObama",
        "1764": "Ġcho",
        "1765": "nect",
        "1766": "ĠCar",
        "1767": "Ġunderstand",
        "1768": "iting",
        "1769": "Ġconcer",
        "1770": "ĠOn",
        "1771": "Ġ]",
        "1772": "ones",
        "1773": "ortun",
        "1774": "Ġproblem",
        "1775": "ĠBr",
        "1776": "Ġpriv",
        "1777": "Ġmeans",
        "1778": "Ġviol",
        "1779": "Ġauthor",
        "1780": "itive",
        "1781": "ggest",
        "1782": "ĠNo",
        "1783": "Ġavail",
        "1784": "oci",
        "1785": "ourn",
        "1786": "my",
        "1787": "Ġknown",
        "1788": "Ġproduct",
        "1789": "Ġnon",
        "1790": "ivid",
        "1791": "Ġthought",
        "1792": "Ġyet",
        "1793": "gress",
        "1794": "Ġacross",
        "1795": "Ġlocal",
        "1796": "ler",
        "1797": "Ġhold",
        "1798": "ĠTe",
        "1799": "Ġfail",
        "1800": "inc",
        "1801": "ĠWhen",
        "1802": "ĠState",
        "1803": "Ġcommunity",
        "1804": "Ġreason",
        "1805": "Ġorig",
        "1806": "ede",
        "1807": "Ġsuggest",
        "1808": "Ġ&",
        "1809": "12",
        "1810": "Ġmakes",
        "1811": "verage",
        "1812": "por",
        "1813": "ald",
        "1814": "not",
        "1815": "back",
        "1816": "Ġ2016",
        "1817": "Ġi",
        "1818": "book",
        "1819": "Ġasked",
        "1820": "ederal",
        "1821": "orld",
        "1822": "Ġreported",
        "1823": "You",
        "1824": "aged",
        "1825": "ensive",
        "1826": "Ġgiven",
        "1827": "Ġstrong",
        "1828": "Ġprob",
        "1829": "Ġmus",
        "1830": "Ġothers",
        "1831": "Ġbelieve",
        "1832": "Ġvideo",
        "1833": "iber",
        "1834": "Ġben",
        "1835": "Ġgetting",
        "1836": "ĠHouse",
        "1837": "ances",
        "1838": "Ġannoun",
        "1839": "Ġlight",
        "1840": "ging",
        "1841": "ored",
        "1842": "ober",
        "1843": "ĠUniversity",
        "1844": "Ġ30",
        "1845": "itions",
        "1846": "Ġident",
        "1847": "iron",
        "1848": "Ġsent",
        "1849": "Ġcut",
        "1850": "Ġlim",
        "1851": "Ġca",
        "1852": "ĠChrist",
        "1853": "ĠCo",
        "1854": "iety",
        "1855": "30",
        "1856": "urther",
        "1857": "Ġsour",
        "1858": "Ġcreat",
        "1859": "Ġcond",
        "1860": "ĠX",
        "1861": "ams",
        "1862": "'ve",
        "1863": "Ġnet",
        "1864": "ashing",
        "1865": "Ġbat",
        "1866": "ament",
        "1867": "Ġnational",
        "1868": ".,",
        "1869": "Ġclose",
        "1870": "arm",
        "1871": "Ġstarted",
        "1872": "Ġsaf",
        "1873": "Ġdeath",
        "1874": "aster",
        "1875": "Ġavailable",
        "1876": "For",
        "1877": "Ġhig",
        "1878": "Ġbased",
        "1879": "Ġissue",
        "1880": "Ġindust",
        "1881": "ĠDemocrat",
        "1882": "Ġlow",
        "1883": "Ġfollowing",
        "1884": "resent",
        "1885": "Ġaccount",
        "1886": "Ġland",
        "1887": "use",
        "1888": "ĠCent",
        "1889": "Ġemploy",
        "1890": "Ġlove",
        "1891": "Ġ2015",
        "1892": "Ġ#",
        "1893": "Ġhistory",
        "1894": "Ġago",
        "1895": "orts",
        "1896": "selves",
        "1897": "Ġmom",
        "1898": "ana",
        "1899": "Ġparty",
        "1900": "ĠAm",
        "1901": "ability",
        "1902": "Ġseries",
        "1903": "Ġcomes",
        "1904": "Ġtrying",
        "1905": "uly",
        "1906": "utes",
        "1907": "Ġalmost",
        "1908": "gether",
        "1909": "ument",
        "1910": "Ġtogether",
        "1911": "ination",
        "1912": "AT",
        "1913": "ĠAmerica",
        "1914": "Ġidea",
        "1915": "pro",
        "1916": "ief",
        "1917": "Ġaccess",
        "1918": "Ġfoc",
        "1919": "eb",
        "1920": "hers",
        "1921": "ilar",
        "1922": "ĠFl",
        "1923": "reed",
        "1924": "ails",
        "1925": "Ġcommit",
        "1926": "itional",
        "1927": "Ġisn",
        "1928": "ĠSen",
        "1929": "Ġclear",
        "1930": "Ġ16",
        "1931": "ĠOne",
        "1932": "Ġtrad",
        "1933": "ĠMin",
        "1934": "though",
        "1935": "ring",
        "1936": "ĠWhat",
        "1937": "Ġpract",
        "1938": "Ġadded",
        "1939": "Ġimpro",
        "1940": "Ġexperience",
        "1941": "erence",
        "1942": "Ġfilm",
        "1943": "15",
        "1944": "Ġhalf",
        "1945": "ustom",
        "1946": "ged",
        "1947": "Ġhit",
        "1948": "ĠBro",
        "1949": "witter",
        "1950": "rict",
        "1951": "Ġanal",
        "1952": "Ġprot",
        "1953": "inton",
        "1954": "ograp",
        "1955": "unch",
        "1956": "Ġ2014",
        "1957": "Ġrul",
        "1958": "ividual",
        "1959": "Ġlooking",
        "1960": "Ġsix",
        "1961": "Ġlive",
        "1962": "Ġanything",
        "1963": "Ġarea",
        "1964": "Ġcomplete",
        "1965": "erman",
        "1966": "minist",
        "1967": "Ġmiss",
        "1968": "rael",
        "1969": "ĠComm",
        "1970": "Ġfav",
        "1971": "ĠEx",
        "1972": "tempt",
        "1973": "Ġris",
        "1974": "nes",
        "1975": "Ġpresent",
        "1976": "ai",
        "1977": "ote",
        "1978": "rug",
        "1979": "Ġsaying",
        "1980": "raw",
        "1981": "aid",
        "1982": "ĠCanad",
        "1983": "Ġvict",
        "1984": "IN",
        "1985": "cially",
        "1986": "Ġbad",
        "1987": "ows",
        "1988": "uge",
        "1989": "Ġtaken",
        "1990": "oto",
        "1991": "Ġentire",
        "1992": "ĠPr",
        "1993": "ators",
        "1994": "Ġmor",
        "1995": "Ġbill",
        "1996": "af",
        "1997": "Ġcompet",
        "1998": "ĠEng",
        "1999": "Ġbehind",
        "2000": "ien",
        "2001": "Ġaut",
        "2002": "'m",
        "2003": "ĠTo",
        "2004": "Ġcourt",
        "2005": "play",
        "2006": "Ġtry",
        "2007": "wards",
        "2008": "Ġmilitary",
        "2009": "Ġz",
        "2010": "Ġnear",
        "2011": "osp",
        "2012": "What",
        "2013": "Ġface",
        "2014": "Ġmult",
        "2015": "Ġer",
        "2016": "Ġ14",
        "2017": "Ġsecurity",
        "2018": "ĠPol",
        "2019": "ps",
        "2020": "Ġproper",
        "2021": "Ġdiscuss",
        "2022": "Ġthreat",
        "2023": "ev",
        "2024": "Ġstudy",
        "2025": "Ġsingle",
        "2026": "Ġrather",
        "2027": "Ġindividual",
        "2028": "ert",
        "2029": "ĠAf",
        "2030": "ĠWar",
        "2031": "ĠBrit",
        "2032": "Ġsw",
        "2033": "ĠÂ",
        "2034": "Ġquick",
        "2035": "Ġtot",
        "2036": "ĠDon",
        "2037": "An",
        "2038": "Ġmind",
        "2039": "ĠSec",
        "2040": "lement",
        "2041": "ales",
        "2042": "atic",
        "2043": "ĠNorth",
        "2044": "amed",
        "2045": "aper",
        "2046": "Ġpubl",
        "2047": "par",
        "2048": "Ġpolicy",
        "2049": "Ġmess",
        "2050": "ris",
        "2051": "Ġblack",
        "2052": "Ġwanted",
        "2053": "Ġfall",
        "2054": "irc",
        "2055": "**",
        "2056": "off",
        "2057": "Ġfood",
        "2058": "Ġsum",
        "2059": "Ġsomeone",
        "2060": "lling",
        "2061": "ids",
        "2062": "On",
        "2063": "ĠDep",
        "2064": "Ġ/",
        "2065": "Ġcult",
        "2066": "Ġspecial",
        "2067": "Ġcomb",
        "2068": "Ġkey",
        "2069": "Ġplayer",
        "2070": "Ġredu",
        "2071": "Ġ|",
        "2072": "ĠGr",
        "2073": "Ġbring",
        "2074": "Ġ13",
        "2075": "Ġcompan",
        "2076": "Ġ17",
        "2077": "ply",
        "2078": "rote",
        "2079": "Ġattempt",
        "2080": "ĠBar",
        "2081": "ĠNational",
        "2082": "Ġtaking",
        "2083": "When",
        "2084": "yn",
        "2085": "ON",
        "2086": "ify",
        "2087": "olution",
        "2088": "Ġ:",
        "2089": "viron",
        "2090": "Ġfoot",
        "2091": "ĠCal",
        "2092": "://",
        "2093": "Ġelse",
        "2094": "Ġpret",
        "2095": "Ġbody",
        "2096": "Ġspace",
        "2097": "over",
        "2098": "Ġcoun",
        "2099": "elt",
        "2100": "Ġprobably",
        "2101": "16",
        "2102": "icult",
        "2103": ".)",
        "2104": "Ġfront",
        "2105": "Ġcou",
        "2106": "Ġnothing",
        "2107": "ĠIm",
        "2108": "ashington",
        "2109": "Ġconnect",
        "2110": "ches",
        "2111": "ĠWorld",
        "2112": "Ġresearch",
        "2113": "14",
        "2114": "ĠClinton",
        "2115": "ĠCity",
        "2116": "ming",
        "2117": "Ġcoming",
        "2118": "Ġpoints",
        "2119": "ĠIsrael",
        "2120": "Ġhowever",
        "2121": "RE",
        "2122": "Ġdescrib",
        "2123": "Ġjo",
        "2124": "go",
        "2125": "Ġsignific",
        "2126": "Ġsimilar",
        "2127": "lier",
        "2128": "ĠMan",
        "2129": "reme",
        "2130": "cing",
        "2131": "Ġbenef",
        "2132": "ĠAust",
        "2133": "Ġimm",
        "2134": "Ġdecision",
        "2135": "Ġeither",
        "2136": "aces",
        "2137": "Ad",
        "2138": "ĠHar",
        "2139": "ault",
        "2140": "Ġmass",
        "2141": "Ġsus",
        "2142": "Ġtarg",
        "2143": "ully",
        "2144": "sy",
        "2145": "Ġfeat",
        "2146": "That",
        "2147": "Ġconv",
        "2148": "Ġexist",
        "2149": "irl",
        "2150": "Ġenc",
        "2151": "Ġ2013",
        "2152": "Ġrights",
        "2153": "Ġservice",
        "2154": "ĠSu",
        "2155": "asing",
        "2156": "IS",
        "2157": "oon",
        "2158": "Ġfire",
        "2159": "Ġdoc",
        "2160": "Ġwrote",
        "2161": "Ġfurther",
        "2162": "Ġhouse",
        "2163": "rodu",
        "2164": "Ġban",
        "2165": "ww",
        "2166": "Ġfig",
        "2167": "Ġchall",
        "2168": "Ġthird",
        "2169": "mb",
        "2170": "Ġprotect",
        "2171": "Ġwa",
        "2172": "Ġcreate",
        "2173": "sw",
        "2174": "Ġstop",
        "2175": "Ġfield",
        "2176": "Ġpick",
        "2177": "now",
        "2178": "AN",
        "2179": "ape",
        "2180": "ively",
        "2181": "Ġmeas",
        "2182": "Ġrepl",
        "2183": "Ġcompl",
        "2184": "ung",
        "2185": "ĠWith",
        "2186": "Ġissues",
        "2187": "pping",
        "2188": "Ġbegin",
        "2189": "Ġsuper",
        "2190": "amer",
        "2191": "Ġstep",
        "2192": "ried",
        "2193": "ently",
        "2194": "Ġwhole",
        "2195": "Ġrelations",
        "2196": "Ġseems",
        "2197": "Ġ)",
        "2198": "Ġtem",
        "2199": "Ġcompanies",
        "2200": "pecially",
        "2201": "Ġdue",
        "2202": "Ġexec",
        "2203": "Ġcand",
        "2204": "Ġeverything",
        "2205": "eal",
        "2206": "Ġfederal",
        "2207": "ĠEd",
        "2208": "Ġstates",
        "2209": "ĠGu",
        "2210": "Ġey",
        "2211": "Ġroom",
        "2212": "aul",
        "2213": "Ġtra",
        "2214": "Ġwatch",
        "2215": "Ġcustom",
        "2216": "ĠGe",
        "2217": "Ġleaders",
        "2218": "13",
        "2219": "ran",
        "2220": "uation",
        "2221": "ĠHowever",
        "2222": "pite",
        "2223": "ĠJan",
        "2224": "ĠWashington",
        "2225": "Ch",
        "2226": "lam",
        "2227": "Ġself",
        "2228": "Ġrole",
        "2229": "ilt",
        "2230": "Ġsound",
        "2231": "Ġlab",
        "2232": "head",
        "2233": "Ġdam",
        "2234": "ivil",
        "2235": "Ġofficials",
        "2236": "Ġstri",
        "2237": "So",
        "2238": "Ġ2012",
        "2239": "Ġtre",
        "2240": "iday",
        "2241": "lu",
        "2242": "ibility",
        "2243": "Ġreleased",
        "2244": "ĠInst",
        "2245": "Ġbegan",
        "2246": "ĠDav",
        "2247": "ĠApp",
        "2248": "ĠSouth",
        "2249": "Ġopt",
        "2250": "obal",
        "2251": "Ġstudents",
        "2252": "Ġtreat",
        "2253": "Ġfinal",
        "2254": "Ġcharacter",
        "2255": "Ġposition",
        "2256": "Ġmatter",
        "2257": "Ã©",
        "2258": "ender",
        "2259": "Ġener",
        "2260": "lim",
        "2261": "Ġoutside",
        "2262": "Ġdou",
        "2263": "ery",
        "2264": "sec",
        "2265": "ades",
        "2266": "vironment",
        "2267": "Ġdevelopment",
        "2268": "Ġstatement",
        "2269": "Ġhimself",
        "2270": "Ġ2017",
        "2271": "Ġstat",
        "2272": "Ġabove",
        "2273": "like",
        "2274": "Ġinit",
        "2275": "Ġbreak",
        "2276": "Ġ100",
        "2277": "Ġamount",
        "2278": "Ġprovide",
        "2279": "att",
        "2280": "Ġhours",
        "2281": "Ġitself",
        "2282": "Ġthemselves",
        "2283": "Ġoffice",
        "2284": "Ġrepresent",
        "2285": "Ġaction",
        "2286": "Ġdi",
        "2287": "Ġbecame",
        "2288": "Ġ198",
        "2289": "Ġgeneral",
        "2290": "Ġcontinue",
        "2291": "ĠPart",
        "2292": "Ġcountries",
        "2293": "ĠIntern",
        "2294": "Ġneg",
        "2295": "Ġaddress",
        "2296": "iod",
        "2297": "tee",
        "2298": "Ġ25",
        "2299": "Ġgun",
        "2300": "aced",
        "2301": "ask",
        "2302": "Ġtrue",
        "2303": "Ġspecific",
        "2304": "ograph",
        "2305": "umb",
        "2306": "arter",
        "2307": "reg",
        "2308": "Ġlarg",
        "2309": "Ġsignificant",
        "2310": "lish",
        "2311": "Ġsimply",
        "2312": "ĠAss",
        "2313": "ĠRes",
        "2314": "Ġwasn",
        "2315": "'ll",
        "2316": "ili",
        "2317": "Ġinterview",
        "2318": "acebook",
        "2319": "Ġground",
        "2320": "Ġrad",
        "2321": "oid",
        "2322": "ogn",
        "2323": "Ġdifficult",
        "2324": "Ġrunning",
        "2325": "ĠJust",
        "2326": "Ġevidence",
        "2327": "Ġadminist",
        "2328": "BC",
        "2329": "Ġcop",
        "2330": "17",
        "2331": "ream",
        "2332": "Ġdrug",
        "2333": "Ġversion",
        "2334": "Ġbar",
        "2335": "ogle",
        "2336": "Ġagree",
        "2337": "iddle",
        "2338": "eks",
        "2339": "Ġbuilding",
        "2340": "ĠChina",
        "2341": "Ġneeds",
        "2342": "Ġprofess",
        "2343": "angu",
        "2344": "Ġgroups",
        "2345": "Ġtyp",
        "2346": "Ġrespons",
        "2347": "Ġcommon",
        "2348": "Ġshows",
        "2349": "Ġeveryone",
        "2350": "Ġdom",
        "2351": "Ġdest",
        "2352": "Ġred",
        "2353": "Ġneeded",
        "2354": "Ġball",
        "2355": "Ġwoman",
        "2356": "___",
        "2357": "ĠGerman",
        "2358": "Ġlat",
        "2359": "Ġbelow",
        "2360": "right",
        "2361": "ĠSep",
        "2362": "light",
        "2363": "ournal",
        "2364": "Ġmusic",
        "2365": "Ġexc",
        "2366": "Ġrelease",
        "2367": "ift",
        "2368": "Ġinj",
        "2369": "Ġpretty",
        "2370": "ĠAb",
        "2371": "AR",
        "2372": "ribut",
        "2373": "ĠMed",
        "2374": "Ġinclude",
        "2375": "Ġsaw",
        "2376": "Ġdeep",
        "2377": "body",
        "2378": "Ġap",
        "2379": "18",
        "2380": "Ġplayed",
        "2381": "Ġquite",
        "2382": "Ġindustry",
        "2383": "Ġcharg",
        "2384": "Ġmag",
        "2385": "Ġenergy",
        "2386": "Ġplaying",
        "2387": "Ġmot",
        "2388": "Ġ50",
        "2389": "Ġcandid",
        "2390": "Ġsense",
        "2391": "Ġphys",
        "2392": "Ġlate",
        "2393": "Ġalleg",
        "2394": "Ġwhite",
        "2395": "ĠHis",
        "2396": "ival",
        "2397": "Ġfriends",
        "2398": "Ġgen",
        "2399": "Ġlegal",
        "2400": "atur",
        "2401": "bo",
        "2402": "Ġanim",
        "2403": "isc",
        "2404": "yle",
        "2405": "ĠAfter",
        "2406": "omm",
        "2407": "How",
        "2408": "AS",
        "2409": "where",
        "2410": "Ġabs",
        "2411": "lev",
        "2412": "Ġinstead",
        "2413": "Ġbillion",
        "2414": "Ġlost",
        "2415": "Ġespecially",
        "2416": "Ġvalue",
        "2417": "ĠMus",
        "2418": "ĠWest",
        "2419": "Ġhost",
        "2420": "time",
        "2421": "osing",
        "2422": "oring",
        "2423": "Ġhom",
        "2424": "ĠNews",
        "2425": "ager",
        "2426": "Ġple",
        "2427": "istic",
        "2428": "Ġweeks",
        "2429": "eg",
        "2430": "epend",
        "2431": "ĠNot",
        "2432": "ccording",
        "2433": "Ġforward",
        "2434": "Ġdeter",
        "2435": "Ġelection",
        "2436": "Ġrecently",
        "2437": "Ġjud",
        "2438": "Ġtrack",
        "2439": "Ġsuff",
        "2440": "Ġvote",
        "2441": "lt",
        "2442": "ĠTwitter",
        "2443": "Ġobject",
        "2444": "medi",
        "2445": "Ġperiod",
        "2446": "Ġchanges",
        "2447": "Ġopportun",
        "2448": "ĠWhite",
        "2449": "ĠOct",
        "2450": "Ġlonger",
        "2451": "irt",
        "2452": "arc",
        "2453": "oke",
        "2454": "Ġpain",
        "2455": "ique",
        "2456": "Ġsoon",
        "2457": "Ġsite",
        "2458": "Ġ{",
        "2459": "Ġep",
        "2460": "hod",
        "2461": "ript",
        "2462": "ached",
        "2463": "Ġaccept",
        "2464": "ĠCong",
        "2465": "___",
        "2466": "irm",
        "2467": "Ġshoot",
        "2468": "Ġeconomic",
        "2469": "Ġhope",
        "2470": "Ġmoment",
        "2471": "Ġdecl",
        "2472": "lege",
        "2473": "Ġconsum",
        "2474": "ĠWill",
        "2475": "Ġpie",
        "2476": "Ġtit",
        "2477": "Ġcheck",
        "2478": "oph",
        "2479": "oe",
        "2480": "Ġpotential",
        "2481": "Ġblock",
        "2482": "ĠMarch",
        "2483": "ole",
        "2484": "Ġwrong",
        "2485": "duct",
        "2486": "ners",
        "2487": "ij",
        "2488": "den",
        "2489": "ĠDepartment",
        "2490": "Ġhigher",
        "2491": "onse",
        "2492": "Ġcred",
        "2493": "Ġonline",
        "2494": "Ġfocus",
        "2495": "Ġ24",
        "2496": "Ġconsider",
        "2497": "key",
        "2498": "Ġeduc",
        "2499": "ancial",
        "2500": "ĠMy",
        "2501": "ns",
        "2502": "iding",
        "2503": "Ġcirc",
        "2504": "Ġworks",
        "2505": "Ġrelig",
        "2506": "Ġshare",
        "2507": "Ġparent",
        "2508": "cial",
        "2509": "Ġheld",
        "2510": "25",
        "2511": "Ġpred",
        "2512": "ĠDr",
        "2513": "Ġwalk",
        "2514": "Ġwebs",
        "2515": "Ġlo",
        "2516": "ularly",
        "2517": "==",
        "2518": "Ġreve",
        "2519": "Ġled",
        "2520": "lear",
        "2521": "Ġstay",
        "2522": "ĠThese",
        "2523": "overed",
        "2524": "Ġstru",
        "2525": "Ġgoal",
        "2526": "ĠRepublican",
        "2527": "Ġrisk",
        "2528": "Ġwords",
        "2529": "ĠAug",
        "2530": "Ġrev",
        "2531": "Ġsold",
        "2532": "Ġreview",
        "2533": "icro",
        "2534": "Ġcontract",
        "2535": "Ġresults",
        "2536": "Ġservices",
        "2537": "Ġlaws",
        "2538": "They",
        "2539": "Ġcode",
        "2540": "cil",
        "2541": "ĠMich",
        "2542": "Ġwind",
        "2543": "Ġfunction",
        "2544": "Ġaud",
        "2545": "ĠSyri",
        "2546": "put",
        "2547": "Ġce",
        "2548": "Ġtotal",
        "2549": "aut",
        "2550": "fect",
        "2551": "Ġarticle",
        "2552": "Ġage",
        "2553": "Ġapplic",
        "2554": "Ġminutes",
        "2555": "Ġpersonal",
        "2556": "ilities",
        "2557": "Ġanyone",
        "2558": "uary",
        "2559": "ients",
        "2560": "itution",
        "2561": "ĠJune",
        "2562": "asons",
        "2563": "ateg",
        "2564": "Ġprim",
        "2565": "anger",
        "2566": "Ġtarget",
        "2567": "Ġden",
        "2568": "Ġearlier",
        "2569": "ule",
        "2570": "Ġfavor",
        "2571": "Ġexpress",
        "2572": "haps",
        "2573": "fer",
        "2574": "Ġdead",
        "2575": "Ġansw",
        "2576": "che",
        "2577": "Ġupd",
        "2578": "Ġpopular",
        "2579": "Ġcomput",
        "2580": "Ġvol",
        "2581": "pril",
        "2582": "Ġnecess",
        "2583": "ham",
        "2584": "Ġhy",
        "2585": "Ġrate",
        "2586": "ES",
        "2587": "aging",
        "2588": "Ġtechnology",
        "2589": "apan",
        "2590": "Ġrespect",
        "2591": "val",
        "2592": "Ġenvironment",
        "2593": "Ġ2011",
        "2594": "Ph",
        "2595": "Ġreceived",
        "2596": "Ġexpected",
        "2597": "ember",
        "2598": "ĠSm",
        "2599": "ĠPar",
        "2600": "ends",
        "2601": "ude",
        "2602": "Ġbase",
        "2603": "Ġcreated",
        "2604": "Ġsurpr",
        "2605": "Ġanti",
        "2606": "ech",
        "2607": "ĠJuly",
        "2608": "alt",
        "2609": "eter",
        "2610": "Ġproblems",
        "2611": "uel",
        "2612": "Ġways",
        "2613": "iple",
        "2614": "Ġport",
        "2615": "action",
        "2616": "Ġprivate",
        "2617": "ĠDo",
        "2618": "Ġscient",
        "2619": "Ġincrease",
        "2620": "ray",
        "2621": "reet",
        "2622": "Ġannounced",
        "2623": "Ġcomment",
        "2624": "isl",
        "2625": "Ġcannot",
        "2626": "Ġeasy",
        "2627": "Al",
        "2628": "Ġshot",
        "2629": "ĠCongress",
        "2630": "Ġquestions",
        "2631": "ĠEn",
        "2632": "bit",
        "2633": "Ġforce",
        "2634": "aterial",
        "2635": "ĠPe",
        "2636": "Ġimpact",
        "2637": "hern",
        "2638": "Ġet",
        "2639": "ĠMond",
        "2640": "ples",
        "2641": "Ġpack",
        "2642": "Ġ+",
        "2643": "Ġpur",
        "2644": "ĠFacebook",
        "2645": "Ġlangu",
        "2646": "atives",
        "2647": "ĠGod",
        "2648": "ctor",
        "2649": "Ġinvolved",
        "2650": "omb",
        "2651": "aving",
        "2652": "ills",
        "2653": "60",
        "2654": "lex",
        "2655": "hood",
        "2656": "onst",
        "2657": "ĠAustral",
        "2658": "Ġdiv",
        "2659": "uesday",
        "2660": "Ġexecut",
        "2661": "Ġmodel",
        "2662": "itiz",
        "2663": "Ġsen",
        "2664": "Ġspeak",
        "2665": "Ġstaff",
        "2666": "Ġexact",
        "2667": "Ġcivil",
        "2668": "ires",
        "2669": "Ġnearly",
        "2670": "Ġtype",
        "2671": "ourt",
        "2672": "okes",
        "2673": "Ġoriginal",
        "2674": "Ġcases",
        "2675": "Ġcontent",
        "2676": "Ġ197",
        "2677": "Ġrelationship",
        "2678": "Ġterror",
        "2679": "ĠGoogle",
        "2680": "To",
        "2681": "Ġleave",
        "2682": "ĠFriday",
        "2683": "Ġresponse",
        "2684": "Ġcapt",
        "2685": "Ġinside",
        "2686": "Ġ<",
        "2687": "Ġphot",
        "2688": "At",
        "2689": "lled",
        "2690": "Ġfans",
        "2691": "llig",
        "2692": "ĠApril",
        "2693": "Ġinternational",
        "2694": "Ġcoll",
        "2695": "Ġheart",
        "2696": "Ġaverage",
        "2697": "eed",
        "2698": "Ġbroad",
        "2699": "Ġarrest",
        "2700": "Ġusers",
        "2701": "ĠCount",
        "2702": "cast",
        "2703": "Ġcal",
        "2704": "rel",
        "2705": "Ġcell",
        "2706": "Ġworth",
        "2707": "ĠEm",
        "2708": "Ġsoft",
        "2709": "Ġur",
        "2710": "Ġliving",
        "2711": "bor",
        "2712": "ĠRed",
        "2713": "ips",
        "2714": "Ġnation",
        "2715": "ky",
        "2716": "Ġkilled",
        "2717": "Ġreports",
        "2718": "Ġ2010",
        "2719": "ãģ",
        "2720": "Ġbecom",
        "2721": "Ġsource",
        "2722": "ĠMonday",
        "2723": "ĠTuesday",
        "2724": "Ġsubject",
        "2725": "Ġworked",
        "2726": "atural",
        "2727": "ests",
        "2728": "Ġestab",
        "2729": "Ġimmedi",
        "2730": "EN",
        "2731": "Ġrespond",
        "2732": "Ġglobal",
        "2733": "Ġassoci",
        "2734": "joy",
        "2735": "tember",
        "2736": "Ġclub",
        "2737": "ops",
        "2738": "ĠAmericans",
        "2739": "ael",
        "2740": "Ġobs",
        "2741": "ites",
        "2742": "ĠPer",
        "2743": "ĠPal",
        "2744": "Ġchance",
        "2745": "Ġoil",
        "2746": "ĠAct",
        "2747": "Ġability",
        "2748": "Ġtakes",
        "2749": "rought",
        "2750": "Ġweap",
        "2751": "hel",
        "2752": "Ġprice",
        "2753": "ĠJapan",
        "2754": "ological",
        "2755": "Ġdirector",
        "2756": "izing",
        "2757": "Ġworkers",
        "2758": "Ġterms",
        "2759": "Ġtou",
        "2760": "Ġroad",
        "2761": "mon",
        "2762": "Ġpublished",
        "2763": "Ġdel",
        "2764": "ĠWhile",
        "2765": "Ġphone",
        "2766": "rain",
        "2767": "Ġcollect",
        "2768": "Ġfinancial",
        "2769": "Ġmid",
        "2770": "osition",
        "2771": "Ġdecided",
        "2772": "ises",
        "2773": "OR",
        "2774": "ĠRussia",
        "2775": "ese",
        "2776": "ĠSome",
        "2777": "Ġmother",
        "2778": "Ġsqu",
        "2779": "ĠWed",
        "2780": "Ġlack",
        "2781": "Ġdefin",
        "2782": "ovember",
        "2783": "Ġ40",
        "2784": "Ġgirl",
        "2785": "Ġstore",
        "2786": "Ġgave",
        "2787": "Ġbuy",
        "2788": "Ġinflu",
        "2789": "ĠCalif",
        "2790": "Ġlog",
        "2791": "Ġhappened",
        "2792": "Ġrequire",
        "2793": "ĠNow",
        "2794": "Ġemer",
        "2795": "ino",
        "2796": "Ġfem",
        "2797": "ĠSan",
        "2798": "Ġcapital",
        "2799": "clus",
        "2800": "Ġforeign",
        "2801": "Ġcurrently",
        "2802": "ĠOff",
        "2803": "based",
        "2804": "Ġgoes",
        "2805": "ĠBy",
        "2806": "oved",
        "2807": "ĠGeor",
        "2808": "vertise",
        "2809": "Ġsituation",
        "2810": "ĠCor",
        "2811": "Ġindic",
        "2812": "Ġoffer",
        "2813": "Ġwhose",
        "2814": "Ġ@",
        "2815": "Ġtal",
        "2816": "Ġmaterial",
        "2817": "Ġlives",
        "2818": "Ġaffect",
        "2819": "rown",
        "2820": "ought",
        "2821": "Ġplans",
        "2822": "hem",
        "2823": "nesday",
        "2824": "unt",
        "2825": "Ġarri",
        "2826": "Ġbur",
        "2827": "Ġmember",
        "2828": "Ġpict",
        "2829": "ursday",
        "2830": "ĠFeb",
        "2831": "Ġparticip",
        "2832": "ruction",
        "2833": "Ġrecogn",
        "2834": "Ġturned",
        "2835": "Ġmethod",
        "2836": "Ġevents",
        "2837": "ĠJanuary",
        "2838": "ĠHill",
        "2839": "Ġnetwork",
        "2840": "\".",
        "2841": "One",
        "2842": "ctions",
        "2843": "Ġteams",
        "2844": "ĠSund",
        "2845": "fully",
        "2846": "Ġbank",
        "2847": "Ġmeeting",
        "2848": "40",
        "2849": "Ġnorm",
        "2850": "Ġintrodu",
        "2851": "Ġsimple",
        "2852": "ĠAg",
        "2853": "ĠIslam",
        "2854": "Ġill",
        "2855": "Ġhuge",
        "2856": "ĠSeptember",
        "2857": "Ġregard",
        "2858": "Ġareas",
        "2859": "Ġcy",
        "2860": "ĠMe",
        "2861": "order",
        "2862": "ĠTV",
        "2863": "bl",
        "2864": "Ġcouple",
        "2865": "Ġapproach",
        "2866": "aur",
        "2867": "Ġcareer",
        "2868": "ĠAfric",
        "2869": "ĠGl",
        "2870": "ttp",
        "2871": "load",
        "2872": "\",",
        "2873": "Ġdeli",
        "2874": "oud",
        "2875": "Ġrace",
        "2876": "ees",
        "2877": "Ġperformance",
        "2878": "Ġpage",
        "2879": "ety",
        "2880": "apt",
        "2881": "ĠNovember",
        "2882": "Ġtool",
        "2883": "ĠDavid",
        "2884": "Ġfelt",
        "2885": "Ġquickly",
        "2886": "Ġmis",
        "2887": "Ġnumbers",
        "2888": "oor",
        "2889": "Ġemail",
        "2890": "ĠEl",
        "2891": "Ġ21",
        "2892": "aily",
        "2893": "Ġord",
        "2894": "istan",
        "2895": "Ġadministration",
        "2896": "Ġhon",
        "2897": "ĠWednesday",
        "2898": "Ġvictim",
        "2899": "ĠPaul",
        "2900": "Ġvia",
        "2901": "Ġimprove",
        "2902": "Ġengine",
        "2903": "Ġtext",
        "2904": "chie",
        "2905": "Ġfre",
        "2906": "Ġpull",
        "2907": "ĠAng",
        "2908": "Ġround",
        "2909": "Ġbuilt",
        "2910": "Ġ22",
        "2911": "Ġpers",
        "2912": "ĠEuropean",
        "2913": "Ġdig",
        "2914": "ĠThursday",
        "2915": "Ġfather",
        "2916": "ornia",
        "2917": "Ġloss",
        "2918": "avy",
        "2919": "Ġthous",
        "2920": "ÂŃ",
        "2921": "ructure",
        "2922": "Ġproduction",
        "2923": "Ġboy",
        "2924": "ume",
        "2925": "lin",
        "2926": "Ġheard",
        "2927": "down",
        "2928": "Sh",
        "2929": "Ġeconomy",
        "2930": "Ġenjoy",
        "2931": "ĠAugust",
        "2932": "Ġtrade",
        "2933": "ĠSch",
        "2934": "face",
        "2935": "Ġwebsite",
        "2936": "iment",
        "2937": "Ġsecret",
        "2938": "Ġcover",
        "2939": "Ġreveal",
        "2940": "Ġwide",
        "2941": "Ġboard",
        "2942": "Ġmatch",
        "2943": "AL",
        "2944": "Ġallowed",
        "2945": "ĠCourt",
        "2946": "Ġhands",
        "2947": "Ġspent",
        "2948": "Ġtravel",
        "2949": "Ġlower",
        "2950": "Ġbi",
        "2951": "Ġrepe",
        "2952": "atory",
        "2953": "Ġpoll",
        "2954": "Ġincluded",
        "2955": "cember",
        "2956": "Ġste",
        "2957": "ĠOctober",
        "2958": "Ġneigh",
        "2959": "Ġlegisl",
        "2960": "orters",
        "2961": "uses",
        "2962": "Ġbehav",
        "2963": "iction",
        "2964": "Ġknew",
        "2965": "Ġwants",
        "2966": "Ġtown",
        "2967": "?âĢĿ",
        "2968": "ights",
        "2969": "ĠBritish",
        "2970": "Ġsepar",
        "2971": "ĠNe",
        "2972": "ences",
        "2973": "estern",
        "2974": "Ġvisit",
        "2975": "ĠCanada",
        "2976": "rect",
        "2977": "anks",
        "2978": "With",
        "2979": "Ġperfect",
        "2980": "Ġgets",
        "2981": "ession",
        "2982": "Ġmovement",
        "2983": "Ġaren",
        "2984": "ishing",
        "2985": "raz",
        "2986": "ground",
        "2987": "agement",
        "2988": "Ġtried",
        "2989": "Ġcause",
        "2990": "âĢĿ.",
        "2991": "gest",
        "2992": "Ġ}",
        "2993": "Ġforces",
        "2994": "ĠSunday",
        "2995": "Ġens",
        "2996": "After",
        "2997": "force",
        "2998": "ceed",
        "2999": "Ġattention",
        "3000": "Ġparticular",
        "3001": "urd",
        "3002": "][",
        "3003": "Ġveh",
        "3004": "Ġbud",
        "3005": "Ġfear",
        "3006": "Ġpopulation",
        "3007": "Ġvarious",
        "3008": "ened",
        "3009": "ĠUK",
        "3010": "Ġreach",
        "3011": "Ġlooks",
        "3012": "Ġ23",
        "3013": "ĠCalifornia",
        "3014": "Ġbrought",
        "3015": "Ġvo",
        "3016": "ĠKore",
        "3017": "Ġlink",
        "3018": "ibly",
        "3019": ");",
        "3020": "arily",
        "3021": "ĠIS",
        "3022": "200",
        "3023": "Ġprevious",
        "3024": "ED",
        "3025": "Ġmention",
        "3026": "ĠRussian",
        "3027": "Ġmorning",
        "3028": "ĠQu",
        "3029": "cle",
        "3030": "idered",
        "3031": "ĠSw",
        "3032": "'d",
        "3033": "Ġfair",
        "3034": "Ġgrowth",
        "3035": "aker",
        "3036": "undred",
        "3037": "99",
        "3038": "sequ",
        "3039": "yond",
        "3040": "Ġprogress",
        "3041": "Ġfell",
        "3042": "alled",
        "3043": "Ġsong",
        "3044": "iam",
        "3045": "ening",
        "3046": "AC",
        "3047": "Ġtraining",
        "3048": "hold",
        "3049": "Ġsize",
        "3050": "uk",
        "3051": "ĠBlack",
        "3052": "cies",
        "3053": "ĠDecember",
        "3054": "idents",
        "3055": "field",
        "3056": "ledge",
        "3057": "ĠHer",
        "3058": "Ġcontact",
        "3059": "Ġhor",
        "3060": "Ġdemand",
        "3061": "While",
        "3062": "Ġimage",
        "3063": "Ġrac",
        "3064": "Ġhot",
        "3065": "ification",
        "3066": "OS",
        "3067": "Ġleader",
        "3068": "ecause",
        "3069": "Ġrules",
        "3070": "Ġliber",
        "3071": "Ġprep",
        "3072": "Ġsearch",
        "3073": "ze",
        "3074": "Ġess",
        "3075": "ĠPost",
        "3076": "set",
        "3077": "Ġcitiz",
        "3078": "Ġupon",
        "3079": "Ġstrugg",
        "3080": "ĠStreet",
        "3081": "Ġlatest",
        "3082": "come",
        "3083": "ondon",
        "3084": "Ġindepend",
        "3085": "US",
        "3086": "uments",
        "3087": "inks",
        "3088": "arth",
        "3089": "Ġfeatures",
        "3090": "Ġcoach",
        "3091": "ĠPark",
        "3092": "Tr",
        "3093": "Ġfast",
        "3094": "Ġtalking",
        "3095": "ĠCont",
        "3096": "ĠJew",
        "3097": "Ġaddition",
        "3098": "ges",
        "3099": "Ġstar",
        "3100": "Ġwond",
        "3101": "ĠSenate",
        "3102": "oo",
        "3103": "IT",
        "3104": "ĠPat",
        "3105": "Ġspeed",
        "3106": "Ġexam",
        "3107": "iant",
        "3108": "Ġconsidered",
        "3109": "raq",
        "3110": "icles",
        "3111": "aries",
        "3112": "Ġreb",
        "3113": "omp",
        "3114": "Ġlevels",
        "3115": "eth",
        "3116": "ĠTimes",
        "3117": "ĠCounty",
        "3118": "lligence",
        "3119": "Ġslow",
        "3120": "Ġinvestigation",
        "3121": "bed",
        "3122": "ille",
        "3123": "Ġconduct",
        "3124": "aph",
        "3125": "ĠParty",
        "3126": "22",
        "3127": "ĠKing",
        "3128": "Ġmedical",
        "3129": "Ġmach",
        "3130": "Ġsn",
        "3131": "imately",
        "3132": "vent",
        "3133": "Ġachie",
        "3134": "Ġlanguage",
        "3135": "aturday",
        "3136": "Ġcard",
        "3137": "unk",
        "3138": "Ġcritic",
        "3139": "Ġsort",
        "3140": "ĠCenter",
        "3141": "ope",
        "3142": "ĠTex",
        "3143": "Ġpen",
        "3144": "Ġund",
        "3145": "ĠIndia",
        "3146": "Ġpaper",
        "3147": "wo",
        "3148": "ysis",
        "3149": "IC",
        "3150": "Ġ2008",
        "3151": "pir",
        "3152": "Ġconserv",
        "3153": "Ġparents",
        "3154": "Ġsexual",
        "3155": "ma",
        "3156": "Ġsystems",
        "3157": "Ġprior",
        "3158": "uit",
        "3159": "asc",
        "3160": "imin",
        "3161": "Ġdoll",
        "3162": "Ġwritten",
        "3163": "uf",
        "3164": "Ġbox",
        "3165": "Ġspokes",
        "3166": "igr",
        "3167": "Ġseek",
        "3168": "Ġsens",
        "3169": "eared",
        "3170": "Ġdocument",
        "3171": "het",
        "3172": "idge",
        "3173": "Ġincreasing",
        "3174": "Ġhear",
        "3175": "ani",
        "3176": "atform",
        "3177": "Ġdraw",
        "3178": "Ġseven",
        "3179": "Ġson",
        "3180": "ĠMuslim",
        "3181": "Ġeffort",
        "3182": "ruary",
        "3183": "Ġjobs",
        "3184": "sych",
        "3185": "ĠIran",
        "3186": "Ġextreme",
        "3187": "Ġprevent",
        "3188": "Ġlearn",
        "3189": "ining",
        "3190": "Ġserious",
        "3191": "Ġregul",
        "3192": "Ġinn",
        "3193": "Ġrange",
        "3194": "room",
        "3195": "rast",
        "3196": "Ġviolence",
        "3197": "ĠMark",
        "3198": "80",
        "3199": "ources",
        "3200": "ĠIraq",
        "3201": "itch",
        "3202": "OP",
        "3203": "Ġsurve",
        "3204": "Ġcompletely",
        "3205": "Ġconc",
        "3206": "Ġ...",
        "3207": "Ġ2009",
        "3208": "Ġmessage",
        "3209": "tr",
        "3210": "ico",
        "3211": "ha",
        "3212": "Ġâ",
        "3213": "Ġobv",
        "3214": "Ġinteresting",
        "3215": "reedom",
        "3216": "She",
        "3217": "Ġscreen",
        "3218": "abor",
        "3219": "Ġopportunity",
        "3220": "eff",
        "3221": "ĠChar",
        "3222": "Ġclimate",
        "3223": "24",
        "3224": "Ġmajority",
        "3225": "anced",
        "3226": "Ġparticularly",
        "3227": "Ġdoub",
        "3228": "Ġjournal",
        "3229": "Ġdespite",
        "3230": "ĠRom",
        "3231": "Ġclaims",
        "3232": "ĠKe",
        "3233": "Ġanswer",
        "3234": "Ġsociety",
        "3235": "ĠLondon",
        "3236": "Ġdefense",
        "3237": "Ġcarry",
        "3238": "entially",
        "3239": "mp",
        "3240": "aming",
        "3241": "Ġguy",
        "3242": "Ġextra",
        "3243": "ension",
        "3244": "ĠDonald",
        "3245": "isions",
        "3246": "Ġattacks",
        "3247": "Ġrequired",
        "3248": "erve",
        "3249": "rench",
        "3250": "illed",
        "3251": "Ġbiggest",
        "3252": "vertisement",
        "3253": "Ġexactly",
        "3254": "ĠEast",
        "3255": "Ġpaid",
        "3256": "ĠMore",
        "3257": "ibr",
        "3258": "iers",
        "3259": "...",
        "3260": "Ġexperien",
        "3261": "lying",
        "3262": "uclear",
        "3263": "inese",
        "3264": "isi",
        "3265": "Ġmodern",
        "3266": "fort",
        "3267": "Ġremain",
        "3268": "Ġquarter",
        "3269": "Ġofficers",
        "3270": "Ġhundred",
        "3271": "Ġcross",
        "3272": "Ġexcept",
        "3273": "ĠNet",
        "3274": "utions",
        "3275": "ari",
        "3276": "Ġtable",
        "3277": "Ġpractice",
        "3278": "inally",
        "3279": "Ġnatural",
        "3280": "Ġmiddle",
        "3281": "erc",
        "3282": "Ġ27",
        "3283": "Ġcertainly",
        "3284": "na",
        "3285": "Ġdro",
        "3286": "oses",
        "3287": "ĠSaturday",
        "3288": "Ġstories",
        "3289": "Ġhistor",
        "3290": "Ġgas",
        "3291": "Ġproducts",
        "3292": "Ġsurv",
        "3293": "Ġlooked",
        "3294": "Ġsometimes",
        "3295": "nces",
        "3296": "Ġstuff",
        "3297": "Ġscience",
        "3298": "Ġfinally",
        "3299": "Ġuser",
        "3300": "ĠTur",
        "3301": "AM",
        "3302": "Ġsummer",
        "3303": "Ġmovie",
        "3304": "Ġblood",
        "3305": "ospital",
        "3306": "aves",
        "3307": "Ġcommunic",
        "3308": "Ġaw",
        "3309": "ously",
        "3310": "Ġlay",
        "3311": "Ġchanged",
        "3312": "Ġterm",
        "3313": "Ġones",
        "3314": "Ġleading",
        "3315": "Ġdescribed",
        "3316": "ĠSand",
        "3317": "Ġimag",
        "3318": "Ġeight",
        "3319": "ĠFebruary",
        "3320": "Ġprison",
        "3321": "Ġconvers",
        "3322": "fl",
        "3323": "ny",
        "3324": "Ġdetails",
        "3325": "icks",
        "3326": "Ġstarting",
        "3327": "ĠSpe",
        "3328": "Ġquality",
        "3329": "Ġoccur",
        "3330": "Ġpan",
        "3331": "hib",
        "3332": "Ġshowed",
        "3333": "Ġnamed",
        "3334": "Ġgiving",
        "3335": "Ġult",
        "3336": "Ġremains",
        "3337": "ĠMcC",
        "3338": "uing",
        "3339": "Ġregion",
        "3340": "pper",
        "3341": "Ġprovided",
        "3342": "Ġcosts",
        "3343": "akers",
        "3344": "ĠSoc",
        "3345": "arr",
        "3346": "Ġdamage",
        "3347": "ĠMor",
        "3348": "Ġmob",
        "3349": "Ġdanger",
        "3350": "Ġfit",
        "3351": "ĠTH",
        "3352": "Ġchief",
        "3353": "aught",
        "3354": "Ġpoor",
        "3355": "Ġpath",
        "3356": "ida",
        "3357": "Ġeducation",
        "3358": "Ġmultiple",
        "3359": "Ġcontinued",
        "3360": "ett",
        "3361": "enge",
        "3362": "Ġgrowing",
        "3363": "No",
        "3364": "Ġdemonst",
        "3365": "Ġ*",
        "3366": "Ġparts",
        "3367": "Ġ26",
        "3368": "Ġwriting",
        "3369": "Ġcomments",
        "3370": "Ġ28",
        "3371": "Ġment",
        "3372": "yl",
        "3373": "Ġmaintain",
        "3374": "Ġsafe",
        "3375": "Ġassist",
        "3376": "Ġthinking",
        "3377": "ĠDes",
        "3378": "inary",
        "3379": "ĠRepublicans",
        "3380": "ĠEven",
        "3381": "Ġpurp",
        "3382": "Ġrequest",
        "3383": "Ġwrite",
        "3384": "Ġfix",
        "3385": "Ġitem",
        "3386": "Ġpurch",
        "3387": "ĠCoun",
        "3388": "ables",
        "3389": "Ġdied",
        "3390": "ĠDemocratic",
        "3391": "FL",
        "3392": "ara",
        "3393": "ago",
        "3394": "coin",
        "3395": "Ġready",
        "3396": "Ġwouldn",
        "3397": "Ġimplement",
        "3398": "23",
        "3399": "Ġincreased",
        "3400": "Ġculture",
        "3401": "Ġefforts",
        "3402": "Ġvoters",
        "3403": "ux",
        "3404": "Ġcamer",
        "3405": "Ġmill",
        "3406": "aly",
        "3407": "pre",
        "3408": "oper",
        "3409": "Ġreading",
        "3410": "mitted",
        "3411": "iminal",
        "3412": "Ġfile",
        "3413": "Ġusually",
        "3414": "Ġcalls",
        "3415": "Ġspot",
        "3416": "Im",
        "3417": "Ġeffects",
        "3418": "ĠGener",
        "3419": "zz",
        "3420": "ban",
        "3421": "Ġperhaps",
        "3422": "arian",
        "3423": "Ġalone",
        "3424": "iles",
        "3425": "ĠFirst",
        "3426": "ĠMon",
        "3427": "Ġalthough",
        "3428": "Ġtowards",
        "3429": "ĠLeague",
        "3430": "Ġconsist",
        "3431": "hest",
        "3432": "ĠBill",
        "3433": "ĠTexas",
        "3434": "Ġselect",
        "3435": "Ġguys",
        "3436": "Ġstandard",
        "3437": "ĠMichael",
        "3438": "Ġsubst",
        "3439": "Ġcele",
        "3440": "Ġbeyond",
        "3441": "Ġdirectly",
        "3442": "Ġplatform",
        "3443": "ĠChinese",
        "3444": "Ġ(@",
        "3445": "Ġhous",
        "3446": "using",
        "3447": "itute",
        "3448": "Ġspeech",
        "3449": "tered",
        "3450": "Ġreality",
        "3451": "icated",
        "3452": "Ġkids",
        "3453": "ĠJames",
        "3454": "Ġavoid",
        "3455": "Ġthroughout",
        "3456": "Ġfootball",
        "3457": "Ġstudent",
        "3458": "Ġtur",
        "3459": "Ġcouldn",
        "3460": "BI",
        "3461": "ford",
        "3462": "Ġunf",
        "3463": "Ġimmediately",
        "3464": "oul",
        "3465": "Ġrob",
        "3466": "Ġincludes",
        "3467": "Ġcat",
        "3468": "Ġconcept",
        "3469": "Ġcenter",
        "3470": "Ġchoice",
        "3471": "Ġscene",
        "3472": "Ġcomplex",
        "3473": "anch",
        "3474": "Ġadditional",
        "3475": "sp",
        "3476": "Ġchalleng",
        "3477": "ĠCons",
        "3478": "Ġwife",
        "3479": "Ġclos",
        "3480": "Re",
        "3481": "Ġtro",
        "3482": "Ġrecomm",
        "3483": "Ġresearc",
        "3484": "Ġepis",
        "3485": "itor",
        "3486": "Ġver",
        "3487": "ĠMinister",
        "3488": "Ġsle",
        "3489": "All",
        "3490": "Ġcorpor",
        "3491": "ĠâĢ¦",
        "3492": "Ġdesigned",
        "3493": "ĠSer",
        "3494": "agon",
        "3495": "Ġremember",
        "3496": "Ġsoftware",
        "3497": "Ġsafety",
        "3498": "ĠIndian",
        "3499": "wise",
        "3500": "Ġgone",
        "3501": "Ġil",
        "3502": "astic",
        "3503": "ports",
        "3504": "Ġsell",
        "3505": "Ġtoward",
        "3506": "Ġagency",
        "3507": "Ġten",
        "3508": "Ġofficer",
        "3509": "aches",
        "3510": "bur",
        "3511": "Ġfigure",
        "3512": "Ġpiece",
        "3513": "Ġbrain",
        "3514": "omen",
        "3515": "Ġbattle",
        "3516": "ĠJack",
        "3517": "Ġcounter",
        "3518": "men",
        "3519": "Ġdebate",
        "3520": "airs",
        "3521": "ression",
        "3522": "ston",
        "3523": "Ġthousands",
        "3524": "adem",
        "3525": "rupt",
        "3526": "ingin",
        "3527": "Ġahead",
        "3528": "Ġopin",
        "3529": "icient",
        "3530": "Now",
        "3531": "imum",
        "3532": "Ġrelative",
        "3533": "irth",
        "3534": "Ġletter",
        "3535": "Ġreceive",
        "3536": "Ġpressure",
        "3537": "ĠÐ",
        "3538": "Ġblog",
        "3539": "oes",
        "3540": "ilies",
        "3541": "ampions",
        "3542": "Ġ>",
        "3543": "Ġsil",
        "3544": "Ġmoved",
        "3545": "Ġlaunch",
        "3546": "Ġappears",
        "3547": "Ġoption",
        "3548": "ĠPlay",
        "3549": "Ġpassed",
        "3550": "Ġut",
        "3551": "Ġclean",
        "3552": "Ġprec",
        "3553": "Ġstage",
        "3554": "roy",
        "3555": "Ġ60",
        "3556": "ĠBo",
        "3557": "ĠServ",
        "3558": "olute",
        "3559": "ĠII",
        "3560": "atever",
        "3561": "berg",
        "3562": "OT",
        "3563": "Ġproperty",
        "3564": "27",
        "3565": "Ġhelped",
        "3566": "Ġdrive",
        "3567": "ĠApple",
        "3568": "just",
        "3569": "Ġalleged",
        "3570": "ĠGreen",
        "3571": "Ġtwe",
        "3572": "new",
        "3573": "Ġdisapp",
        "3574": "Ġtour",
        "3575": "Ġmeaning",
        "3576": "Ġrock",
        "3577": "Ġdog",
        "3578": "Ġx",
        "3579": "itation",
        "3580": "urt",
        "3581": "Ġcris",
        "3582": "ĠAssoci",
        "3583": "Ġsuspect",
        "3584": "Ġdate",
        "3585": "ĠRich",
        "3586": "aughter",
        "3587": "Ġmoving",
        "3588": "Ġscore",
        "3589": "ĠDemocrats",
        "3590": "Ġorganization",
        "3591": "Ġsat",
        "3592": "Ġconditions",
        "3593": "Ġtouch",
        "3594": "Ġdark",
        "3595": "Ġcommand",
        "3596": "ĠThen",
        "3597": "?\"",
        "3598": "Ġign",
        "3599": "Ġreasons",
        "3600": "Ġbudget",
        "3601": "Ġcrow",
        "3602": "Ġpark",
        "3603": "more",
        "3604": "Ġnuclear",
        "3605": "Ġmyself",
        "3606": "Ġnom",
        "3607": "Ġdeg",
        "3608": "Ġhappy",
        "3609": "Ġdevice",
        "3610": "Ġdifference",
        "3611": "rief",
        "3612": "ĠSim",
        "3613": "Ġmaybe",
        "3614": "Ġbeginning",
        "3615": "AD",
        "3616": "Ġcopy",
        "3617": "Ġnature",
        "3618": "Ġfailed",
        "3619": "Ġfan",
        "3620": "wood",
        "3621": "yan",
        "3622": "Ġcharacters",
        "3623": "Ġcast",
        "3624": "Ġcomputer",
        "3625": "Ġencour",
        "3626": "sis",
        "3627": "Ġaim",
        "3628": "Ġtitle",
        "3629": "Ġwall",
        "3630": "Ġcompared",
        "3631": "Ġleague",
        "3632": "ocked",
        "3633": "ĠSuper",
        "3634": "ivity",
        "3635": "Ġestim",
        "3636": "add",
        "3637": "ĠVal",
        "3638": "ĠStar",
        "3639": "Ġcollege",
        "3640": "ean",
        "3641": "Ġeyes",
        "3642": "Ġshown",
        "3643": "ĠEnglish",
        "3644": "Ġcentury",
        "3645": "Ġpowerful",
        "3646": "ĠDay",
        "3647": "lease",
        "3648": "ource",
        "3649": "Ġbal",
        "3650": "aint",
        "3651": "Ġlimited",
        "3652": "Ġyes",
        "3653": "Ġband",
        "3654": "Ġcontribut",
        "3655": "Ġpositive",
        "3656": "Ġforced",
        "3657": "Ġnecessary",
        "3658": "ĠChe",
        "3659": "Ġrefer",
        "3660": "Ġcandidate",
        "3661": "Ġstra",
        "3662": "Ġdisp",
        "3663": "35",
        "3664": "cient",
        "3665": "Ġbooks",
        "3666": "Ġtrust",
        "3667": "AP",
        "3668": "ĠFrench",
        "3669": "Ġlargest",
        "3670": "26",
        "3671": "Ġarch",
        "3672": "enty",
        "3673": "Ġsal",
        "3674": "ĠHere",
        "3675": "Ġconference",
        "3676": "aud",
        "3677": "ĠRober",
        "3678": "Ġnote",
        "3679": "Ġanalysis",
        "3680": "ufact",
        "3681": "Ġspending",
        "3682": "Ġpresidential",
        "3683": "45",
        "3684": "ĠOf",
        "3685": "Ġcitizens",
        "3686": "orks",
        "3687": "Ġschools",
        "3688": "ĠMart",
        "3689": "igration",
        "3690": "ĠSyria",
        "3691": "Ġthrow",
        "3692": "ĠBen",
        "3693": "venue",
        "3694": "Ġaware",
        "3695": "Ġmeant",
        "3696": "Ġexecutive",
        "3697": "Ġeventually",
        "3698": "My",
        "3699": "Ġphysical",
        "3700": "Ġfollowed",
        "3701": "Ġfeature",
        "3702": "ares",
        "3703": "Ġfirm",
        "3704": "ĠTor",
        "3705": "Ġtreatment",
        "3706": "ĠWind",
        "3707": "ĠAir",
        "3708": "Ġstreng",
        "3709": "Ġmix",
        "3710": "Ġconfir",
        "3711": "Ġbott",
        "3712": "ero",
        "3713": "orney",
        "3714": "Ġ29",
        "3715": "ĠDis",
        "3716": "Ġgrad",
        "3717": "Ġreligious",
        "3718": "Ġeasily",
        "3719": "band",
        "3720": "Ġautom",
        "3721": "board",
        "3722": "Ġesc",
        "3723": "Ġpus",
        "3724": "Ġcool",
        "3725": "etro",
        "3726": "Ġ196",
        "3727": "Ġfamilies",
        "3728": "Ġilleg",
        "3729": "ressed",
        "3730": "craft",
        "3731": "cul",
        "3732": "rated",
        "3733": "Ġactions",
        "3734": "Ġoverall",
        "3735": "ĠMex",
        "3736": "Ġallows",
        "3737": "Ġgives",
        "3738": "Ġfeed",
        "3739": "ĠÂ£",
        "3740": "):",
        "3741": "Ġsusp",
        "3742": "ube",
        "3743": "Ġyourself",
        "3744": "By",
        "3745": "Is",
        "3746": "Ġdraft",
        "3747": "ken",
        "3748": "bum",
        "3749": "Ġappeared",
        "3750": "ram",
        "3751": "Ġsmart",
        "3752": "Ġdetail",
        "3753": "Ġincome",
        "3754": "iring",
        "3755": "Ġanaly",
        "3756": "ĠBel",
        "3757": "Ġsigned",
        "3758": "New",
        "3759": "encies",
        "3760": "ĠHam",
        "3761": "Ġcentral",
        "3762": "Ġideas",
        "3763": "Ġang",
        "3764": "ĠGovern",
        "3765": "Ġsenior",
        "3766": "Advertisement",
        "3767": "Ġfrequ",
        "3768": "Ġweapons",
        "3769": "Ġhar",
        "3770": "ID",
        "3771": "Ġdisplay",
        "3772": "Ġpromot",
        "3773": "Ġnice",
        "3774": "inn",
        "3775": "Ġcredit",
        "3776": "Ġdecades",
        "3777": "Ġpsych",
        "3778": "Ġpolitics",
        "3779": "Don",
        "3780": "Ġcrime",
        "3781": "OM",
        "3782": "chan",
        "3783": "EC",
        "3784": "Ġuses",
        "3785": "Ġdoor",
        "3786": "Ġdise",
        "3787": "uty",
        "3788": "ĠInternational",
        "3789": "Ġunique",
        "3790": "28",
        "3791": "Ġswe",
        "3792": "Ġaltern",
        "3793": "Ġlif",
        "3794": "According",
        "3795": "Ġdrop",
        "3796": "Ġsales",
        "3797": "mar",
        "3798": "Ġdeveloped",
        "3799": "***",
        "3800": "resh",
        "3801": "Ġcustomers",
        "3802": "ET",
        "3803": "Ġbenefits",
        "3804": "Ġconflic",
        "3805": "urance",
        "3806": "Ar",
        "3807": "Ġrelated",
        "3808": "Ġcrisis",
        "3809": "ĠSchool",
        "3810": "Ġmist",
        "3811": "erry",
        "3812": "iable",
        "3813": "Ġpredict",
        "3814": "Ġnoted",
        "3815": "ĠCap",
        "3816": "29",
        "3817": "ĠAustralia",
        "3818": "ĠEU",
        "3819": "box",
        "3820": "Ġtruth",
        "3821": "Ġgoals",
        "3822": "iny",
        "3823": "Ġindividuals",
        "3824": "Ġcharge",
        "3825": "ĠEarth",
        "3826": "part",
        "3827": "Ġbeaut",
        "3828": "Ġcontinues",
        "3829": "onents",
        "3830": "ĠUnion",
        "3831": "ĠArab",
        "3832": "Ġobserv",
        "3833": "Ġrap",
        "3834": "Ġchallenge",
        "3835": "que",
        "3836": "Ġsto",
        "3837": "nown",
        "3838": "Ġapparent",
        "3839": "ĠAngel",
        "3840": "Be",
        "3841": "itely",
        "3842": "ĠSmith",
        "3843": "Ġlic",
        "3844": "Ġprojects",
        "3845": "Ġpeace",
        "3846": "Ġmeasure",
        "3847": "ĠPolice",
        "3848": "Ġcorrect",
        "3849": "oti",
        "3850": "Ġintelligence",
        "3851": "ĠChristian",
        "3852": "Ġpreviously",
        "3853": "ĠGermany",
        "3854": "Ġfully",
        "3855": "Ġrule",
        "3856": "Ġmanager",
        "3857": "Ġbrother",
        "3858": "Ġrates",
        "3859": "Ġadvant",
        "3860": "change",
        "3861": "Ġexpand",
        "3862": "Ġclearly",
        "3863": "Ġreform",
        "3864": "Ġlines",
        "3865": "net",
        "3866": "Ġsuccessful",
        "3867": "riage",
        "3868": "Ġhighly",
        "3869": "Ġlarger",
        "3870": "ounds",
        "3871": "Ġtraff",
        "3872": "Un",
        "3873": "Ġspread",
        "3874": "iance",
        "3875": "Ġseemed",
        "3876": "ĠCouncil",
        "3877": "Ġstraight",
        "3878": "Some",
        "3879": "ĠComp",
        "3880": "Ġcriminal",
        "3881": "Ġminor",
        "3882": "Ġemb",
        "3883": "ĠGeorge",
        "3884": "Ġprograms",
        "3885": "iced",
        "3886": "attle",
        "3887": "owers",
        "3888": "ĠFranc",
        "3889": "Ġincident",
        "3890": "Ġresources",
        "3891": "21",
        "3892": "ĠTom",
        "3893": "Ġgreater",
        "3894": "Ġprimary",
        "3895": "IA",
        "3896": "inated",
        "3897": "antly",
        "3898": "Ġknowledge",
        "3899": "ki",
        "3900": "Ġstudies",
        "3901": "while",
        "3902": "dom",
        "3903": "Ġsave",
        "3904": "orter",
        "3905": "Ġweb",
        "3906": "ategy",
        "3907": "Ġkept",
        "3908": "Ġattract",
        "3909": "ĠFlor",
        "3910": "olic",
        "3911": "Ġspir",
        "3912": "Ġemot",
        "3913": "Ġcolor",
        "3914": "Ġfeet",
        "3915": "sey",
        "3916": "Ġrare",
        "3917": "Ġreached",
        "3918": "Ġarm",
        "3919": "secut",
        "3920": "ĠHigh",
        "3921": "levision",
        "3922": "ĠInternet",
        "3923": "ĠBrown",
        "3924": "oday",
        "3925": "iders",
        "3926": "osh",
        "3927": "rs",
        "3928": "Ġfavorite",
        "3929": "Ġplaces",
        "3930": "ĠCr",
        "3931": "ĠRec",
        "3932": "Ġregular",
        "3933": "wide",
        "3934": "ota",
        "3935": "bon",
        "3936": "Ġmanufact",
        "3937": "Ġlaun",
        "3938": "ĠDef",
        "3939": "100",
        "3940": "Ġsend",
        "3941": "term",
        "3942": "Ġprem",
        "3943": "roll",
        "3944": "lick",
        "3945": "icit",
        "3946": "ingly",
        "3947": "Ġknows",
        "3948": "Ġshooting",
        "3949": "Ġactivity",
        "3950": "Ġpun",
        "3951": "Ġsources",
        "3952": "Ġnormal",
        "3953": "icago",
        "3954": "onent",
        "3955": "ser",
        "3956": "ĠAnt",
        "3957": "ville",
        "3958": "Ġstatus",
        "3959": "Ġfighting",
        "3960": "Ġvoice",
        "3961": "Ġrise",
        "3962": "ocks",
        "3963": "Ġfine",
        "3964": "Ġowners",
        "3965": "Ġcaused",
        "3966": "Ġclaimed",
        "3967": "ĠMac",
        "3968": "Ġenem",
        "3969": "Ġliter",
        "3970": "ĠRob",
        "3971": "ĠGeneral",
        "3972": "aith",
        "3973": "EO",
        "3974": "Ġoptions",
        "3975": "Ġ2007",
        "3976": "Ġintegr",
        "3977": "ength",
        "3978": "ĠUp",
        "3979": "usion",
        "3980": "Ġspend",
        "3981": "ĠGold",
        "3982": "ado",
        "3983": "Ġcities",
        "3984": "miss",
        "3985": "Ġorganiz",
        "3986": "ING",
        "3987": "Ġended",
        "3988": "www",
        "3989": "Ġresearchers",
        "3990": "iled",
        "3991": "Ġcalling",
        "3992": "Ġshut",
        "3993": "Ġreflect",
        "3994": "ĠLa",
        "3995": "org",
        "3996": "mission",
        "3997": "Pro",
        "3998": "mark",
        "3999": "âĢĿ,",
        "4000": "oles",
        "4001": "70",
        "4002": "roid",
        "4003": "Ġprices",
        "4004": "ĠEvery",
        "4005": "Ġalbum",
        "4006": "ĠFrom",
        "4007": "ifying",
        "4008": "Ġemployees",
        "4009": "Ġfemale",
        "4010": "ĠEngland",
        "4011": "ya",
        "4012": "Ġvirt",
        "4013": "Ġcrowd",
        "4014": "Ġhaven",
        "4015": "Ġele",
        "4016": "Ġraised",
        "4017": "mittee",
        "4018": "uana",
        "4019": "Ġjump",
        "4020": "33",
        "4021": "Ġsupposed",
        "4022": "itness",
        "4023": "Ġhappens",
        "4024": "Ġadding",
        "4025": "Ġpolicies",
        "4026": "Ġnames",
        "4027": "Ġcharges",
        "4028": "Ġpros",
        "4029": "Ġtrou",
        "4030": "ribution",
        "4031": "ica",
        "4032": "uman",
        "4033": "Ġbasic",
        "4034": "Not",
        "4035": "iverse",
        "4036": "inger",
        "4037": "ĠMag",
        "4038": "Ġconcerns",
        "4039": "Ġtraditional",
        "4040": "ĠBre",
        "4041": "Ġwait",
        "4042": "Ġabsolute",
        "4043": "Ġacqu",
        "4044": "Ġplant",
        "4045": "Ġhospital",
        "4046": "Ġfunding",
        "4047": "ĠBay",
        "4048": "Ġslight",
        "4049": "rol",
        "4050": "Ġcommer",
        "4051": "Ġprint",
        "4052": "Ġpatients",
        "4053": "Sc",
        "4054": "Ġauthorities",
        "4055": "Ġminister",
        "4056": "vere",
        "4057": "Ġcreating",
        "4058": "Ġhttp",
        "4059": "Ġfreedom",
        "4060": "ĠAP",
        "4061": "Ġmechan",
        "4062": "Ġscen",
        "4063": "ĠMo",
        "4064": "Ġstyle",
        "4065": "Ġseeing",
        "4066": "Ġgrand",
        "4067": ".âĢĻ",
        "4068": "Ġbeat",
        "4069": "Ġlik",
        "4070": "dd",
        "4071": "rian",
        "4072": "ona",
        "4073": "Ġstation",
        "4074": "ĠScott",
        "4075": "see",
        "4076": "Ġpush",
        "4077": "ijuana",
        "4078": "Ġbehavior",
        "4079": "Ġleaving",
        "4080": "Ġcry",
        "4081": "Ġimpl",
        "4082": "Ġbirth",
        "4083": "Ġir",
        "4084": "Ġactual",
        "4085": "pen",
        "4086": "EL",
        "4087": "Ġensure",
        "4088": "Ġoffered",
        "4089": "Ġagreement",
        "4090": "ĠFlorida",
        "4091": "Ġeth",
        "4092": "ĠBer",
        "4093": "soft",
        "4094": "ĠHillary",
        "4095": "Ġposted",
        "4096": "ĠReg",
        "4097": "Ġgold",
        "4098": "ĠSun",
        "4099": "Ġweekend",
        "4100": "Ġgreen",
        "4101": "ĠMost",
        "4102": "alse",
        "4103": "Ġweight",
        "4104": "OU",
        "4105": ".'",
        "4106": "acing",
        "4107": "Ġdetermin",
        "4108": "Ġvac",
        "4109": "Here",
        "4110": "Ġrevealed",
        "4111": "ĠWell",
        "4112": "Ġapplication",
        "4113": "Ġmostly",
        "4114": "Ġvalues",
        "4115": "Ġpropos",
        "4116": "itude",
        "4117": "ĠAlex",
        "4118": "aby",
        "4119": "Ġwilling",
        "4120": "earch",
        "4121": "Ġrank",
        "4122": "Ġadop",
        "4123": "ĠAccording",
        "4124": "Ġadult",
        "4125": "ttps",
        "4126": "Ġestabl",
        "4127": "Ġeye",
        "4128": "Ġrecords",
        "4129": "amb",
        "4130": "âĢ¢",
        "4131": "500",
        "4132": "Ġenforce",
        "4133": "Ġpicture",
        "4134": "Ġbelieved",
        "4135": "ĠLet",
        "4136": "Ġmer",
        "4137": "pri",
        "4138": "uild",
        "4139": "Ġbrief",
        "4140": "Ġlearned",
        "4141": "ĠLaw",
        "4142": "Ġinstall",
        "4143": "gen",
        "4144": "Ġstrategy",
        "4145": "Ġappl",
        "4146": "igned",
        "4147": "Ġchoose",
        "4148": "istry",
        "4149": "SA",
        "4150": "Ġdire",
        "4151": "Ġwonder",
        "4152": "Ġqual",
        "4153": "Ġmassive",
        "4154": "cher",
        "4155": "Ġdevices",
        "4156": "Ġbenefit",
        "4157": "Ġwild",
        "4158": "Ġparties",
        "4159": "ĠChicago",
        "4160": "Ġlawy",
        "4161": "Ġuns",
        "4162": "ĠPeople",
        "4163": "Ġcars",
        "4164": "ĠTrans",
        "4165": "ĠPhil",
        "4166": "Ġarrested",
        "4167": "ĠMat",
        "4168": "Ġmount",
        "4169": "Ġwhatever",
        "4170": "Ġwat",
        "4171": "ĠOh",
        "4172": "ĠFrance",
        "4173": "Ġstreet",
        "4174": "Ġ;",
        "4175": "Ġprovides",
        "4176": "Ġwhom",
        "4177": "Ġassault",
        "4178": "90",
        "4179": "ties",
        "4180": "liament",
        "4181": "Ġasking",
        "4182": "Ġinfluence",
        "4183": "Ġjudge",
        "4184": "Ġlose",
        "4185": "Ġfat",
        "4186": "Ġfeeling",
        "4187": "Ġoperations",
        "4188": "Ġproduced",
        "4189": "Ġtemper",
        "4190": "cont",
        "4191": "ste",
        "4192": "Ġcritical",
        "4193": "ĠLou",
        "4194": "ĠSecret",
        "4195": "Ġnegoti",
        "4196": "Ġmission",
        "4197": "Ġenter",
        "4198": "ĠBush",
        "4199": "Ex",
        "4200": "Ġimages",
        "4201": "Ð¾",
        "4202": "ĠStud",
        "4203": "Ġconfirmed",
        "4204": "point",
        "4205": "Ġshowing",
        "4206": "IL",
        "4207": "ĠPort",
        "4208": "Ġdistrict",
        "4209": "ription",
        "4210": "Ġruns",
        "4211": "Ġpattern",
        "4212": "Ġtend",
        "4213": "===",
        "4214": "Ġborder",
        "4215": "Ġresidents",
        "4216": "orial",
        "4217": "rav",
        "4218": "Ġdebt",
        "4219": "However",
        "4220": "ĠÃ",
        "4221": "aked",
        "4222": "Ġcru",
        "4223": "Ġteac",
        "4224": "ĠCommittee",
        "4225": "mine",
        "4226": "Cl",
        "4227": "Ġopposition",
        "4228": "Ġcelebr",
        "4229": "ĠWall",
        "4230": "ĠHealth",
        "4231": "Ġsection",
        "4232": "Ġdefend",
        "4233": "Ġetc",
        "4234": "estic",
        "4235": "Ġproduce",
        "4236": "icial",
        "4237": "ĠInte",
        "4238": "ĠCommission",
        "4239": "Ġdrink",
        "4240": "Ġindependent",
        "4241": "ĠMod",
        "4242": "ront",
        "4243": "cell",
        "4244": "ĠWhy",
        "4245": "Ġbrand",
        "4246": "ented",
        "4247": "ugg",
        "4248": "ags",
        "4249": "Ġcore",
        "4250": "ĠPress",
        "4251": "Ġtick",
        "4252": "Ġdigital",
        "4253": "ĠBit",
        "4254": "Ġhero",
        "4255": "Ġadvoc",
        "4256": "Ġdollars",
        "4257": "ae",
        "4258": "ĠSam",
        "4259": "ocr",
        "4260": "rial",
        "4261": "Ġeffective",
        "4262": "Ġsolution",
        "4263": "ĠMal",
        "4264": "Ġvill",
        "4265": "Ġinterested",
        "4266": "ĠKorea",
        "4267": "BA",
        "4268": "Ġhighest",
        "4269": "irg",
        "4270": "ords",
        "4271": "Ġmemory",
        "4272": "Ġopening",
        "4273": "Ġworse",
        "4274": "Ġlearning",
        "4275": "Ġresponsible",
        "4276": "Ġtrial",
        "4277": "Ġdaily",
        "4278": "Ġkick",
        "4279": "Ġtheory",
        "4280": "ĠOther",
        "4281": "Ġoffers",
        "4282": "ĠPalest",
        "4283": "me",
        "4284": "Ġreplace",
        "4285": "Ġrestrict",
        "4286": "ĠGet",
        "4287": "Ġmur",
        "4288": "ĠOffice",
        "4289": "Ġagreed",
        "4290": "Ġtelevision",
        "4291": "ĠFrancis",
        "4292": "cience",
        "4293": "ĠMicro",
        "4294": "ĠBecause",
        "4295": "Ġoccas",
        "4296": "ST",
        "4297": "illing",
        "4298": "CC",
        "4299": "Ġvs",
        "4300": "Ġdetect",
        "4301": "Ġtrain",
        "4302": "aste",
        "4303": "Ġinvestment",
        "4304": "Ġtypes",
        "4305": "iation",
        "4306": "ĠWestern",
        "4307": "icians",
        "4308": "Ġchair",
        "4309": "aks",
        "4310": "Ġmiles",
        "4311": "Ġmillions",
        "4312": "Con",
        "4313": "no",
        "4314": "gency",
        "4315": "Ġchem",
        "4316": "ĠJustice",
        "4317": "ĠDel",
        "4318": "Ġgenerally",
        "4319": "Ġbasis",
        "4320": "Ġproposed",
        "4321": "Ġ80",
        "4322": "ĠMike",
        "4323": "ĠMil",
        "4324": "ĠCup",
        "4325": "These",
        "4326": "ipe",
        "4327": "Ġheavy",
        "4328": "Ġexplained",
        "4329": "ĠOur",
        "4330": "Ġmap",
        "4331": "uries",
        "4332": "AA",
        "4333": "rad",
        "4334": "Ġder",
        "4335": "oly",
        "4336": "Ġpartners",
        "4337": "ander",
        "4338": "Ġopinion",
        "4339": "Ġdefe",
        "4340": "Ġonto",
        "4341": "Ġprotest",
        "4342": "Get",
        "4343": "Ġassociated",
        "4344": "Ġload",
        "4345": "rig",
        "4346": "azing",
        "4347": "ĠNFL",
        "4348": "win",
        "4349": "rate",
        "4350": "oom",
        "4351": "44",
        "4352": "ĠFound",
        "4353": "Ġmale",
        "4354": "Ġbecomes",
        "4355": "Ġreject",
        "4356": "vest",
        "4357": "outhern",
        "4358": "===",
        "4359": "ĠSecurity",
        "4360": "Ġcoal",
        "4361": "Ġobtain",
        "4362": "Ġdestroy",
        "4363": "Ġadvantage",
        "4364": "Ġassum",
        "4365": "ĠLiber",
        "4366": "Ġcondition",
        "4367": "Ġannounce",
        "4368": "Ġhundreds",
        "4369": "ading",
        "4370": "Ġachieve",
        "4371": "Ġopened",
        "4372": "eline",
        "4373": "Ġunderstanding",
        "4374": "odes",
        "4375": "ĠJohnson",
        "4376": "coming",
        "4377": "icip",
        "4378": "Ġsurround",
        "4379": "well",
        "4380": "orthern",
        "4381": "bert",
        "4382": "upp",
        "4383": "Ġinitial",
        "4384": "ĠBig",
        "4385": "Ġsleep",
        "4386": "36",
        "4387": "Ġship",
        "4388": "rey",
        "4389": "Ġmarriage",
        "4390": "Ġmanagement",
        "4391": "ĠWindows",
        "4392": "Ġthus",
        "4393": "Ġlimit",
        "4394": "Ġborn",
        "4395": "Ġbecoming",
        "4396": "known",
        "4397": "Ġphoto",
        "4398": "Ġeasier",
        "4399": "FC",
        "4400": "ĠGreat",
        "4401": "Ġrat",
        "4402": "Ġlegislation",
        "4403": "Ġcontrovers",
        "4404": "Ġunlike",
        "4405": "Ġelectric",
        "4406": "ĠMany",
        "4407": "32",
        "4408": "Ġcamera",
        "4409": "ĠMad",
        "4410": "witch",
        "4411": "Ġaccused",
        "4412": "Ġspl",
        "4413": "Ġneighbor",
        "4414": "Ġdouble",
        "4415": "Ġice",
        "4416": "Ġspecies",
        "4417": "Ġshared",
        "4418": "Ġjoin",
        "4419": "Ġillegal",
        "4420": "Ġ31",
        "4421": "ĠLab",
        "4422": "Ġ2006",
        "4423": "Mr",
        "4424": "Ġmachine",
        "4425": "Ġharm",
        "4426": "Ġserved",
        "4427": "ĠJer",
        "4428": "GB",
        "4429": "Ġextremely",
        "4430": "olf",
        "4431": "Ġactive",
        "4432": "Ġ35",
        "4433": "Ġserve",
        "4434": "Ġdocuments",
        "4435": "ĠIslamic",
        "4436": "Ġframe",
        "4437": "Ġstrik",
        "4438": "level",
        "4439": "za",
        "4440": "ĠDist",
        "4441": "Ġaudience",
        "4442": "BS",
        "4443": "Ġlocation",
        "4444": "lant",
        "4445": "ĠAM",
        "4446": "Ġscientists",
        "4447": "Ġbottom",
        "4448": "orrow",
        "4449": "Ġvictims",
        "4450": "Ġwealth",
        "4451": "Ġprofessional",
        "4452": "Ġresist",
        "4453": "Ġreduce",
        "4454": "Ġbelief",
        "4455": "Ġnine",
        "4456": "Ġsolid",
        "4457": "Ġwinning",
        "4458": "Ġmarijuana",
        "4459": "ĠUk",
        "4460": "Ġnegative",
        "4461": "75",
        "4462": "ih",
        "4463": "iful",
        "4464": "lands",
        "4465": "Ġcommunities",
        "4466": "Ġreturned",
        "4467": "ortunately",
        "4468": "ears",
        "4469": "Ġincred",
        "4470": "ĠPM",
        "4471": "ĠInstitute",
        "4472": "met",
        "4473": "Ġchurch",
        "4474": "PS",
        "4475": "Ġdepartment",
        "4476": "ĠSanders",
        "4477": "Ġran",
        "4478": "Ġvictory",
        "4479": "Ġpurpose",
        "4480": "Ġ90",
        "4481": "ĠCommun",
        "4482": "Ġamb",
        "4483": "Ġvehicle",
        "4484": "Ġinternet",
        "4485": "Ġleadership",
        "4486": "ĠHall",
        "4487": "istics",
        "4488": "Ġbomb",
        "4489": "Ġmobile",
        "4490": "ios",
        "4491": "ghan",
        "4492": "Ġinstance",
        "4493": "ipped",
        "4494": "38",
        "4495": "Ġseparate",
        "4496": "Ġexisting",
        "4497": "Ġnotice",
        "4498": "Ġhearing",
        "4499": "Ġdie",
        "4500": "Ġexplain",
        "4501": "Ġdoubt",
        "4502": "Ġfaith",
        "4503": "Ġteach",
        "4504": "house",
        "4505": "ĠYour",
        "4506": "atically",
        "4507": "Ġepisode",
        "4508": "Ġbed",
        "4509": "Ġwatching",
        "4510": "Ġcomfort",
        "4511": "ĠCanadian",
        "4512": "ĠFin",
        "4513": "ĠBank",
        "4514": "Ġnotes",
        "4515": "aran",
        "4516": "ĠAtt",
        "4517": "irgin",
        "4518": "ĠEv",
        "4519": "Ġfresh",
        "4520": "Ġunc",
        "4521": "Ġradio",
        "4522": "ĠInc",
        "4523": "Ġviews",
        "4524": "Ġputting",
        "4525": "asy",
        "4526": "ĠSl",
        "4527": "Ġsupporters",
        "4528": "Ġconservative",
        "4529": "Ġpurs",
        "4530": "Ġargument",
        "4531": "omas",
        "4532": "ĠFox",
        "4533": "Ġmicro",
        "4534": "ario",
        "4535": "acity",
        "4536": "Ġlaunched",
        "4537": "works",
        "4538": "scrib",
        "4539": "OL",
        "4540": "Ġappeal",
        "4541": "iliar",
        "4542": "Ġitems",
        "4543": "Ġcommittee",
        "4544": "ĠArt",
        "4545": "resp",
        "4546": "which",
        "4547": "Ġdefinitely",
        "4548": "ada",
        "4549": "Ġdangerous",
        "4550": "iller",
        "4551": "zen",
        "4552": "Ġcoverage",
        "4553": "Ġdirection",
        "4554": "ĠOver",
        "4555": "Ġsun",
        "4556": "Ġcharged",
        "4557": "Ġfloor",
        "4558": "PA",
        "4559": "Ġmax",
        "4560": "ography",
        "4561": "34",
        "4562": "EM",
        "4563": "ĠCarol",
        "4564": "ĠChurch",
        "4565": "Ġissued",
        "4566": "Ġdrugs",
        "4567": "Image",
        "4568": "Ġtask",
        "4569": "ipp",
        "4570": "Ġbackground",
        "4571": "Ġcompetition",
        "4572": "Ġtrend",
        "4573": "Ġstated",
        "4574": "vention",
        "4575": "andom",
        "4576": "Ġtraffic",
        "4577": "ĠFBI",
        "4578": "Ġcommercial",
        "4579": "ĠDirect",
        "4580": "Ġspoke",
        "4581": "inct",
        "4582": "Ġtransfer",
        "4583": "ctors",
        "4584": "Ġsuggested",
        "4585": "Ġstructure",
        "4586": "Ġsett",
        "4587": "ady",
        "4588": "Ġsites",
        "4589": "Ġhus",
        "4590": "Ġnorth",
        "4591": "ĠSince",
        "4592": "ĠLike",
        "4593": "Ġrestaur",
        "4594": "ampionship",
        "4595": "Ġlabor",
        "4596": "Ġdecade",
        "4597": "ĠBur",
        "4598": "Ġrepeated",
        "4599": "ĠGame",
        "4600": "gers",
        "4601": "Ġreact",
        "4602": "oman",
        "4603": "Ġcards",
        "4604": "Ġanimals",
        "4605": "going",
        "4606": "Ġnovel",
        "4607": "bing",
        "4608": "but",
        "4609": "NA",
        "4610": "ribute",
        "4611": "Ġdaughter",
        "4612": "anted",
        "4613": "Ġdriving",
        "4614": "Ġclosed",
        "4615": "Ġworst",
        "4616": "Ġcontain",
        "4617": "Ġentirely",
        "4618": "Ġded",
        "4619": "ĠBritain",
        "4620": "ici",
        "4621": "Bl",
        "4622": "Ġdriver",
        "4623": "ĠWil",
        "4624": "Ġdisease",
        "4625": "Ġnor",
        "4626": "Ġtelling",
        "4627": "iling",
        "4628": "Ġsmaller",
        "4629": "Ġdiscovered",
        "4630": "akistan",
        "4631": "ĠPri",
        "4632": "Americ",
        "4633": "ait",
        "4634": "ĠLos",
        "4635": "Ġhack",
        "4636": "!âĢĿ",
        "4637": "equ",
        "4638": "ference",
        "4639": "ĠQue",
        "4640": "spe",
        "4641": "Ġfalse",
        "4642": "Ġcash",
        "4643": "Ġconcerned",
        "4644": "ulf",
        "4645": "Ġplays",
        "4646": "Ġsurface",
        "4647": "semb",
        "4648": "udd",
        "4649": "annel",
        "4650": "Ġsupported",
        "4651": "ulated",
        "4652": "Ġtools",
        "4653": "Ġcompar",
        "4654": "oyal",
        "4655": "ĠChris",
        "4656": "Ġexperiment",
        "4657": "Ġfinding",
        "4658": "Ġtransport",
        "4659": "night",
        "4660": "Ġcateg",
        "4661": "ãĤ",
        "4662": "Ġaspect",
        "4663": "##",
        "4664": "Ġbusinesses",
        "4665": "Ġ70",
        "4666": "ĠUN",
        "4667": "Ġfarm",
        "4668": "Ġplease",
        "4669": "Ġolder",
        "4670": "azon",
        "4671": "phone",
        "4672": "how",
        "4673": "Ġactivities",
        "4674": "Ġrequires",
        "4675": "itt",
        "4676": "CH",
        "4677": "Ġgay",
        "4678": "ĠJones",
        "4679": "Ġge",
        "4680": "ibrary",
        "4681": "Ġstrength",
        "4682": "Ġwel",
        "4683": "48",
        "4684": "andon",
        "4685": "do",
        "4686": "Ġinsurance",
        "4687": "Ġconsequ",
        "4688": "37",
        "4689": "Ġlargely",
        "4690": "Ġmurder",
        "4691": "NN",
        "4692": "55",
        "4693": "Ġexerc",
        "4694": "Ġcaught",
        "4695": "Ġcandidates",
        "4696": "kins",
        "4697": "ĠIsraeli",
        "4698": "Ġallowing",
        "4699": "icy",
        "4700": "Ġblue",
        "4701": "ĠAre",
        "4702": "Ġannual",
        "4703": "ĠKen",
        "4704": "Ġtesting",
        "4705": "ossible",
        "4706": "Ġstrateg",
        "4707": "ĠSup",
        "4708": "ius",
        "4709": "Ġraise",
        "4710": "Ġstock",
        "4711": "overy",
        "4712": "ĠRobert",
        "4713": "izes",
        "4714": "Ġdecisions",
        "4715": "Ġaccur",
        "4716": "rick",
        "4717": "Ġcontext",
        "4718": "lor",
        "4719": "Ġfuel",
        "4720": "ĠAc",
        "4721": "SP",
        "4722": "osure",
        "4723": "ĠUkrain",
        "4724": "Ġconcern",
        "4725": "Ġafford",
        "4726": "Ġbelieves",
        "4727": "Ġconstruction",
        "4728": "Ġtruly",
        "4729": "***",
        "4730": "Ġtim",
        "4731": "ĠTy",
        "4732": "ĠMiss",
        "4733": "Ġjustice",
        "4734": "igrants",
        "4735": "Ġgeneration",
        "4736": "Ġhighlight",
        "4737": "rim",
        "4738": "Ġunit",
        "4739": "ĠTre",
        "4740": "Ġpresence",
        "4741": "ĠJewish",
        "4742": "anging",
        "4743": "!!",
        "4744": "ĠSil",
        "4745": "Ð°",
        "4746": "tery",
        "4747": "Ðµ",
        "4748": "ception",
        "4749": "ĠAfrica",
        "4750": "Ġguess",
        "4751": "ancy",
        "4752": "Ġwitness",
        "4753": "itable",
        "4754": "Ġholding",
        "4755": "ĠGree",
        "4756": "Ġestablish",
        "4757": "Ġlength",
        "4758": "Ġplanning",
        "4759": "ava",
        "4760": "ĠAfrican",
        "4761": "Ġsequ",
        "4762": "cknow",
        "4763": "Ġsan",
        "4764": "Ġrefuge",
        "4765": "Ġplaced",
        "4766": "Ġcatch",
        "4767": "ĠAfghan",
        "4768": "ĠAssociation",
        "4769": "Ġtells",
        "4770": "âĢĺ",
        "4771": "inter",
        "4772": "Ġscale",
        "4773": "bre",
        "4774": "Ġspokesman",
        "4775": "nel",
        "4776": "Le",
        "4777": "Ġrough",
        "4778": "Ġattend",
        "4779": "olly",
        "4780": "ĠVer",
        "4781": "Ġcells",
        "4782": "Ġjoined",
        "4783": "ĠAdd",
        "4784": "Ġmentioned",
        "4785": "Ġinterests",
        "4786": "Ġabuse",
        "4787": "âĢĶâĢ",
        "4788": "pective",
        "4789": "ĠJim",
        "4790": "More",
        "4791": "Ġhasn",
        "4792": "ĠPC",
        "4793": "Ġiniti",
        "4794": "Ġkid",
        "4795": "Ġenforcement",
        "4796": "la",
        "4797": "ĠGOP",
        "4798": "Ġintroduced",
        "4799": "Ġdeliver",
        "4800": "Ġconflict",
        "4801": "ĠPre",
        "4802": "ĠMer",
        "4803": "Ġrout",
        "4804": "ĠMicrosoft",
        "4805": "ĶâĢĶ",
        "4806": "Ġphil",
        "4807": "Ġupdate",
        "4808": "Ġmissing",
        "4809": "Ġproviding",
        "4810": "Ġwaiting",
        "4811": "ey",
        "4812": "Ġcancer",
        "4813": "39",
        "4814": "Ġrecommend",
        "4815": "ocracy",
        "4816": "Ġestablished",
        "4817": "bour",
        "4818": "isation",
        "4819": "Ġeat",
        "4820": "ĠYes",
        "4821": "Ġoccup",
        "4822": "ĠFrank",
        "4823": "ĠJeff",
        "4824": "ĠAngeles",
        "4825": "Ġremoved",
        "4826": "Ġ2005",
        "4827": "ula",
        "4828": "Ġoffensive",
        "4829": "ĠFore",
        "4830": "ĠInstead",
        "4831": "icon",
        "4832": "Ġinjury",
        "4833": "Ġsports",
        "4834": "47",
        "4835": "Ġfant",
        "4836": "Ġdiscussion",
        "4837": "lig",
        "4838": "Ġoperation",
        "4839": "Ġdownload",
        "4840": "Ġuseful",
        "4841": "Ġnewsp",
        "4842": "Ġconversation",
        "4843": "Ġhomes",
        "4844": "ronic",
        "4845": "Ġsouth",
        "4846": "Ġcook",
        "4847": "ĠCEO",
        "4848": "Ġassess",
        "4849": "itz",
        "4850": "ĠGroup",
        "4851": "formation",
        "4852": "Ġbanks",
        "4853": "onto",
        "4854": "Ġstopped",
        "4855": "ĠConst",
        "4856": "Ġobvious",
        "4857": "ications",
        "4858": "Ġmeasures",
        "4859": "Ġmodels",
        "4860": "ĠKh",
        "4861": "Ġfourth",
        "4862": "ĠMP",
        "4863": "Our",
        "4864": "season",
        "4865": "what",
        "4866": "Ġbul",
        "4867": "DA",
        "4868": "Ġ2018",
        "4869": "anda",
        "4870": "Ġfiles",
        "4871": "Ġgirls",
        "4872": "ĠLouis",
        "4873": "Ġstick",
        "4874": "cks",
        "4875": "vant",
        "4876": "azine",
        "4877": "mail",
        "4878": "umn",
        "4879": "Ġmanaged",
        "4880": "iter",
        "4881": "apped",
        "4882": "oted",
        "4883": "ĠTim",
        "4884": "Ġfigures",
        "4885": "oms",
        "4886": "ĠLeg",
        "4887": "Pl",
        "4888": "Ġidentified",
        "4889": "Ġgraph",
        "4890": "000",
        "4891": "ĠJud",
        "4892": "ĠSal",
        "4893": "Ġfinished",
        "4894": "igan",
        "4895": "Ġfunds",
        "4896": "real",
        "4897": "ĠPakistan",
        "4898": "Ġsetting",
        "4899": "Ġconclud",
        "4900": "Ġprefer",
        "4901": "Ġhair",
        "4902": "Ġcommitted",
        "4903": "ĠMexico",
        "4904": "49",
        "4905": "Ġskills",
        "4906": "Ġappropri",
        "4907": "Ġspirit",
        "4908": "ĠRock",
        "4909": "Ġveter",
        "4910": "Ġfocused",
        "4911": "Ġarrived",
        "4912": "ĠTHE",
        "4913": "Ġhousing",
        "4914": "ros",
        "4915": "Ġkeeping",
        "4916": "Ġtherefore",
        "4917": "Ġacknow",
        "4918": "ulate",
        "4919": "Des",
        "4920": "Ġpartner",
        "4921": "Ġexclus",
        "4922": "ĠAndroid",
        "4923": "kin",
        "4924": "enses",
        "4925": "ups",
        "4926": "rd",
        "4927": "Ġearth",
        "4928": "Ġtransl",
        "4929": "place",
        "4930": "Ġtough",
        "4931": "outs",
        "4932": "ĠJapanese",
        "4933": "Ġ2000",
        "4934": "Ġrelatively",
        "4935": "Ã¡",
        "4936": "ĠSupreme",
        "4937": "owl",
        "4938": "wing",
        "4939": "gl",
        "4940": "Ġidentity",
        "4941": "Ġfeels",
        "4942": "ĠMet",
        "4943": "Ġotherwise",
        "4944": "Ġsurvey",
        "4945": "ĠRyan",
        "4946": "ocal",
        "4947": "RA",
        "4948": "ication",
        "4949": "itutional",
        "4950": "Ġprotection",
        "4951": "Ġexchange",
        "4952": "Ġowner",
        "4953": "ĠVirgin",
        "4954": "isf",
        "4955": "Trump",
        "4956": "Ġtrip",
        "4957": "Ġsteps",
        "4958": "Ġhusband",
        "4959": "ĠInter",
        "4960": "agn",
        "4961": "Ġtweet",
        "4962": "Ġconnection",
        "4963": "ĠArmy",
        "4964": "Ġslightly",
        "4965": "ĠProf",
        "4966": "erences",
        "4967": "eah",
        "4968": "ĠSur",
        "4969": "Ġweak",
        "4970": "ĠGovernment",
        "4971": "verse",
        "4972": "\":",
        "4973": "Ġcircum",
        "4974": "Ġelements",
        "4975": "Ġclick",
        "4976": "ĠRichard",
        "4977": "Ġstrike",
        "4978": "Ġphotos",
        "4979": "Ġmere",
        "4980": "Ġdefensive",
        "4981": "ĠNor",
        "4982": "dden",
        "4983": "Ġgain",
        "4984": "Ġfle",
        "4985": "gar",
        "4986": "Ġdepend",
        "4987": "ucky",
        "4988": "Ġcollection",
        "4989": "onym",
        "4990": "Ġkilling",
        "4991": "Ġroll",
        "4992": "ighter",
        "4993": "hens",
        "4994": "Go",
        "4995": "Ġcorner",
        "4996": "ka",
        "4997": "ancing",
        "4998": "odies",
        "4999": "Ġsuggests",
        "5000": "uct",
        "5001": "Ġaggress",
        "5002": "with",
        "5003": "prof",
        "5004": "Ġguard",
        "5005": "Photo",
        "5006": "Ġgender",
        "5007": "makers",
        "5008": "ĠCollege",
        "5009": "Ġcommission",
        "5010": "ĠAlthough",
        "5011": "range",
        "5012": "Ġdat",
        "5013": "46",
        "5014": "ĠIr",
        "5015": "ĠDec",
        "5016": "Ġmental",
        "5017": "icide",
        "5018": "rees",
        "5019": "Ġamazing",
        "5020": "ĠSub",
        "5021": "hi",
        "5022": "Ġplanet",
        "5023": "ĠTeam",
        "5024": "rency",
        "5025": "ĠOut",
        "5026": "Ġbigger",
        "5027": "Ġfailure",
        "5028": "ĠJose",
        "5029": "Ġsupply",
        "5030": "Why",
        "5031": "ania",
        "5032": "Ġstarts",
        "5033": "Ġsides",
        "5034": "hedul",
        "5035": "iser",
        "5036": "Ġfamiliar",
        "5037": "Ġremind",
        "5038": "Ġsust",
        "5039": "ym",
        "5040": "ils",
        "5041": "Ġspect",
        "5042": "uate",
        "5043": "Ġspeaking",
        "5044": "Ġtalks",
        "5045": "Ġhappening",
        "5046": "Ġorganizations",
        "5047": "Ġhate",
        "5048": "gypt",
        "5049": "Ġwindow",
        "5050": "Ġarmy",
        "5051": "ĠGood",
        "5052": "ĠJoe",
        "5053": "Ġnone",
        "5054": "uke",
        "5055": "ĠPet",
        "5056": "Ġtaxes",
        "5057": "Ġplanned",
        "5058": "ĠMartin",
        "5059": "Ġthanks",
        "5060": "mas",
        "5061": "ĠMary",
        "5062": "Ġstruct",
        "5063": "Ġpit",
        "5064": "Ġdecide",
        "5065": "Ġsudden",
        "5066": "Ġwish",
        "5067": "Ġcrew",
        "5068": "Ġcarried",
        "5069": "ĠMont",
        "5070": "oston",
        "5071": "Ġpet",
        "5072": "awn",
        "5073": "agues",
        "5074": "ynam",
        "5075": "Ġregist",
        "5076": "TC",
        "5077": "Ġmulti",
        "5078": "idering",
        "5079": "Ġhelping",
        "5080": "ano",
        "5081": "Last",
        "5082": "Ġaward",
        "5083": "Ġstandards",
        "5084": "Ġ32",
        "5085": "ĠFire",
        "5086": "Ġrevolution",
        "5087": "Ġenvironmental",
        "5088": "ĠWeb",
        "5089": "pm",
        "5090": "arsh",
        "5091": "ĠThomas",
        "5092": "olit",
        "5093": "Ġscript",
        "5094": "ola",
        "5095": "Ġseconds",
        "5096": "run",
        "5097": "ĠResearch",
        "5098": "gn",
        "5099": "Ġscientific",
        "5100": "Ġimmigration",
        "5101": "ĠBern",
        "5102": "Ġstanding",
        "5103": "ĠTheir",
        "5104": "Ġ45",
        "5105": "stream",
        "5106": "ocol",
        "5107": "Ġque",
        "5108": "Ġbeer",
        "5109": "Ġdomestic",
        "5110": "imal",
        "5111": "adium",
        "5112": "Ġpair",
        "5113": "uters",
        "5114": "ĠAlso",
        "5115": "ĠSecretary",
        "5116": "ĠUs",
        "5117": "Ġacadem",
        "5118": "fe",
        "5119": "Ġcold",
        "5120": "Ġvariety",
        "5121": "Ġmarkets",
        "5122": "aven",
        "5123": "Ġsch",
        "5124": "].",
        "5125": "HL",
        "5126": "Ġterrit",
        "5127": "Ġdropped",
        "5128": "Ġaccounts",
        "5129": "!\"",
        "5130": "Ġfiled",
        "5131": "erous",
        "5132": "acks",
        "5133": "illa",
        "5134": "Ġbalance",
        "5135": "eless",
        "5136": "Ġimpossible",
        "5137": "ĠTer",
        "5138": "Ġinteract",
        "5139": "Ġrou",
        "5140": "Ġneighborhood",
        "5141": "lo",
        "5142": "Ġdegree",
        "5143": "Read",
        "5144": "ĠAtlant",
        "5145": "Ġturns",
        "5146": "itect",
        "5147": "Ġpossibly",
        "5148": "Ġappre",
        "5149": "Ġoperating",
        "5150": "Ġprinc",
        "5151": "Ġalternative",
        "5152": "aren",
        "5153": "Ġunion",
        "5154": "Ġvotes",
        "5155": "Ġvul",
        "5156": "ader",
        "5157": "Ġprofessor",
        "5158": "Ġtack",
        "5159": "ĠService",
        "5160": "Ġincreasingly",
        "5161": "ayer",
        "5162": "ruit",
        "5163": "Ġapply",
        "5164": "Ġfellow",
        "5165": "Ġcuts",
        "5166": "ores",
        "5167": "Ġhonest",
        "5168": "Ġunivers",
        "5169": "ĠPrime",
        "5170": "Ġserver",
        "5171": "Ġdevelopers",
        "5172": "arks",
        "5173": "ĠSyrian",
        "5174": "Ġapparently",
        "5175": "vis",
        "5176": "stein",
        "5177": "Ġlived",
        "5178": "Ġchanging",
        "5179": "Ġworry",
        "5180": "rastructure",
        "5181": "ĠCarolina",
        "5182": "Ġtests",
        "5183": "Ġunits",
        "5184": "Ġrich",
        "5185": "ĠTwo",
        "5186": "cious",
        "5187": "icted",
        "5188": "From",
        "5189": "aded",
        "5190": "Ġhumans",
        "5191": "IM",
        "5192": "ĠFoundation",
        "5193": "ĠMos",
        "5194": "Ġagencies",
        "5195": "Ġsounds",
        "5196": "ashed",
        "5197": "Ġtwice",
        "5198": "Ġultimately",
        "5199": "obby",
        "5200": "Ġlosing",
        "5201": "Ġphilos",
        "5202": "Ġauthority",
        "5203": "Ġsoldiers",
        "5204": "ãĥ",
        "5205": "Ġanimal",
        "5206": "Ġath",
        "5207": "ĠImages",
        "5208": "Ġsettle",
        "5209": "Ġschedul",
        "5210": "Ġmut",
        "5211": "Ġcolle",
        "5212": "Ġcorporate",
        "5213": "Ġabsolutely",
        "5214": "Ġhealthy",
        "5215": "Ġpaying",
        "5216": "och",
        "5217": "Ġequip",
        "5218": "gu",
        "5219": "iams",
        "5220": "Ġdeveloping",
        "5221": "Ġsea",
        "5222": "Ġcloser",
        "5223": "ĠDen",
        "5224": "Ġinnov",
        "5225": "ĠTime",
        "5226": "related",
        "5227": "Ġseeking",
        "5228": "Ġregarding",
        "5229": "coh",
        "5230": "Ġskin",
        "5231": "Ġexpensive",
        "5232": "ansion",
        "5233": "Ġpossibility",
        "5234": "Ġbeautiful",
        "5235": "Ġreligion",
        "5236": "ĠCentral",
        "5237": "Ġapart",
        "5238": "Ġfundament",
        "5239": "Ġexperts",
        "5240": "Ġsolar",
        "5241": "65",
        "5242": "Ġyards",
        "5243": "Ġwriter",
        "5244": "Ġflight",
        "5245": "Ġvast",
        "5246": "ĠDistrict",
        "5247": "ĠLast",
        "5248": "Ġdeploy",
        "5249": "Ġadjust",
        "5250": "Of",
        "5251": "Ġinternal",
        "5252": "ĠUnder",
        "5253": "ĠLat",
        "5254": "ĠPeter",
        "5255": "ĠPlan",
        "5256": "apers",
        "5257": "Ġimagine",
        "5258": "ĠJon",
        "5259": "IV",
        "5260": "Ġapplications",
        "5261": "ologies",
        "5262": "31",
        "5263": "Ġvision",
        "5264": "look",
        "5265": "state",
        "5266": "osen",
        "5267": "ĠFrancisco",
        "5268": "iot",
        "5269": "ĠToronto",
        "5270": "Ġsitting",
        "5271": "Ġtrail",
        "5272": "Ġunless",
        "5273": "ĠUSA",
        "5274": "ĠJes",
        "5275": "isted",
        "5276": "Ġheat",
        "5277": "Ġgar",
        "5278": "Ġ2004",
        "5279": "IP",
        "5280": "Even",
        "5281": "Ġresponsibility",
        "5282": "Ġcapacity",
        "5283": "atures",
        "5284": "ĠMiddle",
        "5285": "Ġerror",
        "5286": "aine",
        "5287": "Ġsymb",
        "5288": "Ġfol",
        "5289": "ĠDan",
        "5290": "pire",
        "5291": "Ġarms",
        "5292": "Ġpil",
        "5293": "Ġcovered",
        "5294": "idden",
        "5295": "ias",
        "5296": "Ġappoint",
        "5297": "Ġfamous",
        "5298": "ĠCamp",
        "5299": "Ġforms",
        "5300": "uzz",
        "5301": "ND",
        "5302": "Ġuniversity",
        "5303": "Ġtight",
        "5304": "top",
        "5305": "Ġpresented",
        "5306": "ortion",
        "5307": "oving",
        "5308": "enced",
        "5309": "ĠST",
        "5310": "Ġclim",
        "5311": "ĠEgypt",
        "5312": "Ġearn",
        "5313": "ĠPut",
        "5314": "Ġconvention",
        "5315": "under",
        "5316": "Just",
        "5317": "ĠPublic",
        "5318": "Ġsurprise",
        "5319": "Ġattorney",
        "5320": "Ġelections",
        "5321": "Ġestimated",
        "5322": "Ġfif",
        "5323": "ĠMur",
        "5324": "ĠAri",
        "5325": "Ġteen",
        "5326": "Ġinstit",
        "5327": "Ġvehicles",
        "5328": "rible",
        "5329": "ĠAmazon",
        "5330": "road",
        "5331": "Ġintended",
        "5332": ".âĢĿ<|",
        "5333": "Ġrid",
        "5334": "Ġodd",
        "5335": "Ġhelps",
        "5336": "Ġoccurred",
        "5337": "person",
        "5338": "ala",
        "5339": "Ġstreets",
        "5340": "uster",
        "5341": "hand",
        "5342": "ĠBoston",
        "5343": "ĠSol",
        "5344": "Ġ=>",
        "5345": "roud",
        "5346": "=\"",
        "5347": "Ġsport",
        "5348": "sen",
        "5349": "Ġdetermine",
        "5350": "ressive",
        "5351": "ĠBitcoin",
        "5352": "Ġexpert",
        "5353": "Ġschem",
        "5354": "alls",
        "5355": "Ġconsult",
        "5356": "uration",
        "5357": "Let",
        "5358": "Ġbroken",
        "5359": "Ġguaran",
        "5360": "lets",
        "5361": "Ġfired",
        "5362": "Ġton",
        "5363": "Ġflow",
        "5364": "Ġdomin",
        "5365": "porary",
        "5366": "eder",
        "5367": "LE",
        "5368": "Ġshall",
        "5369": "inte",
        "5370": "Ġreserv",
        "5371": "Ġtroops",
        "5372": "ION",
        "5373": "ĠThose",
        "5374": "Ġhyp",
        "5375": "Up",
        "5376": "Ġnar",
        "5377": "terday",
        "5378": "Ġpieces",
        "5379": "ĠChief",
        "5380": "Ġprepared",
        "5381": "ĠMass",
        "5382": "ĠCath",
        "5383": "Ġrapid",
        "5384": "orage",
        "5385": "ĠJo",
        "5386": "Ġlocated",
        "5387": "ĠSocial",
        "5388": "Ġbaby",
        "5389": "Ġconclus",
        "5390": "Ġbringing",
        "5391": "Ġprove",
        "5392": "Ġspecifically",
        "5393": "ĠAny",
        "5394": "Ġpotentially",
        "5395": "Ġsector",
        "5396": "anche",
        "5397": "Ġrandom",
        "5398": "Ġjail",
        "5399": "OW",
        "5400": "Ġselling",
        "5401": "Ġgovernments",
        "5402": "ĠOnce",
        "5403": "Ġequal",
        "5404": "Ab",
        "5405": "class",
        "5406": "Ġfaster",
        "5407": "Ġheav",
        "5408": "ĠSpr",
        "5409": "Ġboost",
        "5410": "useum",
        "5411": "vey",
        "5412": "war",
        "5413": "Ġproposal",
        "5414": "oty",
        "5415": "Ġfactors",
        "5416": "Ġclin",
        "5417": "ĠGal",
        "5418": "Ġplenty",
        "5419": "TH",
        "5420": "Ġequipment",
        "5421": "Ġcouncil",
        "5422": "Ġera",
        "5423": "Ġinfrastructure",
        "5424": "Do",
        "5425": "Ġstress",
        "5426": "phas",
        "5427": "Ġstars",
        "5428": "ĠJournal",
        "5429": "ĠRub",
        "5430": "endment",
        "5431": "ĠVirginia",
        "5432": "Ġbreat",
        "5433": "Ġprosecut",
        "5434": "Ġvoted",
        "5435": "Ġoffering",
        "5436": "Ġcarbon",
        "5437": "inent",
        "5438": "Ġexpressed",
        "5439": "Ġcombat",
        "5440": "Ġvulner",
        "5441": "Ġbroke",
        "5442": "()",
        "5443": "ureau",
        "5444": "Ġclot",
        "5445": "ĠCur",
        "5446": "ours",
        "5447": "ĠFederal",
        "5448": "Ġruling",
        "5449": "Ġretail",
        "5450": "ĠGuard",
        "5451": "Ġrefused",
        "5452": "Ġdram",
        "5453": "Ġelected",
        "5454": "ĠOpen",
        "5455": "ĠRiver",
        "5456": "Every",
        "5457": "Ġsecure",
        "5458": "cean",
        "5459": "Ġseasons",
        "5460": "Ġconducted",
        "5461": ",'",
        "5462": "ĠParis",
        "5463": "Ġchallenges",
        "5464": "Ġremove",
        "5465": "isher",
        "5466": "rog",
        "5467": "Ġmethods",
        "5468": "ht",
        "5469": "Ġweapon",
        "5470": "noon",
        "5471": "Ġpointed",
        "5472": "ĠIsland",
        "5473": "Ġmaster",
        "5474": "Ġremained",
        "5475": "ĠAustralian",
        "5476": "Ġprime",
        "5477": "ENT",
        "5478": "Ġtrig",
        "5479": "ĠMel",
        "5480": "Ġpositions",
        "5481": "ĠCru",
        "5482": "Ġinfect",
        "5483": "Ġdin",
        "5484": "Ġcriticism",
        "5485": "ipping",
        "5486": "First",
        "5487": "ocking",
        "5488": "ĠMedic",
        "5489": "ĠPlease",
        "5490": "tion",
        "5491": "onom",
        "5492": "IG",
        "5493": "Ġsale",
        "5494": "ĠFe",
        "5495": "olved",
        "5496": "Ġcultural",
        "5497": "that",
        "5498": "Ġweren",
        "5499": "Ġsignificantly",
        "5500": "Ġbrow",
        "5501": "etic",
        "5502": "Ġoriginally",
        "5503": "Ste",
        "5504": "rie",
        "5505": "ĠDuring",
        "5506": "Ġstret",
        "5507": "Ġaffected",
        "5508": "Ġappearance",
        "5509": "Ġcas",
        "5510": "ĠSant",
        "5511": "Ġtourn",
        "5512": "Ġfacing",
        "5513": "Ġgreatest",
        "5514": "Ġfinish",
        "5515": "ĠLee",
        "5516": "Ġyouth",
        "5517": "Ġtele",
        "5518": "yr",
        "5519": "ĠWho",
        "5520": "Ġpercentage",
        "5521": "ĠPhoto",
        "5522": "col",
        "5523": "Ġdetermined",
        "5524": "Ġsigns",
        "5525": "Ġinvolve",
        "5526": "95",
        "5527": "cel",
        "5528": "Ð¸",
        "5529": "Ġthank",
        "5530": "Ġbought",
        "5531": "Ġ500",
        "5532": "lyn",
        "5533": "standing",
        "5534": "Ġchemical",
        "5535": "ashion",
        "5536": "64",
        "5537": "Ġshape",
        "5538": "ĠSing",
        "5539": "Ġregime",
        "5540": "Ġgrew",
        "5541": "pired",
        "5542": "Ġremaining",
        "5543": "ĠSteve",
        "5544": "lymp",
        "5545": "ĠRo",
        "5546": "Ġminimum",
        "5547": "ĠSaud",
        "5548": "reens",
        "5549": "Ġindeed",
        "5550": "Ġdream",
        "5551": "rier",
        "5552": "Since",
        "5553": "aling",
        "5554": "Ġmarg",
        "5555": "Sp",
        "5556": "ĠBoth",
        "5557": ">>",
        "5558": "Ġmode",
        "5559": "Ġherself",
        "5560": "Ġvoting",
        "5561": "ĠColor",
        "5562": "Ġobviously",
        "5563": "ĠForce",
        "5564": "Ġreduced",
        "5565": "ĠNov",
        "5566": "ĠRem",
        "5567": "Ġwood",
        "5568": "ordin",
        "5569": "Ġrecorded",
        "5570": "Ġargued",
        "5571": "Ġ1990",
        "5572": "Ġrevenue",
        "5573": "Ġtact",
        "5574": "Ġwearing",
        "5575": "ighters",
        "5576": "Ġleads",
        "5577": "Ġhun",
        "5578": "edia",
        "5579": "Ġpoliticians",
        "5580": "Ġplus",
        "5581": "Ġswitch",
        "5582": "Ġcontrast",
        "5583": "Ġhandle",
        "5584": "Ġpurchase",
        "5585": "Ġthr",
        "5586": "Ġsubs",
        "5587": "Ġconcent",
        "5588": "Ġproced",
        "5589": "ÑĤ",
        "5590": "Ġagent",
        "5591": "hab",
        "5592": "mm",
        "5593": "arp",
        "5594": "ĠWilliams",
        "5595": "Ġappreci",
        "5596": "Ġexperienced",
        "5597": "Ġhurt",
        "5598": "Ġexcited",
        "5599": "Ġvideos",
        "5600": "Ġhttps",
        "5601": "cohol",
        "5602": "Ġsupporting",
        "5603": "DP",
        "5604": "ĠHaw",
        "5605": "Ġvir",
        "5606": "ĠFree",
        "5607": "Ġsurprising",
        "5608": "ller",
        "5609": "Ġminute",
        "5610": "Ġexplos",
        "5611": "ĠPac",
        "5612": "Ġbelong",
        "5613": "Ġconsumers",
        "5614": "Ġidentify",
        "5615": "Ġconsidering",
        "5616": "ownt",
        "5617": "ĠConserv",
        "5618": "apter",
        "5619": "Ġaircraft",
        "5620": "Ġaid",
        "5621": "Ne",
        "5622": "CL",
        "5623": "Ġpulled",
        "5624": "Ġrent",
        "5625": "gment",
        "5626": "Ġbasically",
        "5627": "Ġdifferences",
        "5628": "ogue",
        "5629": "ĠBook",
        "5630": "Ġglass",
        "5631": "http",
        "5632": "ĠRad",
        "5633": "Ġafternoon",
        "5634": "Ġshift",
        "5635": "Ġdiss",
        "5636": "Ġends",
        "5637": "essions",
        "5638": "Ġturning",
        "5639": "Ġbound",
        "5640": "Ġfilms",
        "5641": "Ġspring",
        "5642": "Ġdepart",
        "5643": "Ġprospect",
        "5644": "ruption",
        "5645": "ket",
        "5646": "ĠCharl",
        "5647": "life",
        "5648": "Ġtreated",
        "5649": "Ġaccident",
        "5650": ",[",
        "5651": "Ġmotiv",
        "5652": "Ġlisten",
        "5653": "Ġseat",
        "5654": "ĠPower",
        "5655": "Ġcombined",
        "5656": "Ġconstruct",
        "5657": "Ind",
        "5658": "Ġseriously",
        "5659": "Ġprivacy",
        "5660": "apping",
        "5661": "Ġevening",
        "5662": "hered",
        "5663": "Ġopportunities",
        "5664": "asp",
        "5665": "hy",
        "5666": "Ġstruggle",
        "5667": "Ġ195",
        "5668": "Ġpanel",
        "5669": "Ġenemy",
        "5670": "Ġlots",
        "5671": "Ġcompleted",
        "5672": "ĠDaily",
        "5673": "Ġvisual",
        "5674": "His",
        "5675": "pet",
        "5676": "Phone",
        "5677": "Ġtalked",
        "5678": "pted",
        "5679": "Ġhopes",
        "5680": "uts",
        "5681": "Ġpassing",
        "5682": "oral",
        "5683": "Ġid",
        "5684": "Ġapps",
        "5685": "osite",
        "5686": "05",
        "5687": "gent",
        "5688": "ĠStep",
        "5689": "PD",
        "5690": "Ġcalcul",
        "5691": "Ġmort",
        "5692": "Another",
        "5693": "Ġwidely",
        "5694": "ensions",
        "5695": "Ġemergency",
        "5696": "ĠHol",
        "5697": "amm",
        "5698": "ĠShow",
        "5699": "Ġsuit",
        "5700": "Ġelement",
        "5701": "Ġast",
        "5702": "anged",
        "5703": "SS",
        "5704": "ucks",
        "5705": "aled",
        "5706": "Ġpowers",
        "5707": "ĠRel",
        "5708": "ĠBBC",
        "5709": "Ġflat",
        "5710": "ĠOlymp",
        "5711": "Ġburn",
        "5712": "TV",
        "5713": "Ġdiscl",
        "5714": "Ġplants",
        "5715": "ĠSpace",
        "5716": "ato",
        "5717": "Ġliberal",
        "5718": "Pe",
        "5719": "raud",
        "5720": "obe",
        "5721": "Ġopposed",
        "5722": "Ġsad",
        "5723": "Well",
        "5724": "Ġproceed",
        "5725": "ompl",
        "5726": "Ġcopyright",
        "5727": "ĠProject",
        "5728": "oking",
        "5729": "Ġadvance",
        "5730": "Ġfactor",
        "5731": "Ġdistance",
        "5732": "Ġ2003",
        "5733": "ivered",
        "5734": "Ġdismiss",
        "5735": "plom",
        "5736": "Ġattempts",
        "5737": "Ġtun",
        "5738": "ette",
        "5739": "Am",
        "5740": "ĠRoad",
        "5741": "abilities",
        "5742": "ĠIN",
        "5743": "ributed",
        "5744": "Ġtrouble",
        "5745": "unction",
        "5746": "Ġhol",
        "5747": "Ġcollabor",
        "5748": "Ġdefault",
        "5749": "idel",
        "5750": "Ġzone",
        "5751": "Ġencoun",
        "5752": "ĠJackson",
        "5753": "Ġupgr",
        "5754": "ita",
        "5755": "rawn",
        "5756": "Ġreaction",
        "5757": "Ġstorm",
        "5758": "Ġreporters",
        "5759": "ĠMem",
        "5760": "Ġfrust",
        "5761": "PR",
        "5762": "nell",
        "5763": "Ġwrites",
        "5764": "adow",
        "5765": "mosp",
        "5766": "mond",
        "5767": "aints",
        "5768": "Ġtypically",
        "5769": "lines",
        "5770": "ĠToday",
        "5771": "respond",
        "5772": "UT",
        "5773": "Ġpages",
        "5774": "Ġinstruct",
        "5775": "inian",
        "5776": "eds",
        "5777": "ternal",
        "5778": "Ġreference",
        "5779": "Ġgrab",
        "5780": "zer",
        "5781": "Ġpackage",
        "5782": "Ġbodies",
        "5783": "Ġmatters",
        "5784": "sts",
        "5785": "01",
        "5786": "free",
        "5787": "Ġdenied",
        "5788": "care",
        "5789": "App",
        "5790": "Ġquant",
        "5791": "Ġdisappoint",
        "5792": "Ġsem",
        "5793": "Ġexplo",
        "5794": "ĠBet",
        "5795": "ĠNAS",
        "5796": "Ġoptim",
        "5797": "ache",
        "5798": "Ġquiet",
        "5799": "Ġentertain",
        "5800": "Ġresponded",
        "5801": "Ġapproved",
        "5802": "ĠTurkey",
        "5803": "Ġsatisf",
        "5804": "aped",
        "5805": "Rep",
        "5806": "Ġbroadcast",
        "5807": "esters",
        "5808": "Ġinstitutions",
        "5809": "Ġadvert",
        "5810": "42",
        "5811": "Ġstands",
        "5812": "ĠDirector",
        "5813": "Ġsets",
        "5814": "estival",
        "5815": "ga",
        "5816": "Ġelimin",
        "5817": "razy",
        "5818": "Ã¤",
        "5819": "host",
        "5820": "Ġvalid",
        "5821": "Ġrenew",
        "5822": "ĠOhio",
        "5823": "Cont",
        "5824": "Ġsplit",
        "5825": "Ġsevere",
        "5826": "ĠWilliam",
        "5827": "Ġsac",
        "5828": "Ġcapable",
        "5829": "ĠMatt",
        "5830": "ĠPenn",
        "5831": "Ġ2001",
        "5832": "Ġ//",
        "5833": "Ġpitch",
        "5834": "aniel",
        "5835": "Ġcaption",
        "5836": "Ġloved",
        "5837": "Ġtechnical",
        "5838": "Ġgiant",
        "5839": "pass",
        "5840": "Ġtradition",
        "5841": "isters",
        "5842": "Ġcann",
        "5843": "water",
        "5844": "Ġbull",
        "5845": "abin",
        "5846": "Ġconfident",
        "5847": "elly",
        "5848": "uous",
        "5849": "Ġconfidence",
        "5850": "rum",
        "5851": "Ġnumerous",
        "5852": "Ġreportedly",
        "5853": "ĠMa",
        "5854": "Ġfaces",
        "5855": "],",
        "5856": "writ",
        "5857": "Ġweather",
        "5858": "Ġfly",
        "5859": "rid",
        "5860": "Ġtransition",
        "5861": "Ġ36",
        "5862": "ĠSystem",
        "5863": "unte",
        "5864": "ĠAfghanistan",
        "5865": "ĠSqu",
        "5866": "Ġwaste",
        "5867": "Ġcreation",
        "5868": "Ġperspective",
        "5869": "Ġunable",
        "5870": "Ġforget",
        "5871": "ĠLabour",
        "5872": "De",
        "5873": "ĠYet",
        "5874": "astern",
        "5875": "employ",
        "5876": ".\"<|",
        "5877": "oken",
        "5878": "ĠMedia",
        "5879": "angers",
        "5880": "II",
        "5881": "Ġcraft",
        "5882": "Ġsubstant",
        "5883": "Ġcooper",
        "5884": "Ġviolent",
        "5885": "Ġsuffered",
        "5886": "ilit",
        "5887": "Ġmand",
        "5888": "ampion",
        "5889": "Ġcoast",
        "5890": "43",
        "5891": "Ġpictures",
        "5892": "Ġexperiences",
        "5893": "Ġapprox",
        "5894": "Ġroute",
        "5895": "abled",
        "5896": "rant",
        "5897": "88",
        "5898": "Ġflag",
        "5899": "Ġadvice",
        "5900": "ĠAndrew",
        "5901": "usiness",
        "5902": "Ġdeclared",
        "5903": "Ġordered",
        "5904": "ĠHuman",
        "5905": "razil",
        "5906": "Ġcrimes",
        "5907": "Ġcoff",
        "5908": "Ġproud",
        "5909": "ishes",
        "5910": "Ġreporting",
        "5911": "Ġmessages",
        "5912": "sex",
        "5913": "Ġcircumst",
        "5914": "Ġfindings",
        "5915": "Res",
        "5916": "ulations",
        "5917": "Ġeval",
        "5918": "Ġexcell",
        "5919": "Over",
        "5920": "Ġdeclined",
        "5921": "ĠWal",
        "5922": "Ġexplains",
        "5923": "ĠLin",
        "5924": "can",
        "5925": "Ġdelay",
        "5926": "Ġ\\",
        "5927": "ĠFollow",
        "5928": "Ġnewspaper",
        "5929": "ounded",
        "5930": "Ġconnected",
        "5931": "ilty",
        "5932": "Ġshouldn",
        "5933": "Ġmal",
        "5934": "evin",
        "5935": "oves",
        "5936": "Ġongoing",
        "5937": "Ġcloud",
        "5938": "dule",
        "5939": "Ġvan",
        "5940": "Ġmovies",
        "5941": "Ġpicked",
        "5942": "resents",
        "5943": "77",
        "5944": "Ġadmitted",
        "5945": "Ġgra",
        "5946": "Ġdelivered",
        "5947": "During",
        "5948": "Ġguns",
        "5949": "ĠML",
        "5950": "ionally",
        "5951": "ĠScot",
        "5952": "Ġwalking",
        "5953": "Ġprin",
        "5954": "Ġagents",
        "5955": "called",
        "5956": "Ġeditor",
        "5957": "Ġthoughts",
        "5958": "Ġmarried",
        "5959": "ĠTra",
        "5960": "Ġauth",
        "5961": "Ġemails",
        "5962": "Ġappropriate",
        "5963": "edd",
        "5964": "Ġemphas",
        "5965": "ĠRod",
        "5966": "uations",
        "5967": "Ġedge",
        "5968": "Ġarchitect",
        "5969": "ĠGrand",
        "5970": "Ġleaves",
        "5971": "Ġupdates",
        "5972": "Ġaccompl",
        "5973": "OD",
        "5974": "Ġgather",
        "5975": "Ġforg",
        "5976": "ĠMuslims",
        "5977": "ansas",
        "5978": "ĠWood",
        "5979": "Ġquarterback",
        "5980": "Ġsession",
        "5981": "ooth",
        "5982": "Ġpool",
        "5983": "ĠTechn",
        "5984": "ĠScience",
        "5985": "cos",
        "5986": "Ġinjured",
        "5987": "arn",
        "5988": "Ġpublicly",
        "5989": "ellow",
        "5990": "ĠSov",
        "5991": "Ġstatements",
        "5992": "Ġperman",
        "5993": "arl",
        "5994": "Ġlegit",
        "5995": "Ġconfirm",
        "5996": "nergy",
        "5997": "ĠLake",
        "5998": "Ġourselves",
        "5999": "Other",
        "6000": "Ġrealize",
        "6001": "Ġdrivers",
        "6002": "Ġrot",
        "6003": "MA",
        "6004": "ĠAv",
        "6005": "ĠDou",
        "6006": "mates",
        "6007": ",âĢĻ",
        "6008": "Ġarmed",
        "6009": "essor",
        "6010": "Ġdial",
        "6011": "cons",
        "6012": "Te",
        "6013": "TA",
        "6014": "Ġlawyer",
        "6015": "ourney",
        "6016": "Ġrail",
        "6017": "Ġreaders",
        "6018": "reland",
        "6019": "Ġcontains",
        "6020": "Ġargue",
        "6021": "ĠRev",
        "6022": "Ġtalent",
        "6023": "Ġfilled",
        "6024": "ĠSum",
        "6025": "Ġallegations",
        "6026": "Ġactivists",
        "6027": "ĠChristmas",
        "6028": "Ġdynam",
        "6029": "Ġ1980",
        "6030": "ĠMichigan",
        "6031": "date",
        "6032": "ĠBack",
        "6033": "ĠRon",
        "6034": "long",
        "6035": "Ġcrack",
        "6036": "Ġtransform",
        "6037": "ĠRead",
        "6038": "Tube",
        "6039": "Ġbuildings",
        "6040": "Ġwear",
        "6041": "Many",
        "6042": "ĠIll",
        "6043": "Ġsam",
        "6044": "Ġterrorist",
        "6045": "Ġtree",
        "6046": "Ġexercise",
        "6047": "enda",
        "6048": "Ġlabel",
        "6049": "Ġeffectively",
        "6050": "Oh",
        "6051": "Ġpractices",
        "6052": "Ġgod",
        "6053": "Ġsubsequ",
        "6054": "ĠJul",
        "6055": "ĠSher",
        "6056": "TS",
        "6057": "uls",
        "6058": "Ġflo",
        "6059": "Ġfish",
        "6060": "enture",
        "6061": "Ġshop",
        "6062": "Ġexamples",
        "6063": "41",
        "6064": "ĠHy",
        "6065": "Ġpatient",
        "6066": "ĠGen",
        "6067": "ĠSeattle",
        "6068": "Ġobjects",
        "6069": "ĠSee",
        "6070": "Ġtech",
        "6071": "Ġsecretary",
        "6072": "gia",
        "6073": "asure",
        "6074": "Ġrain",
        "6075": "urning",
        "6076": "Ġmissed",
        "6077": "Ġcauses",
        "6078": "illy",
        "6079": "Ġdebut",
        "6080": "Ġessentially",
        "6081": "66",
        "6082": "Ġmoral",
        "6083": "orders",
        "6084": "ador",
        "6085": "word",
        "6086": "def",
        "6087": "acter",
        "6088": "ĠWork",
        "6089": "arters",
        "6090": "ĠUkraine",
        "6091": "Ġcentre",
        "6092": "ĠStan",
        "6093": "hedule",
        "6094": "Follow",
        "6095": "amin",
        "6096": "ĠVict",
        "6097": "ĠID",
        "6098": "Ġinjuries",
        "6099": "icing",
        "6100": "ĠPhot",
        "6101": "Ġmotor",
        "6102": "ĠiPhone",
        "6103": "Ġartist",
        "6104": "Ġclient",
        "6105": "Ġbond",
        "6106": "Ġthinks",
        "6107": "iat",
        "6108": "aza",
        "6109": "orse",
        "6110": "ouston",
        "6111": "Ġpure",
        "6112": "Ġhell",
        "6113": "Although",
        "6114": "ĠSaudi",
        "6115": "Ġfacts",
        "6116": "Ĥ¬",
        "6117": "Ġdesire",
        "6118": "agers",
        "6119": "Ġske",
        "6120": "orry",
        "6121": "Ġlinked",
        "6122": "ÃŃ",
        "6123": "Ġgovernor",
        "6124": "ĠBat",
        "6125": "Ġmaterials",
        "6126": "nan",
        "6127": "Ġperformed",
        "6128": "Spe",
        "6129": "Ġfranch",
        "6130": "esome",
        "6131": "Ġsuc",
        "6132": "Ġphilosoph",
        "6133": "Ġinitially",
        "6134": "ĠSign",
        "6135": "Ġnecessarily",
        "6136": "ĠKim",
        "6137": "ĠFer",
        "6138": "Ġexpansion",
        "6139": "Ġscheduled",
        "6140": "ERS",
        "6141": "Ġwarned",
        "6142": "iest",
        "6143": "Ġdiplom",
        "6144": "Ġadvanced",
        "6145": "Ġexplan",
        "6146": "Ġing",
        "6147": "Ġvari",
        "6148": "Ġeverybody",
        "6149": "Ġjoint",
        "6150": "Ġdecre",
        "6151": "Ġresolution",
        "6152": "Ġincreases",
        "6153": "enger",
        "6154": "Yes",
        "6155": "Ġaccepted",
        "6156": "Ġincor",
        "6157": "Ġmyster",
        "6158": "Ġfaced",
        "6159": "Ġbare",
        "6160": "illance",
        "6161": "Ġannouncement",
        "6162": "Ġfollows",
        "6163": "ĠMount",
        "6164": "Ġnations",
        "6165": "Ġplayoff",
        "6166": "ĠLife",
        "6167": "Ġabandon",
        "6168": "ĠSecond",
        "6169": "ĠId",
        "6170": "Ġradical",
        "6171": "Ġathlet",
        "6172": "Ġneither",
        "6173": "Ġyesterday",
        "6174": "Ġdatab",
        "6175": "Ġnearby",
        "6176": "Ġdistribution",
        "6177": "otic",
        "6178": "Ġapplied",
        "6179": "irty",
        "6180": "Ġmagazine",
        "6181": "Most",
        "6182": "athan",
        "6183": "rich",
        "6184": "Ġconsequences",
        "6185": "Ġmir",
        "6186": "Ġdoctor",
        "6187": "Ġlisted",
        "6188": "uy",
        "6189": "ĠColumb",
        "6190": "Ġatmosp",
        "6191": "American",
        "6192": "Ġsurprised",
        "6193": "Ġfort",
        "6194": "Ġoffense",
        "6195": "Qu",
        "6196": "itors",
        "6197": "ĠCNN",
        "6198": "ĠRE",
        "6199": "Ġspons",
        "6200": "Ġbegins",
        "6201": "ĠWeek",
        "6202": "Ġthreats",
        "6203": "Ġaf",
        "6204": "sembly",
        "6205": "Ġrepresents",
        "6206": "ĠJews",
        "6207": "ĠGM",
        "6208": "ĠAff",
        "6209": "Ġenh",
        "6210": "Ġmoves",
        "6211": "Ġremark",
        "6212": "ĠTO",
        "6213": "Ġsongs",
        "6214": "Ġpra",
        "6215": "kay",
        "6216": "Ġbehavi",
        "6217": "Ġride",
        "6218": "Can",
        "6219": "Ġadds",
        "6220": "Ġwithd",
        "6221": "ÃĤ",
        "6222": "Ġimproved",
        "6223": "rip",
        "6224": "Ġphen",
        "6225": "ĠBlue",
        "6226": "Ġbot",
        "6227": "Ġwarm",
        "6228": "Ġalcohol",
        "6229": "Ġoutput",
        "6230": "law",
        "6231": "ĠAT",
        "6232": "Ġflood",
        "6233": "ĠDevelop",
        "6234": "ĠHen",
        "6235": "whel",
        "6236": "edy",
        "6237": "Ġshots",
        "6238": "Ġfill",
        "6239": "ĠVol",
        "6240": "Ġstood",
        "6241": "Ġbrings",
        "6242": "Ġalt",
        "6243": "Ġpushed",
        "6244": "Ġguilty",
        "6245": "ĠRomney",
        "6246": "Ġsubscrib",
        "6247": "85",
        "6248": "Ġentry",
        "6249": "ocratic",
        "6250": "ĠDev",
        "6251": "ĠBrazil",
        "6252": "Ġdemocracy",
        "6253": "Ġboys",
        "6254": "burg",
        "6255": "rac",
        "6256": "Ġ33",
        "6257": "Ġrow",
        "6258": "Ġconfig",
        "6259": "ĠNBA",
        "6260": "Ġlawsuit",
        "6261": "ĠIreland",
        "6262": "Ġmanufacture",
        "6263": "Ġreceiving",
        "6264": "Ġrein",
        "6265": "ĠBarack",
        "6266": "Then",
        "6267": "Ġtrib",
        "6268": "Ġtotally",
        "6269": "ĠOnly",
        "6270": "Ġdiscussed",
        "6271": "Ġrestaurant",
        "6272": "Ġsought",
        "6273": "Ġrising",
        "6274": "Ġentered",
        "6275": "ĠISIS",
        "6276": "ĠBoard",
        "6277": "Ġ300",
        "6278": "Ġconsistent",
        "6279": "Ġhistorical",
        "6280": "twitter",
        "6281": "Ġstorage",
        "6282": "ideo",
        "6283": "Ġcorrespond",
        "6284": "Ġplane",
        "6285": "Ġcombination",
        "6286": "Ġscored",
        "6287": "Ġinput",
        "6288": "Ġsymbol",
        "6289": "Ġbright",
        "6290": "Ġbutton",
        "6291": "irds",
        "6292": "Ġsucceed",
        "6293": "stood",
        "6294": "Ġcreative",
        "6295": "Ġinvestors",
        "6296": "Ġsquare",
        "6297": "Ġarticles",
        "6298": "Ġ2002",
        "6299": "Ġisland",
        "6300": "pty",
        "6301": "Ġdeaths",
        "6302": "Ġscr",
        "6303": "Ġfunctions",
        "6304": "Ġnetworks",
        "6305": "Ġclasses",
        "6306": "Ġunlikely",
        "6307": "alty",
        "6308": "ĠPrem",
        "6309": "Ġheads",
        "6310": "ician",
        "6311": "Ġboss",
        "6312": "Ġnative",
        "6313": "icious",
        "6314": "Ġlie",
        "6315": "Ġsav",
        "6316": "ĠLib",
        "6317": "Ġroughly",
        "6318": "Ġconsumer",
        "6319": "ĠWhe",
        "6320": "ĠWalk",
        "6321": "fortunately",
        "6322": "ĠMs",
        "6323": "Ġstring",
        "6324": "ĠMaybe",
        "6325": "Ġheavily",
        "6326": "ĠAnother",
        "6327": "Ġfairly",
        "6328": "Ġtemperature",
        "6329": "arden",
        "6330": "ican",
        "6331": "Ġkit",
        "6332": "Ġexistence",
        "6333": "ĠIts",
        "6334": "ĠAsia",
        "6335": "Ġcontest",
        "6336": "Ġplot",
        "6337": "issions",
        "6338": "ĠCub",
        "6339": "Ġresident",
        "6340": "usal",
        "6341": "Ġtargets",
        "6342": "ĠBob",
        "6343": "Ġresc",
        "6344": "ĠKorean",
        "6345": "duc",
        "6346": "Ġlock",
        "6347": "Ġyounger",
        "6348": "Ġcolleagues",
        "6349": "ĠStr",
        "6350": "',",
        "6351": "ĠSwed",
        "6352": "PU",
        "6353": "abb",
        "6354": "Ġlibrary",
        "6355": "Ã¶",
        "6356": "Ġrally",
        "6357": "Ġparliament",
        "6358": "Ġprotests",
        "6359": "Ġanywhere",
        "6360": "oked",
        "6361": "ĠSports",
        "6362": "ĠSky",
        "6363": "Ġbike",
        "6364": "zona",
        "6365": "Ġbreaking",
        "6366": "acle",
        "6367": "Ġstores",
        "6368": "Ġexpression",
        "6369": "Ġsym",
        "6370": "Ġchain",
        "6371": "Ġblow",
        "6372": "Ġwarning",
        "6373": "Ġimportance",
        "6374": "Ġdefined",
        "6375": "Ġchart",
        "6376": "Ġbuying",
        "6377": "Ġmanage",
        "6378": "Ġprohib",
        "6379": "ii",
        "6380": "Ġclassic",
        "6381": "Ġcere",
        "6382": "Ġsnow",
        "6383": "Ġadults",
        "6384": "Ġillust",
        "6385": "ĠEach",
        "6386": "See",
        "6387": "Ob",
        "6388": "Ġmarketing",
        "6389": "Ġlinks",
        "6390": "Ã³",
        "6391": "born",
        "6392": "Ġshif",
        "6393": "iques",
        "6394": "andal",
        "6395": "ĠClub",
        "6396": "Ġtow",
        "6397": "ĠHist",
        "6398": "Ġfraud",
        "6399": "OC",
        "6400": "Man",
        "6401": "pret",
        "6402": "dis",
        "6403": "Ġfacility",
        "6404": "ollywood",
        "6405": "Ġhardware",
        "6406": "Ġschol",
        "6407": "Ġallegedly",
        "6408": "Ġ37",
        "6409": "cho",
        "6410": "Ġregulations",
        "6411": "Ġbon",
        "6412": "Ġdoctors",
        "6413": "ĠColorado",
        "6414": "Ġcurrency",
        "6415": "Ġhousehold",
        "6416": "Ġreplaced",
        "6417": "agan",
        "6418": "Ġessential",
        "6419": "ĠRam",
        "6420": "En",
        "6421": "opy",
        "6422": "onna",
        "6423": "Ġsomewhat",
        "6424": "ĠDiv",
        "6425": "press",
        "6426": "86",
        "6427": "Ġnav",
        "6428": "power",
        "6429": "Ġfavour",
        "6430": "Ġpromise",
        "6431": "ĠDC",
        "6432": "ĠBoy",
        "6433": "Ġlaugh",
        "6434": "Pol",
        "6435": "ĠRights",
        "6436": "ena",
        "6437": "Ġholds",
        "6438": "Ġopposite",
        "6439": "ocket",
        "6440": "Ġtom",
        "6441": "Ñģ",
        "6442": "Ġmoments",
        "6443": "west",
        "6444": "Ġhat",
        "6445": "tering",
        "6446": "Ġopponent",
        "6447": "Ġbug",
        "6448": "ĠFar",
        "6449": "Ġcampus",
        "6450": "Ġacts",
        "6451": "Ġrum",
        "6452": "etroit",
        "6453": "Ġversions",
        "6454": "Ġmetal",
        "6455": "Ġmotion",
        "6456": "hips",
        "6457": "Ġevolution",
        "6458": "ometimes",
        "6459": "Ġvice",
        "6460": "anish",
        "6461": "Ġsees",
        "6462": "ĠImage",
        "6463": "Ġbag",
        "6464": "Ġrelevant",
        "6465": "Ġindustrial",
        "6466": "Ġzero",
        "6467": "IR",
        "6468": "Ġsick",
        "6469": "oma",
        "6470": "Ġclosely",
        "6471": "hetic",
        "6472": "Ġemotional",
        "6473": "chen",
        "6474": "game",
        "6475": "IF",
        "6476": "ĠYouTube",
        "6477": "ĠYear",
        "6478": "va",
        "6479": "Ġfewer",
        "6480": "Ġdivision",
        "6481": "olve",
        "6482": "Ġadm",
        "6483": "Ġdownt",
        "6484": "Ġharder",
        "6485": "Ġrefere",
        "6486": "Ġcustomer",
        "6487": "Ġhoping",
        "6488": "ologist",
        "6489": "ĠBrook",
        "6490": "Donald",
        "6491": "ĠValley",
        "6492": "Ġhur",
        "6493": "Ġmechanism",
        "6494": "ittle",
        "6495": "inem",
        "6496": "ĠGra",
        "6497": "ml",
        "6498": "ĠHouston",
        "6499": "ĠElect",
        "6500": "Ġreturns",
        "6501": "NC",
        "6502": "atell",
        "6503": "Ġvolunte",
        "6504": "Ġparticipants",
        "6505": "Ġextent",
        "6506": "Ġintention",
        "6507": "alian",
        "6508": "pan",
        "6509": "Ġexcellent",
        "6510": "ĠSoviet",
        "6511": "Ġacknowled",
        "6512": "llect",
        "6513": "Ġsyn",
        "6514": "ulous",
        "6515": "ĠMot",
        "6516": "oming",
        "6517": "ĠGames",
        "6518": "Ġsquad",
        "6519": "Ġcircumstances",
        "6520": "Ġfashion",
        "6521": "Ġisol",
        "6522": "esc",
        "6523": "Ã¼",
        "6524": "otal",
        "6525": "greg",
        "6526": "Ġimmediate",
        "6527": "ĠEric",
        "6528": "Ġsuffering",
        "6529": "po",
        "6530": "ĠWatch",
        "6531": "Ġlies",
        "6532": "Ġtiny",
        "6533": "Ġauthors",
        "6534": "Ġbatt",
        "6535": "Ġ38",
        "6536": "Ġgrown",
        "6537": "ĠGar",
        "6538": "iger",
        "6539": "ora",
        "6540": "Ġimmigrants",
        "6541": "Ãĥ",
        "6542": "print",
        "6543": "Ġkinds",
        "6544": "utch",
        "6545": "Ġ49",
        "6546": "ĠDie",
        "6547": "Ġcheap",
        "6548": "Ġmine",
        "6549": "Ġdetailed",
        "6550": "ĠHel",
        "6551": "ordan",
        "6552": "name",
        "6553": "Ġfeatured",
        "6554": "iki",
        "6555": "ayers",
        "6556": "Ġmeat",
        "6557": "Ġunus",
        "6558": "ĠAut",
        "6559": "Ġcompetitive",
        "6560": "ĠIP",
        "6561": "Ġdescribe",
        "6562": "Ġformed",
        "6563": "ĠHome",
        "6564": "nic",
        "6565": "certain",
        "6566": "Ġcarrying",
        "6567": "Ġtournament",
        "6568": "Ġtrick",
        "6569": "nam",
        "6570": "Ġrelationships",
        "6571": "friend",
        "6572": "Ġfundamental",
        "6573": "kel",
        "6574": "Ġwave",
        "6575": "Ġcycle",
        "6576": "Ġcrazy",
        "6577": "Ġsigning",
        "6578": "ĠWay",
        "6579": "ĠCy",
        "6580": "Ġtermin",
        "6581": "Ġguide",
        "6582": "efully",
        "6583": "Ġwins",
        "6584": "ĠCatholic",
        "6585": "Ġearned",
        "6586": "Ġdecline",
        "6587": "Ġregional",
        "6588": "ensus",
        "6589": "style",
        "6590": "Ġembr",
        "6591": "Ġstrange",
        "6592": "ĠPalestinian",
        "6593": "ĠJesus",
        "6594": "ĠAnn",
        "6595": "ĠLong",
        "6596": "bar",
        "6597": "Ġancient",
        "6598": "Ġfrequently",
        "6599": "Ġacting",
        "6600": "ĠPutin",
        "6601": "Ġmanner",
        "6602": "Ġefficient",
        "6603": "ĠSar",
        "6604": "rome",
        "6605": "Ġpushing",
        "6606": "ĠCIA",
        "6607": "Ġcomfortable",
        "6608": "ĠCard",
        "6609": "Ġpip",
        "6610": "ORE",
        "6611": "ĠEr",
        "6612": "Per",
        "6613": "Ġsharing",
        "6614": "Ġwire",
        "6615": "Ġskill",
        "6616": "ĠEconom",
        "6617": "ockey",
        "6618": "chers",
        "6619": "Ġinstru",
        "6620": "Ġowned",
        "6621": "ĠEll",
        "6622": "awa",
        "6623": "Ġcommitment",
        "6624": "Ġalongside",
        "6625": "ĠOF",
        "6626": "uated",
        "6627": "ĠLord",
        "6628": "ĠDavis",
        "6629": "anes",
        "6630": "Ġcart",
        "6631": "rison",
        "6632": "Ġcontroversial",
        "6633": "Ġartists",
        "6634": "Ġreferred",
        "6635": "weight",
        "6636": "Ġegg",
        "6637": "Ġmouth",
        "6638": "Ġrepeatedly",
        "6639": "06",
        "6640": "Ġ48",
        "6641": "ĠTop",
        "6642": "ï¿",
        "6643": "Ġ34",
        "6644": "FP",
        "6645": "Ġattempted",
        "6646": "Ġfemin",
        "6647": "Ð¾Ð",
        "6648": "umber",
        "6649": "Ġupdated",
        "6650": "foot",
        "6651": "Ġcert",
        "6652": "Ġpregn",
        "6653": "ĠOld",
        "6654": "ua",
        "6655": "Ġschedule",
        "6656": "vin",
        "6657": "xy",
        "6658": "ĠPS",
        "6659": "amily",
        "6660": "adel",
        "6661": "Ġdedicated",
        "6662": "Ġposts",
        "6663": "ĠAL",
        "6664": "Ġsentence",
        "6665": "Ġupcoming",
        "6666": "ĠDown",
        "6667": "bel",
        "6668": "ĠNY",
        "6669": "Ġcolumn",
        "6670": "ĠDi",
        "6671": "hus",
        "6672": "Ġdepth",
        "6673": "09",
        "6674": "Ġpled",
        "6675": "Ġvirtual",
        "6676": "uable",
        "6677": "Ġjourney",
        "6678": "Ġstruck",
        "6679": "ÑĢ",
        "6680": "Ġdesk",
        "6681": "Ġstudio",
        "6682": "Ġrealized",
        "6683": "ĠEnergy",
        "6684": "Despite",
        "6685": "ceived",
        "6686": "%)",
        "6687": "ographic",
        "6688": "DS",
        "6689": "ugh",
        "6690": "Ġmedic",
        "6691": "iami",
        "6692": "Ġserving",
        "6693": "Ġwalked",
        "6694": "rive",
        "6695": "iveness",
        "6696": "Ġking",
        "6697": "Ġring",
        "6698": "ko",
        "6699": "Ġreput",
        "6700": "phy",
        "6701": "you",
        "6702": "Ġurban",
        "6703": "ĠCle",
        "6704": "ĠCharles",
        "6705": "ĠWild",
        "6706": "Ġtargeted",
        "6707": "Ġchannel",
        "6708": "Ġassets",
        "6709": "luding",
        "6710": "Ġinspired",
        "6711": "Ġhotel",
        "6712": "ĠArizona",
        "6713": "08",
        "6714": "Ġnewslet",
        "6715": "Like",
        "6716": "Two",
        "6717": "ĠSupp",
        "6718": "Ġuniverse",
        "6719": "07",
        "6720": "Ġagenda",
        "6721": "Ġcausing",
        "6722": "Ġwatched",
        "6723": "Ġsuicide",
        "6724": "Ġtort",
        "6725": "Ġstream",
        "6726": "ĠMen",
        "6727": "mem",
        "6728": "Ġoverwhel",
        "6729": "ĠPy",
        "6730": "Ġusual",
        "6731": "Ġsurveillance",
        "6732": "Ġintent",
        "6733": "sole",
        "6734": "People",
        "6735": "Ġliqu",
        "6736": "Ġsister",
        "6737": "Ġopponents",
        "6738": "Ġchairman",
        "6739": "Ġdu",
        "6740": "ĠWars",
        "6741": "ĠCruz",
        "6742": "Ġmainstream",
        "6743": "Ġlatter",
        "6744": "Ġhall",
        "6745": "Ġsurrounding",
        "6746": "Ġfolks",
        "6747": "Ġknowing",
        "6748": "Ġorders",
        "6749": "ĠInf",
        "6750": "omin",
        "6751": "igg",
        "6752": "Ġremote",
        "6753": "Ġ75",
        "6754": "Ġsand",
        "6755": "Ġliterally",
        "6756": "ĠJava",
        "6757": "Ġobserved",
        "6758": "ĠAgain",
        "6759": "ĠRight",
        "6760": "Ġsubsid",
        "6761": "gor",
        "6762": "ĠDefense",
        "6763": "Ġinfl",
        "6764": "obb",
        "6765": "Ġapproval",
        "6766": "ĠVan",
        "6767": "rence",
        "6768": "iments",
        "6769": "Ġbasket",
        "6770": "rations",
        "6771": "avor",
        "6772": "Ġteachers",
        "6773": "azi",
        "6774": "izz",
        "6775": "Fr",
        "6776": "Ġwinter",
        "6777": "iciency",
        "6778": "alle",
        "6779": "aze",
        "6780": "Ġexciting",
        "6781": "acc",
        "6782": "aylor",
        "6783": "ĠTal",
        "6784": "Ġformat",
        "6785": "boy",
        "6786": "Ġcongress",
        "6787": "iro",
        "6788": "Ġprotected",
        "6789": "ati",
        "6790": "Ġnoticed",
        "6791": "Ġsimpl",
        "6792": "Ġdealing",
        "6793": "ĠYoung",
        "6794": "ĠChild",
        "6795": "Ġprecise",
        "6796": "ĠPan",
        "6797": "xual",
        "6798": "67",
        "6799": "Ġdeeply",
        "6800": "Ġcommunication",
        "6801": "Ġgang",
        "6802": "Ġsending",
        "6803": "ipl",
        "6804": "Ġforth",
        "6805": "ĠJr",
        "6806": "Ġfasc",
        "6807": "Ġbattery",
        "6808": "Ġwal",
        "6809": "mun",
        "6810": "Ġsky",
        "6811": "Ġnarr",
        "6812": "Ġfixed",
        "6813": "post",
        "6814": "Ġaside",
        "6815": "Ġrequirements",
        "6816": "abis",
        "6817": "ums",
        "6818": "Ġproperties",
        "6819": "rors",
        "6820": "str",
        "6821": "Ġalive",
        "6822": "Ġnarrow",
        "6823": "Ġwake",
        "6824": "allas",
        "6825": "Ġpassion",
        "6826": "ĠArch",
        "6827": "onymous",
        "6828": "Ġeating",
        "6829": "ensity",
        "6830": "Ġmistake",
        "6831": "wart",
        "6832": "woman",
        "6833": "Ġexplore",
        "6834": "Ġcoffee",
        "6835": "Ġ1970",
        "6836": "Ġrape",
        "6837": "Ġvolume",
        "6838": "Ġpromised",
        "6839": "Ġdiet",
        "6840": "acking",
        "6841": "Ġrisks",
        "6842": "Ġexhib",
        "6843": "ĠPolit",
        "6844": "Ġsweet",
        "6845": "May",
        "6846": "ĠEnter",
        "6847": "ĠWat",
        "6848": "Ġneut",
        "6849": "Ġinvolving",
        "6850": "Ġwage",
        "6851": "Ġselection",
        "6852": "ĠMax",
        "6853": "Ġtested",
        "6854": "ether",
        "6855": "Ġflu",
        "6856": "ulture",
        "6857": "Ġdefeat",
        "6858": "Ġnorthern",
        "6859": "Ġreward",
        "6860": "Ġwelcome",
        "6861": "Ġextended",
        "6862": "Ġputs",
        "6863": "Ġterritory",
        "6864": "Ġphenomen",
        "6865": "Ġunemploy",
        "6866": "Ġrefugees",
        "6867": "Ġsample",
        "6868": "Ġheight",
        "6869": "Ġapproximately",
        "6870": "ĠKevin",
        "6871": "Ġblame",
        "6872": "ĠBrad",
        "6873": "Ġanyway",
        "6874": "59",
        "6875": "ĠDetroit",
        "6876": "Ġdestroyed",
        "6877": "obile",
        "6878": "Ġsho",
        "6879": "Ġimpressive",
        "6880": "ĠStephen",
        "6881": "asks",
        "6882": "Ġproof",
        "6883": "Ġgap",
        "6884": "Ġdry",
        "6885": "ï¿½",
        "6886": "Ġcrash",
        "6887": "ingu",
        "6888": "Ġunknown",
        "6889": "Ġlocations",
        "6890": "Ġselected",
        "6891": "apse",
        "6892": "Ġwest",
        "6893": "anges",
        "6894": "gery",
        "6895": "ĠFil",
        "6896": "stone",
        "6897": "Ġattacked",
        "6898": "ĠTit",
        "6899": "aire",
        "6900": "lv",
        "6901": "Ġmaximum",
        "6902": "ĠMiller",
        "6903": "ĠWilson",
        "6904": "Ġpromote",
        "6905": "âĢĻ.",
        "6906": "Ġshel",
        "6907": "aser",
        "6908": "Ġmerely",
        "6909": "Ġfranchise",
        "6910": "arry",
        "6911": "04",
        "6912": "Ġrequests",
        "6913": "Ġretire",
        "6914": "Ġsuddenly",
        "6915": "Ġslowly",
        "6916": "Ġprotesters",
        "6917": "Ġdisag",
        "6918": "Ġteacher",
        "6919": "Ġtypical",
        "6920": "ĠIns",
        "6921": "ixt",
        "6922": "ogan",
        "6923": "dro",
        "6924": "ĠWomen",
        "6925": "Ġconver",
        "6926": "list",
        "6927": "Ġchose",
        "6928": "ĠCamer",
        "6929": "ao",
        "6930": "ĠClass",
        "6931": "ĠLu",
        "6932": "Ġmatches",
        "6933": "Ġlicense",
        "6934": "Ġproperly",
        "6935": "Ġassume",
        "6936": "oration",
        "6937": "Ġdiscover",
        "6938": "Ġwid",
        "6939": "ĠPR",
        "6940": "Rel",
        "6941": "ĠMic",
        "6942": "Ġworried",
        "6943": "Ġmoder",
        "6944": "Or",
        "6945": "Ġabortion",
        "6946": "fire",
        "6947": "owered",
        "6948": "Ġallies",
        "6949": "Ġoblig",
        "6950": "Ġterrorism",
        "6951": "Ġsupports",
        "6952": "ĠÎ",
        "6953": "uilding",
        "6954": "ÃĥÃĤ",
        "6955": "inson",
        "6956": "verty",
        "6957": "Ġarguments",
        "6958": "Ġadapt",
        "6959": "Ġtheme",
        "6960": "Ġconfront",
        "6961": "Ġfacilities",
        "6962": "Ġsustain",
        "6963": "gender",
        "6964": "Ġpal",
        "6965": "Ġeast",
        "6966": "Ġrecognize",
        "6967": "igure",
        "6968": "Ġfuck",
        "6969": "ÃĤÃĥÃĤ",
        "6970": "ÃĥÃĤÃĥ",
        "6971": "lies",
        "6972": "Ġequival",
        "6973": "Ġobtained",
        "6974": "Ġpoverty",
        "6975": "Ġrub",
        "6976": "ĠItaly",
        "6977": "Ġnomine",
        "6978": "03",
        "6979": "Ġdeals",
        "6980": "Ġfees",
        "6981": "itarian",
        "6982": "osis",
        "6983": "alo",
        "6984": "Se",
        "6985": "ĠHollywood",
        "6986": "Ġunderstood",
        "6987": "Ġcontrolled",
        "6988": "VER",
        "6989": "ĠBest",
        "6990": "Ġtopic",
        "6991": "ĠDam",
        "6992": "Ġcritics",
        "6993": "ĠSociety",
        "6994": "ĠAgency",
        "6995": "axy",
        "6996": "ĠFord",
        "6997": "Ġsole",
        "6998": "ĠJersey",
        "6999": "arity",
        "7000": "Ġvillage",
        "7001": "Ġdiagn",
        "7002": "ĠAdminist",
        "7003": "raid",
        "7004": "Ġlikes",
        "7005": "celer",
        "7006": "ĠFour",
        "7007": "sters",
        "7008": "68",
        "7009": "Ġevil",
        "7010": "Ġpunish",
        "7011": "Ġdress",
        "7012": "cript",
        "7013": "ĠGeorgia",
        "7014": "asts",
        "7015": "Ġbunch",
        "7016": "ĠCompany",
        "7017": "Ġjournalists",
        "7018": "John",
        "7019": "Ġexposed",
        "7020": "Ġped",
        "7021": "Ġregions",
        "7022": "redit",
        "7023": "ocation",
        "7024": "Ġcommunications",
        "7025": "Ġscheme",
        "7026": "lls",
        "7027": "Ġtransp",
        "7028": "Ġstim",
        "7029": "Ġlimits",
        "7030": "Ġsomehow",
        "7031": "Ġstrongly",
        "7032": "Ġhonor",
        "7033": "Ġdrag",
        "7034": "aug",
        "7035": "Ġresistance",
        "7036": "Ġchampion",
        "7037": "ĠCarl",
        "7038": "ĠLabor",
        "7039": "Ġphase",
        "7040": "ĠNASA",
        "7041": "pool",
        "7042": "Ġtruck",
        "7043": "Ġprofit",
        "7044": "Ġconstant",
        "7045": "Ġcondem",
        "7046": "Ġescape",
        "7047": "Ġpersonally",
        "7048": "ĠDun",
        "7049": "rimination",
        "7050": "ĠNight",
        "7051": "ĠLand",
        "7052": "Ġbid",
        "7053": "ĠFort",
        "7054": "ĠNHL",
        "7055": "ĠStand",
        "7056": "Ġvacc",
        "7057": "Ġdeck",
        "7058": "Ð½",
        "7059": "nesota",
        "7060": "iform",
        "7061": "Ġfalling",
        "7062": "ads",
        "7063": "GBT",
        "7064": "ĠNetwork",
        "7065": "Ġsomewhere",
        "7066": "cers",
        "7067": "Ġemployee",
        "7068": "Ġharass",
        "7069": "mo",
        "7070": "CA",
        "7071": "Ġbear",
        "7072": "ĠCD",
        "7073": "iner",
        "7074": "Ġcomparison",
        "7075": "orted",
        "7076": "ciples",
        "7077": "Ġpolls",
        "7078": "owa",
        "7079": "rett",
        "7080": "Ġinqu",
        "7081": "ĠLove",
        "7082": "pected",
        "7083": "Ġsouthern",
        "7084": "Ġdecent",
        "7085": "oric",
        "7086": "cow",
        "7087": "ĠSpanish",
        "7088": "Ġencourage",
        "7089": "Ġemissions",
        "7090": "Ġ39",
        "7091": "ĠView",
        "7092": "ĠCam",
        "7093": "enders",
        "7094": "Ġempty",
        "7095": "ĠMiami",
        "7096": "Ġhits",
        "7097": "oster",
        "7098": "Ġdefinition",
        "7099": "ĠKn",
        "7100": "Ġdirected",
        "7101": "Ġpic",
        "7102": "ĠBell",
        "7103": "pes",
        "7104": "Ġflex",
        "7105": "wan",
        "7106": "zens",
        "7107": "ĠOk",
        "7108": "57",
        "7109": "Ġmeetings",
        "7110": "ĠEnd",
        "7111": "Ġcomprom",
        "7112": "Ġwinner",
        "7113": "intend",
        "7114": "icken",
        "7115": "Ġgotten",
        "7116": "ĠDaniel",
        "7117": "ĠTurk",
        "7118": "Ġelectricity",
        "7119": "Ġchosen",
        "7120": "Ġofficially",
        "7121": "Ġbench",
        "7122": "Ġstretch",
        "7123": "Ġdatabase",
        "7124": "ĠDespite",
        "7125": "Ġspin",
        "7126": "Ġintellect",
        "7127": "igation",
        "7128": "Ġstronger",
        "7129": "aun",
        "7130": "Ġdeleg",
        "7131": "Ġpurposes",
        "7132": "ĠDNA",
        "7133": "teen",
        "7134": "Ġcutting",
        "7135": "ĠTurn",
        "7136": "Ġfold",
        "7137": "rary",
        "7138": "Ġextensive",
        "7139": "Com",
        "7140": "Ġamounts",
        "7141": "Ġdesper",
        "7142": "Ġtrees",
        "7143": "Ġanx",
        "7144": "Ġideal",
        "7145": "ĠAsian",
        "7146": "Ġthread",
        "7147": "Ġfifth",
        "7148": "ĪĴ",
        "7149": "CS",
        "7150": "UR",
        "7151": "Ġgoods",
        "7152": "Ġcolon",
        "7153": "Ġdeveloper",
        "7154": "Ġclaiming",
        "7155": "unning",
        "7156": "Any",
        "7157": "Ġretain",
        "7158": "Ġsoul",
        "7159": "Ġcaptured",
        "7160": "ĠThough",
        "7161": "Ġfinds",
        "7162": "Ġdriven",
        "7163": "Ġpayments",
        "7164": "asters",
        "7165": "ras",
        "7166": "Ġties",
        "7167": "ĠJordan",
        "7168": "Ġreasonable",
        "7169": "Ġdogs",
        "7170": "âĸ",
        "7171": "Ġsomebody",
        "7172": "Ġending",
        "7173": "02",
        "7174": "ĠNations",
        "7175": "Ġchoices",
        "7176": "Ġble",
        "7177": "Ġpod",
        "7178": "Ġseats",
        "7179": "ĠServices",
        "7180": "ĠThank",
        "7181": "Ġengage",
        "7182": "Ġdrawn",
        "7183": "olt",
        "7184": "Ġsight",
        "7185": "Ġparam",
        "7186": "CE",
        "7187": "Ġthreatened",
        "7188": "Ġruled",
        "7189": "ĠDar",
        "7190": "ĠAttorney",
        "7191": "ĠIrish",
        "7192": "eping",
        "7193": "ĠSea",
        "7194": "Ġtrading",
        "7195": "owed",
        "7196": "Ġprimarily",
        "7197": "ura",
        "7198": "Ġaspects",
        "7199": "Ġfighters",
        "7200": "ML",
        "7201": "Ġanswers",
        "7202": "Ġperfectly",
        "7203": "irms",
        "7204": "Ġincl",
        "7205": "ĠAcadem",
        "7206": "Ġrival",
        "7207": "Ġparking",
        "7208": "Ġrejected",
        "7209": "ĠGall",
        "7210": "ĠCat",
        "7211": "Ġconstantly",
        "7212": "Add",
        "7213": "ĠHun",
        "7214": "Ġpayment",
        "7215": "fast",
        "7216": "Ġdistinct",
        "7217": "Ġflying",
        "7218": "Ġrig",
        "7219": "Ġtechnologies",
        "7220": "ĠReal",
        "7221": "mod",
        "7222": "ĠUt",
        "7223": "</",
        "7224": "Ġcomponents",
        "7225": "Police",
        "7226": "Ġadmit",
        "7227": "ĠScotland",
        "7228": "Ġelsewhere",
        "7229": "ĠDark",
        "7230": "dit",
        "7231": "Ġconstit",
        "7232": "Ġanymore",
        "7233": "lder",
        "7234": "ĠCast",
        "7235": "Ġfields",
        "7236": "Ġicon",
        "7237": "Ġestimates",
        "7238": "EW",
        "7239": "sea",
        "7240": "Ġsolutions",
        "7241": "Ġresulting",
        "7242": "78",
        "7243": "ĠBru",
        "7244": "urb",
        "7245": "Ġawesome",
        "7246": "Ġprovince",
        "7247": "sm",
        "7248": "Ġworldwide",
        "7249": "Ġactor",
        "7250": "Ġregularly",
        "7251": "ĠMoore",
        "7252": "Ġcourts",
        "7253": "Ġnarrative",
        "7254": "Once",
        "7255": "Ġboot",
        "7256": "Ġenemies",
        "7257": "Ġmixed",
        "7258": "300",
        "7259": "regon",
        "7260": "ĠOS",
        "7261": "ĠDisney",
        "7262": "icer",
        "7263": "Ġhouses",
        "7264": "Ġnobody",
        "7265": "ĠSk",
        "7266": "inations",
        "7267": "Ġcontrols",
        "7268": "ĠWater",
        "7269": "Ġletters",
        "7270": "apes",
        "7271": "agram",
        "7272": "imp",
        "7273": "iana",
        "7274": "Ġ42",
        "7275": "Ġmayor",
        "7276": "Ġmurd",
        "7277": "Ġoutcome",
        "7278": "ĠMS",
        "7279": "Ġcontem",
        "7280": "sell",
        "7281": "ĠTem",
        "7282": "vy",
        "7283": "Sec",
        "7284": "odd",
        "7285": "ship",
        "7286": "ĠLight",
        "7287": "isan",
        "7288": "onic",
        "7289": "Ġapartment",
        "7290": "ĠBrian",
        "7291": "ĠSteven",
        "7292": "Ġcoalition",
        "7293": "Ġcontributed",
        "7294": "ĠBas",
        "7295": "Ġtank",
        "7296": "Ġconcluded",
        "7297": "ĠAdam",
        "7298": "Ġexists",
        "7299": "Ġfounder",
        "7300": "ĠLew",
        "7301": "Ġatmosphere",
        "7302": "Ġprofile",
        "7303": "Ġbrew",
        "7304": "ĠTw",
        "7305": "Ġsituations",
        "7306": "ĠChampionship",
        "7307": "Ġloan",
        "7308": "ls",
        "7309": "ĠAuthor",
        "7310": "rates",
        "7311": "Ġincredible",
        "7312": "ĠConstitution",
        "7313": "Ġsignal",
        "7314": "otes",
        "7315": "ĠRog",
        "7316": "Ġaccurate",
        "7317": "ker",
        "7318": "ĠVictor",
        "7319": "otten",
        "7320": "Ġunp",
        "7321": "ĠWhere",
        "7322": "ĠSouthern",
        "7323": ".\"[",
        "7324": "Ġemployment",
        "7325": "earing",
        "7326": "Ġclients",
        "7327": "Ġkeeps",
        "7328": "inity",
        "7329": "Ġinformed",
        "7330": "Ġcontinuing",
        "7331": "Ġtaste",
        "7332": "Ġbaseball",
        "7333": "Ġgenerate",
        "7334": "Ġticket",
        "7335": "Ġconven",
        "7336": "oft",
        "7337": "Also",
        "7338": "ĠConf",
        "7339": "Ġweird",
        "7340": "lock",
        "7341": "Ġtied",
        "7342": "adelph",
        "7343": "Ġcategory",
        "7344": "zy",
        "7345": "ilarly",
        "7346": "aron",
        "7347": "acked",
        "7348": "Ġangry",
        "7349": "ĠOrgan",
        "7350": "Ġroutine",
        "7351": "Ġkil",
        "7352": "Ġraising",
        "7353": "ifer",
        "7354": "Ġmachines",
        "7355": "Ġregistered",
        "7356": "there",
        "7357": "Ġproved",
        "7358": "Ġdemands",
        "7359": "Ġgaming",
        "7360": "ĠItalian",
        "7361": "Ġincredibly",
        "7362": "Ġcrucial",
        "7363": "MP",
        "7364": "Ġstuck",
        "7365": "ĠCivil",
        "7366": "ĠDallas",
        "7367": "Ġterrible",
        "7368": "Ġfeedback",
        "7369": "Ġupper",
        "7370": "Ġplastic",
        "7371": "Ġimper",
        "7372": "Ġnewly",
        "7373": "ĠJoseph",
        "7374": "Ġconsumption",
        "7375": "rage",
        "7376": "ept",
        "7377": "Ġdozen",
        "7378": "Ġenthus",
        "7379": "Ġestate",
        "7380": "ali",
        "7381": "56",
        "7382": "Ġinnoc",
        "7383": "Ġmanip",
        "7384": "Ġconscious",
        "7385": "Ġbills",
        "7386": "ĠCross",
        "7387": "ĠSpain",
        "7388": "ifications",
        "7389": "Today",
        "7390": "Ġwriters",
        "7391": "Ġexcess",
        "7392": "inding",
        "7393": "Ġaggressive",
        "7394": "Ġreporter",
        "7395": "Ġcompens",
        "7396": "Ġreturning",
        "7397": "Ġstead",
        "7398": "Ġprogramming",
        "7399": "ĠThanks",
        "7400": "Ġrepresented",
        "7401": "Ġconclusion",
        "7402": "98",
        "7403": "Ġrus",
        "7404": "ĠBowl",
        "7405": "MS",
        "7406": "ĠAR",
        "7407": "Ġorigin",
        "7408": "Ġassistant",
        "7409": "adelphia",
        "7410": "Ġroster",
        "7411": "ĠMinnesota",
        "7412": "Ġorganized",
        "7413": "ria",
        "7414": "Ġpenalty",
        "7415": "Ġdrinking",
        "7416": "lers",
        "7417": "Ġpaint",
        "7418": "Ġsatell",
        "7419": "Ġgro",
        "7420": "ĠProgram",
        "7421": "eme",
        "7422": "Ġcapture",
        "7423": "Ġconspir",
        "7424": "Ġinterpret",
        "7425": "Ġexplanation",
        "7426": "iscal",
        "7427": "Ġcounty",
        "7428": "iscons",
        "7429": "essed",
        "7430": "Ġ%",
        "7431": "Dr",
        "7432": "anny",
        "7433": "mont",
        "7434": "gorith",
        "7435": "isconsin",
        "7436": "Ġassistance",
        "7437": "58",
        "7438": "ima",
        "7439": "Ġcomplaint",
        "7440": "ĠRoman",
        "7441": "star",
        "7442": "Ġru",
        "7443": "Ġnut",
        "7444": "Ġmagic",
        "7445": "Ġtall",
        "7446": "ĠOper",
        "7447": "Ġgranted",
        "7448": "Because",
        "7449": "ĠContin",
        "7450": "LA",
        "7451": "Off",
        "7452": "ĠParliament",
        "7453": "Ġcomplicated",
        "7454": "emen",
        "7455": "Ġchances",
        "7456": "Ġaudio",
        "7457": "Ġextract",
        "7458": "bal",
        "7459": "era",
        "7460": "ĠGi",
        "7461": "Ġ1999",
        "7462": "ĠEduc",
        "7463": "Ġshares",
        "7464": "Ġhel",
        "7465": "Ġsuccessfully",
        "7466": "rete",
        "7467": "esy",
        "7468": "ĠWin",
        "7469": "ĠHot",
        "7470": "Ġpilot",
        "7471": "ĠIT",
        "7472": "ĠEp",
        "7473": "Ġmyth",
        "7474": "Ġ00",
        "7475": "Ġrecovery",
        "7476": "ĠTest",
        "7477": "Ġtechniques",
        "7478": "Ġiron",
        "7479": "ĠCare",
        "7480": "ĠZeal",
        "7481": "ĠSC",
        "7482": "Ġscenes",
        "7483": "Ġveteran",
        "7484": "ĠFre",
        "7485": "Ġ($",
        "7486": "Ġdegrees",
        "7487": "actions",
        "7488": "thew",
        "7489": "Ġsympt",
        "7490": "Ġlawmakers",
        "7491": "ked",
        "7492": "Ġwestern",
        "7493": "Ġoperate",
        "7494": "Ġads",
        "7495": "rating",
        "7496": "Ġhabit",
        "7497": "rep",
        "7498": "Ġaimed",
        "7499": "Inst",
        "7500": "anchester",
        "7501": "Ġphr",
        "7502": "idency",
        "7503": "Ġengaged",
        "7504": "Ġprivile",
        "7505": "Ġ55",
        "7506": "Ġrating",
        "7507": "Ġteaching",
        "7508": "Ġacademic",
        "7509": "ĠOs",
        "7510": "!<|",
        "7511": "Ġtherap",
        "7512": "Ġpasses",
        "7513": "Ġdollar",
        "7514": "Ġautomatically",
        "7515": "uan",
        "7516": "itar",
        "7517": "hent",
        "7518": "ĠPacific",
        "7519": "Ġmonit",
        "7520": "Ġblocks",
        "7521": "abama",
        "7522": "Ġattended",
        "7523": "Ġpermanent",
        "7524": "Ġsurvive",
        "7525": "Ġanticip",
        "7526": "Ġextrem",
        "7527": "Ġenable",
        "7528": "ĠLook",
        "7529": "ĠForeign",
        "7530": "Ġchat",
        "7531": "chain",
        "7532": "Ġmarked",
        "7533": "itals",
        "7534": "Ġhidden",
        "7535": "Ġaccomp",
        "7536": "Ġtitles",
        "7537": "ĠSenator",
        "7538": "ĠNBC",
        "7539": "Ġtaught",
        "7540": "cr",
        "7541": "ĠLinux",
        "7542": "Ġbom",
        "7543": "Ġindex",
        "7544": "everal",
        "7545": "Ġelite",
        "7546": "ibilities",
        "7547": "Ġlawyers",
        "7548": "Ġdepending",
        "7549": "from",
        "7550": "Ġvaluable",
        "7551": "Ġinstalled",
        "7552": "Ġchampionship",
        "7553": "Ġroot",
        "7554": "Ġcompre",
        "7555": "ĠBull",
        "7556": "Ġdowntown",
        "7557": "aed",
        "7558": "mal",
        "7559": "Ġequivalent",
        "7560": "Ġsolve",
        "7561": "rific",
        "7562": "Ġduty",
        "7563": "ĠSpecial",
        "7564": "ĠBusiness",
        "7565": "Ġ64",
        "7566": "Ġpace",
        "7567": "HS",
        "7568": "Ġreputation",
        "7569": "Ġuncertain",
        "7570": "Ġphones",
        "7571": "uine",
        "7572": "Ġoverse",
        "7573": "ĠTaylor",
        "7574": "Ġpersonnel",
        "7575": "Ġpin",
        "7576": "reams",
        "7577": "aturally",
        "7578": "Ġsufficient",
        "7579": "Ġvisited",
        "7580": "Ġwarming",
        "7581": "ĠSn",
        "7582": "Ġprinciples",
        "7583": "Ġvulnerable",
        "7584": "Ġenjoyed",
        "7585": "Ġfake",
        "7586": "ĠNick",
        "7587": "Ġadvis",
        "7588": "Ġnegotiations",
        "7589": "inder",
        "7590": "Ġgenerated",
        "7591": "Ġexposure",
        "7592": "Ġrecording",
        "7593": "bro",
        "7594": "Ġcollected",
        "7595": "Ġregardless",
        "7596": "Ġdict",
        "7597": "%.",
        "7598": "EA",
        "7599": "Ġbitcoin",
        "7600": "Ġelev",
        "7601": "ãĢ",
        "7602": "active",
        "7603": "ĠKelly",
        "7604": "ĠAnth",
        "7605": "Ġcup",
        "7606": "Ġpatterns",
        "7607": "Getty",
        "7608": "ĠTake",
        "7609": "))",
        "7610": "ĠAvenue",
        "7611": "ĠJosh",
        "7612": "Ġdisaster",
        "7613": "Ġcable",
        "7614": "Ġ65",
        "7615": "Ġworker",
        "7616": "Ġmainly",
        "7617": "lla",
        "7618": "Ġracial",
        "7619": "quarters",
        "7620": "ĠViet",
        "7621": "ĠCoast",
        "7622": "month",
        "7623": "Ġpounds",
        "7624": "Ġ150",
        "7625": "ĠCall",
        "7626": "Ġportion",
        "7627": "ĠAh",
        "7628": "Ġafraid",
        "7629": "Ġinspir",
        "7630": "Ġbes",
        "7631": "Ġdefence",
        "7632": "ĠEastern",
        "7633": "ĠTony",
        "7634": "Ġtracks",
        "7635": "Ġbusy",
        "7636": "Ġshit",
        "7637": "ye",
        "7638": "Ġintense",
        "7639": "ĠSeries",
        "7640": "ĠLGBT",
        "7641": "mann",
        "7642": "orne",
        "7643": "ĠStill",
        "7644": "athy",
        "7645": "Ġfunny",
        "7646": "Ġapolog",
        "7647": "Ġsurgery",
        "7648": "ĠMoscow",
        "7649": "ĠColl",
        "7650": "Ġpossession",
        "7651": "Ġprominent",
        "7652": "ĠMars",
        "7653": "Ġcomic",
        "7654": "ĠGer",
        "7655": "ashes",
        "7656": "97",
        "7657": "ules",
        "7658": "ĠRay",
        "7659": "Ġthin",
        "7660": "Ġengineering",
        "7661": "Ġtroub",
        "7662": "ĠKurd",
        "7663": "this",
        "7664": "Ġprocesses",
        "7665": "ĠNation",
        "7666": "ĠKent",
        "7667": "ĠCome",
        "7668": "fall",
        "7669": "Ġentit",
        "7670": "ĠâĢĻ",
        "7671": "Ġunusual",
        "7672": "raph",
        "7673": "etary",
        "7674": "Ġdescribes",
        "7675": "da",
        "7676": "world",
        "7677": "96",
        "7678": "Ġresulted",
        "7679": "Ġdim",
        "7680": "Ġemerged",
        "7681": "Ġtaxp",
        "7682": "Ġgall",
        "7683": "iler",
        "7684": "Ġ400",
        "7685": "Ġpropag",
        "7686": "ĠIowa",
        "7687": "ĠOregon",
        "7688": "Ġcoordin",
        "7689": "Ġcorruption",
        "7690": "Ġstations",
        "7691": "ĠInvest",
        "7692": "ez",
        "7693": "Ġfought",
        "7694": "ĠAD",
        "7695": "Ġbrut",
        "7696": "Ġextension",
        "7697": "prise",
        "7698": "Ġblind",
        "7699": "Ġadopted",
        "7700": "Ġcompete",
        "7701": "Ġrecru",
        "7702": "Ġgrant",
        "7703": "ĠZealand",
        "7704": "Ġhadn",
        "7705": "Pr",
        "7706": "Ġmail",
        "7707": "ref",
        "7708": "Ġeverywhere",
        "7709": "ĠBalt",
        "7710": "Rec",
        "7711": "Col",
        "7712": "Mean",
        "7713": "icate",
        "7714": "Ġcrypt",
        "7715": "herent",
        "7716": "Ġcontracts",
        "7717": "ĠAli",
        "7718": "Ġneuro",
        "7719": "ĠInt",
        "7720": "front",
        "7721": "ĠDead",
        "7722": "ĠRick",
        "7723": "Ġfeelings",
        "7724": "Ġfirms",
        "7725": "idelines",
        "7726": "âĢĻ,",
        "7727": "Ġminority",
        "7728": "tes",
        "7729": "cles",
        "7730": "HA",
        "7731": "Ġadvertising",
        "7732": "Ġspr",
        "7733": "Ġrarely",
        "7734": "Ġdiscipl",
        "7735": "making",
        "7736": "ĠNorthern",
        "7737": "Ġsanctions",
        "7738": "ĠVeg",
        "7739": "scape",
        "7740": "ĠPhiladelphia",
        "7741": "upid",
        "7742": "Ġcameras",
        "7743": "log",
        "7744": "Ġexplicit",
        "7745": "Ġstrict",
        "7746": "viously",
        "7747": "Ġenorm",
        "7748": "Ġfinance",
        "7749": "gun",
        "7750": "Ġcited",
        "7751": "ifies",
        "7752": "ĠBefore",
        "7753": "Ġshortly",
        "7754": "UL",
        "7755": "ĠPolicy",
        "7756": "Ġexpectations",
        "7757": "Ġimplementation",
        "7758": "ogen",
        "7759": "Ġrecip",
        "7760": "cling",
        "7761": "ĠGreek",
        "7762": "Ġthick",
        "7763": "Ġthousand",
        "7764": "antic",
        "7765": "ĠMu",
        "7766": "istent",
        "7767": "Ġloud",
        "7768": "Ġaffili",
        "7769": "test",
        "7770": "orough",
        "7771": "urrent",
        "7772": "ĠNavy",
        "7773": "Ġinev",
        "7774": "cus",
        "7775": "Ġphotograph",
        "7776": "Ġmedium",
        "7777": "azz",
        "7778": "ĠHom",
        "7779": "ĠWisconsin",
        "7780": "Ġscenario",
        "7781": "ĠFood",
        "7782": "ĠLive",
        "7783": "Ġsup",
        "7784": "ilton",
        "7785": "Ġplug",
        "7786": "Ġveget",
        "7787": "Co",
        "7788": "Ġho",
        "7789": "Ġvisible",
        "7790": "Ġlights",
        "7791": "LC",
        "7792": "Ġcreates",
        "7793": "Ġpriority",
        "7794": "Ġven",
        "7795": "Ġbridge",
        "7796": "Ġobst",
        "7797": "inking",
        "7798": "ATE",
        "7799": "Ġagric",
        "7800": "Ġpermission",
        "7801": "Mar",
        "7802": "ĠFoot",
        "7803": "Ġalgorith",
        "7804": "izon",
        "7805": "Ġparticipate",
        "7806": "aska",
        "7807": "Ġwing",
        "7808": "who",
        "7809": "asion",
        "7810": "Ġtor",
        "7811": "ĠProte",
        "7812": "Ġbrowser",
        "7813": "ĠGlobal",
        "7814": "Ġtag",
        "7815": "car",
        "7816": "ĠHas",
        "7817": "Ġmel",
        "7818": "ĠAsh",
        "7819": "Ġacceler",
        "7820": "elect",
        "7821": "###",
        "7822": "Ġdozens",
        "7823": "ĠKingdom",
        "7824": "Ġhistoric",
        "7825": "Ġcomputers",
        "7826": "Ġlaid",
        "7827": "Ġbasketball",
        "7828": "Ġlosses",
        "7829": "ĠSaf",
        "7830": "Ġunw",
        "7831": "ogether",
        "7832": "::",
        "7833": "ĠAmendment",
        "7834": "Ġstrikes",
        "7835": "Ġprinciple",
        "7836": "ĠDevelopment",
        "7837": "Ġformal",
        "7838": "EP",
        "7839": "Ġscoring",
        "7840": "lan",
        "7841": "76",
        "7842": "obs",
        "7843": "athered",
        "7844": "Ġ44",
        "7845": "Ġcounsel",
        "7846": "++",
        "7847": "Ġshock",
        "7848": "Ġwonderful",
        "7849": "ĠSP",
        "7850": "Ġbehalf",
        "7851": "abs",
        "7852": "Ġuncom",
        "7853": "profit",
        "7854": "igen",
        "7855": "enth",
        "7856": "bell",
        "7857": "ems",
        "7858": "Ġinterface",
        "7859": "Ġestablishment",
        "7860": "Ġtoler",
        "7861": "ĠHenry",
        "7862": "lete",
        "7863": "ĠGreg",
        "7864": "amber",
        "7865": "ĠMajor",
        "7866": "iel",
        "7867": "jo",
        "7868": "ĠThus",
        "7869": "Us",
        "7870": "Ġgained",
        "7871": "Ġfee",
        "7872": "Ġfounded",
        "7873": "Ġfoundation",
        "7874": "etime",
        "7875": "ĠESP",
        "7876": "ilipp",
        "7877": "Ġclubs",
        "7878": "Ġcannabis",
        "7879": "Ġju",
        "7880": "54",
        "7881": "52",
        "7882": "Ġairport",
        "7883": "aus",
        "7884": "ystem",
        "7885": "ĠKey",
        "7886": "Ġborrow",
        "7887": "weet",
        "7888": "olis",
        "7889": "BO",
        "7890": "Ġmanufacturing",
        "7891": "Ġrely",
        "7892": "ĠHit",
        "7893": "ĠPay",
        "7894": "ĠAlabama",
        "7895": "Ġgenuine",
        "7896": "ĠRoyal",
        "7897": "rators",
        "7898": "Before",
        "7899": "Ġcomponent",
        "7900": "Ġridic",
        "7901": "osexual",
        "7902": "Ġwheel",
        "7903": "rative",
        "7904": "ĠOak",
        "7905": "Ġjournalist",
        "7906": "Ġrelief",
        "7907": "uer",
        "7908": "Ġsaved",
        "7909": "51",
        "7910": "Ġhole",
        "7911": "Ġyield",
        "7912": "Ġheaded",
        "7913": "Ġcyber",
        "7914": "ĠMoh",
        "7915": "she",
        "7916": "ĠOl",
        "7917": "ependent",
        "7918": "Ġgift",
        "7919": "Ġwithdraw",
        "7920": "Ġfault",
        "7921": "Ġindicate",
        "7922": "Ġdrawing",
        "7923": "Ġuniform",
        "7924": "umer",
        "7925": "ĠRand",
        "7926": "arlier",
        "7927": "Ġstable",
        "7928": "Ġships",
        "7929": "Ġ->",
        "7930": "Ġbanned",
        "7931": "ĠMid",
        "7932": "Ġfootage",
        "7933": "Meanwhile",
        "7934": "Ġdoors",
        "7935": "rous",
        "7936": "Ġrecognized",
        "7937": "Ġ1960",
        "7938": "Ġcontaining",
        "7939": "pread",
        "7940": "400",
        "7941": "ĠFC",
        "7942": "ĠVis",
        "7943": "Ġriver",
[...]
