{"\u0000": 0, "\u0001": 1, "\u0002": 2, "\u0003": 3, "\u0004": 4, "\u0005": 5, "\u0006": 6, "\u0007": 7, "\b": 8, "\t": 9, "\n": 256, "\u000b": 11, "\f": 12, "\r": 13, "\u000e": 14, "\u000f": 15, "\u0010": 16, "\u0011": 17, "\u0012": 18, "\u0013": 19, "\u0014": 20, "\u0015": 21, "\u0016": 22, "\u0017": 23, "\u0018": 24, "\u0019": 25, "\u001a": 26, "\u001b": 27, "\u001c": 28, "\u001d": 29, "\u001e": 30, "\u001f": 31, " ": 32, "!": 33, "\"": 34, "#": 35, "$": 36, "%": 37, "&": 38, "'": 39, "(": 40, ")": 41, "*": 42, "+": 43, ",": 44, "-": 45, ".": 46, "/": 47, "0": 48, "1": 49, "2": 50, "3": 51, "4": 52, "5": 53, "6": 54, "7": 55, "8": 56, "9": 57, ":": 58, ";": 59, "<": 60, "=": 61, ">": 62, "?": 63, "@": 64, "A": 65, "B": 66, "C": 67, "D": 68, "E": 69, "F": 70, "G": 71, "H": 72, "I": 73, "J": 74, "K": 75, "L": 76, "M": 77, "N": 78, "O": 79, "P": 80, "Q": 81, "R": 82, "S": 83, "T": 84, "U": 85, "V": 86, "W": 87, "X": 88, "Y": 89, "Z": 90, "[": 91, "\\": 92, "]": 93, "^": 94, "_": 95, "`": 96, "a": 97, "b": 98, "c": 99, "d": 100, "e": 101, "f": 102, "g": 103, "h": 104, "i": 105, "j": 106, "k": 107, "l": 108, "m": 109, "n": 110, "o": 111, "p": 112, "q": 113, "r": 114, "s": 115, "t": 116, "u": 117, "v": 118, "w": 119, "x": 120, "y": 121, "z": 122, "{": 123, "|": 124, "}": 125, "~": 126, "\u007f": 127, "\u0080": 128, "\u0081": 129, "\u0082": 130, "\u0083": 131, "\u0084": 132, "\u0085": 133, "\u0086": 134, "\u0087": 135, "\u0088": 136, "\u0089": 137, "\u008a": 138, "\u008b": 139, "\u008c": 140, "\u008d": 141, "\u008e": 142, "\u008f": 143, "\u0090": 144, "\u0091": 145, "\u0092": 146, "\u0093": 147, "\u0094": 148, "\u0095": 149, "\u0096": 150, "\u0097": 151, "\u0098": 152, "\u0099": 153, "\u009a": 154, "\u009b": 155, "\u009c": 156, "\u009d": 157, "\u009e": 158, "\u009f": 159, "\u00a0": 160, "\u00a1": 161, "\u00a2": 162, "\u00a3": 163, "\u00a4": 164, "\u00a5": 165, "\u00a6": 166, "\u00a7": 167, "\u00a8": 168, "\u00a9": 169, "\u00aa": 170, "\u00ab": 171, "\u00ac": 172, "\u00ad": 173, "\u00ae": 174, "\u00af": 175, "\u00b0": 176, "\u00b1": 177, "\u00b2": 178, "\u00b3": 179, "\u00b4": 180, "\u00b5": 181, "\u00b6": 182, "\u00b7": 183, "\u00b8": 184, "\u00b9": 185, "\u00ba": 186, "\u00bb": 187, "\u00bc": 188, "\u00bd": 189, "\u00be": 190, "\u00bf": 191, "\u00c0": 192, "\u00c1": 193, "\u00c2": 194, "\u00c3": 195, "\u00c4": 196, "\u00c5": 197, "\u00c6": 198, "\u00c7": 199, "\u00c8": 200, "\u00c9": 201, "\u00ca": 202, "\u00cb": 203, "\u00cc": 204, "\u00cd": 205, "\u00ce": 206, "\u00cf": 207, "\u00d0": 208, "\u00d1": 209, "\u00d2": 210, "\u00d3": 211, "\u00d4": 212, "\u00d5": 213, "\u00d6": 214, "\u00d7": 215, "\u00d8": 216, "\u00d9": 217, "\u00da": 218, "\u00db": 219, "\u00dc": 220, "\u00dd": 221, "\u00de": 222, "\u00df": 223, "\u00e0": 224, "\u00e1": 225, "\u00e2": 226, "\u00e3": 227, "\u00e4": 228, "\u00e5": 229, "\u00e6": 230, "\u00e7": 231, "\u00e8": 232, "\u00e9": 233, "\u00ea": 234, "\u00eb": 235, "\u00ec": 236, "\u00ed": 237, "\u00ee": 238, "\u00ef": 239, "\u00f0": 240, "\u00f1": 241, "\u00f2": 242, "\u00f3": 243, "\u00f4": 244, "\u00f5": 245, "\u00f6": 246, "\u00f7": 247, "\u00f8": 248, "\u00f9": 249, "\u00fa": 250, "\u00fb": 251, "\u00fc": 252, "\u00fd": 253, "\u00fe": 254, "\u00ff": 255, " t": 257, " a": 258, "he": 259, "in": 260, "re": 261, " the": 262, "on": 263, "er": 264, " s": 265, " w": 266, "at": 267, " o": 268, "en": 269, " c": 270, "it": 271, "is": 272, "an": 273, "or": 274, " b": 275, "es": 276, "ed": 277, " f": 278, "ing": 279, " p": 280, "ou": 281, " an": 282, "al": 283, " to": 284, "ar": 285, " m": 286, " in": 287, " of": 288, " h": 289, " d": 290, "\u00e2\u0080": 291, "as": 292, "ic": 293, " and": 294, " th": 295, "le": 296, "om": 297, "ion": 298, "ll": 299, "ent": 300, " n": 301, " l": 302, " re": 303, "st": 304, "ve": 305, " e": 306, "ly": 307, "ro": 308, " be": 309, " g": 310, "id": 311, "ut": 312, "ac": 313, "ot": 314, " T": 315, " I": 316, " that": 317, " on": 318, "ay": 319, " S": 320, " is": 321, "et": 322, "im": 323, "am": 324, "ad": 325, "ow": 326, "se": 327, "ig": 328, " for": 329, "\u00e2\u0080\u0099": 330, " A": 331, "ver": 332, "ur": 333, "ct": 334, "ld": 335, " C": 336, " u": 337, " st": 338, " y": 339, " it": 340, " he": 341, "ir": 342, "ation": 343, "ith": 344, " wh": 345, " M": 346, "ce": 347, "ter": 348, "ol": 349, " we": 350, "il": 351, " with": 352, " as": 353, " B": 354, "ch": 355, "ill": 356, "nd": 357, " P": 358, " was": 359, "ers": 360, " you": 361, "ke": 362, " \u00e2\u0080": 363, " con": 364, " de": 365, " r": 366, "her": 367, "if": 368, "ate": 369, "ag": 370, " at": 371, " ha": 372, " W": 373, " se": 374, " H": 375, "ore": 376, " pro": 377, "ul": 378, "pp": 379, "ment": 380, "ri": 381, " are": 382, " D": 383, " 1": 384, "us": 385, "est": 386, "ist": 387, " com": 388, "and": 389, " R": 390, "op": 391, "ain": 392, " The": 393, " 2": 394, "igh": 395, "rom": 396, "end": 397, " (": 398, "te": 399, "th": 400, "od": 401, " ne": 402, " F": 403, "um": 404, "un": 405, " ex": 406, "res": 407, "ab": 408, "\u00e2\u0080\u009d": 409, " not": 410, " N": 411, " v": 412, "ess": 413, " have": 414, "ity": 415, "ould": 416, " or": 417, " by": 418, "ort": 419, "os": 420, " G": 421, "ive": 422, " from": 423, "ant": 424, " al": 425, "'s": 426, "oc": 427, " su": 428, "art": 429, "el": 430, " L": 431, " sh": 432, " this": 433, "em": 434, "qu": 435, "nt": 436, "ight": 437, "pe": 438, "ust": 439, " le": 440, "ies": 441, " E": 442, " ch": 443, " sa": 444, " ab": 445, "The": 446, "out": 447, "all": 448, "ie": 449, "ack": 450, "red": 451, "00": 452, " \u00e2\u0080\u009c": 453, " has": 454, "ally": 455, " J": 456, " pl": 457, " go": 458, "ard": 459, "iv": 460, " his": 461, "ome": 462, "ap": 463, "ost": 464, "gh": 465, "ear": 466, " O": 467, " tr": 468, "our": 469, " j": 470, "ak": 471, "ud": 472, " wor": 473, "ast": 474, " do": 475, " they": 476, " but": 477, "rou": 478, " can": 479, "ge": 480, " will": 481, " said": 482, " whe": 483, " U": 484, " k": 485, "ich": 486, " all": 487, "ok": 488, " \"": 489, "ide": 490, " who": 491, "ame": 492, "ans": 493, "ther": 494, "ial": 495, " out": 496, "ff": 497, " their": 498, "ong": 499, "pl": 500, "ice": 501, "ure": 502, "one": 503, " more": 504, "age": 505, "ions": 506, "act": 507, " up": 508, "ike": 509, " me": 510, "ous": 511, "ine": 512, " ad": 513, "ep": 514, " about": 515, "ated": 516, "ra": 517, "ber": 518, "pt": 519, " one": 520, " were": 521, " so": 522, " us": 523, "ect": 524, "og": 525, "ime": 526, " K": 527, "ia": 528, " had": 529, "are": 530, "ub": 531, "cc": 532, " would": 533, " cl": 534, " 20": 535, " im": 536, " which": 537, "ind": 538, "xt": 539, "ue": 540, "ake": 541, "iz": 542, "very": 543, " ag": 544, " te": 545, " off": 546, " comp": 547, " un": 548, " been": 549, " int": 550, "so": 551, " en": 552, "per": 553, "ign": 554, "au": 555, " cont": 556, " Th": 557, "ary": 558, " year": 559, "ip": 560, "ace": 561, "ew": 562, " like": 563, "ven": 564, "ook": 565, " inc": 566, "ays": 567, " man": 568, " pe": 569, " In": 570, "ry": 571, "ose": 572, " res": 573, "able": 574, "ite": 575, " per": 576, "ass": 577, "ord": 578, " sp": 579, "ire": 580, " other": 581, "mer": 582, " some": 583, "ile": 584, "ib": 585, "ence": 586, " St": 587, "ople": 588, " 201": 589, "ks": 590, "ations": 591, " over": 592, "ical": 593, " there": 594, "ress": 595, " dis": 596, "ult": 597, " new": 598, "own": 599, " also": 600, " than": 601, " ar": 602, " bec": 603, "ru": 604, " them": 605, "ance": 606, "ough": 607, " app": 608, "port": 609, "ount": 610, "ail": 611, "ree": 612, "int": 613, " part": 614, " your": 615, " when": 616, " what": 617, "orm": 618, "ond": 619, " people": 620, "fter": 621, " sc": 622, " Ch": 623, "av": 624, "ase": 625, " qu": 626, " any": 627, " just": 628, " its": 629, " Y": 630, "ach": 631, "ction": 632, " time": 633, "of": 634, " kn": 635, " It": 636, " her": 637, " 3": 638, "ens": 639, "lic": 640, " rec": 641, "reat": 642, " my": 643, " get": 644, " if": 645, " V": 646, "ian": 647, ".\u00e2\u0080\u009d": 648, " into": 649, "ound": 650, " work": 651, " tw": 652, "irst": 653, "vel": 654, " no": 655, "du": 656, "ere": 657, "ings": 658, "ory": 659, "ick": 660, "ors": 661, " our": 662, "ition": 663, "ident": 664, "ob": 665, " -": 666, " pre": 667, "ove": 668, " play": 669, "ang": 670, "ink": 671, "ause": 672, "wn": 673, "text": 674, "amp": 675, "ade": 676, "ates": 677, "hing": 678, "ark": 679, " ro": 680, " pol": 681, " she": 682, "vers": 683, " co": 684, ",\u00e2\u0080\u009d": 685, " after": 686, " first": 687, " could": 688, " how": 689, " He": 690, "ne": 691, " 19": 692, "ious": 693, "nder": 694, "ild": 695, " acc": 696, " him": 697, "aw": 698, "'t": 699, "ons": 700, " po": 701, "|>": 702, "<|": 703, "endof": 704, "endoftext": 705, " only": 706, " fe": 707, "ict": 708, "hed": 709, " pr": 710, "rit": 711, "ov": 712, " two": 713, "ish": 714, " comm": 715, "\u00e2\u0080\u009c": 716, " spe": 717, "form": 718, " act": 719, "erv": 720, " bl": 721, "we": 722, " bet": 723, " dec": 724, ".\"": 725, "ning": 726, " back": 727, " most": 728, "ces": 729, "ft": 730, "ood": 731, "ck": 732, " \u00e2\u0080\u0093": 733, " am": 734, "oy": 735, " did": 736, "rough": 737, "iff": 738, "ater": 739, "round": 740, " again": 741, " 4": 742, "ual": 743, "day": 744, "ise": 745, " under": 746, " des": 747, " want": 748, "ull": 749, "sel": 750, " cons": 751, " \u00e2\u0080\u0094": 752, "..": 753, " because": 754, " now": 755, "lud": 756, "ents": 757, "man": 758, " years": 759, "tern": 760, "ublic": 761, " need": 762, "ec": 763, " even": 764, " $": 765, "iss": 766, " inv": 767, " att": 768, " know": 769, " We": 770, " see": 771, "ments": 772, "ced": 773, " add": 774, ",\"": 775, "old": 776, " ind": 777, "ting": 778, " sec": 779, "fore": 780, "uch": 781, " every": 782, "urn": 783, " 5": 784, " supp": 785, " make": 786, "pect": 787, " Un": 788, " em": 789, " these": 790, "ock": 791, "In": 792, "oll": 793, " where": 794, "ject": 795, "ational": 796, "vern": 797, " bu": 798, " look": 799, "Th": 800, " And": 801, "oss": 802, " don": 803, " ev": 804, "ump": 805, "ating": 806, " way": 807, " being": 808, " rem": 809, "ily": 810, " may": 811, "ng": 812, "row": 813, "lect": 814, "iew": 815, " then": 816, " right": 817, " many": 818, " [": 819, " diff": 820, " def": 821, "ason": 822, " rel": 823, " call": 824, " But": 825, " Tr": 826, "les": 827, "ied": 828, "ased": 829, " includ": 830, " think": 831, "aking": 832, " reg": 833, ").": 834, "ont": 835, "meric": 836, " imp": 837, " through": 838, "ath": 839, "ited": 840, "rib": 841, " sy": 842, " should": 843, " pres": 844, " say": 845, " fl": 846, "uring": 847, " last": 848, "ty": 849, " those": 850, "ower": 851, " very": 852, "other": 853, " much": 854, "000": 4890, "ities": 856, "ific": 857, " state": 858, " This": 859, "ative": 860, " show": 861, "tle": 862, "hen": 863, " br": 864, "ss": 865, "arg": 866, " well": 867, "oth": 868, " ph": 869, " Wh": 870, "als": 871, "und": 872, " count": 873, " does": 874, " down": 875, " own": 876, "arly": 877, " end": 878, " ass": 879, " bel": 880, " use": 881, "ics": 882, "ange": 883, "ts": 884, "--": 885, " long": 886, " Americ": 887, "ters": 888, "ince": 889, " before": 890, "omet": 891, "gr": 892, " mon": 893, "ward": 894, " govern": 895, " start": 896, " report": 897, "ible": 898, " ke": 899, "up": 900, "ues": 901, " New": 902, "oun": 903, " fin": 904, " team": 905, "ble": 906, " made": 907, "ife": 908, "olog": 909, "ren": 910, "ener": 911, "),": 912, " such": 913, "com": 914, " 200": 915, "erson": 916, "ix": 917, " sm": 918, "ek": 919, "rest": 920, "\u00e2\u0080\u0094": 921, "lp": 922, "ility": 923, " going": 924, "ism": 925, "ful": 926, " world": 927, "ually": 928, " stud": 929, "ists": 930, " good": 931, " ac": 932, "tain": 933, " sub": 934, " eff": 935, "ini": 936, " sur": 937, " against": 938, "It": 939, "its": 940, " game": 941, " set": 942, "ork": 943, " 6": 944, " gu": 945, " point": 946, " ent": 947, "ys": 948, "gan": 949, "ars": 950, "li": 951, "stem": 952, " prov": 953, " still": 954, "roup": 955, " while": 956, "illion": 957, " help": 958, " lead": 959, "ell": 960, "ms": 961, "ween": 962, ".<|": 963, "ax": 964, "ank": 965, "alk": 966, "imes": 967, " says": 968, " ob": 969, "cy": 970, " produ": 971, "ef": 972, " inte": 973, " gr": 974, " inter": 975, " inst": 976, " str": 977, "cess": 978, " sim": 979, "self": 980, " conf": 981, " col": 982, " take": 983, "io": 984, " min": 985, "ures": 986, "arch": 987, " same": 988, " though": 989, " between": 990, "ollow": 991, " offic": 992, "ever": 993, " cr": 994, "land": 995, " differe": 996, "ool": 997, "uss": 998, "ution": 999, " disc": 1000, "air": 1001, " op": 1002, "ah": 1003, " ed": 1004, " high": 1005, "read": 1006, " num": 1007, " law": 1008, " sign": 1009, "way": 1010, " government": 1011, "gg": 1012, "led": 1013, " Re": 1014, "ner": 1015, "hip": 1016, "atch": 1017, "hes": 1018, "ames": 1019, "any": 1020, " ter": 1021, " somet": 1022, "cent": 1023, "ten": 1024, "velop": 1025, "ted": 1026, "We": 1027, " ref": 1028, " trans": 1029, " ins": 1030, " run": 1031, " ser": 1032, " found": 1033, " three": 1034, "ives": 1035, "ave": 1036, " mem": 1037, " around": 1038, " here": 1039, "ather": 1040, " med": 1041, " real": 1042, " used": 1043, "ouse": 1044, " 10": 1045, "ved": 1046, " exp": 1047, "az": 1048, " Ar": 1049, "cept": 1050, "oot": 1051, " system": 1052, " You": 1053, "ci": 1054, " really": 1055, " mod": 1056, "ving": 1057, "con": 1058, "cer": 1059, " group": 1060, " support": 1061, " 7": 1062, " cour": 1063, "ets": 1064, "ale": 1065, "nin": 1066, "ins": 1067, " car": 1068, " ret": 1069, " hand": 1070, " public": 1071, " spec": 1072, "pr": 1073, "ph": 1074, " Le": 1075, "ying": 1076, " great": 1077, "ense": 1078, " ext": 1079, "ton": 1080, ".[": 1081, "irect": 1082, " cur": 1083, " fam": 1084, " Com": 1085, "alth": 1086, " happ": 1087, " fact": 1088, " exper": 1089, " They": 1090, " Trump": 1091, " fr": 1092, " wom": 1093, " Is": 1094, " cap": 1095, " both": 1096, " day": 1097, " find": 1098, " Al": 1099, "ular": 1100, " read": 1101, "ines": 1102, "oh": 1103, "ices": 1104, " det": 1105, " lit": 1106, " sl": 1107, " rep": 1108, "uth": 1109, " during": 1110, " Sh": 1111, " As": 1112, " 0": 1113, " serv": 1114, "the": 1115, " month": 1116, "ision": 1117, " develop": 1118, " big": 1119, "min": 1120, " 8": 1121, " person": 1122, "akes": 1123, " follow": 1124, " cre": 1125, " Cl": 1126, " iss": 1127, " told": 1128, " since": 1129, "ared": 1130, "med": 1131, "ically": 1132, " week": 1133, "ages": 1134, "ivers": 1135, " war": 1136, " few": 1137, "ording": 1138, " cent": 1139, " leg": 1140, "aj": 1141, "ex": 1142, "get": 1143, " polit": 1144, "ves": 1145, "ash": 1146, " expl": 1147, "ered": 1148, " lot": 1149, "ric": 1150, " belie": 1151, "ata": 1152, " gener": 1153, " too": 1154, " 9": 1155, "der": 1156, "rent": 1157, " opp": 1158, "Wh": 1159, " requ": 1160, " contin": 1161, "iet": 1162, "bers": 1163, "anc": 1164, " fil": 1165, " cor": 1166, "ention": 1167, "ness": 1168, " cle": 1169, " resp": 1170, " put": 1171, "ized": 1172, " If": 1173, " another": 1174, "20": 1175, "chool": 1176, " inf": 1177, " something": 1178, " different": 1179, " loc": 1180, " De": 1181, "ute": 1182, " invest": 1183, " soc": 1184, " power": 1185, " che": 1186, "uc": 1187, " '": 1188, " pass": 1189, " commun": 1190, " life": 1191, " Fr": 1192, " plan": 1193, "ody": 1194, " rele": 1195, " head": 1196, "ience": 1197, " things": 1198, "ned": 1199, "thing": 1200, " far": 1201, "ox": 1202, " art": 1203, " poss": 1204, " met": 1205, " camp": 1206, "ross": 1207, "arge": 1208, " vot": 1209, "This": 1210, "view": 1211, " child": 1212, "ier": 1213, "ants": 1214, " ask": 1215, " might": 1216, " each": 1217, "ize": 1218, " dep": 1219, "iness": 1220, " .": 1221, " never": 1222, " next": 1223, " For": 1224, " An": 1225, "ield": 1226, " second": 1227, " mark": 1228, " quest": 1229, " bus": 1230, " adv": 1231, "ik": 1232, " dem": 1233, " come": 1234, " got": 1235, " \u00e2\u0080\u0098": 1236, "ret": 1237, " open": 1238, " best": 1239, "ient": 1240, "ital": 1241, " allow": 1242, "...": 3259, " That": 1244, "rat": 1245, " seem": 1246, " post": 1247, "ple": 1248, "tem": 1249, "nce": 1250, " feel": 1251, " Pro": 1252, " US": 1253, "ug": 1254, " pri": 1255, "gram": 1256, " percent": 1257, "cl": 1258, " home": 1259, " dist": 1260, " direct": 1261, "ired": 1262, " incre": 1263, " contro": 1264, " Rep": 1265, "son": 1266, "less": 1267, "orn": 1268, "osed": 1269, " result": 1270, " hard": 1271, " care": 1272, "ately": 1273, " million": 1274, "chn": 1275, " comple": 1276, " place": 1277, " without": 1278, " inform": 1279, " including": 1280, " import": 1281, " av": 1282, "conom": 1283, " hum": 1284, "ama": 1285, " ide": 1286, " proble": 1287, " build": 1288, " top": 1289, " number": 1290, " country": 1291, "gy": 1292, "oney": 1293, "aim": 1294, " Bl": 1295, "ral": 1296, "tt": 1297, "ably": 1298, "uro": 1299, " stand": 1300, " gl": 1301, " el": 1302, "riend": 1303, " four": 1304, "ished": 1305, "ways": 1306, " partic": 1307, " better": 1308, " tri": 1309, "But": 1310, " recent": 1311, " interest": 1312, " mov": 1313, " let": 1314, "ration": 1315, "co": 1316, " season": 1317, " less": 1318, " turn": 1319, " little": 1320, " beh": 1321, " mil": 1322, "ead": 1323, " appro": 1324, "ract": 1325, "line": 1326, " bro": 1327, "ling": 1328, "ised": 1329, " called": 1330, "app": 1331, "10": 1332, " case": 1333, " dr": 1334, " Ind": 1335, " rest": 1336, " left": 1337, " pop": 1338, " ann": 1339, " Z": 1340, "ency": 1341, " move": 1342, "ode": 1343, " attack": 1344, "ina": 1345, " There": 1346, " keep": 1347, " full": 1348, "ering": 1349, " didn": 1350, "be": 1351, " fun": 1352, " main": 1353, "ajor": 1354, "__": 1355, " effect": 1356, "inal": 1357, "leg": 1358, " prev": 1359, " program": 1360, " using": 1361, " test": 1362, "to": 1363, "rem": 1364, " pay": 1365, "ature": 1366, " ear": 1367, " val": 1368, " police": 1369, " writ": 1370, " form": 1371, " econom": 1372, " data": 1373, " news": 1374, " pos": 1375, " win": 1376, " char": 1377, " American": 1378, " level": 1379, " sit": 1380, "ains": 1381, "iving": 1382, "uck": 1383, " small": 1384, "ined": 1385, "ready": 1386, "He": 1387, " school": 1388, " list": 1389, "ology": 1390, "rap": 1391, "ided": 1392, "mit": 1393, "ploy": 1394, "'re": 1395, "ger": 1396, " eas": 1397, " process": 1398, "ird": 1399, " change": 1400, "orth": 1401, " women": 1402, " current": 1403, " rece": 1404, " prom": 1405, " hist": 1406, " dri": 1407, " =": 1408, "reen": 1409, " president": 1410, " company": 1411, "used": 1412, " mat": 1413, "ruct": 1414, " already": 1415, "ohn": 1416, " United": 1417, "wit": 1418, " ty": 1419, " why": 1420, " bre": 1421, " unt": 1422, " money": 1423, " sol": 1424, " always": 1425, " later": 1426, " expect": 1427, " techn": 1428, " business": 1429, " How": 1430, " official": 1431, "ron": 1432, " Q": 1433, " Ob": 1434, "stand": 1435, "iversity": 1436, " book": 1437, " bo": 1438, " Ph": 1439, "aign": 1440, " thing": 1441, " class": 1442, " project": 1443, "ases": 1444, " claim": 1445, " job": 1446, " information": 1447, " organ": 1448, "aff": 1449, " She": 1450, " talk": 1451, "ards": 1452, " Be": 1453, " design": 1454, " story": 1455, " chang": 1456, " major": 1457, " able": 1458, " prof": 1459, " --": 1460, "lection": 1461, "iven": 1462, "ertain": 1463, " rese": 1464, " health": 1465, " vis": 1466, "urs": 1467, " free": 1468, "outh": 1469, "here": 1470, " Ad": 1471, " oper": 1472, " So": 1473, " away": 1474, "ior": 1475, " Can": 1476, " must": 1477, " city": 1478, "ample": 1479, "ians": 1480, "rist": 1481, "sc": 1482, "ural": 1483, " happen": 1484, "uthor": 1485, " 18": 1486, "acy": 1487, "urity": 1488, " important": 1489, " kill": 1490, " sk": 1491, "ption": 1492, " est": 1493, "ured": 1494, " old": 1495, " past": 1496, " pat": 1497, " Se": 1498, "ury": 1499, "ending": 1500, " doesn": 1501, "ission": 1502, " least": 1503, "---": 1581, " grow": 1505, " edit": 1506, " var": 1507, "ained": 1508, " cost": 1509, "ney": 1510, "ider": 1511, " Go": 1512, "ides": 1513, " days": 1514, " tell": 1515, " hop": 1516, " campaign": 1517, "side": 1518, " stre": 1519, " 12": 1520, " men": 1521, " came": 1522, " aff": 1523, " Mar": 1524, " const": 1525, "resident": 1526, " enough": 1527, " view": 1528, "ccess": 1529, " kind": 1530, " Sp": 1531, "oad": 1532, "ern": 1533, " making": 1534, "els": 1535, " large": 1536, " record": 1537, "50": 1538, "ush": 1539, " mar": 1540, " friend": 1541, " family": 1542, "\u00e2\u0080\u00a6": 1543, "ley": 1544, " elect": 1545, "ded": 1546, "eral": 1547, " polic": 1548, " tax": 1549, "ising": 1550, "ror": 1551, "by": 1552, "pped": 1553, "ality": 1554, "ator": 1555, "ified": 1556, "As": 1557, "ived": 1558, " until": 1559, "arent": 1560, "ional": 1561, " political": 1562, " vide": 1563, " deal": 1564, "ries": 1565, "alf": 1566, "augh": 1567, " ve": 1568, " working": 1569, "ued": 1570, " Republic": 1571, " took": 1572, " deb": 1573, "bs": 1574, "If": 1575, "ister": 1576, " line": 1577, " John": 1578, "aining": 1579, " air": 1580, " es": 1582, "ane": 1583, " intern": 1584, " fore": 1585, "iol": 1586, "ocrat": 1587, " become": 1588, " actually": 1589, "aps": 1590, "ony": 1591, " mean": 1592, "work": 1593, " Sc": 1594, " fund": 1595, "ware": 1596, "19": 1597, " Pl": 1598, "St": 1599, " former": 1600, " often": 1601, " Euro": 1602, "ott": 1603, " won": 1604, "ann": 1605, " give": 1606, " according": 1607, " ever": 1608, "most": 1609, "eng": 1610, "year": 1611, " prote": 1612, "wh": 1613, "aring": 1614, " games": 1615, "ison": 1616, " human": 1617, " bas": 1618, "ization": 1619, " return": 1620, " times": 1621, " order": 1622, " Russ": 1623, " word": 1624, " bit": 1625, " Dem": 1626, " name": 1627, "oint": 1628, "11": 1629, " sever": 1630, " Con": 1631, " All": 1632, " par": 1633, " dev": 1634, "icle": 1635, "for": 1636, "uture": 1637, "ither": 1638, " 199": 1639, " Mc": 1640, " At": 1641, " wr": 1642, "raft": 1643, " sing": 1644, " perform": 1645, " Sy": 1646, " market": 1647, " fac": 1648, " charac": 1649, "There": 1650, "iqu": 1651, " Or": 1652, "ene": 1653, "idd": 1654, " May": 1655, " ra": 1656, " doing": 1657, " appear": 1658, "ER": 1659, "ched": 1660, " players": 1661, " la": 1662, " night": 1663, " lear": 1664, "aken": 1665, "rop": 1666, "ats": 1667, "mber": 1668, " today": 1669, " early": 1670, " 15": 1671, " seen": 1672, "//": 1673, " having": 1674, " ,": 1675, " pot": 1676, " children": 1677, " event": 1678, " media": 1679, " social": 1680, " crit": 1681, " President": 1682, " whether": 1683, " several": 1684, " control": 1685, "idence": 1686, " meet": 1687, "sh": 1688, " milit": 1689, " press": 1690, " went": 1691, "artment": 1692, " five": 1693, " young": 1694, "ories": 1695, " prop": 1696, "iously": 1697, " sure": 1698, " equ": 1699, " beg": 1700, " question": 1701, " occ": 1702, "une": 1703, " likely": 1704, "vert": 1705, " members": 1706, "br": 1707, " certain": 1708, "ands": 1709, " eng": 1710, " water": 1711, " York": 1712, " example": 1713, "ots": 1714, " Col": 1715, " arg": 1716, " side": 1717, " done": 1718, " vers": 1719, "enn": 1720, " ant": 1721, " invol": 1722, "ee": 1723, " Mr": 1724, " States": 1725, " Europe": 1726, "ended": 1727, "let": 1728, " along": 1729, " short": 1730, " success": 1731, "ential": 1732, " months": 1733, "ball": 1734, " hour": 1735, " 11": 1736, "ium": 1737, " Ste": 1738, "iver": 1739, "ially": 1740, "And": 1741, " sex": 1742, "lf": 1743, " within": 1744, " desc": 1745, "imate": 1746, " course": 1747, " fight": 1748, "urch": 1749, "ubl": 1750, " among": 1751, " activ": 1752, "uff": 1753, "\u00e2\u0080\u0093": 1754, "ague": 1755, " once": 1756, "ster": 1757, " future": 1758, " investig": 1759, "ulation": 1760, "rew": 1761, " possible": 1762, " Obama": 1763, " cho": 1764, "nect": 1765, " Car": 1766, " understand": 1767, "iting": 1768, " concer": 1769, " On": 1770, " ]": 1771, "ones": 1772, "ortun": 1773, " problem": 1774, " Br": 1775, " priv": 1776, " means": 1777, " viol": 1778, " author": 1779, "itive": 1780, "ggest": 1781, " No": 1782, " avail": 1783, "oci": 1784, "ourn": 1785, "my": 1786, " known": 1787, " product": 1788, " non": 1789, "ivid": 1790, " thought": 1791, " yet": 1792, "gress": 1793, " across": 1794, " local": 1795, "ler": 1796, " hold": 1797, " Te": 1798, " fail": 1799, "inc": 1800, " When": 1801, " State": 1802, " community": 1803, " reason": 1804, " orig": 1805, "ede": 1806, " suggest": 1807, " &": 1808, "12": 1809, " makes": 1810, "verage": 1811, "por": 1812, "ald": 1813, "not": 1814, "back": 1815, " 2016": 1816, " i": 1817, "book": 1818, " asked": 1819, "ederal": 1820, "orld": 1821, " reported": 1822, "You": 1823, "aged": 1824, "ensive": 1825, " given": 1826, " strong": 1827, " prob": 1828, " mus": 1829, " others": 1830, " believe": 1831, " video": 1832, "iber": 1833, " ben": 1834, " getting": 1835, " House": 1836, "ances": 1837, " announ": 1838, " light": 1839, "ging": 1840, "ored": 1841, "ober": 1842, " University": 1843, " 30": 1844, "itions": 1845, " ident": 1846, "iron": 1847, " sent": 1848, " cut": 1849, " lim": 1850, " ca": 1851, " Christ": 1852, " Co": 1853, "iety": 1854, "30": 1855, "urther": 1856, " sour": 1857, " creat": 1858, " cond": 1859, " X": 1860, "ams": 1861, "'ve": 1862, " net": 1863, "ashing": 1864, " bat": 1865, "ament": 1866, " national": 1867, ".,": 1868, " close": 1869, "arm": 1870, " started": 1871, " saf": 1872, " death": 1873, "aster": 1874, " available": 1875, "For": 1876, " hig": 1877, " based": 1878, " issue": 1879, " indust": 1880, " Democrat": 1881, " low": 1882, " following": 1883, "resent": 1884, " account": 1885, " land": 1886, "use": 1887, " Cent": 1888, " employ": 1889, " love": 1890, " 2015": 1891, " #": 1892, " history": 1893, " ago": 1894, "orts": 1895, "selves": 1896, " mom": 1897, "ana": 1898, " party": 1899, " Am": 1900, "ability": 1901, " series": 1902, " comes": 1903, " trying": 1904, "uly": 1905, "utes": 1906, " almost": 1907, "gether": 1908, "ument": 1909, " together": 1910, "ination": 1911, "AT": 1912, " America": 1913, " idea": 1914, "pro": 1915, "ief": 1916, " access": 1917, " foc": 1918, "eb": 1919, "hers": 1920, "ilar": 1921, " Fl": 1922, "reed": 1923, "ails": 1924, " commit": 1925, "itional": 1926, " isn": 1927, " Sen": 1928, " clear": 1929, " 16": 1930, " One": 1931, " trad": 1932, " Min": 1933, "though": 1934, "ring": 1935, " What": 1936, " pract": 1937, " added": 1938, " impro": 1939, " experience": 1940, "erence": 1941, " film": 1942, "15": 1943, " half": 1944, "ustom": 1945, "ged": 1946, " hit": 1947, " Bro": 1948, "witter": 1949, "rict": 1950, " anal": 1951, " prot": 1952, "inton": 1953, "ograp": 1954, "unch": 1955, " 2014": 1956, " rul": 1957, "ividual": 1958, " looking": 1959, " six": 1960, " live": 1961, " anything": 1962, " area": 1963, " complete": 1964, "erman": 1965, "minist": 1966, " miss": 1967, "rael": 1968, " Comm": 1969, " fav": 1970, " Ex": 1971, "tempt": 1972, " ris": 1973, "nes": 1974, " present": 1975, "ai": 1976, "ote": 1977, "rug": 1978, " saying": 1979, "raw": 1980, "aid": 1981, " Canad": 1982, " vict": 1983, "IN": 1984, "cially": 1985, " bad": 1986, "ows": 1987, "uge": 1988, " taken": 1989, "oto": 1990, " entire": 1991, " Pr": 1992, "ators": 1993, " mor": 1994, " bill": 1995, "af": 1996, " compet": 1997, " Eng": 1998, " behind": 1999, "ien": 2000, " aut": 2001, "'m": 2002, " To": 2003, " court": 2004, "play": 2005, " try": 2006, "wards": 2007, " military": 2008, " z": 2009, " near": 2010, "osp": 2011, "What": 2012, " face": 2013, " mult": 2014, " er": 2015, " 14": 2016, " security": 2017, " Pol": 2018, "ps": 2019, " proper": 2020, " discuss": 2021, " threat": 2022, "ev": 2023, " study": 2024, " single": 2025, " rather": 2026, " individual": 2027, "ert": 2028, " Af": 2029, " War": 2030, " Brit": 2031, " sw": 2032, " \u00c2": 2033, " quick": 2034, " tot": 2035, " Don": 2036, "An": 2037, " mind": 2038, " Sec": 2039, "lement": 2040, "ales": 2041, "atic": 2042, " North": 2043, "amed": 2044, "aper": 2045, " publ": 2046, "par": 2047, " policy": 2048, " mess": 2049, "ris": 2050, " black": 2051, " wanted": 2052, " fall": 2053, "irc": 2054, "**": 2055, "off": 2056, " food": 2057, " sum": 2058, " someone": 2059, "lling": 2060, "ids": 2061, "On": 2062, " Dep": 2063, " /": 2064, " cult": 2065, " special": 2066, " comb": 2067, " key": 2068, " player": 2069, " redu": 2070, " |": 2071, " Gr": 2072, " bring": 2073, " 13": 2074, " compan": 2075, " 17": 2076, "ply": 2077, "rote": 2078, " attempt": 2079, " Bar": 2080, " National": 2081, " taking": 2082, "When": 2083, "yn": 2084, "ON": 2085, "ify": 2086, "olution": 2087, " :": 2088, "viron": 2089, " foot": 2090, " Cal": 2091, "://": 2092, " else": 2093, " pret": 2094, " body": 2095, " space": 2096, "over": 2097, " coun": 2098, "elt": 2099, " probably": 2100, "16": 2101, "icult": 2102, ".)": 2103, " front": 2104, " cou": 2105, " nothing": 2106, " Im": 2107, "ashington": 2108, " connect": 2109, "ches": 2110, " World": 2111, " research": 2112, "14": 2113, " Clinton": 2114, " City": 2115, "ming": 2116, " coming": 2117, " points": 2118, " Israel": 2119, " however": 2120, "RE": 2121, " describ": 2122, " jo": 2123, "go": 2124, " signific": 2125, " similar": 2126, "lier": 2127, " Man": 2128, "reme": 2129, "cing": 2130, " benef": 2131, " Aust": 2132, " imm": 2133, " decision": 2134, " either": 2135, "aces": 2136, "Ad": 2137, " Har": 2138, "ault": 2139, " mass": 2140, " sus": 2141, " targ": 2142, "ully": 2143, "sy": 2144, " feat": 2145, "That": 2146, " conv": 2147, " exist": 2148, "irl": 2149, " enc": 2150, " 2013": 2151, " rights": 2152, " service": 2153, " Su": 2154, "asing": 2155, "IS": 2156, "oon": 2157, " fire": 2158, " doc": 2159, " wrote": 2160, " further": 2161, " house": 2162, "rodu": 2163, " ban": 2164, "ww": 2165, " fig": 2166, " chall": 2167, " third": 2168, "mb": 2169, " protect": 2170, " wa": 2171, " create": 2172, "sw": 2173, " stop": 2174, " field": 2175, " pick": 2176, "now": 2177, "AN": 2178, "ape": 2179, "ively": 2180, " meas": 2181, " repl": 2182, " compl": 2183, "ung": 2184, " With": 2185, " issues": 2186, "pping": 2187, " begin": 2188, " super": 2189, "amer": 2190, " step": 2191, "ried": 2192, "ently": 2193, " whole": 2194, " relations": 2195, " seems": 2196, " )": 2197, " tem": 2198, " companies": 2199, "pecially": 2200, " due": 2201, " exec": 2202, " cand": 2203, " everything": 2204, "eal": 2205, " federal": 2206, " Ed": 2207, " states": 2208, " Gu": 2209, " ey": 2210, " room": 2211, "aul": 2212, " tra": 2213, " watch": 2214, " custom": 2215, " Ge": 2216, " leaders": 2217, "13": 2218, "ran": 2219, "uation": 2220, " However": 2221, "pite": 2222, " Jan": 2223, " Washington": 2224, "Ch": 2225, "lam": 2226, " self": 2227, " role": 2228, "ilt": 2229, " sound": 2230, " lab": 2231, "head": 2232, " dam": 2233, "ivil": 2234, " officials": 2235, " stri": 2236, "So": 2237, " 2012": 2238, " tre": 2239, "iday": 2240, "lu": 2241, "ibility": 2242, " released": 2243, " Inst": 2244, " began": 2245, " Dav": 2246, " App": 2247, " South": 2248, " opt": 2249, "obal": 2250, " students": 2251, " treat": 2252, " final": 2253, " character": 2254, " position": 2255, " matter": 2256, "\u00c3\u00a9": 2257, "ender": 2258, " ener": 2259, "lim": 2260, " outside": 2261, " dou": 2262, "ery": 2263, "sec": 2264, "ades": 2265, "vironment": 2266, " development": 2267, " statement": 2268, " himself": 2269, " 2017": 2270, " stat": 2271, " above": 2272, "like": 2273, " init": 2274, " break": 2275, " 100": 2276, " amount": 2277, " provide": 2278, "att": 2279, " hours": 2280, " itself": 2281, " themselves": 2282, " office": 2283, " represent": 2284, " action": 2285, " di": 2286, " became": 2287, " 198": 2288, " general": 2289, " continue": 2290, " Part": 2291, " countries": 2292, " Intern": 2293, " neg": 2294, " address": 2295, "iod": 2296, "tee": 2297, " 25": 2298, " gun": 2299, "aced": 2300, "ask": 2301, " true": 2302, " specific": 2303, "ograph": 2304, "umb": 2305, "arter": 2306, "reg": 2307, " larg": 2308, " significant": 2309, "lish": 2310, " simply": 2311, " Ass": 2312, " Res": 2313, " wasn": 2314, "'ll": 2315, "ili": 2316, " interview": 2317, "acebook": 2318, " ground": 2319, " rad": 2320, "oid": 2321, "ogn": 2322, " difficult": 2323, " running": 2324, " Just": 2325, " evidence": 2326, " administ": 2327, "BC": 2328, " cop": 2329, "17": 2330, "ream": 2331, " drug": 2332, " version": 2333, " bar": 2334, "ogle": 2335, " agree": 2336, "iddle": 2337, "eks": 2338, " building": 2339, " China": 2340, " needs": 2341, " profess": 2342, "angu": 2343, " groups": 2344, " typ": 2345, " respons": 2346, " common": 2347, " shows": 2348, " everyone": 2349, " dom": 2350, " dest": 2351, " red": 2352, " needed": 2353, " ball": 2354, " woman": 2355, "___": 2465, " German": 2357, " lat": 2358, " below": 2359, "right": 2360, " Sep": 2361, "light": 2362, "ournal": 2363, " music": 2364, " exc": 2365, " release": 2366, "ift": 2367, " inj": 2368, " pretty": 2369, " Ab": 2370, "AR": 2371, "ribut": 2372, " Med": 2373, " include": 2374, " saw": 2375, " deep": 2376, "body": 2377, " ap": 2378, "18": 2379, " played": 2380, " quite": 2381, " industry": 2382, " charg": 2383, " mag": 2384, " energy": 2385, " playing": 2386, " mot": 2387, " 50": 2388, " candid": 2389, " sense": 2390, " phys": 2391, " late": 2392, " alleg": 2393, " white": 2394, " His": 2395, "ival": 2396, " friends": 2397, " gen": 2398, " legal": 2399, "atur": 2400, "bo": 2401, " anim": 2402, "isc": 2403, "yle": 2404, " After": 2405, "omm": 2406, "How": 2407, "AS": 2408, "where": 2409, " abs": 2410, "lev": 2411, " instead": 2412, " billion": 2413, " lost": 2414, " especially": 2415, " value": 2416, " Mus": 2417, " West": 2418, " host": 2419, "time": 2420, "osing": 2421, "oring": 2422, " hom": 2423, " News": 2424, "ager": 2425, " ple": 2426, "istic": 2427, " weeks": 2428, "eg": 2429, "epend": 2430, " Not": 2431, "ccording": 2432, " forward": 2433, " deter": 2434, " election": 2435, " recently": 2436, " jud": 2437, " track": 2438, " suff": 2439, " vote": 2440, "lt": 2441, " Twitter": 2442, " object": 2443, "medi": 2444, " period": 2445, " changes": 2446, " opportun": 2447, " White": 2448, " Oct": 2449, " longer": 2450, "irt": 2451, "arc": 2452, "oke": 2453, " pain": 2454, "ique": 2455, " soon": 2456, " site": 2457, " {": 2458, " ep": 2459, "hod": 2460, "ript": 2461, "ached": 2462, " accept": 2463, " Cong": 2464, "irm": 2466, " shoot": 2467, " economic": 2468, " hope": 2469, " moment": 2470, " decl": 2471, "lege": 2472, " consum": 2473, " Will": 2474, " pie": 2475, " tit": 2476, " check": 2477, "oph": 2478, "oe": 2479, " potential": 2480, " block": 2481, " March": 2482, "ole": 2483, " wrong": 2484, "duct": 2485, "ners": 2486, "ij": 2487, "den": 2488, " Department": 2489, " higher": 2490, "onse": 2491, " cred": 2492, " online": 2493, " focus": 2494, " 24": 2495, " consider": 2496, "key": 2497, " educ": 2498, "ancial": 2499, " My": 2500, "ns": 2501, "iding": 2502, " circ": 2503, " works": 2504, " relig": 2505, " share": 2506, " parent": 2507, "cial": 2508, " held": 2509, "25": 2510, " pred": 2511, " Dr": 2512, " walk": 2513, " webs": 2514, " lo": 2515, "ularly": 2516, "==": 2517, " reve": 2518, " led": 2519, "lear": 2520, " stay": 2521, " These": 2522, "overed": 2523, " stru": 2524, " goal": 2525, " Republican": 2526, " risk": 2527, " words": 2528, " Aug": 2529, " rev": 2530, " sold": 2531, " review": 2532, "icro": 2533, " contract": 2534, " results": 2535, " services": 2536, " laws": 2537, "They": 2538, " code": 2539, "cil": 2540, " Mich": 2541, " wind": 2542, " function": 2543, " aud": 2544, " Syri": 2545, "put": 2546, " ce": 2547, " total": 2548, "aut": 2549, "fect": 2550, " article": 2551, " age": 2552, " applic": 2553, " minutes": 2554, " personal": 2555, "ilities": 2556, " anyone": 2557, "uary": 2558, "ients": 2559, "itution": 2560, " June": 2561, "asons": 2562, "ateg": 2563, " prim": 2564, "anger": 2565, " target": 2566, " den": 2567, " earlier": 2568, "ule": 2569, " favor": 2570, " express": 2571, "haps": 2572, "fer": 2573, " dead": 2574, " answ": 2575, "che": 2576, " upd": 2577, " popular": 2578, " comput": 2579, " vol": 2580, "pril": 2581, " necess": 2582, "ham": 2583, " hy": 2584, " rate": 2585, "ES": 2586, "aging": 2587, " technology": 2588, "apan": 2589, " respect": 2590, "val": 2591, " environment": 2592, " 2011": 2593, "Ph": 2594, " received": 2595, " expected": 2596, "ember": 2597, " Sm": 2598, " Par": 2599, "ends": 2600, "ude": 2601, " base": 2602, " created": 2603, " surpr": 2604, " anti": 2605, "ech": 2606, " July": 2607, "alt": 2608, "eter": 2609, " problems": 2610, "uel": 2611, " ways": 2612, "iple": 2613, " port": 2614, "action": 2615, " private": 2616, " Do": 2617, " scient": 2618, " increase": 2619, "ray": 2620, "reet": 2621, " announced": 2622, " comment": 2623, "isl": 2624, " cannot": 2625, " easy": 2626, "Al": 2627, " shot": 2628, " Congress": 2629, " questions": 2630, " En": 2631, "bit": 2632, " force": 2633, "aterial": 2634, " Pe": 2635, " impact": 2636, "hern": 2637, " et": 2638, " Mond": 2639, "ples": 2640, " pack": 2641, " +": 2642, " pur": 2643, " Facebook": 2644, " langu": 2645, "atives": 2646, " God": 2647, "ctor": 2648, " involved": 2649, "omb": 2650, "aving": 2651, "ills": 2652, "60": 2653, "lex": 2654, "hood": 2655, "onst": 2656, " Austral": 2657, " div": 2658, "uesday": 2659, " execut": 2660, " model": 2661, "itiz": 2662, " sen": 2663, " speak": 2664, " staff": 2665, " exact": 2666, " civil": 2667, "ires": 2668, " nearly": 2669, " type": 2670, "ourt": 2671, "okes": 2672, " original": 2673, " cases": 2674, " content": 2675, " 197": 2676, " relationship": 2677, " terror": 2678, " Google": 2679, "To": 2680, " leave": 2681, " Friday": 2682, " response": 2683, " capt": 2684, " inside": 2685, " <": 2686, " phot": 2687, "At": 2688, "lled": 2689, " fans": 2690, "llig": 2691, " April": 2692, " international": 2693, " coll": 2694, " heart": 2695, " average": 2696, "eed": 2697, " broad": 2698, " arrest": 2699, " users": 2700, " Count": 2701, "cast": 2702, " cal": 2703, "rel": 2704, " cell": 2705, " worth": 2706, " Em": 2707, " soft": 2708, " ur": 2709, " living": 2710, "bor": 2711, " Red": 2712, "ips": 2713, " nation": 2714, "ky": 2715, " killed": 2716, " reports": 2717, " 2010": 2718, "\u00e3\u0081": 2719, " becom": 2720, " source": 2721, " Monday": 2722, " Tuesday": 2723, " subject": 2724, " worked": 2725, "atural": 2726, "ests": 2727, " estab": 2728, " immedi": 2729, "EN": 2730, " respond": 2731, " global": 2732, " associ": 2733, "joy": 2734, "tember": 2735, " club": 2736, "ops": 2737, " Americans": 2738, "ael": 2739, " obs": 2740, "ites": 2741, " Per": 2742, " Pal": 2743, " chance": 2744, " oil": 2745, " Act": 2746, " ability": 2747, " takes": 2748, "rought": 2749, " weap": 2750, "hel": 2751, " price": 2752, " Japan": 2753, "ological": 2754, " director": 2755, "izing": 2756, " workers": 2757, " terms": 2758, " tou": 2759, " road": 2760, "mon": 2761, " published": 2762, " del": 2763, " While": 2764, " phone": 2765, "rain": 2766, " collect": 2767, " financial": 2768, " mid": 2769, "osition": 2770, " decided": 2771, "ises": 2772, "OR": 2773, " Russia": 2774, "ese": 2775, " Some": 2776, " mother": 2777, " squ": 2778, " Wed": 2779, " lack": 2780, " defin": 2781, "ovember": 2782, " 40": 2783, " girl": 2784, " store": 2785, " gave": 2786, " buy": 2787, " influ": 2788, " Calif": 2789, " log": 2790, " happened": 2791, " require": 2792, " Now": 2793, " emer": 2794, "ino": 2795, " fem": 2796, " San": 2797, " capital": 2798, "clus": 2799, " foreign": 2800, " currently": 2801, " Off": 2802, "based": 2803, " goes": 2804, " By": 2805, "oved": 2806, " Geor": 2807, "vertise": 2808, " situation": 2809, " Cor": 2810, " indic": 2811, " offer": 2812, " whose": 2813, " @": 2814, " tal": 2815, " material": 2816, " lives": 2817, " affect": 2818, "rown": 2819, "ought": 2820, " plans": 2821, "hem": 2822, "nesday": 2823, "unt": 2824, " arri": 2825, " bur": 2826, " member": 2827, " pict": 2828, "ursday": 2829, " Feb": 2830, " particip": 2831, "ruction": 2832, " recogn": 2833, " turned": 2834, " method": 2835, " events": 2836, " January": 2837, " Hill": 2838, " network": 2839, "\".": 2840, "One": 2841, "ctions": 2842, " teams": 2843, " Sund": 2844, "fully": 2845, " bank": 2846, " meeting": 2847, "40": 2848, " norm": 2849, " introdu": 2850, " simple": 2851, " Ag": 2852, " Islam": 2853, " ill": 2854, " huge": 2855, " September": 2856, " regard": 2857, " areas": 2858, " cy": 2859, " Me": 2860, "order": 2861, " TV": 2862, "bl": 2863, " couple": 2864, " approach": 2865, "aur": 2866, " career": 2867, " Afric": 2868, " Gl": 2869, "ttp": 2870, "load": 2871, "\",": 2872, " deli": 2873, "oud": 2874, " race": 2875, "ees": 2876, " performance": 2877, " page": 2878, "ety": 2879, "apt": 2880, " November": 2881, " tool": 2882, " David": 2883, " felt": 2884, " quickly": 2885, " mis": 2886, " numbers": 2887, "oor": 2888, " email": 2889, " El": 2890, " 21": 2891, "aily": 2892, " ord": 2893, "istan": 2894, " administration": 2895, " hon": 2896, " Wednesday": 2897, " victim": 2898, " Paul": 2899, " via": 2900, " improve": 2901, " engine": 2902, " text": 2903, "chie": 2904, " fre": 2905, " pull": 2906, " Ang": 2907, " round": 2908, " built": 2909, " 22": 2910, " pers": 2911, " European": 2912, " dig": 2913, " Thursday": 2914, " father": 2915, "ornia": 2916, " loss": 2917, "avy": 2918, " thous": 2919, "\u00c2\u00ad": 2920, "ructure": 2921, " production": 2922, " boy": 2923, "ume": 2924, "lin": 2925, " heard": 2926, "down": 2927, "Sh": 2928, " economy": 2929, " enjoy": 2930, " August": 2931, " trade": 2932, " Sch": 2933, "face": 2934, " website": 2935, "iment": 2936, " secret": 2937, " cover": 2938, " reveal": 2939, " wide": 2940, " board": 2941, " match": 2942, "AL": 2943, " allowed": 2944, " Court": 2945, " hands": 2946, " spent": 2947, " travel": 2948, " lower": 2949, " bi": 2950, " repe": 2951, "atory": 2952, " poll": 2953, " included": 2954, "cember": 2955, " ste": 2956, " October": 2957, " neigh": 2958, " legisl": 2959, "orters": 2960, "uses": 2961, " behav": 2962, "iction": 2963, " knew": 2964, " wants": 2965, " town": 2966, "?\u00e2\u0080\u009d": 2967, "ights": 2968, " British": 2969, " separ": 2970, " Ne": 2971, "ences": 2972, "estern": 2973, " visit": 2974, " Canada": 2975, "rect": 2976, "anks": 2977, "With": 2978, " perfect": 2979, " gets": 2980, "ession": 2981, " movement": 2982, " aren": 2983, "ishing": 2984, "raz": 2985, "ground": 2986, "agement": 2987, " tried": 2988, " cause": 2989, "\u00e2\u0080\u009d.": 2990, "gest": 2991, " }": 2992, " forces": 2993, " Sunday": 2994, " ens": 2995, "After": 2996, "force": 2997, "ceed": 2998, " attention": 2999, " particular": 3000, "urd": 3001, "][": 3002, " veh": 3003, " bud": 3004, " fear": 3005, " population": 3006, " various": 3007, "ened": 3008, " UK": 3009, " reach": 3010, " looks": 3011, " 23": 3012, " California": 3013, " brought": 3014, " vo": 3015, " Kore": 3016, " link": 3017, "ibly": 3018, ");": 3019, "arily": 3020, " IS": 3021, "200": 3022, " previous": 3023, "ED": 3024, " mention": 3025, " Russian": 3026, " morning": 3027, " Qu": 3028, "cle": 3029, "idered": 3030, " Sw": 3031, "'d": 3032, " fair": 3033, " growth": 3034, "aker": 3035, "undred": 3036, "99": 3037, "sequ": 3038, "yond": 3039, " progress": 3040, " fell": 3041, "alled": 3042, " song": 3043, "iam": 3044, "ening": 3045, "AC": 3046, " training": 3047, "hold": 3048, " size": 3049, "uk": 3050, " Black": 3051, "cies": 3052, " December": 3053, "idents": 3054, "field": 3055, "ledge": 3056, " Her": 3057, " contact": 3058, " hor": 3059, " demand": 3060, "While": 3061, " image": 3062, " rac": 3063, " hot": 3064, "ification": 3065, "OS": 3066, " leader": 3067, "ecause": 3068, " rules": 3069, " liber": 3070, " prep": 3071, " search": 3072, "ze": 3073, " ess": 3074, " Post": 3075, "set": 3076, " citiz": 3077, " upon": 3078, " strugg": 3079, " Street": 3080, " latest": 3081, "come": 3082, "ondon": 3083, " independ": 3084, "US": 3085, "uments": 3086, "inks": 3087, "arth": 3088, " features": 3089, " coach": 3090, " Park": 3091, "Tr": 3092, " fast": 3093, " talking": 3094, " Cont": 3095, " Jew": 3096, " addition": 3097, "ges": 3098, " star": 3099, " wond": 3100, " Senate": 3101, "oo": 3102, "IT": 3103, " Pat": 3104, " speed": 3105, " exam": 3106, "iant": 3107, " considered": 3108, "raq": 3109, "icles": 3110, "aries": 3111, " reb": 3112, "omp": 3113, " levels": 3114, "eth": 3115, " Times": 3116, " County": 3117, "lligence": 3118, " slow": 3119, " investigation": 3120, "bed": 3121, "ille": 3122, " conduct": 3123, "aph": 3124, " Party": 3125, "22": 3126, " King": 3127, " medical": 3128, " mach": 3129, " sn": 3130, "imately": 3131, "vent": 3132, " achie": 3133, " language": 3134, "aturday": 3135, " card": 3136, "unk": 3137, " critic": 3138, " sort": 3139, " Center": 3140, "ope": 3141, " Tex": 3142, " pen": 3143, " und": 3144, " India": 3145, " paper": 3146, "wo": 3147, "ysis": 3148, "IC": 3149, " 2008": 3150, "pir": 3151, " conserv": 3152, " parents": 3153, " sexual": 3154, "ma": 3155, " systems": 3156, " prior": 3157, "uit": 3158, "asc": 3159, "imin": 3160, " doll": 3161, " written": 3162, "uf": 3163, " box": 3164, " spokes": 3165, "igr": 3166, " seek": 3167, " sens": 3168, "eared": 3169, " document": 3170, "het": 3171, "idge": 3172, " increasing": 3173, " hear": 3174, "ani": 3175, "atform": 3176, " draw": 3177, " seven": 3178, " son": 3179, " Muslim": 3180, " effort": 3181, "ruary": 3182, " jobs": 3183, "sych": 3184, " Iran": 3185, " extreme": 3186, " prevent": 3187, " learn": 3188, "ining": 3189, " serious": 3190, " regul": 3191, " inn": 3192, " range": 3193, "room": 3194, "rast": 3195, " violence": 3196, " Mark": 3197, "80": 3198, "ources": 3199, " Iraq": 3200, "itch": 3201, "OP": 3202, " surve": 3203, " completely": 3204, " conc": 3205, " ...": 3206, " 2009": 3207, " message": 3208, "tr": 3209, "ico": 3210, "ha": 3211, " \u00e2": 3212, " obv": 3213, " interesting": 3214, "reedom": 3215, "She": 3216, " screen": 3217, "abor": 3218, " opportunity": 3219, "eff": 3220, " Char": 3221, " climate": 3222, "24": 3223, " majority": 3224, "anced": 3225, " particularly": 3226, " doub": 3227, " journal": 3228, " despite": 3229, " Rom": 3230, " claims": 3231, " Ke": 3232, " answer": 3233, " society": 3234, " London": 3235, " defense": 3236, " carry": 3237, "entially": 3238, "mp": 3239, "aming": 3240, " guy": 3241, " extra": 3242, "ension": 3243, " Donald": 3244, "isions": 3245, " attacks": 3246, " required": 3247, "erve": 3248, "rench": 3249, "illed": 3250, " biggest": 3251, "vertisement": 3252, " exactly": 3253, " East": 3254, " paid": 3255, " More": 3256, "ibr": 3257, "iers": 3258, " experien": 3260, "lying": 3261, "uclear": 3262, "inese": 3263, "isi": 3264, " modern": 3265, "fort": 3266, " remain": 3267, " quarter": 3268, " officers": 3269, " hundred": 3270, " cross": 3271, " except": 3272, " Net": 3273, "utions": 3274, "ari": 3275, " table": 3276, " practice": 3277, "inally": 3278, " natural": 3279, " middle": 3280, "erc": 3281, " 27": 3282, " certainly": 3283, "na": 3284, " dro": 3285, "oses": 3286, " Saturday": 3287, " stories": 3288, " histor": 3289, " gas": 3290, " products": 3291, " surv": 3292, " looked": 3293, " sometimes": 3294, "nces": 3295, " stuff": 3296, " science": 3297, " finally": 3298, " user": 3299, " Tur": 3300, "AM": 3301, " summer": 3302, " movie": 3303, " blood": 3304, "ospital": 3305, "aves": 3306, " communic": 3307, " aw": 3308, "ously": 3309, " lay": 3310, " changed": 3311, " term": 3312, " ones": 3313, " leading": 3314, " described": 3315, " Sand": 3316, " imag": 3317, " eight": 3318, " February": 3319, " prison": 3320, " convers": 3321, "fl": 3322, "ny": 3323, " details": 3324, "icks": 3325, " starting": 3326, " Spe": 3327, " quality": 3328, " occur": 3329, " pan": 3330, "hib": 3331, " showed": 3332, " named": 3333, " giving": 3334, " ult": 3335, " remains": 3336, " McC": 3337, "uing": 3338, " region": 3339, "pper": 3340, " provided": 3341, " costs": 3342, "akers": 3343, " Soc": 3344, "arr": 3345, " damage": 3346, " Mor": 3347, " mob": 3348, " danger": 3349, " fit": 3350, " TH": 3351, " chief": 3352, "aught": 3353, " poor": 3354, " path": 3355, "ida": 3356, " education": 3357, " multiple": 3358, " continued": 3359, "ett": 3360, "enge": 3361, " growing": 3362, "No": 3363, " demonst": 3364, " *": 3365, " parts": 3366, " 26": 3367, " writing": 3368, " comments": 3369, " 28": 3370, " ment": 3371, "yl": 3372, " maintain": 3373, " safe": 3374, " assist": 3375, " thinking": 3376, " Des": 3377, "inary": 3378, " Republicans": 3379, " Even": 3380, " purp": 3381, " request": 3382, " write": 3383, " fix": 3384, " item": 3385, " purch": 3386, " Coun": 3387, "ables": 3388, " died": 3389, " Democratic": 3390, "FL": 3391, "ara": 3392, "ago": 3393, "coin": 3394, " ready": 3395, " wouldn": 3396, " implement": 3397, "23": 3398, " increased": 3399, " culture": 3400, " efforts": 3401, " voters": 3402, "ux": 3403, " camer": 3404, " mill": 3405, "aly": 3406, "pre": 3407, "oper": 3408, " reading": 3409, "mitted": 3410, "iminal": 3411, " file": 3412, " usually": 3413, " calls": 3414, " spot": 3415, "Im": 3416, " effects": 3417, " Gener": 3418, "zz": 3419, "ban": 3420, " perhaps": 3421, "arian": 3422, " alone": 3423, "iles": 3424, " First": 3425, " Mon": 3426, " although": 3427, " towards": 3428, " League": 3429, " consist": 3430, "hest": 3431, " Bill": 3432, " Texas": 3433, " select": 3434, " guys": 3435, " standard": 3436, " Michael": 3437, " subst": 3438, " cele": 3439, " beyond": 3440, " directly": 3441, " platform": 3442, " Chinese": 3443, " (@": 3444, " hous": 3445, "using": 3446, "itute": 3447, " speech": 3448, "tered": 3449, " reality": 3450, "icated": 3451, " kids": 3452, " James": 3453, " avoid": 3454, " throughout": 3455, " football": 3456, " student": 3457, " tur": 3458, " couldn": 3459, "BI": 3460, "ford": 3461, " unf": 3462, " immediately": 3463, "oul": 3464, " rob": 3465, " includes": 3466, " cat": 3467, " concept": 3468, " center": 3469, " choice": 3470, " scene": 3471, " complex": 3472, "anch": 3473, " additional": 3474, "sp": 3475, " challeng": 3476, " Cons": 3477, " wife": 3478, " clos": 3479, "Re": 3480, " tro": 3481, " recomm": 3482, " researc": 3483, " epis": 3484, "itor": 3485, " ver": 3486, " Minister": 3487, " sle": 3488, "All": 3489, " corpor": 3490, " \u00e2\u0080\u00a6": 3491, " designed": 3492, " Ser": 3493, "agon": 3494, " remember": 3495, " software": 3496, " safety": 3497, " Indian": 3498, "wise": 3499, " gone": 3500, " il": 3501, "astic": 3502, "ports": 3503, " sell": 3504, " toward": 3505, " agency": 3506, " ten": 3507, " officer": 3508, "aches": 3509, "bur": 3510, " figure": 3511, " piece": 3512, " brain": 3513, "omen": 3514, " battle": 3515, " Jack": 3516, " counter": 3517, "men": 3518, " debate": 3519, "airs": 3520, "ression": 3521, "ston": 3522, " thousands": 3523, "adem": 3524, "rupt": 3525, "ingin": 3526, " ahead": 3527, " opin": 3528, "icient": 3529, "Now": 3530, "imum": 3531, " relative": 3532, "irth": 3533, " letter": 3534, " receive": 3535, " pressure": 3536, " \u00d0": 3537, " blog": 3538, "oes": 3539, "ilies": 3540, "ampions": 3541, " >": 3542, " sil": 3543, " moved": 3544, " launch": 3545, " appears": 3546, " option": 3547, " Play": 3548, " passed": 3549, " ut": 3550, " clean": 3551, " prec": 3552, " stage": 3553, "roy": 3554, " 60": 3555, " Bo": 3556, " Serv": 3557, "olute": 3558, " II": 3559, "atever": 3560, "berg": 3561, "OT": 3562, " property": 3563, "27": 3564, " helped": 3565, " drive": 3566, " Apple": 3567, "just": 3568, " alleged": 3569, " Green": 3570, " twe": 3571, "new": 3572, " disapp": 3573, " tour": 3574, " meaning": 3575, " rock": 3576, " dog": 3577, " x": 3578, "itation": 3579, "urt": 3580, " cris": 3581, " Associ": 3582, " suspect": 3583, " date": 3584, " Rich": 3585, "aughter": 3586, " moving": 3587, " score": 3588, " Democrats": 3589, " organization": 3590, " sat": 3591, " conditions": 3592, " touch": 3593, " dark": 3594, " command": 3595, " Then": 3596, "?\"": 3597, " ign": 3598, " reasons": 3599, " budget": 3600, " crow": 3601, " park": 3602, "more": 3603, " nuclear": 3604, " myself": 3605, " nom": 3606, " deg": 3607, " happy": 3608, " device": 3609, " difference": 3610, "rief": 3611, " Sim": 3612, " maybe": 3613, " beginning": 3614, "AD": 3615, " copy": 3616, " nature": 3617, " failed": 3618, " fan": 3619, "wood": 3620, "yan": 3621, " characters": 3622, " cast": 3623, " computer": 3624, " encour": 3625, "sis": 3626, " aim": 3627, " title": 3628, " wall": 3629, " compared": 3630, " league": 3631, "ocked": 3632, " Super": 3633, "ivity": 3634, " estim": 3635, "add": 3636, " Val": 3637, " Star": 3638, " college": 3639, "ean": 3640, " eyes": 3641, " shown": 3642, " English": 3643, " century": 3644, " powerful": 3645, " Day": 3646, "lease": 3647, "ource": 3648, " bal": 3649, "aint": 3650, " limited": 3651, " yes": 3652, " band": 3653, " contribut": 3654, " positive": 3655, " forced": 3656, " necessary": 3657, " Che": 3658, " refer": 3659, " candidate": 3660, " stra": 3661, " disp": 3662, "35": 3663, "cient": 3664, " books": 3665, " trust": 3666, "AP": 3667, " French": 3668, " largest": 3669, "26": 3670, " arch": 3671, "enty": 3672, " sal": 3673, " Here": 3674, " conference": 3675, "aud": 3676, " Rober": 3677, " note": 3678, " analysis": 3679, "ufact": 3680, " spending": 3681, " presidential": 3682, "45": 3683, " Of": 3684, " citizens": 3685, "orks": 3686, " schools": 3687, " Mart": 3688, "igration": 3689, " Syria": 3690, " throw": 3691, " Ben": 3692, "venue": 3693, " aware": 3694, " meant": 3695, " executive": 3696, " eventually": 3697, "My": 3698, " physical": 3699, " followed": 3700, " feature": 3701, "ares": 3702, " firm": 3703, " Tor": 3704, " treatment": 3705, " Wind": 3706, " Air": 3707, " streng": 3708, " mix": 3709, " confir": 3710, " bott": 3711, "ero": 3712, "orney": 3713, " 29": 3714, " Dis": 3715, " grad": 3716, " religious": 3717, " easily": 3718, "band": 3719, " autom": 3720, "board": 3721, " esc": 3722, " pus": 3723, " cool": 3724, "etro": 3725, " 196": 3726, " families": 3727, " illeg": 3728, "ressed": 3729, "craft": 3730, "cul": 3731, "rated": 3732, " actions": 3733, " overall": 3734, " Mex": 3735, " allows": 3736, " gives": 3737, " feed": 3738, " \u00c2\u00a3": 3739, "):": 3740, " susp": 3741, "ube": 3742, " yourself": 3743, "By": 3744, "Is": 3745, " draft": 3746, "ken": 3747, "bum": 3748, " appeared": 3749, "ram": 3750, " smart": 3751, " detail": 3752, " income": 3753, "iring": 3754, " analy": 3755, " Bel": 3756, " signed": 3757, "New": 3758, "encies": 3759, " Ham": 3760, " central": 3761, " ideas": 3762, " ang": 3763, " Govern": 3764, " senior": 3765, "Advertisement": 3766, " frequ": 3767, " weapons": 3768, " har": 3769, "ID": 3770, " display": 3771, " promot": 3772, " nice": 3773, "inn": 3774, " credit": 3775, " decades": 3776, " psych": 3777, " politics": 3778, "Don": 3779, " crime": 3780, "OM": 3781, "chan": 3782, "EC": 3783, " uses": 3784, " door": 3785, " dise": 3786, "uty": 3787, " International": 3788, " unique": 3789, "28": 3790, " swe": 3791, " altern": 3792, " lif": 3793, "According": 3794, " drop": 3795, " sales": 3796, "mar": 3797, " developed": 3798, "***": 4729, "resh": 3800, " customers": 3801, "ET": 3802, " benefits": 3803, " conflic": 3804, "urance": 3805, "Ar": 3806, " related": 3807, " crisis": 3808, " School": 3809, " mist": 3810, "erry": 3811, "iable": 3812, " predict": 3813, " noted": 3814, " Cap": 3815, "29": 3816, " Australia": 3817, " EU": 3818, "box": 3819, " truth": 3820, " goals": 3821, "iny": 3822, " individuals": 3823, " charge": 3824, " Earth": 3825, "part": 3826, " beaut": 3827, " continues": 3828, "onents": 3829, " Union": 3830, " Arab": 3831, " observ": 3832, " rap": 3833, " challenge": 3834, "que": 3835, " sto": 3836, "nown": 3837, " apparent": 3838, " Angel": 3839, "Be": 3840, "itely": 3841, " Smith": 3842, " lic": 3843, " projects": 3844, " peace": 3845, " measure": 3846, " Police": 3847, " correct": 3848, "oti": 3849, " intelligence": 3850, " Christian": 3851, " previously": 3852, " Germany": 3853, " fully": 3854, " rule": 3855, " manager": 3856, " brother": 3857, " rates": 3858, " advant": 3859, "change": 3860, " expand": 3861, " clearly": 3862, " reform": 3863, " lines": 3864, "net": 3865, " successful": 3866, "riage": 3867, " highly": 3868, " larger": 3869, "ounds": 3870, " traff": 3871, "Un": 3872, " spread": 3873, "iance": 3874, " seemed": 3875, " Council": 3876, " straight": 3877, "Some": 3878, " Comp": 3879, " criminal": 3880, " minor": 3881, " emb": 3882, " George": 3883, " programs": 3884, "iced": 3885, "attle": 3886, "owers": 3887, " Franc": 3888, " incident": 3889, " resources": 3890, "21": 3891, " Tom": 3892, " greater": 3893, " primary": 3894, "IA": 3895, "inated": 3896, "antly": 3897, " knowledge": 3898, "ki": 3899, " studies": 3900, "while": 3901, "dom": 3902, " save": 3903, "orter": 3904, " web": 3905, "ategy": 3906, " kept": 3907, " attract": 3908, " Flor": 3909, "olic": 3910, " spir": 3911, " emot": 3912, " color": 3913, " feet": 3914, "sey": 3915, " rare": 3916, " reached": 3917, " arm": 3918, "secut": 3919, " High": 3920, "levision": 3921, " Internet": 3922, " Brown": 3923, "oday": 3924, "iders": 3925, "osh": 3926, "rs": 3927, " favorite": 3928, " places": 3929, " Cr": 3930, " Rec": 3931, " regular": 3932, "wide": 3933, "ota": 3934, "bon": 3935, " manufact": 3936, " laun": 3937, " Def": 3938, "100": 3939, " send": 3940, "term": 3941, " prem": 3942, "roll": 3943, "lick": 3944, "icit": 3945, "ingly": 3946, " knows": 3947, " shooting": 3948, " activity": 3949, " pun": 3950, " sources": 3951, " normal": 3952, "icago": 3953, "onent": 3954, "ser": 3955, " Ant": 3956, "ville": 3957, " status": 3958, " fighting": 3959, " voice": 3960, " rise": 3961, "ocks": 3962, " fine": 3963, " owners": 3964, " caused": 3965, " claimed": 3966, " Mac": 3967, " enem": 3968, " liter": 3969, " Rob": 3970, " General": 3971, "aith": 3972, "EO": 3973, " options": 3974, " 2007": 3975, " integr": 3976, "ength": 3977, " Up": 3978, "usion": 3979, " spend": 3980, " Gold": 3981, "ado": 3982, " cities": 3983, "miss": 3984, " organiz": 3985, "ING": 3986, " ended": 3987, "www": 3988, " researchers": 3989, "iled": 3990, " calling": 3991, " shut": 3992, " reflect": 3993, " La": 3994, "org": 3995, "mission": 3996, "Pro": 3997, "mark": 3998, "\u00e2\u0080\u009d,": 3999, "oles": 4000, "70": 4001, "roid": 4002, " prices": 4003, " Every": 4004, " album": 4005, " From": 4006, "ifying": 4007, " employees": 4008, " female": 4009, " England": 4010, "ya": 4011, " virt": 4012, " crowd": 4013, " haven": 4014, " ele": 4015, " raised": 4016, "mittee": 4017, "uana": 4018, " jump": 4019, "33": 4020, " supposed": 4021, "itness": 4022, " happens": 4023, " adding": 4024, " policies": 4025, " names": 4026, " charges": 4027, " pros": 4028, " trou": 4029, "ribution": 4030, "ica": 4031, "uman": 4032, " basic": 4033, "Not": 4034, "iverse": 4035, "inger": 4036, " Mag": 4037, " concerns": 4038, " traditional": 4039, " Bre": 4040, " wait": 4041, " absolute": 4042, " acqu": 4043, " plant": 4044, " hospital": 4045, " funding": 4046, " Bay": 4047, " slight": 4048, "rol": 4049, " commer": 4050, " print": 4051, " patients": 4052, "Sc": 4053, " authorities": 4054, " minister": 4055, "vere": 4056, " creating": 4057, " http": 4058, " freedom": 4059, " AP": 4060, " mechan": 4061, " scen": 4062, " Mo": 4063, " style": 4064, " seeing": 4065, " grand": 4066, ".\u00e2\u0080\u0099": 4067, " beat": 4068, " lik": 4069, "dd": 4070, "rian": 4071, "ona": 4072, " station": 4073, " Scott": 4074, "see": 4075, " push": 4076, "ijuana": 4077, " behavior": 4078, " leaving": 4079, " cry": 4080, " impl": 4081, " birth": 4082, " ir": 4083, " actual": 4084, "pen": 4085, "EL": 4086, " ensure": 4087, " offered": 4088, " agreement": 4089, " Florida": 4090, " eth": 4091, " Ber": 4092, "soft": 4093, " Hillary": 4094, " posted": 4095, " Reg": 4096, " gold": 4097, " Sun": 4098, " weekend": 4099, " green": 4100, " Most": 4101, "alse": 4102, " weight": 4103, "OU": 4104, ".'": 4105, "acing": 4106, " determin": 4107, " vac": 4108, "Here": 4109, " revealed": 4110, " Well": 4111, " application": 4112, " mostly": 4113, " values": 4114, " propos": 4115, "itude": 4116, " Alex": 4117, "aby": 4118, " willing": 4119, "earch": 4120, " rank": 4121, " adop": 4122, " According": 4123, " adult": 4124, "ttps": 4125, " establ": 4126, " eye": 4127, " records": 4128, "amb": 4129, "\u00e2\u0080\u00a2": 4130, "500": 4131, " enforce": 4132, " picture": 4133, " believed": 4134, " Let": 4135, " mer": 4136, "pri": 4137, "uild": 4138, " brief": 4139, " learned": 4140, " Law": 4141, " install": 4142, "gen": 4143, " strategy": 4144, " appl": 4145, "igned": 4146, " choose": 4147, "istry": 4148, "SA": 4149, " dire": 4150, " wonder": 4151, " qual": 4152, " massive": 4153, "cher": 4154, " devices": 4155, " benefit": 4156, " wild": 4157, " parties": 4158, " Chicago": 4159, " lawy": 4160, " uns": 4161, " People": 4162, " cars": 4163, " Trans": 4164, " Phil": 4165, " arrested": 4166, " Mat": 4167, " mount": 4168, " whatever": 4169, " wat": 4170, " Oh": 4171, " France": 4172, " street": 4173, " ;": 4174, " provides": 4175, " whom": 4176, " assault": 4177, "90": 4178, "ties": 4179, "liament": 4180, " asking": 4181, " influence": 4182, " judge": 4183, " lose": 4184, " fat": 4185, " feeling": 4186, " operations": 4187, " produced": 4188, " temper": 4189, "cont": 4190, "ste": 4191, " critical": 4192, " Lou": 4193, " Secret": 4194, " negoti": 4195, " mission": 4196, " enter": 4197, " Bush": 4198, "Ex": 4199, " images": 4200, "\u00d0\u00be": 4201, " Stud": 4202, " confirmed": 4203, "point": 4204, " showing": 4205, "IL": 4206, " Port": 4207, " district": 4208, "ription": 4209, " runs": 4210, " pattern": 4211, " tend": 4212, "===": 4358, " border": 4214, " residents": 4215, "orial": 4216, "rav": 4217, " debt": 4218, "However": 4219, " \u00c3": 4220, "aked": 4221, " cru": 4222, " teac": 4223, " Committee": 4224, "mine": 4225, "Cl": 4226, " opposition": 4227, " celebr": 4228, " Wall": 4229, " Health": 4230, " section": 4231, " defend": 4232, " etc": 4233, "estic": 4234, " produce": 4235, "icial": 4236, " Inte": 4237, " Commission": 4238, " drink": 4239, " independent": 4240, " Mod": 4241, "ront": 4242, "cell": 4243, " Why": 4244, " brand": 4245, "ented": 4246, "ugg": 4247, "ags": 4248, " core": 4249, " Press": 4250, " tick": 4251, " digital": 4252, " Bit": 4253, " hero": 4254, " advoc": 4255, " dollars": 4256, "ae": 4257, " Sam": 4258, "ocr": 4259, "rial": 4260, " effective": 4261, " solution": 4262, " Mal": 4263, " vill": 4264, " interested": 4265, " Korea": 4266, "BA": 4267, " highest": 4268, "irg": 4269, "ords": 4270, " memory": 4271, " opening": 4272, " worse": 4273, " learning": 4274, " responsible": 4275, " trial": 4276, " daily": 4277, " kick": 4278, " theory": 4279, " Other": 4280, " offers": 4281, " Palest": 4282, "me": 4283, " replace": 4284, " restrict": 4285, " Get": 4286, " mur": 4287, " Office": 4288, " agreed": 4289, " television": 4290, " Francis": 4291, "cience": 4292, " Micro": 4293, " Because": 4294, " occas": 4295, "ST": 4296, "illing": 4297, "CC": 4298, " vs": 4299, " detect": 4300, " train": 4301, "aste": 4302, " investment": 4303, " types": 4304, "iation": 4305, " Western": 4306, "icians": 4307, " chair": 4308, "aks": 4309, " miles": 4310, " millions": 4311, "Con": 4312, "no": 4313, "gency": 4314, " chem": 4315, " Justice": 4316, " Del": 4317, " generally": 4318, " basis": 4319, " proposed": 4320, " 80": 4321, " Mike": 4322, " Mil": 4323, " Cup": 4324, "These": 4325, "ipe": 4326, " heavy": 4327, " explained": 4328, " Our": 4329, " map": 4330, "uries": 4331, "AA": 4332, "rad": 4333, " der": 4334, "oly": 4335, " partners": 4336, "ander": 4337, " opinion": 4338, " defe": 4339, " onto": 4340, " protest": 4341, "Get": 4342, " associated": 4343, " load": 4344, "rig": 4345, "azing": 4346, " NFL": 4347, "win": 4348, "rate": 4349, "oom": 4350, "44": 4351, " Found": 4352, " male": 4353, " becomes": 4354, " reject": 4355, "vest": 4356, "outhern": 4357, " Security": 4359, " coal": 4360, " obtain": 4361, " destroy": 4362, " advantage": 4363, " assum": 4364, " Liber": 4365, " condition": 4366, " announce": 4367, " hundreds": 4368, "ading": 4369, " achieve": 4370, " opened": 4371, "eline": 4372, " understanding": 4373, "odes": 4374, " Johnson": 4375, "coming": 4376, "icip": 4377, " surround": 4378, "well": 4379, "orthern": 4380, "bert": 4381, "upp": 4382, " initial": 4383, " Big": 4384, " sleep": 4385, "36": 4386, " ship": 4387, "rey": 4388, " marriage": 4389, " management": 4390, " Windows": 4391, " thus": 4392, " limit": 4393, " born": 4394, " becoming": 4395, "known": 4396, " photo": 4397, " easier": 4398, "FC": 4399, " Great": 4400, " rat": 4401, " legislation": 4402, " controvers": 4403, " unlike": 4404, " electric": 4405, " Many": 4406, "32": 4407, " camera": 4408, " Mad": 4409, "witch": 4410, " accused": 4411, " spl": 4412, " neighbor": 4413, " double": 4414, " ice": 4415, " species": 4416, " shared": 4417, " join": 4418, " illegal": 4419, " 31": 4420, " Lab": 4421, " 2006": 4422, "Mr": 4423, " machine": 4424, " harm": 4425, " served": 4426, " Jer": 4427, "GB": 4428, " extremely": 4429, "olf": 4430, " active": 4431, " 35": 4432, " serve": 4433, " documents": 4434, " Islamic": 4435, " frame": 4436, " strik": 4437, "level": 4438, "za": 4439, " Dist": 4440, " audience": 4441, "BS": 4442, " location": 4443, "lant": 4444, " AM": 4445, " scientists": 4446, " bottom": 4447, "orrow": 4448, " victims": 4449, " wealth": 4450, " professional": 4451, " resist": 4452, " reduce": 4453, " belief": 4454, " nine": 4455, " solid": 4456, " winning": 4457, " marijuana": 4458, " Uk": 4459, " negative": 4460, "75": 4461, "ih": 4462, "iful": 4463, "lands": 4464, " communities": 4465, " returned": 4466, "ortunately": 4467, "ears": 4468, " incred": 4469, " PM": 4470, " Institute": 4471, "met": 4472, " church": 4473, "PS": 4474, " department": 4475, " Sanders": 4476, " ran": 4477, " victory": 4478, " purpose": 4479, " 90": 4480, " Commun": 4481, " amb": 4482, " vehicle": 4483, " internet": 4484, " leadership": 4485, " Hall": 4486, "istics": 4487, " bomb": 4488, " mobile": 4489, "ios": 4490, "ghan": 4491, " instance": 4492, "ipped": 4493, "38": 4494, " separate": 4495, " existing": 4496, " notice": 4497, " hearing": 4498, " die": 4499, " explain": 4500, " doubt": 4501, " faith": 4502, " teach": 4503, "house": 4504, " Your": 4505, "atically": 4506, " episode": 4507, " bed": 4508, " watching": 4509, " comfort": 4510, " Canadian": 4511, " Fin": 4512, " Bank": 4513, " notes": 4514, "aran": 4515, " Att": 4516, "irgin": 4517, " Ev": 4518, " fresh": 4519, " unc": 4520, " radio": 4521, " Inc": 4522, " views": 4523, " putting": 4524, "asy": 4525, " Sl": 4526, " supporters": 4527, " conservative": 4528, " purs": 4529, " argument": 4530, "omas": 4531, " Fox": 4532, " micro": 4533, "ario": 4534, "acity": 4535, " launched": 4536, "works": 4537, "scrib": 4538, "OL": 4539, " appeal": 4540, "iliar": 4541, " items": 4542, " committee": 4543, " Art": 4544, "resp": 4545, "which": 4546, " definitely": 4547, "ada": 4548, " dangerous": 4549, "iller": 4550, "zen": 4551, " coverage": 4552, " direction": 4553, " Over": 4554, " sun": 4555, " charged": 4556, " floor": 4557, "PA": 4558, " max": 4559, "ography": 4560, "34": 4561, "EM": 4562, " Carol": 4563, " Church": 4564, " issued": 4565, " drugs": 4566, "Image": 4567, " task": 4568, "ipp": 4569, " background": 4570, " competition": 4571, " trend": 4572, " stated": 4573, "vention": 4574, "andom": 4575, " traffic": 4576, " FBI": 4577, " commercial": 4578, " Direct": 4579, " spoke": 4580, "inct": 4581, " transfer": 4582, "ctors": 4583, " suggested": 4584, " structure": 4585, " sett": 4586, "ady": 4587, " sites": 4588, " hus": 4589, " north": 4590, " Since": 4591, " Like": 4592, " restaur": 4593, "ampionship": 4594, " labor": 4595, " decade": 4596, " Bur": 4597, " repeated": 4598, " Game": 4599, "gers": 4600, " react": 4601, "oman": 4602, " cards": 4603, " animals": 4604, "going": 4605, " novel": 4606, "bing": 4607, "but": 4608, "NA": 4609, "ribute": 4610, " daughter": 4611, "anted": 4612, " driving": 4613, " closed": 4614, " worst": 4615, " contain": 4616, " entirely": 4617, " ded": 4618, " Britain": 4619, "ici": 4620, "Bl": 4621, " driver": 4622, " Wil": 4623, " disease": 4624, " nor": 4625, " telling": 4626, "iling": 4627, " smaller": 4628, " discovered": 4629, "akistan": 4630, " Pri": 4631, "Americ": 4632, "ait": 4633, " Los": 4634, " hack": 4635, "!\u00e2\u0080\u009d": 4636, "equ": 4637, "ference": 4638, " Que": 4639, "spe": 4640, " false": 4641, " cash": 4642, " concerned": 4643, "ulf": 4644, " plays": 4645, " surface": 4646, "semb": 4647, "udd": 4648, "annel": 4649, " supported": 4650, "ulated": 4651, " tools": 4652, " compar": 4653, "oyal": 4654, " Chris": 4655, " experiment": 4656, " finding": 4657, " transport": 4658, "night": 4659, " categ": 4660, "\u00e3\u0082": 4661, " aspect": 4662, "##": 4663, " businesses": 4664, " 70": 4665, " UN": 4666, " farm": 4667, " please": 4668, " older": 4669, "azon": 4670, "phone": 4671, "how": 4672, " activities": 4673, " requires": 4674, "itt": 4675, "CH": 4676, " gay": 4677, " Jones": 4678, " ge": 4679, "ibrary": 4680, " strength": 4681, " wel": 4682, "48": 4683, "andon": 4684, "do": 4685, " insurance": 4686, " consequ": 4687, "37": 4688, " largely": 4689, " murder": 4690, "NN": 4691, "55": 4692, " exerc": 4693, " caught": 4694, " candidates": 4695, "kins": 4696, " Israeli": 4697, " allowing": 4698, "icy": 4699, " blue": 4700, " Are": 4701, " annual": 4702, " Ken": 4703, " testing": 4704, "ossible": 4705, " strateg": 4706, " Sup": 4707, "ius": 4708, " raise": 4709, " stock": 4710, "overy": 4711, " Robert": 4712, "izes": 4713, " decisions": 4714, " accur": 4715, "rick": 4716, " context": 4717, "lor": 4718, " fuel": 4719, " Ac": 4720, "SP": 4721, "osure": 4722, " Ukrain": 4723, " concern": 4724, " afford": 4725, " believes": 4726, " construction": 4727, " truly": 4728, " tim": 4730, " Ty": 4731, " Miss": 4732, " justice": 4733, "igrants": 4734, " generation": 4735, " highlight": 4736, "rim": 4737, " unit": 4738, " Tre": 4739, " presence": 4740, " Jewish": 4741, "anging": 4742, "!!": 4743, " Sil": 4744, "\u00d0\u00b0": 4745, "tery": 4746, "\u00d0\u00b5": 4747, "ception": 4748, " Africa": 4749, " guess": 4750, "ancy": 4751, " witness": 4752, "itable": 4753, " holding": 4754, " Gree": 4755, " establish": 4756, " length": 4757, " planning": 4758, "ava": 4759, " African": 4760, " sequ": 4761, "cknow": 4762, " san": 4763, " refuge": 4764, " placed": 4765, " catch": 4766, " Afghan": 4767, " Association": 4768, " tells": 4769, "\u00e2\u0080\u0098": 4770, "inter": 4771, " scale": 4772, "bre": 4773, " spokesman": 4774, "nel": 4775, "Le": 4776, " rough": 4777, " attend": 4778, "olly": 4779, " Ver": 4780, " cells": 4781, " joined": 4782, " Add": 4783, " mentioned": 4784, " interests": 4785, " abuse": 4786, "\u00e2\u0080\u0094\u00e2\u0080": 4787, "pective": 4788, " Jim": 4789, "More": 4790, " hasn": 4791, " PC": 4792, " initi": 4793, " kid": 4794, " enforcement": 4795, "la": 4796, " GOP": 4797, " introduced": 4798, " deliver": 4799, " conflict": 4800, " Pre": 4801, " Mer": 4802, " rout": 4803, " Microsoft": 4804, "\u0094\u00e2\u0080\u0094": 4805, " phil": 4806, " update": 4807, " missing": 4808, " providing": 4809, " waiting": 4810, "ey": 4811, " cancer": 4812, "39": 4813, " recommend": 4814, "ocracy": 4815, " established": 4816, "bour": 4817, "isation": 4818, " eat": 4819, " Yes": 4820, " occup": 4821, " Frank": 4822, " Jeff": 4823, " Angeles": 4824, " removed": 4825, " 2005": 4826, "ula": 4827, " offensive": 4828, " Fore": 4829, " Instead": 4830, "icon": 4831, " injury": 4832, " sports": 4833, "47": 4834, " fant": 4835, " discussion": 4836, "lig": 4837, " operation": 4838, " download": 4839, " useful": 4840, " newsp": 4841, " conversation": 4842, " homes": 4843, "ronic": 4844, " south": 4845, " cook": 4846, " CEO": 4847, " assess": 4848, "itz": 4849, " Group": 4850, "formation": 4851, " banks": 4852, "onto": 4853, " stopped": 4854, " Const": 4855, " obvious": 4856, "ications": 4857, " measures": 4858, " models": 4859, " Kh": 4860, " fourth": 4861, " MP": 4862, "Our": 4863, "season": 4864, "what": 4865, " bul": 4866, "DA": 4867, " 2018": 4868, "anda": 4869, " files": 4870, " girls": 4871, " Louis": 4872, " stick": 4873, "cks": 4874, "vant": 4875, "azine": 4876, "mail": 4877, "umn": 4878, " managed": 4879, "iter": 4880, "apped": 4881, "oted": 4882, " Tim": 4883, " figures": 4884, "oms": 4885, " Leg": 4886, "Pl": 4887, " identified": 4888, " graph": 4889, " Jud": 4891, " Sal": 4892, " finished": 4893, "igan": 4894, " funds": 4895, "real": 4896, " Pakistan": 4897, " setting": 4898, " conclud": 4899, " prefer": 4900, " hair": 4901, " committed": 4902, " Mexico": 4903, "49": 4904, " skills": 4905, " appropri": 4906, " spirit": 4907, " Rock": 4908, " veter": 4909, " focused": 4910, " arrived": 4911, " THE": 4912, " housing": 4913, "ros": 4914, " keeping": 4915, " therefore": 4916, " acknow": 4917, "ulate": 4918, "Des": 4919, " partner": 4920, " exclus": 4921, " Android": 4922, "kin": 4923, "enses": 4924, "ups": 4925, "rd": 4926, " earth": 4927, " transl": 4928, "place": 4929, " tough": 4930, "outs": 4931, " Japanese": 4932, " 2000": 4933, " relatively": 4934, "\u00c3\u00a1": 4935, " Supreme": 4936, "owl": 4937, "wing": 4938, "gl": 4939, " identity": 4940, " feels": 4941, " Met": 4942, " otherwise": 4943, " survey": 4944, " Ryan": 4945, "ocal": 4946, "RA": 4947, "ication": 4948, "itutional": 4949, " protection": 4950, " exchange": 4951, " owner": 4952, " Virgin": 4953, "isf": 4954, "Trump": 4955, " trip": 4956, " steps": 4957, " husband": 4958, " Inter": 4959, "agn": 4960, " tweet": 4961, " connection": 4962, " Army": 4963, " slightly": 4964, " Prof": 4965, "erences": 4966, "eah": 4967, " Sur": 4968, " weak": 4969, " Government": 4970, "verse": 4971, "\":": 4972, " circum": 4973, " elements": 4974, " click": 4975, " Richard": 4976, " strike": 4977, " photos": 4978, " mere": 4979, " defensive": 4980, " Nor": 4981, "dden": 4982, " gain": 4983, " fle": 4984, "gar": 4985, " depend": 4986, "ucky": 4987, " collection": 4988, "onym": 4989, " killing": 4990, " roll": 4991, "ighter": 4992, "hens": 4993, "Go": 4994, " corner": 4995, "ka": 4996, "ancing": 4997, "odies": 4998, " suggests": 4999, "uct": 5000, " aggress": 5001, "with": 5002, "prof": 5003, " guard": 5004, "Photo": 5005, " gender": 5006, "makers": 5007, " College": 5008, " commission": 5009, " Although": 5010, "range": 5011, " dat": 5012, "46": 5013, " Ir": 5014, " Dec": 5015, " mental": 5016, "icide": 5017, "rees": 5018, " amazing": 5019, " Sub": 5020, "hi": 5021, " planet": 5022, " Team": 5023, "rency": 5024, " Out": 5025, " bigger": 5026, " failure": 5027, " Jose": 5028, " supply": 5029, "Why": 5030, "ania": 5031, " starts": 5032, " sides": 5033, "hedul": 5034, "iser": 5035, " familiar": 5036, " remind": 5037, " sust": 5038, "ym": 5039, "ils": 5040, " spect": 5041, "uate": 5042, " speaking": 5043, " talks": 5044, " happening": 5045, " organizations": 5046, " hate": 5047, "gypt": 5048, " window": 5049, " army": 5050, " Good": 5051, " Joe": 5052, " none": 5053, "uke": 5054, " Pet": 5055, " taxes": 5056, " planned": 5057, " Martin": 5058, " thanks": 5059, "mas": 5060, " Mary": 5061, " struct": 5062, " pit": 5063, " decide": 5064, " sudden": 5065, " wish": 5066, " crew": 5067, " carried": 5068, " Mont": 5069, "oston": 5070, " pet": 5071, "awn": 5072, "agues": 5073, "ynam": 5074, " regist": 5075, "TC": 5076, " multi": 5077, "idering": 5078, " helping": 5079, "ano": 5080, "Last": 5081, " award": 5082, " standards": 5083, " 32": 5084, " Fire": 5085, " revolution": 5086, " environmental": 5087, " Web": 5088, "pm": 5089, "arsh": 5090, " Thomas": 5091, "olit": 5092, " script": 5093, "ola": 5094, " seconds": 5095, "run": 5096, " Research": 5097, "gn": 5098, " scientific": 5099, " immigration": 5100, " Bern": 5101, " standing": 5102, " Their": 5103, " 45": 5104, "stream": 5105, "ocol": 5106, " que": 5107, " beer": 5108, " domestic": 5109, "imal": 5110, "adium": 5111, " pair": 5112, "uters": 5113, " Also": 5114, " Secretary": 5115, " Us": 5116, " academ": 5117, "fe": 5118, " cold": 5119, " variety": 5120, " markets": 5121, "aven": 5122, " sch": 5123, "].": 5124, "HL": 5125, " territ": 5126, " dropped": 5127, " accounts": 5128, "!\"": 5129, " filed": 5130, "erous": 5131, "acks": 5132, "illa": 5133, " balance": 5134, "eless": 5135, " impossible": 5136, " Ter": 5137, " interact": 5138, " rou": 5139, " neighborhood": 5140, "lo": 5141, " degree": 5142, "Read": 5143, " Atlant": 5144, " turns": 5145, "itect": 5146, " possibly": 5147, " appre": 5148, " operating": 5149, " princ": 5150, " alternative": 5151, "aren": 5152, " union": 5153, " votes": 5154, " vul": 5155, "ader": 5156, " professor": 5157, " tack": 5158, " Service": 5159, " increasingly": 5160, "ayer": 5161, "ruit": 5162, " apply": 5163, " fellow": 5164, " cuts": 5165, "ores": 5166, " honest": 5167, " univers": 5168, " Prime": 5169, " server": 5170, " developers": 5171, "arks": 5172, " Syrian": 5173, " apparently": 5174, "vis": 5175, "stein": 5176, " lived": 5177, " changing": 5178, " worry": 5179, "rastructure": 5180, " Carolina": 5181, " tests": 5182, " units": 5183, " rich": 5184, " Two": 5185, "cious": 5186, "icted": 5187, "From": 5188, "aded": 5189, " humans": 5190, "IM": 5191, " Foundation": 5192, " Mos": 5193, " agencies": 5194, " sounds": 5195, "ashed": 5196, " twice": 5197, " ultimately": 5198, "obby": 5199, " losing": 5200, " philos": 5201, " authority": 5202, " soldiers": 5203, "\u00e3\u0083": 5204, " animal": 5205, " ath": 5206, " Images": 5207, " settle": 5208, " schedul": 5209, " mut": 5210, " colle": 5211, " corporate": 5212, " absolutely": 5213, " healthy": 5214, " paying": 5215, "och": 5216, " equip": 5217, "gu": 5218, "iams": 5219, " developing": 5220, " sea": 5221, " closer": 5222, " Den": 5223, " innov": 5224, " Time": 5225, "related": 5226, " seeking": 5227, " regarding": 5228, "coh": 5229, " skin": 5230, " expensive": 5231, "ansion": 5232, " possibility": 5233, " beautiful": 5234, " religion": 5235, " Central": 5236, " apart": 5237, " fundament": 5238, " experts": 5239, " solar": 5240, "65": 5241, " yards": 5242, " writer": 5243, " flight": 5244, " vast": 5245, " District": 5246, " Last": 5247, " deploy": 5248, " adjust": 5249, "Of": 5250, " internal": 5251, " Under": 5252, " Lat": 5253, " Peter": 5254, " Plan": 5255, "apers": 5256, " imagine": 5257, " Jon": 5258, "IV": 5259, " applications": 5260, "ologies": 5261, "31": 5262, " vision": 5263, "look": 5264, "state": 5265, "osen": 5266, " Francisco": 5267, "iot": 5268, " Toronto": 5269, " sitting": 5270, " trail": 5271, " unless": 5272, " USA": 5273, " Jes": 5274, "isted": 5275, " heat": 5276, " gar": 5277, " 2004": 5278, "IP": 5279, "Even": 5280, " responsibility": 5281, " capacity": 5282, "atures": 5283, " Middle": 5284, " error": 5285, "aine": 5286, " symb": 5287, " fol": 5288, " Dan": 5289, "pire": 5290, " arms": 5291, " pil": 5292, " covered": 5293, "idden": 5294, "ias": 5295, " appoint": 5296, " famous": 5297, " Camp": 5298, " forms": 5299, "uzz": 5300, "ND": 5301, " university": 5302, " tight": 5303, "top": 5304, " presented": 5305, "ortion": 5306, "oving": 5307, "enced": 5308, " ST": 5309, " clim": 5310, " Egypt": 5311, " earn": 5312, " Put": 5313, " convention": 5314, "under": 5315, "Just": 5316, " Public": 5317, " surprise": 5318, " attorney": 5319, " elections": 5320, " estimated": 5321, " fif": 5322, " Mur": 5323, " Ari": 5324, " teen": 5325, " instit": 5326, " vehicles": 5327, "rible": 5328, " Amazon": 5329, "road": 5330, " intended": 5331, ".\u00e2\u0080\u009d<|": 5332, " rid": 5333, " odd": 5334, " helps": 5335, " occurred": 5336, "person": 5337, "ala": 5338, " streets": 5339, "uster": 5340, "hand": 5341, " Boston": 5342, " Sol": 5343, " =>": 5344, "roud": 5345, "=\"": 5346, " sport": 5347, "sen": 5348, " determine": 5349, "ressive": 5350, " Bitcoin": 5351, " expert": 5352, " schem": 5353, "alls": 5354, " consult": 5355, "uration": 5356, "Let": 5357, " broken": 5358, " guaran": 5359, "lets": 5360, " fired": 5361, " ton": 5362, " flow": 5363, " domin": 5364, "porary": 5365, "eder": 5366, "LE": 5367, " shall": 5368, "inte": 5369, " reserv": 5370, " troops": 5371, "ION": 5372, " Those": 5373, " hyp": 5374, "Up": 5375, " nar": 5376, "terday": 5377, " pieces": 5378, " Chief": 5379, " prepared": 5380, " Mass": 5381, " Cath": 5382, " rapid": 5383, "orage": 5384, " Jo": 5385, " located": 5386, " Social": 5387, " baby": 5388, " conclus": 5389, " bringing": 5390, " prove": 5391, " specifically": 5392, " Any": 5393, " potentially": 5394, " sector": 5395, "anche": 5396, " random": 5397, " jail": 5398, "OW": 5399, " selling": 5400, " governments": 5401, " Once": 5402, " equal": 5403, "Ab": 5404, "class": 5405, " faster": 5406, " heav": 5407, " Spr": 5408, " boost": 5409, "useum": 5410, "vey": 5411, "war": 5412, " proposal": 5413, "oty": 5414, " factors": 5415, " clin": 5416, " Gal": 5417, " plenty": 5418, "TH": 5419, " equipment": 5420, " council": 5421, " era": 5422, " infrastructure": 5423, "Do": 5424, " stress": 5425, "phas": 5426, " stars": 5427, " Journal": 5428, " Rub": 5429, "endment": 5430, " Virginia": 5431, " breat": 5432, " prosecut": 5433, " voted": 5434, " offering": 5435, " carbon": 5436, "inent": 5437, " expressed": 5438, " combat": 5439, " vulner": 5440, " broke": 5441, "()": 5442, "ureau": 5443, " clot": 5444, " Cur": 5445, "ours": 5446, " Federal": 5447, " ruling": 5448, " retail": 5449, " Guard": 5450, " refused": 5451, " dram": 5452, " elected": 5453, " Open": 5454, " River": 5455, "Every": 5456, " secure": 5457, "cean": 5458, " seasons": 5459, " conducted": 5460, ",'": 5461, " Paris": 5462, " challenges": 5463, " remove": 5464, "isher": 5465, "rog": 5466, " methods": 5467, "ht": 5468, " weapon": 5469, "noon": 5470, " pointed": 5471, " Island": 5472, " master": 5473, " remained": 5474, " Australian": 5475, " prime": 5476, "ENT": 5477, " trig": 5478, " Mel": 5479, " positions": 5480, " Cru": 5481, " infect": 5482, " din": 5483, " criticism": 5484, "ipping": 5485, "First": 5486, "ocking": 5487, " Medic": 5488, " Please": 5489, "tion": 5490, "onom": 5491, "IG": 5492, " sale": 5493, " Fe": 5494, "olved": 5495, " cultural": 5496, "that": 5497, " weren": 5498, " significantly": 5499, " brow": 5500, "etic": 5501, " originally": 5502, "Ste": 5503, "rie": 5504, " During": 5505, " stret": 5506, " affected": 5507, " appearance": 5508, " cas": 5509, " Sant": 5510, " tourn": 5511, " facing": 5512, " greatest": 5513, " finish": 5514, " Lee": 5515, " youth": 5516, " tele": 5517, "yr": 5518, " Who": 5519, " percentage": 5520, " Photo": 5521, "col": 5522, " determined": 5523, " signs": 5524, " involve": 5525, "95": 5526, "cel": 5527, "\u00d0\u00b8": 5528, " thank": 5529, " bought": 5530, " 500": 5531, "lyn": 5532, "standing": 5533, " chemical": 5534, "ashion": 5535, "64": 5536, " shape": 5537, " Sing": 5538, " regime": 5539, " grew": 5540, "pired": 5541, " remaining": 5542, " Steve": 5543, "lymp": 5544, " Ro": 5545, " minimum": 5546, " Saud": 5547, "reens": 5548, " indeed": 5549, " dream": 5550, "rier": 5551, "Since": 5552, "aling": 5553, " marg": 5554, "Sp": 5555, " Both": 5556, ">>": 5557, " mode": 5558, " herself": 5559, " voting": 5560, " Color": 5561, " obviously": 5562, " Force": 5563, " reduced": 5564, " Nov": 5565, " Rem": 5566, " wood": 5567, "ordin": 5568, " recorded": 5569, " argued": 5570, " 1990": 5571, " revenue": 5572, " tact": 5573, " wearing": 5574, "ighters": 5575, " leads": 5576, " hun": 5577, "edia": 5578, " politicians": 5579, " plus": 5580, " switch": 5581, " contrast": 5582, " handle": 5583, " purchase": 5584, " thr": 5585, " subs": 5586, " concent": 5587, " proced": 5588, "\u00d1\u0082": 5589, " agent": 5590, "hab": 5591, "mm": 5592, "arp": 5593, " Williams": 5594, " appreci": 5595, " experienced": 5596, " hurt": 5597, " excited": 5598, " videos": 5599, " https": 5600, "cohol": 5601, " supporting": 5602, "DP": 5603, " Haw": 5604, " vir": 5605, " Free": 5606, " surprising": 5607, "ller": 5608, " minute": 5609, " explos": 5610, " Pac": 5611, " belong": 5612, " consumers": 5613, " identify": 5614, " considering": 5615, "ownt": 5616, " Conserv": 5617, "apter": 5618, " aircraft": 5619, " aid": 5620, "Ne": 5621, "CL": 5622, " pulled": 5623, " rent": 5624, "gment": 5625, " basically": 5626, " differences": 5627, "ogue": 5628, " Book": 5629, " glass": 5630, "http": 5631, " Rad": 5632, " afternoon": 5633, " shift": 5634, " diss": 5635, " ends": 5636, "essions": 5637, " turning": 5638, " bound": 5639, " films": 5640, " spring": 5641, " depart": 5642, " prospect": 5643, "ruption": 5644, "ket": 5645, " Charl": 5646, "life": 5647, " treated": 5648, " accident": 5649, ",[": 5650, " motiv": 5651, " listen": 5652, " seat": 5653, " Power": 5654, " combined": 5655, " construct": 5656, "Ind": 5657, " seriously": 5658, " privacy": 5659, "apping": 5660, " evening": 5661, "hered": 5662, " opportunities": 5663, "asp": 5664, "hy": 5665, " struggle": 5666, " 195": 5667, " panel": 5668, " enemy": 5669, " lots": 5670, " completed": 5671, " Daily": 5672, " visual": 5673, "His": 5674, "pet": 5675, "Phone": 5676, " talked": 5677, "pted": 5678, " hopes": 5679, "uts": 5680, " passing": 5681, "oral": 5682, " id": 5683, " apps": 5684, "osite": 5685, "05": 5686, "gent": 5687, " Step": 5688, "PD": 5689, " calcul": 5690, " mort": 5691, "Another": 5692, " widely": 5693, "ensions": 5694, " emergency": 5695, " Hol": 5696, "amm": 5697, " Show": 5698, " suit": 5699, " element": 5700, " ast": 5701, "anged": 5702, "SS": 5703, "ucks": 5704, "aled": 5705, " powers": 5706, " Rel": 5707, " BBC": 5708, " flat": 5709, " Olymp": 5710, " burn": 5711, "TV": 5712, " discl": 5713, " plants": 5714, " Space": 5715, "ato": 5716, " liberal": 5717, "Pe": 5718, "raud": 5719, "obe": 5720, " opposed": 5721, " sad": 5722, "Well": 5723, " proceed": 5724, "ompl": 5725, " copyright": 5726, " Project": 5727, "oking": 5728, " advance": 5729, " factor": 5730, " distance": 5731, " 2003": 5732, "ivered": 5733, " dismiss": 5734, "plom": 5735, " attempts": 5736, " tun": 5737, "ette": 5738, "Am": 5739, " Road": 5740, "abilities": 5741, " IN": 5742, "ributed": 5743, " trouble": 5744, "unction": 5745, " hol": 5746, " collabor": 5747, " default": 5748, "idel": 5749, " zone": 5750, " encoun": 5751, " Jackson": 5752, " upgr": 5753, "ita": 5754, "rawn": 5755, " reaction": 5756, " storm": 5757, " reporters": 5758, " Mem": 5759, " frust": 5760, "PR": 5761, "nell": 5762, " writes": 5763, "adow": 5764, "mosp": 5765, "mond": 5766, "aints": 5767, " typically": 5768, "lines": 5769, " Today": 5770, "respond": 5771, "UT": 5772, " pages": 5773, " instruct": 5774, "inian": 5775, "eds": 5776, "ternal": 5777, " reference": 5778, " grab": 5779, "zer": 5780, " package": 5781, " bodies": 5782, " matters": 5783, "sts": 5784, "01": 5785, "free": 5786, " denied": 5787, "care": 5788, "App": 5789, " quant": 5790, " disappoint": 5791, " sem": 5792, " explo": 5793, " Bet": 5794, " NAS": 5795, " optim": 5796, "ache": 5797, " quiet": 5798, " entertain": 5799, " responded": 5800, " approved": 5801, " Turkey": 5802, " satisf": 5803, "aped": 5804, "Rep": 5805, " broadcast": 5806, "esters": 5807, " institutions": 5808, " advert": 5809, "42": 5810, " stands": 5811, " Director": 5812, " sets": 5813, "estival": 5814, "ga": 5815, " elimin": 5816, "razy": 5817, "\u00c3\u00a4": 5818, "host": 5819, " valid": 5820, " renew": 5821, " Ohio": 5822, "Cont": 5823, " split": 5824, " severe": 5825, " William": 5826, " sac": 5827, " capable": 5828, " Matt": 5829, " Penn": 5830, " 2001": 5831, " //": 5832, " pitch": 5833, "aniel": 5834, " caption": 5835, " loved": 5836, " technical": 5837, " giant": 5838, "pass": 5839, " tradition": 5840, "isters": 5841, " cann": 5842, "water": 5843, " bull": 5844, "abin": 5845, " confident": 5846, "elly": 5847, "uous": 5848, " confidence": 5849, "rum": 5850, " numerous": 5851, " reportedly": 5852, " Ma": 5853, " faces": 5854, "],": 5855, "writ": 5856, " weather": 5857, " fly": 5858, "rid": 5859, " transition": 5860, " 36": 5861, " System": 5862, "unte": 5863, " Afghanistan": 5864, " Squ": 5865, " waste": 5866, " creation": 5867, " perspective": 5868, " unable": 5869, " forget": 5870, " Labour": 5871, "De": 5872, " Yet": 5873, "astern": 5874, "employ": 5875, ".\"<|": 5876, "oken": 5877, " Media": 5878, "angers": 5879, "II": 5880, " craft": 5881, " substant": 5882, " cooper": 5883, " violent": 5884, " suffered": 5885, "ilit": 5886, " mand": 5887, "ampion": 5888, " coast": 5889, "43": 5890, " pictures": 5891, " experiences": 5892, " approx": 5893, " route": 5894, "abled": 5895, "rant": 5896, "88": 5897, " flag": 5898, " advice": 5899, " Andrew": 5900, "usiness": 5901, " declared": 5902, " ordered": 5903, " Human": 5904, "razil": 5905, " crimes": 5906, " coff": 5907, " proud": 5908, "ishes": 5909, " reporting": 5910, " messages": 5911, "sex": 5912, " circumst": 5913, " findings": 5914, "Res": 5915, "ulations": 5916, " eval": 5917, " excell": 5918, "Over": 5919, " declined": 5920, " Wal": 5921, " explains": 5922, " Lin": 5923, "can": 5924, " delay": 5925, " \\": 5926, " Follow": 5927, " newspaper": 5928, "ounded": 5929, " connected": 5930, "ilty": 5931, " shouldn": 5932, " mal": 5933, "evin": 5934, "oves": 5935, " ongoing": 5936, " cloud": 5937, "dule": 5938, " van": 5939, " movies": 5940, " picked": 5941, "resents": 5942, "77": 5943, " admitted": 5944, " gra": 5945, " delivered": 5946, "During": 5947, " guns": 5948, " ML": 5949, "ionally": 5950, " Scot": 5951, " walking": 5952, " prin": 5953, " agents": 5954, "called": 5955, " editor": 5956, " thoughts": 5957, " married": 5958, " Tra": 5959, " auth": 5960, " emails": 5961, " appropriate": 5962, "edd": 5963, " emphas": 5964, " Rod": 5965, "uations": 5966, " edge": 5967, " architect": 5968, " Grand": 5969, " leaves": 5970, " updates": 5971, " accompl": 5972, "OD": 5973, " gather": 5974, " forg": 5975, " Muslims": 5976, "ansas": 5977, " Wood": 5978, " quarterback": 5979, " session": 5980, "ooth": 5981, " pool": 5982, " Techn": 5983, " Science": 5984, "cos": 5985, " injured": 5986, "arn": 5987, " publicly": 5988, "ellow": 5989, " Sov": 5990, " statements": 5991, " perman": 5992, "arl": 5993, " legit": 5994, " confirm": 5995, "nergy": 5996, " Lake": 5997, " ourselves": 5998, "Other": 5999, " realize": 6000, " drivers": 6001, " rot": 6002, "MA": 6003, " Av": 6004, " Dou": 6005, "mates": 6006, ",\u00e2\u0080\u0099": 6007, " armed": 6008, "essor": 6009, " dial": 6010, "cons": 6011, "Te": 6012, "TA": 6013, " lawyer": 6014, "ourney": 6015, " rail": 6016, " readers": 6017, "reland": 6018, " contains": 6019, " argue": 6020, " Rev": 6021, " talent": 6022, " filled": 6023, " Sum": 6024, " allegations": 6025, " activists": 6026, " Christmas": 6027, " dynam": 6028, " 1980": 6029, " Michigan": 6030, "date": 6031, " Back": 6032, " Ron": 6033, "long": 6034, " crack": 6035, " transform": 6036, " Read": 6037, "Tube": 6038, " buildings": 6039, " wear": 6040, "Many": 6041, " Ill": 6042, " sam": 6043, " terrorist": 6044, " tree": 6045, " exercise": 6046, "enda": 6047, " label": 6048, " effectively": 6049, "Oh": 6050, " practices": 6051, " god": 6052, " subsequ": 6053, " Jul": 6054, " Sher": 6055, "TS": 6056, "uls": 6057, " flo": 6058, " fish": 6059, "enture": 6060, " shop": 6061, " examples": 6062, "41": 6063, " Hy": 6064, " patient": 6065, " Gen": 6066, " Seattle": 6067, " objects": 6068, " See": 6069, " tech": 6070, " secretary": 6071, "gia": 6072, "asure": 6073, " rain": 6074, "urning": 6075, " missed": 6076, " causes": 6077, "illy": 6078, " debut": 6079, " essentially": 6080, "66": 6081, " moral": 6082, "orders": 6083, "ador": 6084, "word": 6085, "def": 6086, "acter": 6087, " Work": 6088, "arters": 6089, " Ukraine": 6090, " centre": 6091, " Stan": 6092, "hedule": 6093, "Follow": 6094, "amin": 6095, " Vict": 6096, " ID": 6097, " injuries": 6098, "icing": 6099, " Phot": 6100, " motor": 6101, " iPhone": 6102, " artist": 6103, " client": 6104, " bond": 6105, " thinks": 6106, "iat": 6107, "aza": 6108, "orse": 6109, "ouston": 6110, " pure": 6111, " hell": 6112, "Although": 6113, " Saudi": 6114, " facts": 6115, "\u0082\u00ac": 6116, " desire": 6117, "agers": 6118, " ske": 6119, "orry": 6120, " linked": 6121, "\u00c3\u00ad": 6122, " governor": 6123, " Bat": 6124, " materials": 6125, "nan": 6126, " performed": 6127, "Spe": 6128, " franch": 6129, "esome": 6130, " suc": 6131, " philosoph": 6132, " initially": 6133, " Sign": 6134, " necessarily": 6135, " Kim": 6136, " Fer": 6137, " expansion": 6138, " scheduled": 6139, "ERS": 6140, " warned": 6141, "iest": 6142, " diplom": 6143, " advanced": 6144, " explan": 6145, " ing": 6146, " vari": 6147, " everybody": 6148, " joint": 6149, " decre": 6150, " resolution": 6151, " increases": 6152, "enger": 6153, "Yes": 6154, " accepted": 6155, " incor": 6156, " myster": 6157, " faced": 6158, " bare": 6159, "illance": 6160, " announcement": 6161, " follows": 6162, " Mount": 6163, " nations": 6164, " playoff": 6165, " Life": 6166, " abandon": 6167, " Second": 6168, " Id": 6169, " radical": 6170, " athlet": 6171, " neither": 6172, " yesterday": 6173, " datab": 6174, " nearby": 6175, " distribution": 6176, "otic": 6177, " applied": 6178, "irty": 6179, " magazine": 6180, "Most": 6181, "athan": 6182, "rich": 6183, " consequences": 6184, " mir": 6185, " doctor": 6186, " listed": 6187, "uy": 6188, " Columb": 6189, " atmosp": 6190, "American": 6191, " surprised": 6192, " fort": 6193, " offense": 6194, "Qu": 6195, "itors": 6196, " CNN": 6197, " RE": 6198, " spons": 6199, " begins": 6200, " Week": 6201, " threats": 6202, " af": 6203, "sembly": 6204, " represents": 6205, " Jews": 6206, " GM": 6207, " Aff": 6208, " enh": 6209, " moves": 6210, " remark": 6211, " TO": 6212, " songs": 6213, " pra": 6214, "kay": 6215, " behavi": 6216, " ride": 6217, "Can": 6218, " adds": 6219, " withd": 6220, "\u00c3\u0082": 6221, " improved": 6222, "rip": 6223, " phen": 6224, " Blue": 6225, " bot": 6226, " warm": 6227, " alcohol": 6228, " output": 6229, "law": 6230, " AT": 6231, " flood": 6232, " Develop": 6233, " Hen": 6234, "whel": 6235, "edy": 6236, " shots": 6237, " fill": 6238, " Vol": 6239, " stood": 6240, " brings": 6241, " alt": 6242, " pushed": 6243, " guilty": 6244, " Romney": 6245, " subscrib": 6246, "85": 6247, " entry": 6248, "ocratic": 6249, " Dev": 6250, " Brazil": 6251, " democracy": 6252, " boys": 6253, "burg": 6254, "rac": 6255, " 33": 6256, " row": 6257, " config": 6258, " NBA": 6259, " lawsuit": 6260, " Ireland": 6261, " manufacture": 6262, " receiving": 6263, " rein": 6264, " Barack": 6265, "Then": 6266, " trib": 6267, " totally": 6268, " Only": 6269, " discussed": 6270, " restaurant": 6271, " sought": 6272, " rising": 6273, " entered": 6274, " ISIS": 6275, " Board": 6276, " 300": 6277, " consistent": 6278, " historical": 6279, "twitter": 6280, " storage": 6281, "ideo": 6282, " correspond": 6283, " plane": 6284, " combination": 6285, " scored": 6286, " input": 6287, " symbol": 6288, " bright": 6289, " button": 6290, "irds": 6291, " succeed": 6292, "stood": 6293, " creative": 6294, " investors": 6295, " square": 6296, " articles": 6297, " 2002": 6298, " island": 6299, "pty": 6300, " deaths": 6301, " scr": 6302, " functions": 6303, " networks": 6304, " classes": 6305, " unlikely": 6306, "alty": 6307, " Prem": 6308, " heads": 6309, "ician": 6310, " boss": 6311, " native": 6312, "icious": 6313, " lie": 6314, " sav": 6315, " Lib": 6316, " roughly": 6317, " consumer": 6318, " Whe": 6319, " Walk": 6320, "fortunately": 6321, " Ms": 6322, " string": 6323, " Maybe": 6324, " heavily": 6325, " Another": 6326, " fairly": 6327, " temperature": 6328, "arden": 6329, "ican": 6330, " kit": 6331, " existence": 6332, " Its": 6333, " Asia": 6334, " contest": 6335, " plot": 6336, "issions": 6337, " Cub": 6338, " resident": 6339, "usal": 6340, " targets": 6341, " Bob": 6342, " resc": 6343, " Korean": 6344, "duc": 6345, " lock": 6346, " younger": 6347, " colleagues": 6348, " Str": 6349, "',": 6350, " Swed": 6351, "PU": 6352, "abb": 6353, " library": 6354, "\u00c3\u00b6": 6355, " rally": 6356, " parliament": 6357, " protests": 6358, " anywhere": 6359, "oked": 6360, " Sports": 6361, " Sky": 6362, " bike": 6363, "zona": 6364, " breaking": 6365, "acle": 6366, " stores": 6367, " expression": 6368, " sym": 6369, " chain": 6370, " blow": 6371, " warning": 6372, " importance": 6373, " defined": 6374, " chart": 6375, " buying": 6376, " manage": 6377, " prohib": 6378, "ii": 6379, " classic": 6380, " cere": 6381, " snow": 6382, " adults": 6383, " illust": 6384, " Each": 6385, "See": 6386, "Ob": 6387, " marketing": 6388, " links": 6389, "\u00c3\u00b3": 6390, "born": 6391, " shif": 6392, "iques": 6393, "andal": 6394, " Club": 6395, " tow": 6396, " Hist": 6397, " fraud": 6398, "OC": 6399, "Man": 6400, "pret": 6401, "dis": 6402, " facility": 6403, "ollywood": 6404, " hardware": 6405, " schol": 6406, " allegedly": 6407, " 37": 6408, "cho": 6409, " regulations": 6410, " bon": 6411, " doctors": 6412, " Colorado": 6413, " currency": 6414, " household": 6415, " replaced": 6416, "agan": 6417, " essential": 6418, " Ram": 6419, "En": 6420, "opy": 6421, "onna": 6422, " somewhat": 6423, " Div": 6424, "press": 6425, "86": 6426, " nav": 6427, "power": 6428, " favour": 6429, " promise": 6430, " DC": 6431, " Boy": 6432, " laugh": 6433, "Pol": 6434, " Rights": 6435, "ena": 6436, " holds": 6437, " opposite": 6438, "ocket": 6439, " tom": 6440, "\u00d1\u0081": 6441, " moments": 6442, "west": 6443, " hat": 6444, "tering": 6445, " opponent": 6446, " bug": 6447, " Far": 6448, " campus": 6449, " acts": 6450, " rum": 6451, "etroit": 6452, " versions": 6453, " metal": 6454, " motion": 6455, "hips": 6456, " evolution": 6457, "ometimes": 6458, " vice": 6459, "anish": 6460, " sees": 6461, " Image": 6462, " bag": 6463, " relevant": 6464, " industrial": 6465, " zero": 6466, "IR": 6467, " sick": 6468, "oma": 6469, " closely": 6470, "hetic": 6471, " emotional": 6472, "chen": 6473, "game": 6474, "IF": 6475, " YouTube": 6476, " Year": 6477, "va": 6478, " fewer": 6479, " division": 6480, "olve": 6481, " adm": 6482, " downt": 6483, " harder": 6484, " refere": 6485, " customer": 6486, " hoping": 6487, "ologist": 6488, " Brook": 6489, "Donald": 6490, " Valley": 6491, " hur": 6492, " mechanism": 6493, "ittle": 6494, "inem": 6495, " Gra": 6496, "ml": 6497, " Houston": 6498, " Elect": 6499, " returns": 6500, "NC": 6501, "atell": 6502, " volunte": 6503, " participants": 6504, " extent": 6505, " intention": 6506, "alian": 6507, "pan": 6508, " excellent": 6509, " Soviet": 6510, " acknowled": 6511, "llect": 6512, " syn": 6513, "ulous": 6514, " Mot": 6515, "oming": 6516, " Games": 6517, " squad": 6518, " circumstances": 6519, " fashion": 6520, " isol": 6521, "esc": 6522, "\u00c3\u00bc": 6523, "otal": 6524, "greg": 6525, " immediate": 6526, " Eric": 6527, " suffering": 6528, "po": 6529, " Watch": 6530, " lies": 6531, " tiny": 6532, " authors": 6533, " batt": 6534, " 38": 6535, " grown": 6536, " Gar": 6537, "iger": 6538, "ora": 6539, " immigrants": 6540, "\u00c3\u0083": 6541, "print": 6542, " kinds": 6543, "utch": 6544, " 49": 6545, " Die": 6546, " cheap": 6547, " mine": 6548, " detailed": 6549, " Hel": 6550, "ordan": 6551, "name": 6552, " featured": 6553, "iki": 6554, "ayers": 6555, " meat": 6556, " unus": 6557, " Aut": 6558, " competitive": 6559, " IP": 6560, " describe": 6561, " formed": 6562, " Home": 6563, "nic": 6564, "certain": 6565, " carrying": 6566, " tournament": 6567, " trick": 6568, "nam": 6569, " relationships": 6570, "friend": 6571, " fundamental": 6572, "kel": 6573, " wave": 6574, " cycle": 6575, " crazy": 6576, " signing": 6577, " Way": 6578, " Cy": 6579, " termin": 6580, " guide": 6581, "efully": 6582, " wins": 6583, " Catholic": 6584, " earned": 6585, " decline": 6586, " regional": 6587, "ensus": 6588, "style": 6589, " embr": 6590, " strange": 6591, " Palestinian": 6592, " Jesus": 6593, " Ann": 6594, " Long": 6595, "bar": 6596, " ancient": 6597, " frequently": 6598, " acting": 6599, " Putin": 6600, " manner": 6601, " efficient": 6602, " Sar": 6603, "rome": 6604, " pushing": 6605, " CIA": 6606, " comfortable": 6607, " Card": 6608, " pip": 6609, "ORE": 6610, " Er": 6611, "Per": 6612, " sharing": 6613, " wire": 6614, " skill": 6615, " Econom": 6616, "ockey": 6617, "chers": 6618, " instru": 6619, " owned": 6620, " Ell": 6621, "awa": 6622, " commitment": 6623, " alongside": 6624, " OF": 6625, "uated": 6626, " Lord": 6627, " Davis": 6628, "anes": 6629, " cart": 6630, "rison": 6631, " controversial": 6632, " artists": 6633, " referred": 6634, "weight": 6635, " egg": 6636, " mouth": 6637, " repeatedly": 6638, "06": 6639, " 48": 6640, " Top": 6641, "\u00ef\u00bf": 6642, " 34": 6643, "FP": 6644, " attempted": 6645, " femin": 6646, "\u00d0\u00be\u00d0": 6647, "umber": 6648, " updated": 6649, "foot": 6650, " cert": 6651, " pregn": 6652, " Old": 6653, "ua": 6654, " schedule": 6655, "vin": 6656, "xy": 6657, " PS": 6658, "amily": 6659, "adel": 6660, " dedicated": 6661, " posts": 6662, " AL": 6663, " sentence": 6664, " upcoming": 6665, " Down": 6666, "bel": 6667, " NY": 6668, " column": 6669, " Di": 6670, "hus": 6671, " depth": 6672, "09": 6673, " pled": 6674, " virtual": 6675, "uable": 6676, " journey": 6677, " struck": 6678, "\u00d1\u0080": 6679, " desk": 6680, " studio": 6681, " realized": 6682, " Energy": 6683, "Despite": 6684, "ceived": 6685, "%)": 6686, "ographic": 6687, "DS": 6688, "ugh": 6689, " medic": 6690, "iami": 6691, " serving": 6692, " walked": 6693, "rive": 6694, "iveness": 6695, " king": 6696, " ring": 6697, "ko": 6698, " reput": 6699, "phy": 6700, "you": 6701, " urban": 6702, " Cle": 6703, " Charles": 6704, " Wild": 6705, " targeted": 6706, " channel": 6707, " assets": 6708, "luding": 6709, " inspired": 6710, " hotel": 6711, " Arizona": 6712, "08": 6713, " newslet": 6714, "Like": 6715, "Two": 6716, " Supp": 6717, " universe": 6718, "07": 6719, " agenda": 6720, " causing": 6721, " watched": 6722, " suicide": 6723, " tort": 6724, " stream": 6725, " Men": 6726, "mem": 6727, " overwhel": 6728, " Py": 6729, " usual": 6730, " surveillance": 6731, " intent": 6732, "sole": 6733, "People": 6734, " liqu": 6735, " sister": 6736, " opponents": 6737, " chairman": 6738, " du": 6739, " Wars": 6740, " Cruz": 6741, " mainstream": 6742, " latter": 6743, " hall": 6744, " surrounding": 6745, " folks": 6746, " knowing": 6747, " orders": 6748, " Inf": 6749, "omin": 6750, "igg": 6751, " remote": 6752, " 75": 6753, " sand": 6754, " literally": 6755, " Java": 6756, " observed": 6757, " Again": 6758, " Right": 6759, " subsid": 6760, "gor": 6761, " Defense": 6762, " infl": 6763, "obb": 6764, " approval": 6765, " Van": 6766, "rence": 6767, "iments": 6768, " basket": 6769, "rations": 6770, "avor": 6771, " teachers": 6772, "azi": 6773, "izz": 6774, "Fr": 6775, " winter": 6776, "iciency": 6777, "alle": 6778, "aze": 6779, " exciting": 6780, "acc": 6781, "aylor": 6782, " Tal": 6783, " format": 6784, "boy": 6785, " congress": 6786, "iro": 6787, " protected": 6788, "ati": 6789, " noticed": 6790, " simpl": 6791, " dealing": 6792, " Young": 6793, " Child": 6794, " precise": 6795, " Pan": 6796, "xual": 6797, "67": 6798, " deeply": 6799, " communication": 6800, " gang": 6801, " sending": 6802, "ipl": 6803, " forth": 6804, " Jr": 6805, " fasc": 6806, " battery": 6807, " wal": 6808, "mun": 6809, " sky": 6810, " narr": 6811, " fixed": 6812, "post": 6813, " aside": 6814, " requirements": 6815, "abis": 6816, "ums": 6817, " properties": 6818, "rors": 6819, "str": 6820, " alive": 6821, " narrow": 6822, " wake": 6823, "allas": 6824, " passion": 6825, " Arch": 6826, "onymous": 6827, " eating": 6828, "ensity": 6829, " mistake": 6830, "wart": 6831, "woman": 6832, " explore": 6833, " coffee": 6834, " 1970": 6835, " rape": 6836, " volume": 6837, " promised": 6838, " diet": 6839, "acking": 6840, " risks": 6841, " exhib": 6842, " Polit": 6843, " sweet": 6844, "May": 6845, " Enter": 6846, " Wat": 6847, " neut": 6848, " involving": 6849, " wage": 6850, " selection": 6851, " Max": 6852, " tested": 6853, "ether": 6854, " flu": 6855, "ulture": 6856, " defeat": 6857, " northern": 6858, " reward": 6859, " welcome": 6860, " extended": 6861, " puts": 6862, " territory": 6863, " phenomen": 6864, " unemploy": 6865, " refugees": 6866, " sample": 6867, " height": 6868, " approximately": 6869, " Kevin": 6870, " blame": 6871, " Brad": 6872, " anyway": 6873, "59": 6874, " Detroit": 6875, " destroyed": 6876, "obile": 6877, " sho": 6878, " impressive": 6879, " Stephen": 6880, "asks": 6881, " proof": 6882, " gap": 6883, " dry": 6884, "\u00ef\u00bf\u00bd": 6885, " crash": 6886, "ingu": 6887, " unknown": 6888, " locations": 6889, " selected": 6890, "apse": 6891, " west": 6892, "anges": 6893, "gery": 6894, " Fil": 6895, "stone": 6896, " attacked": 6897, " Tit": 6898, "aire": 6899, "lv": 6900, " maximum": 6901, " Miller": 6902, " Wilson": 6903, " promote": 6904, "\u00e2\u0080\u0099.": 6905, " shel": 6906, "aser": 6907, " merely": 6908, " franchise": 6909, "arry": 6910, "04": 6911, " requests": 6912, " retire": 6913, " suddenly": 6914, " slowly": 6915, " protesters": 6916, " disag": 6917, " teacher": 6918, " typical": 6919, " Ins": 6920, "ixt": 6921, "ogan": 6922, "dro": 6923, " Women": 6924, " conver": 6925, "list": 6926, " chose": 6927, " Camer": 6928, "ao": 6929, " Class": 6930, " Lu": 6931, " matches": 6932, " license": 6933, " properly": 6934, " assume": 6935, "oration": 6936, " discover": 6937, " wid": 6938, " PR": 6939, "Rel": 6940, " Mic": 6941, " worried": 6942, " moder": 6943, "Or": 6944, " abortion": 6945, "fire": 6946, "owered": 6947, " allies": 6948, " oblig": 6949, " terrorism": 6950, " supports": 6951, " \u00ce": 6952, "uilding": 6953, "\u00c3\u0083\u00c3\u0082": 6954, "inson": 6955, "verty": 6956, " arguments": 6957, " adapt": 6958, " theme": 6959, " confront": 6960, " facilities": 6961, " sustain": 6962, "gender": 6963, " pal": 6964, " east": 6965, " recognize": 6966, "igure": 6967, " fuck": 6968, "\u00c3\u0082\u00c3\u0083\u00c3\u0082": 6969, "\u00c3\u0083\u00c3\u0082\u00c3\u0083": 6970, "lies": 6971, " equival": 6972, " obtained": 6973, " poverty": 6974, " rub": 6975, " Italy": 6976, " nomine": 6977, "03": 6978, " deals": 6979, " fees": 6980, "itarian": 6981, "osis": 6982, "alo": 6983, "Se": 6984, " Hollywood": 6985, " understood": 6986, " controlled": 6987, "VER": 6988, " Best": 6989, " topic": 6990, " Dam": 6991, " critics": 6992, " Society": 6993, " Agency": 6994, "axy": 6995, " Ford": 6996, " sole": 6997, " Jersey": 6998, "arity": 6999, " village": 7000, " diagn": 7001, " Administ": 7002, "raid": 7003, " likes": 7004, "celer": 7005, " Four": 7006, "sters": 7007, "68": 7008, " evil": 7009, " punish": 7010, " dress": 7011, "cript": 7012, " Georgia": 7013, "asts": 7014, " bunch": 7015, " Company": 7016, " journalists": 7017, "John": 7018, " exposed": 7019, " ped": 7020, " regions": 7021, "redit": 7022, "ocation": 7023, " communications": 7024, " scheme": 7025, "lls": 7026, " transp": 7027, " stim": 7028, " limits": 7029, " somehow": 7030, " strongly": 7031, " honor": 7032, " drag": 7033, "aug": 7034, " resistance": 7035, " champion": 7036, " Carl": 7037, " Labor": 7038, " phase": 7039, " NASA": 7040, "pool": 7041, " truck": 7042, " profit": 7043, " constant": 7044, " condem": 7045, " escape": 7046, " personally": 7047, " Dun": 7048, "rimination": 7049, " Night": 7050, " Land": 7051, " bid": 7052, " Fort": 7053, " NHL": 7054, " Stand": 7055, " vacc": 7056, " deck": 7057, "\u00d0\u00bd": 7058, "nesota": 7059, "iform": 7060, " falling": 7061, "ads": 7062, "GBT": 7063, " Network": 7064, " somewhere": 7065, "cers": 7066, " employee": 7067, " harass": 7068, "mo": 7069, "CA": 7070, " bear": 7071, " CD": 7072, "iner": 7073, " comparison": 7074, "orted": 7075, "ciples": 7076, " polls": 7077, "owa": 7078, "rett": 7079, " inqu": 7080, " Love": 7081, "pected": 7082, " southern": 7083, " decent": 7084, "oric": 7085, "cow": 7086, " Spanish": 7087, " encourage": 7088, " emissions": 7089, " 39": 7090, " View": 7091, " Cam": 7092, "enders": 7093, " empty": 7094, " Miami": 7095, " hits": 7096, "oster": 7097, " definition": 7098, " Kn": 7099, " directed": 7100, " pic": 7101, " Bell": 7102, "pes": 7103, " flex": 7104, "wan": 7105, "zens": 7106, " Ok": 7107, "57": 7108, " meetings": 7109, " End": 7110, " comprom": 7111, " winner": 7112, "intend": 7113, "icken": 7114, " gotten": 7115, " Daniel": 7116, " Turk": 7117, " electricity": 7118, " chosen": 7119, " officially": 7120, " bench": 7121, " stretch": 7122, " database": 7123, " Despite": 7124, " spin": 7125, " intellect": 7126, "igation": 7127, " stronger": 7128, "aun": 7129, " deleg": 7130, " purposes": 7131, " DNA": 7132, "teen": 7133, " cutting": 7134, " Turn": 7135, " fold": 7136, "rary": 7137, " extensive": 7138, "Com": 7139, " amounts": 7140, " desper": 7141, " trees": 7142, " anx": 7143, " ideal": 7144, " Asian": 7145, " thread": 7146, " fifth": 7147, "\u0088\u0092": 7148, "CS": 7149, "UR": 7150, " goods": 7151, " colon": 7152, " developer": 7153, " claiming": 7154, "unning": 7155, "Any": 7156, " retain": 7157, " soul": 7158, " captured": 7159, " Though": 7160, " finds": 7161, " driven": 7162, " payments": 7163, "asters": 7164, "ras": 7165, " ties": 7166, " Jordan": 7167, " reasonable": 7168, " dogs": 7169, "\u00e2\u0096": 7170, " somebody": 7171, " ending": 7172, "02": 7173, " Nations": 7174, " choices": 7175, " ble": 7176, " pod": 7177, " seats": 7178, " Services": 7179, " Thank": 7180, " engage": 7181, " drawn": 7182, "olt": 7183, " sight": 7184, " param": 7185, "CE": 7186, " threatened": 7187, " ruled": 7188, " Dar": 7189, " Attorney": 7190, " Irish": 7191, "eping": 7192, " Sea": 7193, " trading": 7194, "owed": 7195, " primarily": 7196, "ura": 7197, " aspects": 7198, " fighters": 7199, "ML": 7200, " answers": 7201, " perfectly": 7202, "irms": 7203, " incl": 7204, " Academ": 7205, " rival": 7206, " parking": 7207, " rejected": 7208, " Gall": 7209, " Cat": 7210, " constantly": 7211, "Add": 7212, " Hun": 7213, " payment": 7214, "fast": 7215, " distinct": 7216, " flying": 7217, " rig": 7218, " technologies": 7219, " Real": 7220, "mod": 7221, " Ut": 7222, "</": 7223, " components": 7224, "Police": 7225, " admit": 7226, " Scotland": 7227, " elsewhere": 7228, " Dark": 7229, "dit": 7230, " constit": 7231, " anymore": 7232, "lder": 7233, " Cast": 7234, " fields": 7235, " icon": 7236, " estimates": 7237, "EW": 7238, "sea": 7239, " solutions": 7240, " resulting": 7241, "78": 7242, " Bru": 7243, "urb": 7244, " awesome": 7245, " province": 7246, "sm": 7247, " worldwide": 7248, " actor": 7249, " regularly": 7250, " Moore": 7251, " courts": 7252, " narrative": 7253, "Once": 7254, " boot": 7255, " enemies": 7256, " mixed": 7257, "300": 7258, "regon": 7259, " OS": 7260, " Disney": 7261, "icer": 7262, " houses": 7263, " nobody": 7264, " Sk": 7265, "inations": 7266, " controls": 7267, " Water": 7268, " letters": 7269, "apes": 7270, "agram": 7271, "imp": 7272, "iana": 7273, " 42": 7274, " mayor": 7275, " murd": 7276, " outcome": 7277, " MS": 7278, " contem": 7279, "sell": 7280, " Tem": 7281, "vy": 7282, "Sec": 7283, "odd": 7284, "ship": 7285, " Light": 7286, "isan": 7287, "onic": 7288, " apartment": 7289, " Brian": 7290, " Steven": 7291, " coalition": 7292, " contributed": 7293, " Bas": 7294, " tank": 7295, " concluded": 7296, " Adam": 7297, " exists": 7298, " founder": 7299, " Lew": 7300, " atmosphere": 7301, " profile": 7302, " brew": 7303, " Tw": 7304, " situations": 7305, " Championship": 7306, " loan": 7307, "ls": 7308, " Author": 7309, "rates": 7310, " incredible": 7311, " Constitution": 7312, " signal": 7313, "otes": 7314, " Rog": 7315, " accurate": 7316, "ker": 7317, " Victor": 7318, "otten": 7319, " unp": 7320, " Where": 7321, " Southern": 7322, ".\"[": 7323, " employment": 7324, "earing": 7325, " clients": 7326, " keeps": 7327, "inity": 7328, " informed": 7329, " continuing": 7330, " taste": 7331, " baseball": 7332, " generate": 7333, " ticket": 7334, " conven": 7335, "oft": 7336, "Also": 7337, " Conf": 7338, " weird": 7339, "lock": 7340, " tied": 7341, "adelph": 7342, " category": 7343, "zy": 7344, "ilarly": 7345, "aron": 7346, "acked": 7347, " angry": 7348, " Organ": 7349, " routine": 7350, " kil": 7351, " raising": 7352, "ifer": 7353, " machines": 7354, " registered": 7355, "there": 7356, " proved": 7357, " demands": 7358, " gaming": 7359, " Italian": 7360, " incredibly": 7361, " crucial": 7362, "MP": 7363, " stuck": 7364, " Civil": 7365, " Dallas": 7366, " terrible": 7367, " feedback": 7368, " upper": 7369, " plastic": 7370, " imper": 7371, " newly": 7372, " Joseph": 7373, " consumption": 7374, "rage": 7375, "ept": 7376, " dozen": 7377, " enthus": 7378, " estate": 7379, "ali": 7380, "56": 7381, " innoc": 7382, " manip": 7383, " conscious": 7384, " bills": 7385, " Cross": 7386, " Spain": 7387, "ifications": 7388, "Today": 7389, " writers": 7390, " excess": 7391, "inding": 7392, " aggressive": 7393, " reporter": 7394, " compens": 7395, " returning": 7396, " stead": 7397, " programming": 7398, " Thanks": 7399, " represented": 7400, " conclusion": 7401, "98": 7402, " rus": 7403, " Bowl": 7404, "MS": 7405, " AR": 7406, " origin": 7407, " assistant": 7408, "adelphia": 7409, " roster": 7410, " Minnesota": 7411, " organized": 7412, "ria": 7413, " penalty": 7414, " drinking": 7415, "lers": 7416, " paint": 7417, " satell": 7418, " gro": 7419, " Program": 7420, "eme": 7421, " capture": 7422, " conspir": 7423, " interpret": 7424, " explanation": 7425, "iscal": 7426, " county": 7427, "iscons": 7428, "essed": 7429, " %": 7430, "Dr": 7431, "anny": 7432, "mont": 7433, "gorith": 7434, "isconsin": 7435, " assistance": 7436, "58": 7437, "ima": 7438, " complaint": 7439, " Roman": 7440, "star": 7441, " ru": 7442, " nut": 7443, " magic": 7444, " tall": 7445, " Oper": 7446, " granted": 7447, "Because": 7448, " Contin": 7449, "LA": 7450, "Off": 7451, " Parliament": 7452, " complicated": 7453, "emen": 7454, " chances": 7455, " audio": 7456, " extract": 7457, "bal": 7458, "era": 7459, " Gi": 7460, " 1999": 7461, " Educ": 7462, " shares": 7463, " hel": 7464, " successfully": 7465, "rete": 7466, "esy": 7467, " Win": 7468, " Hot": 7469, " pilot": 7470, " IT": 7471, " Ep": 7472, " myth": 7473, " 00": 7474, " recovery": 7475, " Test": 7476, " techniques": 7477, " iron": 7478, " Care": 7479, " Zeal": 7480, " SC": 7481, " scenes": 7482, " veteran": 7483, " Fre": 7484, " ($": 7485, " degrees": 7486, "actions": 7487, "thew": 7488, " sympt": 7489, " lawmakers": 7490, "ked": 7491, " western": 7492, " operate": 7493, " ads": 7494, "rating": 7495, " habit": 7496, "rep": 7497, " aimed": 7498, "Inst": 7499, "anchester": 7500, " phr": 7501, "idency": 7502, " engaged": 7503, " privile": 7504, " 55": 7505, " rating": 7506, " teaching": 7507, " academic": 7508, " Os": 7509, "!<|": 7510, " therap": 7511, " passes": 7512, " dollar": 7513, " automatically": 7514, "uan": 7515, "itar": 7516, "hent": 7517, " Pacific": 7518, " monit": 7519, " blocks": 7520, "abama": 7521, " attended": 7522, " permanent": 7523, " survive": 7524, " anticip": 7525, " extrem": 7526, " enable": 7527, " Look": 7528, " Foreign": 7529, " chat": 7530, "chain": 7531, " marked": 7532, "itals": 7533, " hidden": 7534, " accomp": 7535, " titles": 7536, " Senator": 7537, " NBC": 7538, " taught": 7539, "cr": 7540, " Linux": 7541, " bom": 7542, " index": 7543, "everal": 7544, " elite": 7545, "ibilities": 7546, " lawyers": 7547, " depending": 7548, "from": 7549, " valuable": 7550, " installed": 7551, " championship": 7552, " root": 7553, " compre": 7554, " Bull": 7555, " downtown": 7556, "aed": 7557, "mal": 7558, " equivalent": 7559, " solve": 7560, "rific": 7561, " duty": 7562, " Special": 7563, " Business": 7564, " 64": 7565, " pace": 7566, "HS": 7567, " reputation": 7568, " uncertain": 7569, " phones": 7570, "uine": 7571, " overse": 7572, " Taylor": 7573, " personnel": 7574, " pin": 7575, "reams": 7576, "aturally": 7577, " sufficient": 7578, " visited": 7579, " warming": 7580, " Sn": 7581, " principles": 7582, " vulnerable": 7583, " enjoyed": 7584, " fake": 7585, " Nick": 7586, " advis": 7587, " negotiations": 7588, "inder": 7589, " generated": 7590, " exposure": 7591, " recording": 7592, "bro": 7593, " collected": 7594, " regardless": 7595, " dict": 7596, "%.": 7597, "EA": 7598, " bitcoin": 7599, " elev": 7600, "\u00e3\u0080": 7601, "active": 7602, " Kelly": 7603, " Anth": 7604, " cup": 7605, " patterns": 7606, "Getty": 7607, " Take": 7608, "))": 7609, " Avenue": 7610, " Josh": 7611, " disaster": 7612, " cable": 7613, " 65": 7614, " worker": 7615, " mainly": 7616, "lla": 7617, " racial": 7618, "quarters": 7619, " Viet": 7620, " Coast": 7621, "month": 7622, " pounds": 7623, " 150": 7624, " Call": 7625, " portion": 7626, " Ah": 7627, " afraid": 7628, " inspir": 7629, " bes": 7630, " defence": 7631, " Eastern": 7632, " Tony": 7633, " tracks": 7634, " busy": 7635, " shit": 7636, "ye": 7637, " intense": 7638, " Series": 7639, " LGBT": 7640, "mann": 7641, "orne": 7642, " Still": 7643, "athy": 7644, " funny": 7645, " apolog": 7646, " surgery": 7647, " Moscow": 7648, " Coll": 7649, " possession": 7650, " prominent": 7651, " Mars": 7652, " comic": 7653, " Ger": 7654, "ashes": 7655, "97": 7656, "ules": 7657, " Ray": 7658, " thin": 7659, " engineering": 7660, " troub": 7661, " Kurd": 7662, "this": 7663, " processes": 7664, " Nation": 7665, " Kent": 7666, " Come": 7667, "fall": 7668, " entit": 7669, " \u00e2\u0080\u0099": 7670, " unusual": 7671, "raph": 7672, "etary": 7673, " describes": 7674, "da": 7675, "world": 7676, "96": 7677, " resulted": 7678, " dim": 7679, " emerged": 7680, " taxp": 7681, " gall": 7682, "iler": 7683, " 400": 7684, " propag": 7685, " Iowa": 7686, " Oregon": 7687, " coordin": 7688, " corruption": 7689, " stations": 7690, " Invest": 7691, "ez": 7692, " fought": 7693, " AD": 7694, " brut": 7695, " extension": 7696, "prise": 7697, " blind": 7698, " adopted": 7699, " compete": 7700, " recru": 7701, " grant": 7702, " Zealand": 7703, " hadn": 7704, "Pr": 7705, " mail": 7706, "ref": 7707, " everywhere": 7708, " Balt": 7709, "Rec": 7710, "Col": 7711, "Mean": 7712, "icate": 7713, " crypt": 7714, "herent": 7715, " contracts": 7716, " Ali": 7717, " neuro": 7718, " Int": 7719, "front": 7720, " Dead": 7721, " Rick": 7722, " feelings": 7723, " firms": 7724, "idelines": 7725, "\u00e2\u0080\u0099,": 7726, " minority": 7727, "tes": 7728, "cles": 7729, "HA": 7730, " advertising": 7731, " spr": 7732, " rarely": 7733, " discipl": 7734, "making": 7735, " Northern": 7736, " sanctions": 7737, " Veg": 7738, "scape": 7739, " Philadelphia": 7740, "upid": 7741, " cameras": 7742, "log": 7743, " explicit": 7744, " strict": 7745, "viously": 7746, " enorm": 7747, " finance": 7748, "gun": 7749, " cited": 7750, "ifies": 7751, " Before": 7752, " shortly": 7753, "UL": 7754, " Policy": 7755, " expectations": 7756, " implementation": 7757, "ogen": 7758, " recip": 7759, "cling": 7760, " Greek": 7761, " thick": 7762, " thousand": 7763, "antic": 7764, " Mu": 7765, "istent": 7766, " loud": 7767, " affili": 7768, "test": 7769, "orough": 7770, "urrent": 7771, " Navy": 7772, " inev": 7773, "cus": 7774, " photograph": 7775, " medium": 7776, "azz": 7777, " Hom": 7778, " Wisconsin": 7779, " scenario": 7780, " Food": 7781, " Live": 7782, " sup": 7783, "ilton": 7784, " plug": 7785, " veget": 7786, "Co": 7787, " ho": 7788, " visible": 7789, " lights": 7790, "LC": 7791, " creates": 7792, " priority": 7793, " ven": 7794, " bridge": 7795, " obst": 7796, "inking": 7797, "ATE": 7798, " agric": 7799, " permission": 7800, "Mar": 7801, " Foot": 7802, " algorith": 7803, "izon": 7804, " participate": 7805, "aska": 7806, " wing": 7807, "who": 7808, "asion": 7809, " tor": 7810, " Prote": 7811, " browser": 7812, " Global": 7813, " tag": 7814, "car": 7815, " Has": 7816, " mel": 7817, " Ash": 7818, " acceler": 7819, "elect": 7820, "###": 8529, " dozens": 7822, " Kingdom": 7823, " historic": 7824, " computers": 7825, " laid": 7826, " basketball": 7827, " losses": 7828, " Saf": 7829, " unw": 7830, "ogether": 7831, "::": 7832, " Amendment": 7833, " strikes": 7834, " principle": 7835, " Development": 7836, " formal": 7837, "EP": 7838, " scoring": 7839, "lan": 7840, "76": 7841, "obs": 7842, "athered": 7843, " 44": 7844, " counsel": 7845, "++": 7846, " shock": 7847, " wonderful": 7848, " SP": 7849, " behalf": 7850, "abs": 7851, " uncom": 7852, "profit": 7853, "igen": 7854, "enth": 7855, "bell": 7856, "ems": 7857, " interface": 7858, " establishment": 7859, " toler": 7860, " Henry": 7861, "lete": 7862, " Greg": 7863, "amber": 7864, " Major": 7865, "iel": 7866, "jo": 7867, " Thus": 7868, "Us": 7869, " gained": 7870, " fee": 7871, " founded": 7872, " foundation": 7873, "etime": 7874, " ESP": 7875, "ilipp": 7876, " clubs": 7877, " cannabis": 7878, " ju": 7879, "54": 7880, "52": 7881, " airport": 7882, "aus": 7883, "ystem": 7884, " Key": 7885, " borrow": 7886, "weet": 7887, "olis": 7888, "BO": 7889, " manufacturing": 7890, " rely": 7891, " Hit": 7892, " Pay": 7893, " Alabama": 7894, " genuine": 7895, " Royal": 7896, "rators": 7897, "Before": 7898, " component": 7899, " ridic": 7900, "osexual": 7901, " wheel": 7902, "rative": 7903, " Oak": 7904, " journalist": 7905, " relief": 7906, "uer": 7907, " saved": 7908, "51": 7909, " hole": 7910, " yield": 7911, " headed": 7912, " cyber": 7913, " Moh": 7914, "she": 7915, " Ol": 7916, "ependent": 7917, " gift": 7918, " withdraw": 7919, " fault": 7920, " indicate": 7921, " drawing": 7922, " uniform": 7923, "umer": 7924, " Rand": 7925, "arlier": 7926, " stable": 7927, " ships": 7928, " ->": 7929, " banned": 7930, " Mid": 7931, " footage": 7932, "Meanwhile": 7933, " doors": 7934, "rous": 7935, " recognized": 7936, " 1960": 7937, " containing": 7938, "pread": 7939, "400": 7940, " FC": 7941, " Vis": 7942, " river": 7943, "mes": 7944, " struggling": 7945, "Sub": 7946, "ba": 7947, " spark": 7948, " Academy": 7949, " walls": 7950, " achieved": 7951, "opher": 7952, "ounced": 7953, " neighb": 7954, " plate": 7955, " edition": 7956, " HT": 7957, "portion": 7958, "mate": 7959, " movements": 7960, " deliber": 7961, "uce": 7962, "Post": 7963, " sharp": 7964, " AS": 7965, " Snow": 7966, "ulating": 7967, " stab": 7968, " Three": 7969, " episodes": 7970, " neutral": 7971, " Premier": 7972, " Ret": 7973, " Fund": 7974, " exception": 7975, "etts": 7976, " producer": 7977, " Fred": 7978, " destruction": 7979, " 1998": 7980, "osa": 7981, "oured": 7982, "ami": 7983, ":<|": 7984, " beliefs": 7985, " 47": 7986, " Review": 7987, " pump": 7988, " legend": 7989, " McG": 7990, " backed": 7991, " liked": 7992, " hired": 7993, "idespread": 7994, "cription": 7995, " roles": 7996, " languages": 7997, " profession": 7998, " entering": 7999, " VR": 8000, "oen": 8001, " interviews": 8002, " hang": 8003, "isp": 8004, " tox": 8005, " philosophy": 8006, " Administration": 8007, " arrange": 8008, " Kir": 8009, " flaw": 8010, " Nob": 8011, "interest": 8012, "Those": 8013, "sylv": 8014, "imore": 8015, " stadium": 8016, " Atlanta": 8017, " Jac": 8018, " reduction": 8019, " dinner": 8020, "burgh": 8021, " bath": 8022, "uper": 8023, " magn": 8024, " Turkish": 8025, " Report": 8026, "eman": 8027, "iti": 8028, " aver": 8029, " finger": 8030, " Note": 8031, " Conference": 8032, " tackle": 8033, "ta": 8034, " cha": 8035, " gonna": 8036, " Diego": 8037, " Centre": 8038, " crop": 8039, " farmers": 8040, " Manchester": 8041, " nominee": 8042, " 41": 8043, " Arm": 8044, "aching": 8045, " Jason": 8046, " barely": 8047, "ATO": 8048, " structures": 8049, " contained": 8050, "ca": 8051, " synt": 8052, " delivery": 8053, " Ott": 8054, "%,": 8055, " processing": 8056, " discrimination": 8057, " convin": 8058, " incent": 8059, "riers": 8060, " Fair": 8061, "erved": 8062, "RS": 8063, "53": 8064, "then": 8065, " Lo": 8066, " Data": 8067, "ja": 8068, "abinet": 8069, " intellectual": 8070, "Ed": 8071, "amsung": 8072, " 46": 8073, " Radio": 8074, " Bry": 8075, "Me": 8076, " OK": 8077, " Field": 8078, " Did": 8079, " upset": 8080, " Perhaps": 8081, " Education": 8082, "sylvania": 8083, "away": 8084, " Mir": 8085, "President": 8086, " challenging": 8087, "rik": 8088, " proven": 8089, " restrictions": 8090, "iy": 8091, " forever": 8092, "https": 8093, "olen": 8094, " electronic": 8095, " hitting": 8096, " Hay": 8097, " euro": 8098, " unex": 8099, " reviews": 8100, " Christians": 8101, " 43": 8102, " Hor": 8103, "Star": 8104, " convicted": 8105, " illness": 8106, " smooth": 8107, "Dav": 8108, "page": 8109, " retired": 8110, " indicated": 8111, "ho": 8112, "usive": 8113, " ham": 8114, " producing": 8115, " Harry": 8116, " About": 8117, " rapidly": 8118, " rose": 8119, " hide": 8120, " corporations": 8121, " ocean": 8122, " NC": 8123, " Rus": 8124, " Point": 8125, "aying": 8126, "owing": 8127, " Sat": 8128, " listening": 8129, " Reuters": 8130, " UFC": 8131, " technique": 8132, " mo": 8133, "yard": 8134, "sels": 8135, "lessly": 8136, " loyal": 8137, " Nic": 8138, " Pen": 8139, " Mean": 8140, " robot": 8141, " notion": 8142, " begun": 8143, " util": 8144, " Fed": 8145, " recognition": 8146, "ouver": 8147, "engers": 8148, " perpet": 8149, " association": 8150, "inf": 8151, " milk": 8152, " asks": 8153, " ren": 8154, "87": 8155, " websites": 8156, " description": 8157, " Pack": 8158, " tickets": 8159, "achus": 8160, " flash": 8161, " suggesting": 8162, "enny": 8163, " Judge": 8164, " exclusive": 8165, " reaching": 8166, " bra": 8167, " prepare": 8168, " Kansas": 8169, "found": 8170, "Who": 8171, "ione": 8172, " bail": 8173, " frag": 8174, " progressive": 8175, "imm": 8176, " exceed": 8177, " equally": 8178, " Hard": 8179, " hardly": 8180, " widespread": 8181, " ABC": 8182, " campaigns": 8183, " Mayor": 8184, " contribute": 8185, "udes": 8186, "elf": 8187, "ologists": 8188, " branch": 8189, "Look": 8190, " Rose": 8191, " grass": 8192, " initiative": 8193, " Market": 8194, " ethnic": 8195, " external": 8196, "ikes": 8197, " Circ": 8198, "uma": 8199, "rient": 8200, " sensitive": 8201, " practical": 8202, "usted": 8203, " unclear": 8204, " normally": 8205, "Ref": 8206, " representative": 8207, "pat": 8208, "bec": 8209, " welf": 8210, " Full": 8211, "thon": 8212, " reducing": 8213, "appy": 8214, "lad": 8215, " friendly": 8216, " carefully": 8217, " Arabia": 8218, " Ref": 8219, "89": 8220, " Ly": 8221, "PM": 8222, " Luc": 8223, " racist": 8224, " invent": 8225, "rical": 8226, "PG": 8227, "ouch": 8228, " CO": 8229, " respectively": 8230, "senal": 8231, " exem": 8232, "rator": 8233, " tail": 8234, " McCain": 8235, " Bernie": 8236, "ancouver": 8237, " overwhelming": 8238, " viewers": 8239, " Beach": 8240, " welfare": 8241, "arrass": 8242, "stract": 8243, " Further": 8244, " convinced": 8245, "UN": 8246, " smoke": 8247, "umes": 8248, " collapse": 8249, " involvement": 8250, " Lind": 8251, " thrown": 8252, "pload": 8253, " connections": 8254, "heast": 8255, " terrorists": 8256, " Battle": 8257, " strategic": 8258, " hook": 8259, " recover": 8260, " Latin": 8261, "omething": 8262, " Ont": 8263, " wine": 8264, " Next": 8265, "Mc": 8266, "inois": 8267, " Music": 8268, "rolled": 8269, " minds": 8270, "igrant": 8271, " vital": 8272, " settlement": 8273, " statistics": 8274, " lists": 8275, " vary": 8276, " featuring": 8277, " ESPN": 8278, "ecut": 8279, "achusetts": 8280, " Sir": 8281, " behaviour": 8282, " independence": 8283, " Dig": 8284, "worth": 8285, " fantasy": 8286, " devast": 8287, "nedy": 8288, "core": 8289, "uties": 8290, " invited": 8291, " complaints": 8292, " joining": 8293, " scores": 8294, " fiscal": 8295, " deeper": 8296, "dem": 8297, " Pennsylvania": 8298, "ester": 8299, "ifest": 8300, " steal": 8301, " anger": 8302, " deputy": 8303, " elig": 8304, " wars": 8305, " Square": 8306, " investigate": 8307, " Tenn": 8308, " Town": 8309, " sugar": 8310, " constitutional": 8311, " III": 8312, " Pit": 8313, " scholars": 8314, " iOS": 8315, " anybody": 8316, " subjects": 8317, " AND": 8318, " array": 8319, "bn": 8320, " alien": 8321, "FA": 8322, " Gov": 8323, " lobby": 8324, " ownership": 8325, " framework": 8326, " Ult": 8327, " unemployment": 8328, " Division": 8329, " transgender": 8330, "ele": 8331, " SS": 8332, " improvements": 8333, " menu": 8334, " peak": 8335, "Back": 8336, " screens": 8337, "ihad": 8338, " inject": 8339, " luck": 8340, "iversary": 8341, " define": 8342, " tasks": 8343, " Xbox": 8344, " democratic": 8345, " scandal": 8346, "icking": 8347, " jury": 8348, " Anton": 8349, " Ministry": 8350, "Che": 8351, " Kat": 8352, " cos": 8353, " comprehens": 8354, "osit": 8355, "unior": 8356, " discovery": 8357, " register": 8358, " Es": 8359, "agg": 8360, " casual": 8361, " remem": 8362, " citizen": 8363, " fab": 8364, "RI": 8365, "Sm": 8366, "Under": 8367, " roads": 8368, " disagree": 8369, " failing": 8370, " Never": 8371, " Little": 8372, " Jay": 8373, " dynamic": 8374, " serves": 8375, " Cameron": 8376, " Brother": 8377, " Mah": 8378, " testim": 8379, " gathered": 8380, " Stone": 8381, " Information": 8382, "asty": 8383, " soph": 8384, "oding": 8385, " implemented": 8386, " controversy": 8387, " collective": 8388, " trained": 8389, "anna": 8390, " NSA": 8391, " neighbour": 8392, " fears": 8393, " guarante": 8394, "leveland": 8395, " samples": 8396, " fiction": 8397, " prosec": 8398, " estimate": 8399, " Community": 8400, " Ice": 8401, " Medical": 8402, " Sept": 8403, " 1997": 8404, " Philipp": 8405, " referring": 8406, " tip": 8407, " captain": 8408, "Will": 8409, " 1996": 8410, " spaces": 8411, "69": 8412, "cific": 8413, " trem": 8414, " Walker": 8415, " versus": 8416, " legs": 8417, " Santa": 8418, " temporary": 8419, "PC": 8420, " noise": 8421, " sin": 8422, " HD": 8423, " incorpor": 8424, " tone": 8425, "eland": 8426, "acon": 8427, " overt": 8428, " visitors": 8429, " reven": 8430, " civilians": 8431, " wages": 8432, " hypot": 8433, "aka": 8434, " remarks": 8435, " awareness": 8436, " ON": 8437, " Spring": 8438, " recommended": 8439, " stupid": 8440, " Allen": 8441, " heading": 8442, " handful": 8443, "umin": 8444, " regulation": 8445, "icket": 8446, " Action": 8447, " Core": 8448, " platforms": 8449, " accus": 8450, " Anthony": 8451, "mad": 8452, " affairs": 8453, "gener": 8454, " touchdown": 8455, " rural": 8456, " attacking": 8457, " extend": 8458, " ultimate": 8459, " attached": 8460, " Vegas": 8461, " discussions": 8462, " horse": 8463, " Brew": 8464, " reprodu": 8465, " genetic": 8466, " expanded": 8467, " attempting": 8468, "phones": 8469, " Matthew": 8470, " races": 8471, "including": 8472, " Queen": 8473, "iry": 8474, " raw": 8475, " ignore": 8476, " Columbia": 8477, "serv": 8478, " Pent": 8479, " Guardian": 8480, "hour": 8481, " Cook": 8482, " iP": 8483, "han": 8484, "itionally": 8485, " gear": 8486, " symptoms": 8487, " Patrick": 8488, " suffer": 8489, " settings": 8490, " Make": 8491, "alling": 8492, " salary": 8493, "case": 8494, " licens": 8495, " roof": 8496, "mary": 8497, "GO": 8498, " tweeted": 8499, "angel": 8500, " publication": 8501, " brill": 8502, " factory": 8503, "'.": 8504, " suspected": 8505, " purchased": 8506, " intervention": 8507, "aret": 8508, " eastern": 8509, " holiday": 8510, "type": 8511, "2014": 8512, " prompt": 8513, "esh": 8514, " theat": 8515, "About": 8516, " displ": 8517, " ranked": 8518, " neck": 8519, " Conservative": 8520, " Austin": 8521, " Museum": 8522, " Roy": 8523, "\")": 8524, " cro": 8525, " Budd": 8526, "Sen": 8527, " enormous": 8528, "intendo": 8530, " cogn": 8531, " logic": 8532, "ultural": 8533, "ictions": 8534, " API": 8535, " improvement": 8536, " viewed": 8537, " ingred": 8538, " entertainment": 8539, "Ass": 8540, " legitimate": 8541, " Professor": 8542, "ommod": 8543, " presum": 8544, " Albert": 8545, " Massachusetts": 8546, " Ball": 8547, " 2019": 8548, " www": 8549, "News": 8550, " actors": 8551, " substantial": 8552, " humanity": 8553, " involves": 8554, " resource": 8555, "arms": 8556, " brothers": 8557, " liquid": 8558, " rational": 8559, " seemingly": 8560, " sorry": 8561, " layer": 8562, " loans": 8563, " rook": 8564, " investigating": 8565, " absence": 8566, " providers": 8567, " tomorrow": 8568, " fallen": 8569, " bureau": 8570, "rec": 8571, " grounds": 8572, " coaches": 8573, " stake": 8574, " resign": 8575, " outs": 8576, " advocates": 8577, " \u00e2\u0082\u00ac": 8578, "RC": 8579, " investigators": 8580, " conspiracy": 8581, " medicine": 8582, " dramatic": 8583, "Where": 8584, " fulf": 8585, " monitor": 8586, " Chair": 8587, "repre": 8588, "EST": 8589, " chapter": 8590, " Season": 8591, " coc": 8592, "oval": 8593, " overs": 8594, "GE": 8595, "lah": 8596, "plete": 8597, ".-": 8598, " activist": 8599, " boat": 8600, " Check": 8601, " Control": 8602, " gam": 8603, " jur": 8604, " suspended": 8605, " papers": 8606, "Script": 8607, " Greece": 8608, " opinions": 8609, " Such": 8610, " Ross": 8611, " missile": 8612, " Golden": 8613, " celeb": 8614, " Revolution": 8615, "ped": 8616, "2016": 8617, " Head": 8618, " stayed": 8619, " covers": 8620, "iverpool": 8621, " diversity": 8622, "otype": 8623, " bars": 8624, "Russ": 8625, "rets": 8626, "xit": 8627, " embarrass": 8628, " offices": 8629, " Acc": 8630, "ourse": 8631, " Pot": 8632, " Ho": 8633, "claim": 8634, "Part": 8635, " Iranian": 8636, " disrupt": 8637, "cover": 8638, " WW": 8639, " preced": 8640, " poly": 8641, " forest": 8642, "wered": 8643, " careful": 8644, "reprene": 8645, "bi": 8646, "vard": 8647, "ila": 8648, " amid": 8649, " History": 8650, " mad": 8651, "hot": 8652, "quest": 8653, " Hospital": 8654, "isting": 8655, "ammed": 8656, " Ale": 8657, " authent": 8658, " Ap": 8659, " Illinois": 8660, " CBS": 8661, " Sony": 8662, "uction": 8663, "79": 8664, "geon": 8665, "Related": 8666, "rine": 8667, " transportation": 8668, " Vancouver": 8669, " Gaza": 8670, " handed": 8671, " protocol": 8672, " consistently": 8673, " mountain": 8674, " 52": 8675, " reads": 8676, " Stat": 8677, " pref": 8678, " clothes": 8679, " attitude": 8680, "iability": 8681, "ection": 8682, " Po": 8683, " Share": 8684, " Kennedy": 8685, " porn": 8686, " princip": 8687, " Freedom": 8688, "ses": 8689, " depends": 8690, " mining": 8691, "des": 8692, " petition": 8693, " noting": 8694, " conce": 8695, " colors": 8696, " lowest": 8697, " Anderson": 8698, " warrant": 8699, " Tri": 8700, " addressed": 8701, " Family": 8702, "72": 8703, " Ra": 8704, "unes": 8705, " entr": 8706, "ptions": 8707, "xx": 8708, " Stadium": 8709, " throwing": 8710, " je": 8711, "74": 8712, " virtually": 8713, " fruit": 8714, "!)": 8715, " stone": 8716, " foss": 8717, " guarantee": 8718, " referend": 8719, "inch": 8720, "Both": 8721, " speaks": 8722, " Baltimore": 8723, "??": 8724, " steel": 8725, " closing": 8726, "itting": 8727, " reader": 8728, " Cre": 8729, "dri": 8730, "FF": 8731, " buff": 8732, " personality": 8733, " appreciate": 8734, " surf": 8735, " Iraqi": 8736, "pton": 8737, " Environment": 8738, " nerv": 8739, "iences": 8740, "maker": 8741, "keep": 8742, " handling": 8743, " profits": 8744, "ordon": 8745, " grav": 8746, "low": 8747, " km": 8748, " marks": 8749, " tries": 8750, " Broad": 8751, " Ext": 8752, " contributions": 8753, " Engine": 8754, "ropri": 8755, " spiritual": 8756, " conversations": 8757, " fantastic": 8758, " Tro": 8759, "zed": 8760, " lands": 8761, " console": 8762, " horror": 8763, "ppers": 8764, "\".[": 8765, "icity": 8766, " gains": 8767, "Her": 8768, " covering": 8769, " tea": 8770, "ivals": 8771, " Harris": 8772, " astron": 8773, " hint": 8774, "aval": 8775, " shoulder": 8776, "scale": 8777, " wrest": 8778, " guest": 8779, " accommod": 8780, "uted": 8781, "uits": 8782, " depression": 8783, " CA": 8784, " _": 8785, " Lewis": 8786, " lucky": 8787, " Bang": 8788, " encouraged": 8789, "flix": 8790, "amac": 8791, " judges": 8792, " incidents": 8793, " Cleveland": 8794, " drew": 8795, " subsequent": 8796, " spoken": 8797, "ira": 8798, " Ren": 8799, " Howard": 8800, " Bad": 8801, " brown": 8802, " bacter": 8803, "Please": 8804, "ixed": 8805, "annels": 8806, " rhet": 8807, " ranks": 8808, " Getty": 8809, " photograp": 8810, " inflation": 8811, " inner": 8812, " Intelligence": 8813, "mat": 8814, " Ba": 8815, " maps": 8816, "abeth": 8817, " Patri": 8818, "ported": 8819, "ijing": 8820, "plate": 8821, " divided": 8822, " 1995": 8823, " NATO": 8824, " paralle": 8825, " drama": 8826, " Mexican": 8827, " distributed": 8828, " gal": 8829, " innovation": 8830, "unicip": 8831, " cust": 8832, " Unfortunately": 8833, " premium": 8834, " voter": 8835, " permit": 8836, " revel": 8837, " Kong": 8838, " dance": 8839, "pled": 8840, " swing": 8841, " Las": 8842, " efficiency": 8843, " promises": 8844, " Indeed": 8845, "Note": 8846, " CH": 8847, " Which": 8848, " Adv": 8849, " ballot": 8850, " 51": 8851, "eding": 8852, " temperatures": 8853, " Samsung": 8854, " portray": 8855, " spokesperson": 8856, " locked": 8857, " lying": 8858, " improving": 8859, "800": 8860, " threw": 8861, " joy": 8862, " dump": 8863, " musical": 8864, "PP": 8865, " mistakes": 8866, "dated": 8867, " shout": 8868, "conf": 8869, " homeless": 8870, " replacement": 8871, "eries": 8872, " Start": 8873, " comedy": 8874, " checks": 8875, " Moon": 8876, " Without": 8877, " instrument": 8878, "ounce": 8879, " Connect": 8880, " acknowledged": 8881, " barrel": 8882, " responses": 8883, " protecting": 8884, "backs": 8885, " Det": 8886, "\u00c2\u0092": 8887, "heim": 8888, " silver": 8889, " copies": 8890, " les": 8891, " AC": 8892, " dad": 8893, " breaks": 8894, " Plus": 8895, " Buff": 8896, " commonly": 8897, " lets": 8898, " legacy": 8899, "itage": 8900, " mathem": 8901, " protein": 8902, "een": 8903, " joke": 8904, "amacare": 8905, "erted": 8906, " passengers": 8907, "2015": 8908, " yellow": 8909, " Marvel": 8910, "hop": 8911, " naturally": 8912, "Your": 8913, " Scient": 8914, " nomination": 8915, "Source": 8916, " measured": 8917, "aping": 8918, "alia": 8919, " Use": 8920, " abandoned": 8921, "oded": 8922, " Prince": 8923, " studied": 8924, " Football": 8925, "Art": 8926, "helsea": 8927, " diverse": 8928, "asted": 8929, " rom": 8930, "argo": 8931, " acquired": 8932, "ieties": 8933, " Lyn": 8934, "Cons": 8935, " Marsh": 8936, " soil": 8937, " demonstrated": 8938, " rear": 8939, " funded": 8940, " headquarters": 8941, "hesis": 8942, "esty": 8943, " stolen": 8944, "inians": 8945, " scan": 8946, " counts": 8947, " tape": 8948, " partnership": 8949, " midfield": 8950, " NOT": 8951, " (\u00e2\u0080\u009c": 8952, " upgrade": 8953, "yo": 8954, " Cost": 8955, " Atlantic": 8956, " march": 8957, " grid": 8958, " ordinary": 8959, " Aud": 8960, " Nev": 8961, "aware": 8962, " literature": 8963, " plain": 8964, " stages": 8965, "high": 8966, " \u00e2\u0080\u00a2": 8967, " assert": 8968, "yer": 8969, " 1994": 8970, " AI": 8971, " helpful": 8972, " arrive": 8973, " exit": 8974, " scope": 8975, " falls": 8976, "dog": 8977, " ignored": 8978, "BM": 8979, " twenty": 8980, "eters": 8981, " Master": 8982, " clock": 8983, " compe": 8984, "inction": 8985, " virus": 8986, " Trib": 8987, " referendum": 8988, " inequ": 8989, " unions": 8990, " Does": 8991, "assador": 8992, "erg": 8993, " conservatives": 8994, " Gun": 8995, " rif": 8996, " symp": 8997, " festival": 8998, " shopping": 8999, " fro": 9000, " waters": 9001, " Pop": 9002, " capabilities": 9003, " Bron": 9004, " ax": 9005, "zing": 9006, "lahoma": 9007, " usage": 9008, " Hind": 9009, "iate": 9010, " Empire": 9011, "aeda": 9012, " Indiana": 9013, "iley": 9014, " transactions": 9015, " hoped": 9016, "VE": 9017, " distract": 9018, " guitar": 9019, " Eag": 9020, "ctic": 9021, " Abb": 9022, " sty": 9023, " ramp": 9024, " assessment": 9025, " universities": 9026, " Dave": 9027, " moon": 9028, "ormal": 9029, " monitoring": 9030, "acket": 9031, "bridge": 9032, "Facebook": 9033, " representing": 9034, " Death": 9035, " ratio": 9036, "encing": 9037, "ught": 9038, " Prov": 9039, " Ast": 9040, "orge": 9041, " conventional": 9042, "comes": 9043, "UST": 9044, " Set": 9045, " trave": 9046, "ington": 9047, " tracking": 9048, "door": 9049, "ntil": 9050, "pie": 9051, " Sometimes": 9052, "only": 9053, "shire": 9054, " Sus": 9055, " hung": 9056, " reliable": 9057, " tie": 9058, " proposals": 9059, " skept": 9060, " replied": 9061, "uh": 9062, " Ros": 9063, " criticized": 9064, " appearances": 9065, "62": 9066, "ecutive": 9067, " racism": 9068, " Lim": 9069, " Ha": 9070, " insisted": 9071, "organ": 9072, "rimin": 9073, " introduction": 9074, " 2020": 9075, " appointed": 9076, "dney": 9077, " Bureau": 9078, "olph": 9079, "agic": 9080, " Pass": 9081, "cut": 9082, " Line": 9083, " beauty": 9084, " concrete": 9085, " receiver": 9086, "fund": 9087, " supplies": 9088, " performing": 9089, "made": 9090, " Jam": 9091, " bub": 9092, " exch": 9093, "rite": 9094, " Hell": 9095, " visiting": 9096, " Technology": 9097, "63": 9098, " Denver": 9099, "ocument": 9100, "EE": 9101, "omes": 9102, "theless": 9103, " Capt": 9104, "RL": 9105, " letting": 9106, " swim": 9107, "AND": 9108, " deficit": 9109, "ji": 9110, " classified": 9111, " Galaxy": 9112, "aga": 9113, " render": 9114, " absor": 9115, " Orig": 9116, " accomplish": 9117, " auto": 9118, " programme": 9119, "Ke": 9120, " presidency": 9121, "HT": 9122, "crib": 9123, "61": 9124, " blocked": 9125, " Sweden": 9126, " ec": 9127, "archy": 9128, " dust": 9129, " Utah": 9130, " drove": 9131, " landscape": 9132, " cance": 9133, " Portland": 9134, "plus": 9135, " dismissed": 9136, " LA": 9137, " hyper": 9138, " abroad": 9139, " bonus": 9140, " Tour": 9141, " sequence": 9142, " predicted": 9143, " senator": 9144, "\u00c2\u00b0": 9145, " Age": 9146, "ela": 9147, " domain": 9148, " Code": 9149, " Bon": 9150, " museum": 9151, " warn": 9152, " Associated": 9153, " persons": 9154, "NS": 9155, " dub": 9156, " requested": 9157, " trigger": 9158, " Ontario": 9159, " Corpor": 9160, " hockey": 9161, " artific": 9162, " dates": 9163, " testimony": 9164, " centers": 9165, "iano": 9166, "\u00d0\u00bb": 9167, " rocket": 9168, "irts": 9169, " ves": 9170, " transit": 9171, " congressional": 9172, " entitled": 9173, "ultane": 9174, "acco": 9175, " spokeswoman": 9176, " Front": 9177, " Nintendo": 9178, " Alexander": 9179, " rescue": 9180, " Cooper": 9181, "mony": 9182, " assign": 9183, " equality": 9184, " patch": 9185, " urged": 9186, " bread": 9187, " Olympic": 9188, " documentary": 9189, " veterans": 9190, " clar": 9191, "fol": 9192, " Wik": 9193, " \u00e2\u0080\u009d": 9194, "king": 9195, " recall": 9196, " populations": 9197, " breath": 9198, " Low": 9199, "Still": 9200, "600": 9201, "rooms": 9202, "ounding": 9203, "Are": 9204, " whenever": 9205, " violation": 9206, " tactics": 9207, " wider": 9208, "93": 9209, " targeting": 9210, "Yet": 9211, "through": 9212, " pursue": 9213, "92": 9214, "\">": 9215, " lean": 9216, " salt": 9217, "izabeth": 9218, " firing": 9219, "94": 9220, " Mill": 9221, "Comp": 9222, " acid": 9223, "inating": 9224, " mole": 9225, "har": 9226, "isons": 9227, " restaurants": 9228, " compare": 9229, "fare": 9230, "dy": 9231, "orous": 9232, "ective": 9233, "ennis": 9234, " employed": 9235, " Roberts": 9236, " contrad": 9237, " Bible": 9238, " politically": 9239, "aver": 9240, " phrase": 9241, " satellite": 9242, " Cro": 9243, " survival": 9244, " retirement": 9245, " banking": 9246, " Form": 9247, " brilliant": 9248, " Girl": 9249, " channels": 9250, "71": 9251, " servers": 9252, "73": 9253, " Beijing": 9254, " soccer": 9255, "trans": 9256, " Mach": 9257, "they": 9258, " burden": 9259, " introduce": 9260, " experiments": 9261, "atar": 9262, "enez": 9263, " prisoners": 9264, "rapped": 9265, " cig": 9266, " WH": 9267, "jud": 9268, " fighter": 9269, "afe": 9270, " scientist": 9271, "OK": 9272, " YOU": 9273, "usalem": 9274, " List": 9275, " submit": 9276, " approached": 9277, " Award": 9278, " monthly": 9279, " Liverpool": 9280, "rell": 9281, " designs": 9282, " representatives": 9283, " cul": 9284, " titled": 9285, "ordinary": 9286, " quote": 9287, " popularity": 9288, "olves": 9289, "oenix": 9290, " abilities": 9291, " PD": 9292, " membership": 9293, " investigations": 9294, " focusing": 9295, " bab": 9296, "mans": 9297, " hosp": 9298, " Bridge": 9299, "Though": 9300, " Maryland": 9301, " saving": 9302, "bow": 9303, " rush": 9304, " Governor": 9305, " mit": 9306, " shadow": 9307, "ouri": 9308, " Hur": 9309, " Base": 9310, " objective": 9311, "berry": 9312, " encry": 9313, " Ted": 9314, "erts": 9315, "ederation": 9316, " prepar": 9317, " tips": 9318, " Was": 9319, " pipeline": 9320, "David": 9321, " childhood": 9322, " ratings": 9323, " thorough": 9324, " entreprene": 9325, "enter": 9326, " Vill": 9327, " Dutch": 9328, "was": 9329, "break": 9330, "ais": 9331, " actively": 9332, " Kar": 9333, " Harvard": 9334, " pig": 9335, " demanding": 9336, " loose": 9337, "emed": 9338, " unexpected": 9339, " smoking": 9340, " smell": 9341, " deny": 9342, "CO": 9343, "don": 9344, " universal": 9345, "ika": 9346, " forecast": 9347, " argues": 9348, " phenomenon": 9349, " overseas": 9350, " settled": 9351, "walk": 9352, "olds": 9353, " Beck": 9354, " generations": 9355, " weekly": 9356, " chicken": 9357, "tel": 9358, " preparing": 9359, " 95": 9360, " smartphone": 9361, " producers": 9362, " butt": 9363, " PA": 9364, " legislative": 9365, " Cry": 9366, " anxiety": 9367, " Have": 9368, " innocent": 9369, "minute": 9370, " Click": 9371, " mortg": 9372, " celebrate": 9373, " provision": 9374, "Dem": 9375, " DO": 9376, " Ur": 9377, " keys": 9378, " mini": 9379, " shame": 9380, " arguing": 9381, " Justin": 9382, " Design": 9383, "held": 9384, " questioned": 9385, " forcing": 9386, " Cow": 9387, " Hop": 9388, "agh": 9389, "ompson": 9390, "\u00e2\u0094": 9391, " broader": 9392, " encounter": 9393, "mers": 9394, " flags": 9395, "SL": 9396, " fool": 9397, "Sim": 9398, " fur": 9399, " mac": 9400, " 53": 9401, " deadly": 9402, " reverse": 9403, " weigh": 9404, " Edward": 9405, " Among": 9406, " tens": 9407, " ~": 9408, " mos": 9409, " wealthy": 9410, " Obamacare": 9411, " unpre": 9412, " tab": 9413, " maintained": 9414, "eals": 9415, " surely": 9416, " shield": 9417, " Prop": 9418, "ocolate": 9419, "oret": 9420, " secondary": 9421, " savings": 9422, "isa": 9423, "irlf": 9424, "aved": 9425, " stability": 9426, " civilian": 9427, "\u00c4\u0083": 9428, " Carter": 9429, " reveals": 9430, "mind": 9431, " alarm": 9432, "elson": 9433, " anniversary": 9434, " sorts": 9435, " Bra": 9436, " Ak": 9437, "vernment": 9438, " tonight": 9439, "El": 9440, " releases": 9441, " Hon": 9442, " rooms": 9443, "irlfriend": 9444, " Gulf": 9445, " outrage": 9446, " prosecutors": 9447, " Left": 9448, "inals": 9449, " disorder": 9450, "84": 9451, " wedd": 9452, " exha": 9453, "orious": 9454, "isk": 9455, " shr": 9456, " relax": 9457, " windows": 9458, " threatening": 9459, " differently": 9460, "pa": 9461, " harassment": 9462, " quoted": 9463, " healthcare": 9464, " submitted": 9465, " arbit": 9466, "step": 9467, " lunch": 9468, " Run": 9469, " reforms": 9470, " torture": 9471, "rection": 9472, " fate": 9473, " stored": 9474, " Belg": 9475, " okay": 9476, " propaganda": 9477, " spots": 9478, " instructions": 9479, " Vietnam": 9480, " sevent": 9481, " rounds": 9482, " odds": 9483, "itter": 9484, " 1992": 9485, " aer": 9486, "html": 9487, "tenance": 9488, " errors": 9489, " Oklahoma": 9490, " hydro": 9491, "icism": 9492, "GA": 9493, " delic": 9494, "ailed": 9495, " Liberal": 9496, " silence": 9497, " Graham": 9498, " Sab": 9499, "acts": 9500, " Warren": 9501, " graduate": 9502, " circle": 9503, " affordable": 9504, "sect": 9505, "ois": 9506, " Bloom": 9507, "oz": 9508, " cooperation": 9509, " picks": 9510, " sear": 9511, "itary": 9512, " Sarah": 9513, " Fall": 9514, "orship": 9515, "aa": 9516, " Expl": 9517, "van": 9518, " striking": 9519, " puzz": 9520, " persu": 9521, " streaming": 9522, " comprehensive": 9523, " importantly": 9524, " cow": 9525, " possess": 9526, "Watch": 9527, " fing": 9528, " execution": 9529, " Ruby": 9530, "lined": 9531, " intim": 9532, " struggled": 9533, " Som": 9534, " Person": 9535, " Silver": 9536, " assass": 9537, " Leader": 9538, "uten": 9539, "ahu": 9540, " gent": 9541, " Price": 9542, "Reuters": 9543, "Ty": 9544, "ishop": 9545, " deserve": 9546, " Jerusalem": 9547, " landing": 9548, " calm": 9549, " alter": 9550, " hal": 9551, " ceremony": 9552, " assumed": 9553, " demonstrate": 9554, " difficulty": 9555, "fr": 9556, " ages": 9557, " pron": 9558, " dying": 9559, " distingu": 9560, "asury": 9561, "ethe": 9562, " stepped": 9563, " borders": 9564, "asting": 9565, " chest": 9566, " Wolf": 9567, " Lt": 9568, "bury": 9569, " Bud": 9570, " adventure": 9571, " pointing": 9572, "ova": 9573, " waves": 9574, " kilomet": 9575, "essee": 9576, "atern": 9577, " Deb": 9578, "ierce": 9579, " Netflix": 9580, " autonom": 9581, " precisely": 9582, " architecture": 9583, " greatly": 9584, " Ten": 9585, " promising": 9586, " consent": 9587, " consideration": 9588, " drives": 9589, " dialogue": 9590, " Main": 9591, " tremend": 9592, " newsletter": 9593, " rookie": 9594, "asant": 9595, " awarded": 9596, " Meanwhile": 9597, "after": 9598, " repeat": 9599, " Story": 9600, " contribution": 9601, " Tele": 9602, " burning": 9603, "83": 9604, "party": 9605, " simultane": 9606, " Scottish": 9607, " Vice": 9608, "akh": 9609, " donations": 9610, " Indust": 9611, " interf": 9612, "itol": 9613, " Magic": 9614, " voices": 9615, " analyst": 9616, " Bruce": 9617, " Tech": 9618, "ceptions": 9619, " gif": 9620, " frequency": 9621, " Common": 9622, " procedure": 9623, " wanting": 9624, " Pres": 9625, " executives": 9626, " playoffs": 9627, "oice": 9628, " staying": 9629, "apolis": 9630, " birds": 9631, " bias": 9632, "iev": 9633, "VD": 9634, " Hong": 9635, " Az": 9636, "izer": 9637, " inches": 9638, " trillion": 9639, "ds": 9640, "omy": 9641, "holders": 9642, " highlights": 9643, " semi": 9644, " remarkable": 9645, " whereas": 9646, "EX": 9647, "ributes": 9648, " Palestinians": 9649, " knee": 9650, "open": 9651, " Jonathan": 9652, "raig": 9653, " implications": 9654, "scribe": 9655, " formation": 9656, " superior": 9657, " strategies": 9658, " ans": 9659, "itual": 9660, " Berlin": 9661, "div": 9662, " Link": 9663, " Sydney": 9664, "stal": 9665, " MORE": 9666, "lee": 9667, " categories": 9668, " Ark": 9669, " fet": 9670, " followers": 9671, " cream": 9672, "Story": 9673, "portation": 9674, "FO": 9675, " contacted": 9676, "Ms": 9677, " judgment": 9678, "annon": 9679, " smile": 9680, "bered": 9681, " info": 9682, " emerging": 9683, "igious": 9684, "rif": 9685, "js": 9686, "yes": 9687, "onder": 9688, "vision": 9689, " Eff": 9690, "vertisements": 9691, "iffs": 9692, " accessible": 9693, "hatt": 9694, "TP": 9695, " physically": 9696, " assigned": 9697, " 54": 9698, " guidelines": 9699, " defeated": 9700, " crimin": 9701, " wounded": 9702, " trials": 9703, " stem": 9704, " managing": 9705, " spell": 9706, " ministry": 9707, " grade": 9708, " coinc": 9709, " riding": 9710, " indicates": 9711, " centuries": 9712, "Christ": 9713, "cest": 9714, " Affairs": 9715, " opens": 9716, "aki": 9717, " pharm": 9718, " meaningful": 9719, "omed": 9720, " tiss": 9721, " Mrs": 9722, " ease": 9723, "child": 9724, " margin": 9725, " Store": 9726, " clothing": 9727, " Six": 9728, " \u00e2\u0088\u0092": 9729, " Tes": 9730, " Capital": 9731, " participation": 9732, "cedented": 9733, "Mus": 9734, " revers": 9735, "aria": 9736, "Int": 9737, " poison": 9738, " Brexit": 9739, " 120": 9740, " Yemen": 9741, " lapt": 9742, " competing": 9743, "iac": 9744, " memories": 9745, " CS": 9746, " theories": 9747, " recipe": 9748, " gross": 9749, "umble": 9750, "author": 9751, "hard": 9752, " passage": 9753, " aged": 9754, " Credit": 9755, " bin": 9756, " drone": 9757, " blank": 9758, " dispute": 9759, " damaged": 9760, " 1993": 9761, " Hamilton": 9762, "base": 9763, " substance": 9764, " hosted": 9765, "TER": 9766, "Google": 9767, " Chelsea": 9768, " Lam": 9769, " promoting": 9770, " facilit": 9771, " openly": 9772, " Instagram": 9773, " 1950": 9774, "even": 9775, " Vik": 9776, "View": 9777, " Children": 9778, "sl": 9779, " Crime": 9780, " clinical": 9781, "Out": 9782, " nic": 9783, "bits": 9784, "rer": 9785, "eremy": 9786, " Hold": 9787, "erent": 9788, " investments": 9789, " consensus": 9790, " Fal": 9791, "igate": 9792, " Leon": 9793, " 99": 9794, " educational": 9795, "const": 9796, "->": 9797, " dish": 9798, " manifest": 9799, " custody": 9800, "week": 9801, " eligible": 9802, " Hawai": 9803, "ito": 9804, " legally": 9805, " missions": 9806, " endorse": 9807, " gate": 9808, " memo": 9809, "eria": 9810, " GT": 9811, " tables": 9812, " Pict": 9813, " nin": 9814, " studying": 9815, "Hz": 9816, " charity": 9817, "aration": 9818, "adi": 9819, " addresses": 9820, " ?": 9821, " inspect": 9822, " discount": 9823, "rix": 9824, "left": 9825, " battles": 9826, "ALL": 9827, " Der": 9828, " 250": 9829, " Assembly": 9830, " athletes": 9831, " Trade": 9832, " fossil": 9833, " enthusi": 9834, " Management": 9835, " suspects": 9836, " tired": 9837, " helic": 9838, "Pre": 9839, "Act": 9840, " counterpart": 9841, " na": 9842, "82": 9843, " dating": 9844, " Eth": 9845, " spectrum": 9846, " Metro": 9847, "ateral": 9848, " Station": 9849, " Bal": 9850, " presentation": 9851, " lux": 9852, "gered": 9853, " bottle": 9854, " tap": 9855, "riors": 9856, " vig": 9857, " fundra": 9858, " enhance": 9859, " Sean": 9860, "assy": 9861, " therapy": 9862, " Wales": 9863, " Exper": 9864, " perceived": 9865, "market": 9866, " Tok": 9867, "Def": 9868, "math": 9869, " backing": 9870, " Festival": 9871, " underlying": 9872, " defending": 9873, " Through": 9874, " racing": 9875, " discussing": 9876, " expanding": 9877, " muscle": 9878, " stops": 9879, " dominant": 9880, "uz": 9881, " beings": 9882, " Marx": 9883, " Equ": 9884, " transaction": 9885, "rows": 9886, "achel": 9887, " Uber": 9888, "Cal": 9889, " recruit": 9890, "itudes": 9891, " Gary": 9892, " mood": 9893, " picking": 9894, "lando": 9895, " Mit": 9896, "ylum": 9897, "player": 9898, "acher": 9899, " managers": 9900, "orable": 9901, " gathering": 9902, " hopefully": 9903, "angle": 9904, " Son": 9905, "alysis": 9906, "section": 9907, " Video": 9908, " crus": 9909, " Libya": 9910, " impression": 9911, "olar": 9912, " hip": 9913, "\u00c3\u00a2": 9914, " scrut": 9915, " roy": 9916, " Tai": 9917, "igenous": 9918, " institution": 9919, " Batman": 9920, "}}": 9921, " stere": 9922, " procedures": 9923, " Andre": 9924, "\u00c3\u00b1": 9925, " pocket": 9926, " creatures": 9927, " Boe": 9928, " compat": 9929, " arrival": 9930, "oln": 9931, "watch": 9932, " eager": 9933, " pollution": 9934, "iture": 9935, " foods": 9936, " kitchen": 9937, "ocial": 9938, " recre": 9939, " surviv": 9940, " Morgan": 9941, "roph": 9942, " organic": 9943, " Pentagon": 9944, " shipping": 9945, "aders": 9946, " capitalism": 9947, " timing": 9948, "odox": 9949, " insult": 9950, " requirement": 9951, " Bi": 9952, " unfair": 9953, "sub": 9954, " Op": 9955, " mice": 9956, " 56": 9957, " Assad": 9958, " Represent": 9959, " Mess": 9960, " MLS": 9961, "Mod": 9962, "Rem": 9963, "atively": 9964, " Elizabeth": 9965, " diseases": 9966, " industries": 9967, " Oakland": 9968, " bowl": 9969, " Murray": 9970, " Creat": 9971, " helicop": 9972, " divor": 9973, "agger": 9974, " beach": 9975, " punishment": 9976, "abet": 9977, " shell": 9978, " fled": 9979, " hospitals": 9980, "missions": 9981, " tons": 9982, " Kick": 9983, " seed": 9984, "ogy": 9985, "AF": 9986, "81": 9987, " Comey": 9988, "opyright": 9989, " terr": 9990, " statist": 9991, " engineers": 9992, " obsc": 9993, " hire": 9994, " module": 9995, "Reg": 9996, "AY": 9997, " coaching": 9998, "amous": 9999, " sed": 10000, "oca": 10001, " answered": 10002, "SC": 10003, "TR": 10004, " graphics": 10005, " intr": 10006, " regulatory": 10007, " sovere": 10008, " stance": 10009, " bow": 10010, " Keep": 10011, "alties": 10012, "Click": 10013, " explaining": 10014, " rhetoric": 10015, " beating": 10016, " tut": 10017, " Friend": 10018, " Email": 10019, "rior": 10020, " Yeah": 10021, " acknowledge": 10022, " Michel": 10023, " principal": 10024, " pulling": 10025, "erves": 10026, " signature": 10027, "brid": 10028, "olving": 10029, " convince": 10030, " Roll": 10031, " variable": 10032, "cosystem": 10033, " pill": 10034, " searching": 10035, " Ox": 10036, " dies": 10037, " overcome": 10038, "Ge": 10039, " preferred": 10040, "duction": 10041, " sixth": 10042, " adviser": 10043, " Tennessee": 10044, " trends": 10045, " Russell": 10046, " (\"": 10047, " Thompson": 10048, " merch": 10049, " rebels": 10050, " interaction": 10051, " periods": 10052, " psychological": 10053, "Mich": 10054, " Sure": 10055, "emic": 10056, " Using": 10057, " economics": 10058, " Charlie": 10059, " outlets": 10060, " Gil": 10061, " signals": 10062, "pg": 10063, " echo": 10064, " Executive": 10065, " Kentucky": 10066, " tempor": 10067, " billions": 10068, " lineup": 10069, " Yan": 10070, " math": 10071, "urg": 10072, "arre": 10073, "2013": 10074, " 1991": 10075, " setup": 10076, " rend": 10077, "Finally": 10078, "netic": 10079, " eggs": 10080, "Comm": 10081, " segment": 10082, " badly": 10083, "mic": 10084, " arr": 10085, " Li": 10086, "kee": 10087, " sentenced": 10088, " everyday": 10089, " Jean": 10090, " Dragon": 10091, " commander": 10092, " Hart": 10093, " Holl": 10094, " AN": 10095, " loves": 10096, "unicipal": 10097, " genes": 10098, "will": 10099, "ui": 10100, "NBC": 10101, " bold": 10102, " requiring": 10103, " bullet": 10104, " invasion": 10105, " Intel": 10106, " partly": 10107, " escal": 10108, "91": 10109, "check": 10110, " gene": 10111, " arts": 10112, " removal": 10113, " undert": 10114, " upload": 10115, " instant": 10116, "liest": 10117, " topics": 10118, " Iron": 10119, "enezuel": 10120, " !": 10121, " inquiry": 10122, " amendment": 10123, " weakness": 10124, " Rather": 10125, " concepts": 10126, "news": 10127, " McK": 10128, "PL": 10129, " shoes": 10130, "cor": 10131, " Sound": 10132, "grade": 10133, " fabric": 10134, " Ze": 10135, "izza": 10136, "Earlier": 10137, " Delhi": 10138, "tsburgh": 10139, " frequent": 10140, "via": 10141, " sections": 10142, " occurs": 10143, "oli": 10144, " migrants": 10145, " compensation": 10146, " Box": 10147, " engineer": 10148, "eness": 10149, " gig": 10150, " lad": 10151, "has": 10152, " Finally": 10153, " fo": 10154, " attractive": 10155, " unve": 10156, " ).": 10157, " citing": 10158, " tweets": 10159, " utility": 10160, "arency": 10161, " posting": 10162, " ridiculous": 10163, " blockchain": 10164, " cler": 10165, " Clark": 10166, " speaker": 10167, "\u00e2\u0094\u0080": 10168, " diam": 10169, "\u00d8\u00a7": 10170, " corrupt": 10171, " talented": 10172, " lect": 10173, " collaps": 10174, " mask": 10175, "\u00e2\u0080\u0090": 10176, "necess": 10177, "screen": 10178, " notable": 10179, " Therefore": 10180, " elder": 10181, " genre": 10182, "instein": 10183, " deadline": 10184, " rolling": 10185, " carries": 10186, " BM": 10187, "Top": 10188, " Final": 10189, " ET": 10190, "ental": 10191, " approaches": 10192, " eliminate": 10193, " Priv": 10194, " analysts": 10195, " sits": 10196, " cens": 10197, "State": 10198, " instances": 10199, " Simon": 10200, " publishing": 10201, " unprecedented": 10202, " colour": 10203, " roots": 10204, " Phoenix": 10205, "VP": 10206, " cock": 10207, " bene": 10208, " Dur": 10209, " Psych": 10210, " toxic": 10211, " Heart": 10212, "gus": 10213, " collaboration": 10214, " arc": 10215, " inequality": 10216, " neighbors": 10217, " insight": 10218, " dramatically": 10219, " Harper": 10220, " homosexual": 10221, " towns": 10222, " prize": 10223, "!!!": 17670, " extraordinary": 10225, " perception": 10226, " Gordon": 10227, " Whether": 10228, " Phill": 10229, " parad": 10230, " gest": 10231, "arget": 10232, " maintenance": 10233, "owski": 10234, " GO": 10235, " cheaper": 10236, "isdom": 10237, " associate": 10238, "die": 10239, " coup": 10240, " Gro": 10241, "Mark": 10242, " Event": 10243, " sheet": 10244, " Bow": 10245, " Below": 10246, " distur": 10247, " Sav": 10248, "pack": 10249, " Captain": 10250, " cognitive": 10251, " encouraging": 10252, " dreams": 10253, " Pers": 10254, " seized": 10255, " interviewed": 10256, " deployed": 10257, " violations": 10258, " camps": 10259, " comics": 10260, " constitu": 10261, " Reagan": 10262, " glad": 10263, " reserved": 10264, " buck": 10265, " employers": 10266, "atus": 10267, " aims": 10268, " functional": 10269, " mystery": 10270, " displayed": 10271, "Paul": 10272, "iban": 10273, " Sa": 10274, "ested": 10275, " span": 10276, " loop": 10277, "apore": 10278, " delight": 10279, "cre": 10280, " traged": 10281, " Economic": 10282, "ixture": 10283, " 57": 10284, "ricane": 10285, " occasionally": 10286, " vend": 10287, " Sud": 10288, " export": 10289, "TON": 10290, " birthday": 10291, "wa": 10292, "lly": 10293, " heroes": 10294, " fatal": 10295, "estyle": 10296, "oga": 10297, " correctly": 10298, "onz": 10299, " prompted": 10300, " Ve": 10301, " stamp": 10302, " Cole": 10303, " contemporary": 10304, " Access": 10305, " Jenn": 10306, " prospects": 10307, "oting": 10308, " irre": 10309, "AB": 10310, " recommendations": 10311, " diplomatic": 10312, "throp": 10313, "mir": 10314, " pa": 10315, "ighth": 10316, " parallel": 10317, " exclud": 10318, " constitution": 10319, " disappointed": 10320, " manufacturers": 10321, " adequ": 10322, " Staff": 10323, " moderate": 10324, " Ever": 10325, " Dog": 10326, "ols": 10327, " ecosystem": 10328, " accompan": 10329, "eling": 10330, "vi": 10331, " demanded": 10332, "Time": 10333, " 85": 10334, " GDP": 10335, " Photos": 10336, " nose": 10337, " Montreal": 10338, " Dick": 10339, "ailable": 10340, " interpre": 10341, "endar": 10342, " pleased": 10343, "2017": 10344, "rowing": 10345, " labour": 10346, " lifetime": 10347, " Brooklyn": 10348, " Tax": 10349, " Est": 10350, " Reserve": 10351, "rock": 10352, " communicate": 10353, " fights": 10354, " modified": 10355, " drunk": 10356, " Ocean": 10357, " sessions": 10358, " wedding": 10359, "non": 10360, " knock": 10361, " explosion": 10362, " Library": 10363, " biological": 10364, " repair": 10365, " landed": 10366, " EPA": 10367, " 58": 10368, " Authority": 10369, " subsc": 10370, " representation": 10371, " Given": 10372, " artificial": 10373, "250": 10374, "leans": 10375, "Fi": 10376, " relation": 10377, " owns": 10378, "ixon": 10379, " Khan": 10380, " Antonio": 10381, " Digital": 10382, " lift": 10383, "agen": 10384, " designer": 10385, " recon": 10386, "Thanks": 10387, " emp": 10388, " consciousness": 10389, " kicked": 10390, " Order": 10391, " defender": 10392, " hanging": 10393, " lessons": 10394, "hist": 10395, " imposed": 10396, " guests": 10397, " Bul": 10398, " adopt": 10399, " anonymous": 10400, "150": 10401, " sli": 10402, " concerning": 10403, "fit": 10404, "wind": 10405, " pregnant": 10406, " Five": 10407, "incoln": 10408, " underground": 10409, " maintaining": 10410, " asset": 10411, "acre": 10412, " Channel": 10413, " Alan": 10414, " punch": 10415, " Rome": 10416, "bourne": 10417, ")<|": 10418, " shirt": 10419, " ingredients": 10420, "Update": 10421, " cheese": 10422, " intellig": 10423, "graph": 10424, "isition": 10425, " Convention": 10426, " interior": 10427, " podcast": 10428, "\":\"": 10429, " emotions": 10430, "ching": 10431, "human": 10432, " Argent": 10433, " couples": 10434, " abstract": 10435, " lesson": 10436, " creature": 10437, " resolve": 10438, " shocked": 10439, " oppose": 10440, "Whe": 10441, " summit": 10442, " performances": 10443, " SU": 10444, " volunteers": 10445, " Burn": 10446, "Dis": 10447, " Bol": 10448, "some": 10449, " soldier": 10450, "\u00d1\u0083": 10451, " stimul": 10452, " logo": 10453, "bin": 10454, "\u00e0\u00a4": 10455, "appropri": 10456, " vocal": 10457, " accum": 10458, "wich": 10459, " girlfriend": 10460, " Protection": 10461, "istant": 10462, "wed": 10463, "ben": 10464, "ulty": 10465, " jumped": 10466, " annoy": 10467, " Page": 10468, " jihad": 10469, " mile": 10470, " nurs": 10471, "SE": 10472, " Lear": 10473, " 600": 10474, " militants": 10475, "user": 10476, " guid": 10477, " Missouri": 10478, " professionals": 10479, "acles": 10480, "Gener": 10481, "(\"": 10482, " Anna": 10483, "Instead": 10484, "ikh": 10485, "ials": 10486, " butter": 10487, " swit": 10488, " refers": 10489, " desktop": 10490, " traveling": 10491, " libr": 10492, "gets": 10493, " isolated": 10494, " forum": 10495, " advocate": 10496, " existed": 10497, " opposing": 10498, " Coal": 10499, " recalled": 10500, "Station": 10501, " Case": 10502, "Next": 10503, "Israel": 10504, " integration": 10505, " describing": 10506, " boxes": 10507, " JavaScript": 10508, " Fant": 10509, " Orleans": 10510, "early": 10511, " stro": 10512, "Id": 10513, " Hal": 10514, "CD": 10515, " Mail": 10516, " minimal": 10517, "tainment": 10518, " confused": 10519, " Custom": 10520, " SD": 10521, "umph": 10522, " peaceful": 10523, " inherent": 10524, "odge": 10525, " surrounded": 10526, "sa": 10527, "rot": 10528, "gate": 10529, "cal": 10530, "elle": 10531, "owned": 10532, " vert": 10533, " Capitol": 10534, "hattan": 10535, " Hand": 10536, "commun": 10537, "Step": 10538, " holes": 10539, "ext": 10540, " meal": 10541, " 1989": 10542, " integrity": 10543, " Rs": 10544, " Know": 10545, " Player": 10546, "siss": 10547, " pm": 10548, " Ban": 10549, " inspiration": 10550, " configuration": 10551, " sne": 10552, " Trust": 10553, "\u00f0\u009f": 10554, "hero": 10555, " expense": 10556, "issis": 10557, "abe": 10558, " credits": 10559, " Non": 10560, " subur": 10561, " ideology": 10562, " electoral": 10563, " yell": 10564, " silent": 10565, " dual": 10566, " Marine": 10567, " Doctor": 10568, " stack": 10569, " Barb": 10570, " suspic": 10571, " buried": 10572, " Nevada": 10573, "TE": 10574, "\u00c3\u00a7": 10575, "imize": 10576, " desperate": 10577, " Occ": 10578, "starter": 10579, "\u00d0\u00ba": 10580, " scream": 10581, " clip": 10582, " choosing": 10583, " bombs": 10584, "atics": 10585, "Trans": 10586, " CB": 10587, " bands": 10588, " teammates": 10589, " fleet": 10590, " SH": 10591, "\u00e2\u0080\u00a6.": 10592, "iens": 10593, " convert": 10594, "tra": 10595, " acceptable": 10596, " Orlando": 10597, "ibl": 10598, "dr": 10599, " jer": 10600, " Wright": 10601, " registration": 10602, "List": 10603, "Gu": 10604, " Eve": 10605, " Portug": 10606, " Hitler": 10607, " brutal": 10608, "awks": 10609, "SU": 10610, "Net": 10611, " Move": 10612, " scar": 10613, " ancest": 10614, " Online": 10615, " Alliance": 10616, "election": 10617, "too": 10618, " subscribe": 10619, " struggles": 10620, "aro": 10621, " keyboard": 10622, " momentum": 10623, " Leban": 10624, " Area": 10625, " promotion": 10626, " Arsenal": 10627, " Ven": 10628, " evident": 10629, "Fl": 10630, " quit": 10631, "hire": 10632, "father": 10633, "Name": 10634, " organisation": 10635, " Han": 10636, " wondering": 10637, " Indones": 10638, " closest": 10639, "mits": 10640, " embrace": 10641, " Steel": 10642, "books": 10643, "isd": 10644, " Following": 10645, " refugee": 10646, " Hamp": 10647, " teeth": 10648, "ART": 10649, " probe": 10650, " utter": 10651, "Speaking": 10652, "chell": 10653, " athe": 10654, " Word": 10655, " occasional": 10656, " monster": 10657, "strong": 10658, " assembly": 10659, " bankrupt": 10660, " references": 10661, " journalism": 10662, " expenses": 10663, " subsequently": 10664, "grad": 10665, "stop": 10666, "oker": 10667, " pride": 10668, " guards": 10669, " interpretation": 10670, " Venezuel": 10671, " yeah": 10672, "\u00ef\u00bc": 10673, "hr": 10674, " Mun": 10675, " removing": 10676, " orbit": 10677, "Gl": 10678, " Independent": 10679, " lin": 10680, " profound": 10681, " Writ": 10682, "ipedia": 10683, "2012": 10684, " Pittsburgh": 10685, " compromise": 10686, " knife": 10687, " districts": 10688, " exclusively": 10689, " survived": 10690, " Source": 10691, " considerable": 10692, " stating": 10693, " engaging": 10694, " Could": 10695, " refuse": 10696, " bird": 10697, " characteristics": 10698, " Mountain": 10699, " Raj": 10700, " justify": 10701, "HP": 10702, " dominated": 10703, "QL": 10704, " 72": 10705, " prost": 10706, " briefly": 10707, " Nazi": 10708, "Gr": 10709, "bound": 10710, "arson": 10711, " Rest": 10712, " chip": 10713, " ministers": 10714, " electron": 10715, "rend": 10716, " tremendous": 10717, " contrary": 10718, " gri": 10719, " sustainable": 10720, "Share": 10721, " loaded": 10722, " flour": 10723, " disappear": 10724, " nervous": 10725, " routes": 10726, "orneys": 10727, " proportion": 10728, "otte": 10729, " sophistic": 10730, "attered": 10731, " executed": 10732, "ocated": 10733, " 800": 10734, " Duke": 10735, " asylum": 10736, "utter": 10737, " Everyone": 10738, " gameplay": 10739, " sexually": 10740, "700": 10741, "Thank": 10742, "Hey": 10743, "amine": 10744, " pir": 10745, " donors": 10746, " Bu": 10747, " confusion": 10748, " Dream": 10749, " revolutionary": 10750, "cap": 10751, " Aaron": 10752, "elve": 10753, " Andy": 10754, "Ag": 10755, " curious": 10756, " Treasury": 10757, " harsh": 10758, "limited": 10759, "lihood": 10760, "income": 10761, "KE": 10762, " attending": 10763, " Adams": 10764, "immer": 10765, " IM": 10766, "\u00c3\u00a8": 10767, "security": 10768, "UC": 10769, " speakers": 10770, " cabinet": 10771, "\u00c3\u00b3n": 10772, "reek": 10773, " nowhere": 10774, " flee": 10775, " void": 10776, " brands": 10777, " chronic": 10778, " printed": 10779, " Tesla": 10780, "oub": 10781, " charging": 10782, " engines": 10783, "reck": 10784, " physics": 10785, " Having": 10786, " concert": 10787, " Alp": 10788, "scar": 10789, "function": 10790, " Sheriff": 10791, "inge": 10792, " outcomes": 10793, " Aren": 10794, " Officer": 10795, "MAN": 10796, "ublished": 10797, "olid": 10798, " Mult": 10799, " orient": 10800, " mirror": 10801, "inst": 10802, " strengthen": 10803, " Gib": 10804, "thood": 10805, " Jun": 10806, " fails": 10807, " spo": 10808, ".]": 10809, " obser": 10810, " chaos": 10811, " passenger": 10812, " iPad": 10813, " criminals": 10814, " Current": 10815, " fel": 10816, " Spir": 10817, " steady": 10818, " lobb": 10819, " Robinson": 10820, " Nether": 10821, "merce": 10822, " \u00c2\u00b1": 10823, " robust": 10824, " Manhattan": 10825, " CON": 10826, "white": 10827, "IE": 10828, " endors": 10829, " speculation": 10830, " Change": 10831, " Short": 10832, "reshold": 10833, " certific": 10834, " deemed": 10835, " Taliban": 10836, " dropping": 10837, " hiring": 10838, " Norm": 10839, " Giants": 10840, " Singapore": 10841, "Cor": 10842, " integrated": 10843, " Perry": 10844, " presents": 10845, " avo": 10846, " Band": 10847, " FA": 10848, " guaranteed": 10849, "apper": 10850, " fert": 10851, " epic": 10852, " leaked": 10853, " Ts": 10854, " Kings": 10855, " packages": 10856, "mble": 10857, " pleasure": 10858, "BN": 10859, "opt": 10860, " suspension": 10861, " challenged": 10862, " packed": 10863, " checking": 10864, "\u00e0\u00b8": 10865, " bits": 10866, "good": 10867, " vit": 10868, " engagement": 10869, " Kit": 10870, " radiation": 10871, " slot": 10872, "leep": 10873, " bombing": 10874, " patri": 10875, " da": 10876, " alert": 10877, "Pal": 10878, "istle": 10879, " Hu": 10880, " wet": 10881, "rics": 10882, " hunting": 10883, " Tel": 10884, " USB": 10885, "riv": 10886, "\u00c4\u0081": 10887, " produces": 10888, " witnesses": 10889, " Craig": 10890, "ophob": 10891, " Pant": 10892, " editorial": 10893, " defended": 10894, " recovered": 10895, " Holy": 10896, " Rou": 10897, "mented": 10898, "Red": 10899, " developments": 10900, " simultaneously": 10901, " boom": 10902, " Log": 10903, " bacteria": 10904, " blocking": 10905, " Later": 10906, " 59": 10907, " attracted": 10908, "Br": 10909, " 66": 10910, "Car": 10911, " figured": 10912, " Opp": 10913, " Hung": 10914, " correl": 10915, " alliance": 10916, " researcher": 10917, " taxpayers": 10918, " Entertainment": 10919, " Les": 10920, " None": 10921, " caps": 10922, "card": 10923, " Jeremy": 10924, " hosts": 10925, " cinem": 10926, " patent": 10927, " Russians": 10928, " examine": 10929, "izarre": 10930, "ATCH": 10931, " Future": 10932, " variables": 10933, "ERE": 10934, " Lincoln": 10935, "ifier": 10936, " oxy": 10937, " embed": 10938, "imb": 10939, " junior": 10940, "lynn": 10941, "ateful": 10942, "Black": 10943, "uter": 10944, " Chairman": 10945, " publish": 10946, " Tower": 10947, "JP": 10948, " tear": 10949, " Gh": 10950, "oned": 10951, " 62": 10952, " meth": 10953, " Vlad": 10954, "DR": 10955, "gly": 10956, "dep": 10957, " vent": 10958, " Poland": 10959, " Ukrainian": 10960, " Studies": 10961, "adesh": 10962, "gged": 10963, "Right": 10964, " enact": 10965, "may": 10966, " Dak": 10967, " flights": 10968, "omic": 10969, " accuracy": 10970, " Bor": 10971, " flav": 10972, " distribut": 10973, " los": 10974, " impacts": 10975, " surprisingly": 10976, " solo": 10977, " raises": 10978, " burned": 10979, " ric": 10980, "dam": 10981, " Sci": 10982, " angle": 10983, "secutive": 10984, " breast": 10985, " Would": 10986, " evac": 10987, " qualified": 10988, " Stewart": 10989, " decrease": 10990, "town": 10991, " CPU": 10992, "nie": 10993, "vas": 10994, " evolved": 10995, " flavor": 10996, "olitical": 10997, "imir": 10998, " unnecess": 10999, " assemb": 11000, " Total": 11001, " intimid": 11002, " courtesy": 11003, " OR": 11004, " fingers": 11005, " MPs": 11006, "rition": 11007, " productive": 11008, "df": 11009, " voc": 11010, " blamed": 11011, "etheless": 11012, " HIV": 11013, " dependent": 11014, " expecting": 11015, " transferred": 11016, " Rangers": 11017, "bul": 11018, " enabled": 11019, " identical": 11020, " visits": 11021, " expects": 11022, " lane": 11023, "dict": 11024, " Gill": 11025, " ignor": 11026, " accord": 11027, " Griff": 11028, " Wi": 11029, " Ub": 11030, "terror": 11031, "ishers": 11032, "Book": 11033, "anim": 11034, " venture": 11035, " CC": 11036, " barg": 11037, " shops": 11038, " departure": 11039, " Command": 11040, " Mississ": 11041, " killer": 11042, " repeal": 11043, " motivated": 11044, " strip": 11045, " restore": 11046, " agreements": 11047, " conflicts": 11048, "thodox": 11049, " organis": 11050, " scared": 11051, " Du": 11052, " forgotten": 11053, " Think": 11054, "iden": 11055, "icked": 11056, "ulse": 11057, "bian": 11058, " inher": 11059, " nationwide": 11060, " Edition": 11061, " cycl": 11062, " influenced": 11063, " criteria": 11064, "ernand": 11065, " occupied": 11066, " animation": 11067, " BC": 11068, " trailer": 11069, " ranking": 11070, " Pope": 11071, " Ni": 11072, " Should": 11073, " Things": 11074, " `": 11075, "ahoo": 11076, " backs": 11077, " telephone": 11078, " occasion": 11079, "TO": 11080, "about": 11081, "unity": 11082, " analys": 11083, " Reddit": 11084, " functionality": 11085, " checked": 11086, " concentration": 11087, " Model": 11088, "looking": 11089, " households": 11090, "link": 11091, " reass": 11092, "onduct": 11093, " algorithm": 11094, " courage": 11095, "rah": 11096, "ressing": 11097, " Support": 11098, " promoted": 11099, " Hug": 11100, " imprison": 11101, "aments": 11102, " explicitly": 11103, " batter": 11104, " desp": 11105, " babies": 11106, " tanks": 11107, " ought": 11108, " static": 11109, " Product": 11110, "oup": 11111, " releasing": 11112, " antib": 11113, " Place": 11114, "rike": 11115, " subtle": 11116, "Former": 11117, "arted": 11118, "ILL": 11119, " stats": 11120, " bases": 11121, " doct": 11122, "large": 11123, "uating": 11124, "\u00e2\u0094\u0080\u00e2\u0094": 11125, "agine": 11126, " privilege": 11127, " Jerry": 11128, "MB": 11129, " Moreover": 11130, " Warner": 11131, " NO": 11132, " meters": 11133, " entrance": 11134, "aco": 11135, "ippi": 11136, " nod": 11137, " tower": 11138, " investigated": 11139, "Three": 11140, " senators": 11141, "zone": 11142, "iere": 11143, " Cold": 11144, " Canadians": 11145, " hub": 11146, " wise": 11147, " overl": 11148, " Eb": 11149, " applies": 11150, " formula": 11151, " Standard": 11152, "ollar": 11153, " Egyptian": 11154, " Christopher": 11155, " mart": 11156, " inevitable": 11157, "breaking": 11158, " uncertainty": 11159, " provider": 11160, "actor": 11161, " painting": 11162, " continu": 11163, " modest": 11164, " lens": 11165, " influential": 11166, " destination": 11167, " Queens": 11168, " Map": 11169, "izations": 11170, "forward": 11171, "\",\"": 11172, " chips": 11173, "being": 11174, "Supp": 11175, " ally": 11176, " infection": 11177, " dimin": 11178, "leading": 11179, " Univers": 11180, " jet": 11181, "kes": 11182, " solely": 11183, " belt": 11184, " screw": 11185, " inaug": 11186, " 63": 11187, " insist": 11188, "Good": 11189, "Yeah": 11190, " TR": 11191, " Niger": 11192, " theft": 11193, "uccess": 11194, " Marg": 11195, " politician": 11196, " Alaska": 11197, " transparency": 11198, " PlayStation": 11199, " invested": 11200, " singer": 11201, " immune": 11202, " Ottawa": 11203, " provisions": 11204, "istance": 11205, " py": 11206, " Stock": 11207, " handled": 11208, "overs": 11209, " uncomfort": 11210, " Jane": 11211, "ampa": 11212, " Olympics": 11213, " Louisiana": 11214, " impressed": 11215, " inbox": 11216, " Oil": 11217, " operator": 11218, "SD": 11219, "ardo": 11220, "untu": 11221, " Netherlands": 11222, "Em": 11223, " balls": 11224, " tent": 11225, "ilation": 11226, " colleg": 11227, " Kr": 11228, " similarly": 11229, " lifestyle": 11230, "comp": 11231, " headlines": 11232, "idal": 11233, "offs": 11234, "olas": 11235, " boards": 11236, "rifice": 11237, " Trek": 11238, " disabled": 11239, " ..": 11240, "thur": 11241, "ixel": 11242, " Stanley": 11243, "Bar": 11244, " operated": 11245, " regarded": 11246, " Type": 11247, " launching": 11248, " SN": 11249, " reluct": 11250, " Exp": 11251, "achment": 11252, "Down": 11253, " Mother": 11254, "wall": 11255, " bol": 11256, " Drug": 11257, " photographs": 11258, " volunt": 11259, "such": 11260, " kidn": 11261, "?\u00e2\u0080\u0099": 11262, " sake": 11263, "citation": 11264, " keen": 11265, "iar": 11266, "track": 11267, " detention": 11268, " consecutive": 11269, "rc": 11270, "Obama": 11271, " gym": 11272, " Unlike": 11273, "inite": 11274, "var": 11275, "million": 11276, ").[": 11277, " Blood": 11278, "?)": 11279, " prosecutor": 11280, " filter": 11281, " Da": 11282, " prosecution": 11283, "keley": 11284, " suck": 11285, "anguage": 11286, " conviction": 11287, "uther": 11288, " earthqu": 11289, " rolled": 11290, " kiss": 11291, " Table": 11292, "oning": 11293, "erald": 11294, "armed": 11295, "ista": 11296, " Modi": 11297, " Corporation": 11298, "aha": 11299, " Caption": 11300, "tarian": 11301, " Corp": 11302, "bitious": 11303, " bulk": 11304, " Hampshire": 11305, "first": 11306, " males": 11307, " FO": 11308, "Jo": 11309, " unre": 11310, " inex": 11311, " tears": 11312, " tragedy": 11313, "llor": 11314, " chocolate": 11315, " mouse": 11316, " poet": 11317, "lean": 11318, " preserve": 11319, "ige": 11320, " Tam": 11321, " guidance": 11322, " Father": 11323, " Being": 11324, " leak": 11325, " Philippines": 11326, "Bel": 11327, " Forest": 11328, "urches": 11329, "assion": 11330, " bags": 11331, " nu": 11332, " Several": 11333, " reck": 11334, "block": 11335, " destro": 11336, " examined": 11337, " synd": 11338, " accepting": 11339, " elabor": 11340, " missiles": 11341, "Further": 11342, " absurd": 11343, " beneath": 11344, " neur": 11345, " participating": 11346, "vironments": 11347, "bes": 11348, " 1000": 11349, " Hans": 11350, " neighborhoods": 11351, "ucker": 11352, " Stanford": 11353, " compelling": 11354, " reflects": 11355, " complained": 11356, " Wy": 11357, "\u0080\u00e2\u0094\u0080": 11358, " adap": 11359, " bother": 11360, " controller": 11361, " luxury": 11362, " Victoria": 11363, " Marc": 11364, " Edit": 11365, "tex": 11366, " Morm": 11367, "aya": 11368, "laim": 11369, " theater": 11370, " Mario": 11371, " enfor": 11372, " Nelson": 11373, " shelter": 11374, "stra": 11375, "rying": 11376, "boys": 11377, " fer": 11378, "rin": 11379, " Medicare": 11380, " Cloud": 11381, "speed": 11382, " fits": 11383, " Grant": 11384, "vo": 11385, " Medicaid": 11386, " jurisd": 11387, "mons": 11388, "ouses": 11389, " poster": 11390, "usting": 11391, " </": 11392, "bat": 11393, " Knight": 11394, " consists": 11395, "opp": 11396, " pose": 11397, " significance": 11398, " polling": 11399, " Film": 11400, " stopping": 11401, " occasions": 11402, "neg": 11403, " bone": 11404, " DE": 11405, " Tokyo": 11406, " Rubio": 11407, " Cas": 11408, " wireless": 11409, " realistic": 11410, " excuse": 11411, " Local": 11412, "Among": 11413, "friendly": 11414, "Each": 11415, " Imm": 11416, " Chron": 11417, "\u00e2\u0080\u009d)": 11418, " tension": 11419, " accompanied": 11420, " seeks": 11421, " Gard": 11422, " backup": 11423, "otion": 11424, "asm": 11425, " resemb": 11426, " mandate": 11427, " Had": 11428, " theoret": 11429, " Pa": 11430, " Continue": 11431, "orate": 11432, "fish": 11433, " assists": 11434, " possibilities": 11435, " Quest": 11436, " Winter": 11437, " beta": 11438, " accusations": 11439, "iah": 11440, " advent": 11441, " cooking": 11442, " CR": 11443, " Champions": 11444, " Abu": 11445, " supposedly": 11446, " inhab": 11447, "ping": 11448, " Snowden": 11449, " emphasis": 11450, " finishing": 11451, " Dal": 11452, " Sport": 11453, " sustained": 11454, "Perhaps": 11455, "cat": 11456, " Malays": 11457, " beaten": 11458, " SEC": 11459, " bump": 11460, "itement": 11461, " Pear": 11462, "iper": 11463, " dressed": 11464, " awards": 11465, " projected": 11466, "isms": 11467, " Nothing": 11468, " torn": 11469, " innovative": 11470, " Everything": 11471, " Mind": 11472, " affects": 11473, " Bir": 11474, " polar": 11475, " Abd": 11476, " preventing": 11477, " constructed": 11478, " Flash": 11479, " Ka": 11480, "bery": 11481, " longtime": 11482, "ATION": 11483, "thal": 11484, "Following": 11485, " Section": 11486, "tech": 11487, " fucking": 11488, " Vin": 11489, " eru": 11490, " garden": 11491, " 360": 11492, "IO": 11493, " Organization": 11494, " speeds": 11495, " fed": 11496, " operators": 11497, "ilst": 11498, " gut": 11499, " Financial": 11500, " drum": 11501, " manual": 11502, " outstanding": 11503, " password": 11504, " mortgage": 11505, " Hamas": 11506, " entity": 11507, " recession": 11508, "cott": 11509, " Nich": 11510, " Python": 11511, "una": 11512, " wisdom": 11513, " Steam": 11514, " Nature": 11515, " documented": 11516, " traded": 11517, " intrig": 11518, " IV": 11519, " golf": 11520, " Jimmy": 11521, " occupation": 11522, " Kurdish": 11523, " oldest": 11524, " fut": 11525, " documentation": 11526, " favourite": 11527, "iox": 11528, " praised": 11529, " residential": 11530, "incial": 11531, " spotted": 11532, " cops": 11533, "century": 11534, "ugby": 11535, " revenues": 11536, " Commons": 11537, " Third": 11538, " layers": 11539, " walks": 11540, "olitan": 11541, " MA": 11542, " interactions": 11543, " Patriots": 11544, " surge": 11545, "charg": 11546, " bicy": 11547, " awful": 11548, " panels": 11549, " ther": 11550, " calculated": 11551, "ega": 11552, " Dom": 11553, " infant": 11554, " circuit": 11555, "cular": 11556, "iated": 11557, " experimental": 11558, " 67": 11559, "rons": 11560, "\u00e2\u0082\u00ac": 11561, "DC": 11562, " renewable": 11563, "ques": 11564, " automatic": 11565, " CL": 11566, " mysterious": 11567, " dirty": 11568, "anyahu": 11569, " Lad": 11570, " trains": 11571, " Soft": 11572, " Others": 11573, " threshold": 11574, " tale": 11575, "Mon": 11576, " Nash": 11577, " 68": 11578, "err": 11579, " dealt": 11580, " Rh": 11581, " reviewed": 11582, " Kal": 11583, " 61": 11584, "\u00e2\u0096\u0088": 11585, "lied": 11586, " painful": 11587, " globe": 11588, " Citiz": 11589, "leted": 11590, "irs": 11591, "mn": 11592, " coin": 11593, " trips": 11594, " True": 11595, " Airport": 11596, "requ": 11597, "ects": 11598, " Wayne": 11599, " cleared": 11600, "omer": 11601, " Fle": 11602, " earnings": 11603, "~~": 11604, "ello": 11605, "arded": 11606, "Ben": 11607, " crossed": 11608, " administrative": 11609, " convenient": 11610, " graphic": 11611, " riders": 11612, "lli": 11613, " Emer": 11614, " Nik": 11615, " lady": 11616, " liberty": 11617, " ranging": 11618, " bizarre": 11619, " pour": 11620, " iter": 11621, "uto": 11622, " org": 11623, " hes": 11624, "former": 11625, " displays": 11626, " iconic": 11627, " environments": 11628, " robots": 11629, " mothers": 11630, "China": 11631, " hosting": 11632, " ambitious": 11633, " 1988": 11634, "ding": 11635, "owder": 11636, "seless": 11637, " desert": 11638, "beat": 11639, " reserve": 11640, " secular": 11641, " sentiment": 11642, " predec": 11643, "Ps": 11644, " McDonald": 11645, "isive": 11646, "jamin": 11647, "Only": 11648, " converted": 11649, " Climate": 11650, " tissue": 11651, "?<|": 11652, " Murphy": 11653, " Larry": 11654, ">>>": 13620, " tum": 11656, " AFP": 11657, " FOR": 11658, " drops": 11659, " Dean": 11660, " Deep": 11661, "shore": 11662, "kind": 11663, "Did": 11664, " exploit": 11665, "words": 11666, " Reds": 11667, " Summer": 11668, " creator": 11669, " resort": 11670, " addressing": 11671, " anch": 11672, " sons": 11673, " safely": 11674, " hiding": 11675, " attorneys": 11676, "\u00c3\u00a5": 11677, " devastating": 11678, "Mart": 11679, " Sin": 11680, "EMENT": 11681, "two": 11682, " spray": 11683, " sleeping": 11684, "uably": 11685, " crossing": 11686, " pension": 11687, " Sac": 11688, " restricted": 11689, " arrests": 11690, " wore": 11691, " scrutiny": 11692, "ICE": 11693, " unfortunately": 11694, "puter": 11695, "uj": 11696, " burst": 11697, " Pir": 11698, " Tan": 11699, " libraries": 11700, " departments": 11701, " murdered": 11702, " competitors": 11703, " Whit": 11704, " Drive": 11705, " whis": 11706, " align": 11707, "phan": 11708, " container": 11709, " availability": 11710, " newsletters": 11711, " filing": 11712, " Singh": 11713, "kward": 11714, " adoption": 11715, "ailing": 11716, " newspapers": 11717, " misc": 11718, "pin": 11719, "bet": 11720, "atter": 11721, " productivity": 11722, " toss": 11723, " reign": 11724, " builds": 11725, " SE": 11726, " discrimin": 11727, " pregnancy": 11728, " NS": 11729, "celona": 11730, " overnight": 11731, " indication": 11732, " appearing": 11733, "oyd": 11734, "arians": 11735, " publisher": 11736, " earning": 11737, "ighting": 11738, " combine": 11739, "count": 11740, " viewing": 11741, " duties": 11742, "evelop": 11743, "ASH": 11744, " Manning": 11745, " mm": 11746, " fishing": 11747, " reflected": 11748, "oj": 11749, "isode": 11750, "arios": 11751, " uncomfortable": 11752, " Magazine": 11753, " tu": 11754, " regret": 11755, "government": 11756, " municipal": 11757, " Furthermore": 11758, " Ent": 11759, "named": 11760, "data": 11761, "Check": 11762, "gence": 11763, " Native": 11764, "agu": 11765, "dev": 11766, "UD": 11767, " horrible": 11768, "bably": 11769, "oop": 11770, " chemicals": 11771, " relie": 11772, " anonym": 11773, " cave": 11774, "accept": 11775, " separated": 11776, "Maybe": 11777, "uels": 11778, " sophisticated": 11779, "World": 11780, "oria": 11781, " rivals": 11782, " rewards": 11783, " Fig": 11784, " viable": 11785, " deserves": 11786, " pricing": 11787, " acted": 11788, " Phys": 11789, " Wiki": 11790, " relatives": 11791, " indu": 11792, " Mand": 11793, " winners": 11794, " recept": 11795, " Madrid": 11796, " slide": 11797, " preparation": 11798, "version": 11799, " equipped": 11800, " ritual": 11801, " limitations": 11802, " Chrome": 11803, " Inn": 11804, "ernel": 11805, " 1984": 11806, " complexity": 11807, " amongst": 11808, " Ronald": 11809, " ==": 11810, " mechanisms": 11811, " peer": 11812, " commod": 11813, "lesh": 11814, " parameters": 11815, " Federation": 11816, " firearms": 11817, " carrier": 11818, " bip": 11819, " tob": 11820, " Naz": 11821, "size": 11822, " suggestions": 11823, "gal": 11824, "iors": 11825, " delayed": 11826, " Na": 11827, " HTML": 11828, " Blu": 11829, " exploring": 11830, " meets": 11831, "winning": 11832, " toug": 11833, " 1986": 11834, " coord": 11835, "tit": 11836, " Taiwan": 11837, " lighting": 11838, " curve": 11839, " startup": 11840, "eller": 11841, " Collins": 11842, "emit": 11843, " intelligent": 11844, "Unfortunately": 11845, " ghost": 11846, " celebrated": 11847, " Mississippi": 11848, " abund": 11849, " cease": 11850, "arer": 11851, " interven": 11852, "burn": 11853, " quietly": 11854, " ensuring": 11855, " Poll": 11856, "XX": 11857, "ATED": 11858, " rebel": 11859, " Luke": 11860, " nights": 11861, "map": 11862, "quer": 11863, " collecting": 11864, "2011": 11865, " translation": 11866, " worlds": 11867, " detained": 11868, " orange": 11869, " McCon": 11870, "profile": 11871, "DAY": 11872, " beef": 11873, " employer": 11874, " DVD": 11875, " Level": 11876, "Pat": 11877, " Bab": 11878, " radar": 11879, "White": 11880, " installation": 11881, " Block": 11882, " delivering": 11883, "avery": 11884, " designated": 11885, " coins": 11886, "Michael": 11887, " migration": 11888, " debates": 11889, " );": 11890, "THE": 11891, " pledge": 11892, " Melbourne": 11893, "oda": 11894, " catast": 11895, " Sex": 11896, " EC": 11897, " grants": 11898, " caution": 11899, " offseason": 11900, " notably": 11901, " bugs": 11902, " tablet": 11903, "hyth": 11904, "fi": 11905, " themes": 11906, "RO": 11907, "uates": 11908, "emin": 11909, " Express": 11910, " wrap": 11911, "ori": 11912, "natural": 11913, " golden": 11914, " delegates": 11915, "gov": 11916, "Advertisements": 11917, " courses": 11918, "\u00e2\u0080\u00b3": 11919, " countless": 11920, " Disc": 11921, " Eagles": 11922, "aman": 11923, " witnessed": 11924, " gradually": 11925, " Quebec": 11926, "alid": 11927, " commands": 11928, " Cuba": 11929, "code": 11930, " Coalition": 11931, "media": 11932, " tends": 11933, " Smart": 11934, " violated": 11935, " meanwhile": 11936, " psychiat": 11937, " demonstration": 11938, "pot": 11939, " demo": 11940, " Crit": 11941, " Pod": 11942, "formance": 11943, " commentary": 11944, "witzer": 11945, " Swedish": 11946, " annually": 11947, " forb": 11948, " pending": 11949, "onds": 11950, " Heat": 11951, " observations": 11952, " thro": 11953, " Nap": 11954, "orical": 11955, "athon": 11956, " Saint": 11957, "oples": 11958, "ersion": 11959, "arently": 11960, " Toy": 11961, "\u00e2\u0080\u0099\u00e2\u0080": 11962, "arma": 11963, " remembered": 11964, " fires": 11965, " questioning": 11966, "rencies": 11967, " climb": 11968, "FS": 11969, " laptop": 11970, "rup": 11971, " verify": 11972, " impose": 11973, " highlighted": 11974, " replacing": 11975, " corn": 11976, "/.": 11977, " Lady": 11978, " seeds": 11979, " contents": 11980, " hunt": 11981, " preview": 11982, "elcome": 11983, "Media": 11984, "\u0099\u00e2\u0080\u0099": 11985, " frustration": 11986, " Marshall": 11987, " discipline": 11988, " patrol": 11989, " supplement": 11990, " poorly": 11991, "onda": 11992, "udeau": 11993, " comed": 11994, " grave": 11995, " Progress": 11996, " praise": 11997, " Peace": 11998, " Arts": 11999, " furn": 12000, " bathroom": 12001, " Pel": 12002, "rait": 12003, " actress": 12004, " aspir": 12005, " happiness": 12006, " Ky": 12007, " exploration": 12008, " gentle": 12009, " Round": 12010, " cruel": 12011, " Lions": 12012, "omach": 12013, " starter": 12014, "outing": 12015, " Hunter": 12016, " prevented": 12017, " Blake": 12018, " chamber": 12019, " Len": 12020, " Ward": 12021, " prayer": 12022, " cultiv": 12023, " Storm": 12024, " venue": 12025, " permitted": 12026, " instantly": 12027, " oxygen": 12028, "War": 12029, " Huff": 12030, " altogether": 12031, "urities": 12032, "atal": 12033, "Republic": 12034, " bonds": 12035, " ambassador": 12036, " Beat": 12037, " Motor": 12038, ".),": 12039, " arena": 12040, "ugs": 12041, " conced": 12042, " Berkeley": 12043, " Mas": 12044, " disappeared": 12045, " planes": 12046, " 76": 12047, " technological": 12048, "Min": 12049, "string": 12050, "file": 12051, "shot": 12052, "ierre": 12053, " suggestion": 12054, " Roger": 12055, " Ay": 12056, " partially": 12057, " agriculture": 12058, " Ow": 12059, "anches": 12060, " unl": 12061, " dil": 12062, " drinks": 12063, "ocur": 12064, " Campbell": 12065, "flow": 12066, " Fergus": 12067, " sizes": 12068, "Twitter": 12069, " incorrect": 12070, " protections": 12071, " FR": 12072, "hill": 12073, " fascinating": 12074, " Environmental": 12075, " Christianity": 12076, "group": 12077, " vaccine": 12078, " Hawaii": 12079, " Additionally": 12080, " logical": 12081, " Hann": 12082, " parks": 12083, " Much": 12084, "aucus": 12085, " styles": 12086, "atical": 12087, " supporter": 12088, " honestly": 12089, " adj": 12090, " alike": 12091, " Laur": 12092, "appropriate": 12093, " NCAA": 12094, " prol": 12095, " tobacco": 12096, " marginal": 12097, " Gene": 12098, "encer": 12099, " summary": 12100, " toll": 12101, "ologically": 12102, " Var": 12103, " flew": 12104, " Gre": 12105, " Kickstarter": 12106, " advised": 12107, " Gab": 12108, " hearts": 12109, " compr": 12110, " singing": 12111, "Leaks": 12112, " wound": 12113, "Their": 12114, " appointment": 12115, " Qual": 12116, " Forces": 12117, " Congressional": 12118, " ethics": 12119, "ttes": 12120, " stunning": 12121, " tar": 12122, "esides": 12123, " Jen": 12124, " capability": 12125, " Mitchell": 12126, " transmission": 12127, " enterprise": 12128, " Vladimir": 12129, "ctive": 12130, " metaph": 12131, "chron": 12132, "bu": 12133, " Speaker": 12134, " prosper": 12135, " powered": 12136, " blast": 12137, " Manager": 12138, " reactions": 12139, "ivan": 12140, " Editor": 12141, " essay": 12142, " electrical": 12143, " cous": 12144, "pling": 12145, "py": 12146, " stressed": 12147, " haz": 12148, "start": 12149, " Todd": 12150, " faculty": 12151, " makers": 12152, " Corps": 12153, " ash": 12154, " Arena": 12155, "sk": 12156, " ceiling": 12157, " sket": 12158, " derived": 12159, " Reid": 12160, " seventh": 12161, " Name": 12162, " mountains": 12163, " celebration": 12164, " rice": 12165, " pressing": 12166, " arguably": 12167, " drafted": 12168, " crown": 12169, " damn": 12170, " depos": 12171, "lected": 12172, " raid": 12173, " Jess": 12174, " Orange": 12175, " RT": 12176, " UI": 12177, "NT": 12178, " endless": 12179, "Fe": 12180, " Imp": 12181, " traveled": 12182, " complain": 12183, " Benn": 12184, " drones": 12185, " Sessions": 12186, " Commissioner": 12187, " Oxford": 12188, "TIS": 12189, " ineff": 12190, " Brus": 12191, " Row": 12192, "gments": 12193, " awkward": 12194, " bund": 12195, "orer": 12196, "witzerland": 12197, " applying": 12198, " Watson": 12199, " sacrifice": 12200, " accomplished": 12201, " shooter": 12202, " Bah": 12203, "gary": 12204, "('": 12205, " bubble": 12206, " weaken": 12207, "ults": 12208, "Take": 12209, " Flynn": 12210, " epid": 12211, "onia": 12212, " mechanics": 12213, " assumption": 12214, "aughters": 12215, " advocacy": 12216, " cats": 12217, " hostile": 12218, "ims": 12219, " breach": 12220, " revealing": 12221, "BL": 12222, " respective": 12223, " fract": 12224, "storm": 12225, "handed": 12226, "bie": 12227, " scratch": 12228, "Have": 12229, " Modern": 12230, "Several": 12231, " expertise": 12232, " Dakota": 12233, " devoted": 12234, "Second": 12235, "atoes": 12236, " Parker": 12237, "hol": 12238, " Indians": 12239, " Baker": 12240, " anarch": 12241, " circles": 12242, "mare": 12243, " strongest": 12244, "atin": 12245, " Rap": 12246, " Chall": 12247, "written": 12248, " focuses": 12249, "DE": 12250, "bles": 12251, "ipher": 12252, " shocking": 12253, " sword": 12254, " calendar": 12255, "uez": 12256, " audiences": 12257, " mic": 12258, " ---": 12259, " lone": 12260, " citizenship": 12261, " Kas": 12262, " buyers": 12263, "agraph": 12264, " confirmation": 12265, "utt": 12266, " Medicine": 12267, "WS": 12268, "uming": 12269, "Eng": 12270, "formed": 12271, " trucks": 12272, " 700": 12273, " particles": 12274, "idth": 12275, " frank": 12276, " acquisition": 12277, " conclusions": 12278, " computing": 12279, " sauce": 12280, "\u00e2\u0084": 12281, "sur": 12282, " Lawrence": 12283, "uerto": 12284, "oard": 12285, " unnecessary": 12286, " directors": 12287, "mid": 12288, "Data": 12289, "Bre": 12290, " rod": 12291, " lyr": 12292, " Date": 12293, " lineback": 12294, "actory": 12295, "GM": 12296, " penalties": 12297, " decor": 12298, "itate": 12299, "half": 12300, " spy": 12301, " longest": 12302, " responding": 12303, " Temple": 12304, "liver": 12305, "piece": 12306, "nor": 12307, "vol": 12308, "vious": 12309, "2010": 12310, "Hist": 12311, "itivity": 12312, "anded": 12313, " Find": 12314, "Men": 12315, " bitter": 12316, " ED": 12317, "brew": 12318, "byn": 12319, " stir": 12320, " Resp": 12321, " Hus": 12322, "ocus": 12323, "atre": 12324, " Dor": 12325, " historically": 12326, " entities": 12327, " Morris": 12328, " advertisement": 12329, " interrupt": 12330, " por": 12331, " addiction": 12332, " yard": 12333, " bears": 12334, " placing": 12335, " Yang": 12336, " contributing": 12337, " boundaries": 12338, "stan": 12339, " greet": 12340, " qualify": 12341, "jan": 12342, " Ferguson": 12343, " understands": 12344, " Sunn": 12345, " composition": 12346, " duration": 12347, "?'": 12348, " quantum": 12349, "borne": 12350, " Hotel": 12351, " conversion": 12352, " shake": 12353, " frustrated": 12354, "\u00d9\u0084": 12355, " coordinator": 12356, " Legisl": 12357, " operates": 12358, " orientation": 12359, "zes": 12360, " hacking": 12361, "mart": 12362, " Safety": 12363, " Prom": 12364, " Barcelona": 12365, "MM": 12366, " cam": 12367, " stun": 12368, "Given": 12369, " Roc": 12370, "PI": 12371, " Records": 12372, " priest": 12373, " feminist": 12374, "lements": 12375, " Hispan": 12376, " Jacob": 12377, "Inter": 12378, " 1987": 12379, "Big": 12380, "acular": 12381, "andy": 12382, "\u00e2\u0080\u00a6\u00e2\u0080": 12383, " distant": 12384, " motivation": 12385, " fastest": 12386, "minded": 12387, "boards": 12388, " grocer": 12389, " painted": 12390, " popul": 12391, " Ian": 12392, "Set": 12393, " Netanyahu": 12394, "umm": 12395, "outheast": 12396, " pedest": 12397, " FCC": 12398, "liminary": 12399, " overd": 12400, "connect": 12401, " Rain": 12402, "\u00a6\u00e2\u0080\u00a6": 12403, "IST": 12404, " node": 12405, " density": 12406, " UC": 12407, "PDATE": 12408, " oversight": 12409, " tunnel": 12410, " experiencing": 12411, " controlling": 12412, " counties": 12413, " Ry": 12414, " mild": 12415, " safer": 12416, " Hend": 12417, "La": 12418, " Song": 12419, " till": 12420, " vague": 12421, " 1979": 12422, " divide": 12423, " Fif": 12424, "fs": 12425, " BE": 12426, " Swiss": 12427, "Med": 12428, " transformation": 12429, " directions": 12430, "km": 12431, " receives": 12432, " sentences": 12433, " imperial": 12434, "dec": 12435, "\u00c2\u00b7": 12436, "Figure": 12437, " ugly": 12438, "leton": 12439, " suprem": 12440, " illegally": 12441, "Har": 12442, "comed": 12443, " probability": 12444, " intensity": 12445, " composed": 12446, "abling": 12447, "Euro": 12448, "acies": 12449, " enjoying": 12450, " Cos": 12451, "acer": 12452, "ogg": 12453, " Abbott": 12454, "western": 12455, " heaven": 12456, " dign": 12457, "supp": 12458, " Side": 12459, " mandatory": 12460, "specific": 12461, "ACK": 12462, " conservation": 12463, " achievement": 12464, " gaining": 12465, " Remember": 12466, " Bloomberg": 12467, " insane": 12468, " Against": 12469, " agricultural": 12470, " balanced": 12471, " lung": 12472, " 69": 12473, " condemned": 12474, " stomach": 12475, " 1985": 12476, " residence": 12477, " distinction": 12478, " Lie": 12479, " printing": 12480, " pione": 12481, " emerge": 12482, " prototype": 12483, " Beng": 12484, " Ca": 12485, " wings": 12486, "health": 12487, " spacecraft": 12488, " investing": 12489, " acceptance": 12490, "\u00c2\u0094": 12491, " 77": 12492, " touched": 12493, " Rice": 12494, " tune": 12495, " zomb": 12496, " toile": 12497, " Tea": 12498, " initiatives": 12499, " Building": 12500,
[...]
