Ġ t
Ġ a
h e
i n
r e
Ġt he
o n
e r
Ġ s
Ġ w
a t
Ġ o
e n
Ġ c
i t
i s
a n
o r
Ġ b
e s
e d
Ġ f
in g
Ġ p
o u
Ġa n
a l
Ġt o
a r
Ġ m
Ġ in
Ġo f
Ġ h
Ġ d
â Ģ
a s
i c
Ġan d
Ġt h
l e
o m
i on
l l
en t
Ġ n
Ġ l
Ġ re
s t
v e
Ġ e
l y
r o
Ġb e
Ġ g
i d
u t
a c
o t
Ġ T
Ġ I
Ġth at
Ġ on
a y
Ġ S
Ġ is
e t
i m
a m
a d
o w
s e
i g
Ġf or
âĢ Ļ
Ġ A
v er
u r
c t
l d
Ġ C
Ġ u
Ġs t
Ġ y
Ġ it
Ġ he
i r
at ion
it h
Ġw h
Ġ M
c e
t er
o l
Ġw e
i l
Ġw ith
Ġa s
Ġ B
c h
i ll
n d
Ġ P
Ġw as
er s
Ġy ou
k e
Ġ âĢ
Ġc on
Ġd e
Ġ r
he r
i f
at e
a g
Ġa t
Ġh a
Ġ W
Ġs e
Ġ H
o re
Ġp ro
u l
p p
m ent
r i
Ġa re
Ġ D
Ġ 1
u s
es t
is t
Ġc om
an d
Ġ R
o p
a in
ĠT he
Ġ 2
ig h
r om
en d
Ġ (
t e
t h
o d
Ġn e
Ġ F
u m
u n
Ġe x
re s
a b
âĢ Ŀ
Ġn ot
Ġ N
Ġ v
es s
Ġha ve
it y
ou ld
Ġo r
Ġb y
or t
o s
Ġ G
i ve
Ġf rom
an t
Ġa l
' s
o c
Ġs u
ar t
e l
Ġ L
Ġs h
Ġth is
e m
q u
n t
igh t
p e
u st
Ġ le
i es
Ġ E
Ġc h
Ġs a
Ġa b
T he
ou t
al l
i e
ac k
re d
0 0
ĠâĢ ľ
Ġh as
al ly
Ġ J
Ġp l
Ġg o
ar d
i v
Ġh is
om e
a p
o st
g h
e ar
Ġ O
Ġt r
ou r
Ġ j
a k
u d
Ġw or
as t
Ġd o
Ġthe y
Ġb ut
r ou
Ġc an
g e
Ġw ill
Ġsa id
Ġw he
Ġ U
Ġ k
ic h
Ġa ll
o k
Ġ "
id e
Ġwh o
am e
an s
t her
i al
Ġo ut
f f
Ġthe ir
on g
p l
ic e
u re
on e
Ġm ore
ag e
ion s
ac t
Ġu p
i ke
Ġm e
ou s
in e
Ġa d
e p
Ġab out
at ed
r a
b er
p t
Ġon e
Ġwe re
Ġs o
Ġu s
e ct
o g
im e
Ġ K
i a
Ġh ad
a re
u b
c c
Ġw ould
Ġc l
Ġ2 0
Ġ im
Ġwh ich
in d
x t
u e
a ke
i z
ver y
Ġa g
Ġt e
Ġof f
Ġcom p
Ġu n
Ġbe en
Ġin t
s o
Ġ en
p er
ig n
a u
Ġcon t
ĠT h
ar y
Ġy ear
i p
ac e
e w
Ġl ike
v en
o ok
Ġin c
ay s
Ġm an
Ġp e
ĠI n
r y
o se
Ġre s
ab le
it e
Ġp er
as s
or d
Ġs p
i re
Ġo ther
m er
Ġs ome
i le
i b
en ce
ĠS t
op le
Ġ20 1
k s
ation s
Ġo ver
ic al
Ġthe re
res s
Ġd is
ul t
Ġne w
ow n
Ġal so
Ġth an
Ġa r
Ġbe c
r u
Ġthe m
an ce
ou gh
Ġa pp
p ort
ou nt
a il
re e
in t
Ġp art
Ġyou r
Ġwhe n
Ġwh at
or m
on d
Ġpe ople
f ter
Ġs c
ĠC h
a v
as e
Ġ qu
Ġan y
Ġj ust
Ġit s
Ġ Y
ac h
ct ion
Ġt ime
o f
Ġk n
ĠI t
Ġhe r
Ġ 3
en s
l ic
Ġre c
re at
Ġm y
Ġg et
Ġ if
Ġ V
i an
. âĢĿ
Ġint o
ou nd
Ġwor k
Ġt w
ir st
ve l
Ġn o
d u
e re
ing s
or y
ic k
or s
Ġo ur
it ion
id ent
o b
Ġ -
Ġp re
o ve
Ġpl ay
an g
in k
au se
w n
te xt
am p
ad e
at es
h ing
ar k
Ġ ro
Ġp ol
Ġs he
ver s
Ġc o
, âĢĿ
Ġa fter
Ġf irst
Ġc ould
Ġh ow
ĠH e
n e
Ġ1 9
i ous
nd er
i ld
Ġa cc
Ġh im
a w
' t
on s
Ġp o
| >
< |
end of
endof text
Ġon ly
Ġf e
ic t
he d
Ġp r
r it
o v
Ġtw o
is h
Ġcom m
âĢ ľ
Ġs pe
f orm
Ġa ct
er v
Ġb l
w e
Ġbe t
Ġde c
. "
n ing
Ġb ack
Ġm ost
c es
f t
o od
c k
ĠâĢ ĵ
Ġa m
o y
Ġd id
rou gh
if f
at er
rou nd
Ġag ain
Ġ 4
u al
d ay
is e
Ġu nder
Ġd es
Ġw ant
u ll
se l
Ġcon s
ĠâĢ Ķ
. .
Ġbec ause
Ġn ow
l ud
ent s
m an
Ġyear s
ter n
ub lic
Ġne ed
e c
Ġe ven
Ġ $
is s
Ġin v
Ġat t
Ġkn ow
ĠW e
Ġse e
ment s
c ed
Ġad d
, "
o ld
Ġin d
t ing
Ġse c
f ore
u ch
Ġe very
ur n
Ġ 5
Ġsu pp
Ġm ake
pe ct
ĠU n
Ġe m
Ġthe se
oc k
I n
o ll
Ġwhe re
j ect
ation al
ver n
Ġb u
Ġl ook
T h
ĠA nd
os s
Ġd on
Ġe v
um p
at ing
Ġw ay
Ġbe ing
Ġre m
i ly
Ġm ay
n g
ro w
le ct
ie w
Ġthe n
Ġr ight
Ġman y
Ġ [
Ġd iff
Ġde f
as on
Ġre l
Ġc all
ĠB ut
ĠT r
l es
i ed
as ed
Ġinc lud
Ġth ink
ak ing
Ġre g
) .
on t
mer ic
Ġim p
Ġth rough
at h
it ed
ri b
Ġs y
Ġsh ould
Ġp res
Ġs ay
Ġf l
ur ing
Ġl ast
t y
Ġth ose
ow er
Ġ very
ot her
Ġm uch
00 0
it ies
if ic
Ġst ate
ĠTh is
at ive
Ġsh ow
t le
he n
Ġb r
s s
ar g
Ġwe ll
ot h
Ġp h
ĠW h
al s
u nd
Ġc ount
Ġdo es
Ġd own
Ġo wn
ar ly
Ġ end
Ġas s
Ġbe l
Ġu se
ic s
an ge
t s
- -
Ġl ong
ĠA meric
ter s
in ce
Ġbe fore
om et
g r
Ġm on
w ard
Ġgo vern
Ġst art
Ġre port
ib le
Ġ ke
u p
u es
ĠN ew
ou n
Ġf in
Ġte am
b le
Ġm ade
if e
ol og
re n
en er
) ,
Ġsu ch
c om
Ġ2 00
ers on
i x
Ġs m
e k
re st
âĢ Ķ
l p
il ity
Ġgo ing
is m
f ul
Ġwor ld
u ally
Ġst ud
ist s
Ġgo od
Ġa c
t ain
Ġsu b
Ġe ff
in i
Ġs ur
Ġagain st
I t
it s
Ġg ame
Ġs et
or k
Ġ 6
Ġg u
Ġpo int
Ġ ent
y s
g an
ar s
l i
st em
Ġpro v
Ġst ill
rou p
Ġwh ile
ill ion
Ġhe lp
Ġle ad
e ll
m s
we en
. <|
a x
an k
al k
im es
Ġs ays
Ġo b
c y
Ġpro du
e f
Ġin te
Ġg r
Ġin ter
Ġin st
Ġst r
c ess
Ġs im
sel f
Ġcon f
Ġc ol
Ġt ake
i o
Ġm in
u res
ar ch
Ġs ame
Ġth ough
Ġbet ween
oll ow
Ġoff ic
e ver
Ġc r
l and
Ġdiff ere
o ol
us s
ut ion
Ġdis c
a ir
Ġo p
a h
Ġ ed
Ġh igh
re ad
Ġn um
Ġl aw
Ġs ign
w ay
Ġgovern ment
g g
l ed
ĠR e
n er
h ip
at ch
he s
am es
an y
Ġt er
Ġs omet
c ent
t en
vel op
t ed
W e
Ġre f
Ġtr ans
Ġin s
Ġr un
Ġs er
Ġf ound
Ġth ree
iv es
a ve
Ġm em
Ġa round
Ġhe re
at her
Ġm ed
Ġre al
Ġus ed
ou se
Ġ1 0
v ed
Ġex p
a z
ĠA r
ce pt
o ot
Ġsy stem
ĠY ou
c i
Ġre ally
Ġm od
v ing
c on
c er
Ġg roup
Ġsupp ort
Ġ 7
Ġc our
et s
al e
n in
in s
Ġc ar
Ġre t
Ġh and
Ġp ublic
Ġspe c
p r
p h
ĠL e
y ing
Ġg reat
en se
Ġex t
t on
. [
ire ct
Ġc ur
Ġf am
ĠC om
al th
Ġha pp
Ġf act
Ġex per
ĠThe y
ĠTr ump
Ġf r
Ġw om
ĠI s
Ġc ap
Ġb oth
Ġd ay
Ġf ind
ĠA l
ul ar
Ġre ad
in es
o h
ic es
Ġd et
Ġl it
Ġs l
Ġre p
ut h
Ġd uring
ĠS h
ĠA s
Ġ 0
Ġs erv
t he
Ġmon th
is ion
Ġde velop
Ġb ig
m in
Ġ 8
Ġp erson
ak es
Ġf ollow
Ġc re
ĠC l
Ġis s
Ġto ld
Ġs ince
a red
m ed
ic ally
Ġwe ek
ag es
i vers
Ġw ar
Ġf ew
ord ing
Ġc ent
Ġle g
a j
e x
g et
Ġpol it
v es
as h
Ġex pl
e red
Ġl ot
r ic
Ġbel ie
at a
Ġg ener
Ġto o
Ġ 9
d er
re nt
Ġo pp
W h
Ġre qu
Ġcont in
i et
b ers
an c
Ġf il
Ġc or
ent ion
n ess
Ġc le
Ġres p
Ġp ut
iz ed
ĠI f
Ġan other
2 0
ch ool
Ġin f
Ġsomet hing
Ġdiffere nt
Ġl oc
ĠD e
ut e
Ġinv est
Ġs oc
Ġp ower
Ġc he
u c
Ġ '
Ġp ass
Ġcomm un
Ġl ife
ĠF r
Ġpl an
od y
Ġre le
Ġhe ad
i ence
Ġth ings
n ed
th ing
Ġf ar
o x
Ġar t
Ġp oss
Ġm et
Ġc amp
ro ss
ar ge
Ġv ot
Th is
v iew
Ġch ild
i er
ant s
Ġas k
Ġm ight
Ġe ach
iz e
Ġde p
in ess
Ġ .
Ġne ver
Ġne xt
ĠF or
ĠA n
ie ld
Ġsec ond
Ġm ark
Ġqu est
Ġb us
Ġad v
i k
Ġde m
Ġcom e
Ġg ot
ĠâĢ ĺ
re t
Ġop en
Ġb est
i ent
it al
Ġall ow
.. .
ĠTh at
r at
Ġse em
Ġp ost
p le
te m
n ce
Ġfe el
ĠP ro
ĠU S
u g
Ġp ri
gr am
Ġper cent
c l
Ġh ome
Ġd ist
Ġd irect
i red
Ġinc re
Ġcont ro
ĠR ep
s on
l ess
or n
os ed
Ġres ult
Ġh ard
Ġc are
ate ly
Ġm illion
ch n
Ġcomp le
Ġpl ace
Ġwith out
Ġin form
Ġinclud ing
Ġim port
Ġa v
con om
Ġh um
am a
Ġ ide
Ġpro ble
Ġbu ild
Ġto p
Ġnum ber
Ġcount ry
g y
one y
a im
ĠB l
r al
t t
ab ly
u ro
Ġst and
Ġg l
Ġe l
ri end
Ġf our
is hed
w ays
Ġpart ic
Ġbet ter
Ġt ri
B ut
Ġrec ent
Ġinte rest
Ġm ov
Ġle t
r ation
c o
Ġse ason
Ġl ess
Ġt urn
Ġlit tle
Ġbe h
Ġm il
e ad
Ġapp ro
r act
l ine
Ġb ro
l ing
is ed
Ġcall ed
a pp
1 0
Ġc ase
Ġd r
ĠI nd
Ġre st
Ġle ft
Ġp op
Ġan n
Ġ Z
en cy
Ġm ove
od e
Ġatt ack
in a
ĠThe re
Ġke ep
Ġf ull
er ing
Ġdid n
b e
Ġf un
Ġm ain
aj or
_ _
Ġeff ect
in al
le g
Ġpre v
Ġpro gram
Ġus ing
Ġt est
t o
re m
Ġp ay
at ure
Ġe ar
Ġv al
Ġpol ice
Ġw rit
Ġfor m
Ġe conom
Ġd ata
Ġnew s
Ġp os
Ġw in
Ġch ar
ĠAmeric an
Ġle vel
Ġs it
ain s
iv ing
u ck
Ġsm all
in ed
read y
H e
Ġs chool
Ġl ist
olog y
r ap
id ed
m it
pl oy
' re
g er
Ġe as
Ġpro cess
ir d
Ġch ange
or th
Ġwom en
Ġcur rent
Ġre ce
Ġp rom
Ġh ist
Ġd ri
Ġ =
re en
Ġpres ident
Ġcomp any
us ed
Ġm at
ru ct
Ġal ready
oh n
ĠUn ited
w it
Ġt y
Ġwh y
Ġb re
Ġu nt
Ġm oney
Ġs ol
Ġal ways
Ġl ater
Ġex pect
Ġte chn
Ġbus iness
ĠH ow
Ġoffic ial
r on
Ġ Q
ĠO b
st and
ivers ity
Ġb ook
Ġb o
ĠP h
a ign
Ġth ing
Ġcl ass
Ġpro ject
as es
Ġcl aim
Ġj ob
Ġinform ation
Ġor gan
a ff
ĠS he
Ġt alk
ard s
ĠB e
Ġdes ign
Ġst ory
Ġch ang
Ġm ajor
Ġab le
Ġpro f
Ġ- -
le ction
iv en
er tain
Ġre se
Ġhe alth
Ġv is
ur s
Ġf ree
ou th
he re
ĠA d
Ġo per
ĠS o
Ġa way
i or
ĠC an
Ġm ust
Ġc ity
amp le
i ans
r ist
s c
ur al
Ġhapp en
uth or
Ġ1 8
ac y
ur ity
Ġimport ant
Ġk ill
Ġs k
pt ion
Ġ est
u red
Ġo ld
Ġp ast
Ġp at
ĠS e
ur y
end ing
Ġdoes n
iss ion
Ġle ast
-- -
Ġg row
Ġed it
Ġv ar
ain ed
Ġc ost
ne y
id er
ĠG o
id es
Ġd ays
Ġte ll
Ġh op
Ġcamp aign
s ide
Ġst re
Ġ1 2
Ġm en
Ġc ame
Ġa ff
ĠM ar
Ġcon st
res ident
Ġen ough
Ġv iew
cc ess
Ġk ind
ĠS p
o ad
er n
Ġm aking
el s
Ġl arge
Ġrec ord
5 0
us h
Ġm ar
Ġf riend
Ġfam ily
âĢ ¦
le y
Ġe lect
d ed
er al
Ġpol ic
Ġt ax
is ing
r or
b y
pp ed
al ity
at or
if ied
A s
iv ed
Ġunt il
are nt
ion al
Ġpolit ical
Ġv ide
Ġde al
ri es
al f
au gh
Ġ ve
Ġwork ing
u ed
ĠRep ublic
Ġto ok
Ġde b
b s
I f
is ter
Ġl ine
ĠJ ohn
ain ing
Ġa ir
- --
Ġ es
an e
Ġin tern
Ġf ore
i ol
oc rat
Ġbec ome
Ġact ually
ap s
on y
Ġme an
w ork
ĠS c
Ġf und
w are
1 9
ĠP l
S t
Ġfor mer
Ġof ten
ĠE uro
ot t
Ġw on
an n
Ġg ive
Ġacc ording
Ġe ver
m ost
en g
y ear
Ġpro te
w h
ar ing
Ġg ames
is on
Ġhum an
Ġb as
iz ation
Ġret urn
Ġt imes
Ġor der
ĠR uss
Ġwor d
Ġb it
ĠD em
Ġn ame
o int
1 1
Ġse ver
ĠC on
ĠA ll
Ġp ar
Ġde v
ic le
f or
ut ure
it her
Ġ19 9
ĠM c
ĠA t
Ġw r
ra ft
Ġs ing
Ġper form
ĠS y
Ġmark et
Ġf ac
Ġchar ac
The re
i qu
ĠO r
en e
id d
ĠM ay
Ġr a
Ġdo ing
Ġapp ear
E R
c hed
Ġplay ers
Ġl a
Ġn ight
Ġle ar
ak en
ro p
at s
m ber
Ġto day
Ġe arly
Ġ1 5
Ġse en
/ /
Ġha ving
Ġ ,
Ġp ot
Ġchild ren
Ġev ent
Ġmed ia
Ġsoc ial
Ġc rit
ĠP resident
Ġwhe ther
Ġsever al
Ġcontro l
id ence
Ġme et
s h
Ġmil it
Ġp ress
Ġw ent
art ment
Ġf ive
Ġyou ng
or ies
Ġpro p
ious ly
Ġsu re
Ġe qu
Ġbe g
Ġquest ion
Ġo cc
un e
Ġlike ly
ver t
Ġmem bers
b r
Ġc ertain
and s
Ġen g
Ġw ater
ĠY ork
Ġex ample
ot s
ĠC ol
Ġar g
Ġs ide
Ġd one
Ġ vers
en n
Ġan t
Ġinv ol
e e
ĠM r
ĠSt ates
ĠEuro pe
end ed
le t
Ġal ong
Ġsh ort
Ġsu ccess
ent ial
Ġmonth s
b all
Ġh our
Ġ1 1
i um
ĠS te
i ver
i ally
A nd
Ġse x
l f
Ġwith in
Ġdes c
im ate
Ġcour se
Ġf ight
ur ch
ub l
Ġam ong
Ġact iv
u ff
âĢ ĵ
ag ue
Ġon ce
st er
Ġf uture
Ġinvest ig
ul ation
re w
Ġposs ible
ĠOb ama
Ġch o
n ect
ĠC ar
Ġunder stand
it ing
Ġcon cer
ĠO n
Ġ ]
on es
ort un
Ġproble m
ĠB r
Ġpri v
Ġme ans
Ġv iol
Ġa uthor
it ive
gg est
ĠN o
Ġav ail
oc i
our n
m y
Ġkn own
Ġprodu ct
Ġn on
iv id
Ġthough t
Ġy et
g ress
Ġac ross
Ġloc al
l er
Ġh old
ĠT e
Ġf ail
in c
ĠW hen
ĠSt ate
Ġcommun ity
Ġre ason
Ġor ig
ed e
Ġsu ggest
Ġ &
1 2
Ġm akes
ver age
p or
al d
n ot
b ack
Ġ201 6
Ġ i
b ook
Ġask ed
ed eral
or ld
Ġreport ed
Y ou
ag ed
ens ive
Ġg iven
Ġstr ong
Ġpro b
Ġm us
Ġother s
Ġbelie ve
Ġvide o
i ber
Ġb en
Ġget ting
ĠH ouse
an ces
Ġann oun
Ġl ight
g ing
ore d
o ber
ĠUn iversity
Ġ3 0
it ions
Ġ ident
ir on
Ġs ent
Ġc ut
Ġl im
Ġc a
ĠCh rist
ĠC o
iet y
3 0
ur ther
Ġs our
Ġc reat
Ġcon d
Ġ X
am s
' ve
Ġn et
as hing
Ġb at
am ent
Ġn ational
. ,
Ġcl ose
ar m
Ġstart ed
Ġsa f
Ġde ath
as ter
Ġavail able
F or
Ġh ig
Ġb ased
Ġiss ue
Ġind ust
ĠDem ocrat
Ġl ow
Ġfollow ing
res ent
Ġacc ount
Ġl and
u se
ĠC ent
Ġem ploy
Ġl ove
Ġ201 5
Ġ #
Ġhist ory
Ġag o
ort s
sel ves
Ġm om
an a
Ġpart y
ĠA m
ab ility
Ġser ies
Ġcom es
Ġtr ying
u ly
ut es
Ġal most
get her
u ment
Ġto gether
in ation
A T
ĠAmeric a
Ġide a
p ro
ie f
Ġacc ess
Ġf oc
e b
her s
il ar
ĠF l
re ed
ail s
Ġcomm it
ition al
Ġis n
ĠS en
Ġcle ar
Ġ1 6
ĠO ne
Ġtr ad
ĠM in
th ough
r ing
ĠWh at
Ġpr act
Ġadd ed
Ġimp ro
Ġexper ience
ere nce
Ġfil m
1 5
Ġh alf
ust om
g ed
Ġh it
ĠB ro
wit ter
r ict
Ġan al
Ġpro t
int on
og rap
un ch
Ġ201 4
Ġr ul
ivid ual
Ġlook ing
Ġs ix
Ġl ive
Ġany thing
Ġare a
Ġcomple te
er man
min ist
Ġm iss
ra el
ĠCom m
Ġf av
ĠE x
tem pt
Ġr is
n es
Ġpres ent
a i
ot e
ru g
Ġsay ing
ra w
a id
ĠCan ad
Ġv ict
I N
ci ally
Ġb ad
ow s
u ge
Ġt aken
ot o
Ġent ire
ĠP r
at ors
Ġm or
Ġb ill
a f
Ġcomp et
ĠE ng
Ġbeh ind
i en
Ġa ut
' m
ĠT o
Ġcour t
pl ay
Ġtr y
ward s
Ġmilit ary
Ġ z
Ġne ar
os p
Wh at
Ġf ace
Ġm ult
Ġ er
Ġ1 4
Ġsec urity
ĠP ol
p s
Ġpro per
Ġdisc uss
Ġth reat
e v
Ġstud y
Ġsing le
Ġr ather
Ġind ividual
er t
ĠA f
ĠW ar
ĠB rit
Ġs w
Ġ Â
Ġqu ick
Ġto t
ĠD on
A n
Ġm ind
ĠS ec
le ment
al es
at ic
ĠN orth
am ed
ap er
Ġp ubl
p ar
Ġpolic y
Ġm ess
r is
Ġbl ack
Ġwant ed
Ġf all
ir c
* *
o ff
Ġf ood
Ġs um
Ġsome one
ll ing
id s
O n
ĠD ep
Ġ /
Ġc ult
Ġspec ial
Ġcom b
Ġke y
Ġplay er
Ġre du
Ġ |
ĠG r
Ġbr ing
Ġ1 3
Ġcomp an
Ġ1 7
p ly
ro te
Ġat tempt
ĠB ar
ĠN ational
Ġt aking
W hen
y n
O N
if y
ol ution
Ġ :
v iron
Ġf oot
ĠC al
: //
Ġel se
Ġpre t
Ġb ody
Ġsp ace
o ver
Ġc oun
el t
Ġprob ably
1 6
ic ult
. )
Ġfr ont
Ġc ou
Ġnot hing
ĠI m
ashing ton
Ġcon nect
c hes
ĠW orld
Ġrese arch
1 4
ĠCl inton
ĠC ity
m ing
Ġcom ing
Ġpoint s
ĠIs rael
Ġhow ever
R E
Ġdesc rib
Ġj o
g o
Ġsign ific
Ġsim ilar
li er
ĠM an
rem e
c ing
Ġben ef
ĠA ust
Ġim m
Ġdec ision
Ġe ither
ac es
A d
ĠH ar
a ult
Ġm ass
Ġs us
Ġt arg
ull y
s y
Ġfe at
Th at
Ġcon v
Ġex ist
ir l
Ġen c
Ġ201 3
Ġright s
Ġserv ice
ĠS u
as ing
I S
o on
Ġf ire
Ġd oc
Ġw rote
Ġf urther
Ġh ouse
ro du
Ġb an
w w
Ġf ig
Ġch all
Ġth ird
m b
Ġprote ct
Ġw a
Ġcre ate
s w
Ġst op
Ġf ield
Ġp ick
n ow
A N
a pe
ive ly
Ġme as
Ġre pl
Ġcom pl
un g
ĠW ith
Ġiss ues
pp ing
Ġbeg in
Ġsu per
am er
Ġst ep
ri ed
ent ly
Ġwho le
Ġrel ations
Ġseem s
Ġ )
Ġt em
Ġcompan ies
pe cially
Ġd ue
Ġex ec
Ġc and
Ġevery thing
e al
Ġf ederal
ĠE d
Ġst ates
ĠG u
Ġe y
Ġro om
a ul
Ġtr a
Ġw atch
Ġc ustom
ĠG e
Ġlead ers
1 3
r an
u ation
ĠHow ever
p ite
ĠJ an
ĠW ashington
C h
l am
Ġse lf
Ġro le
il t
Ġs ound
Ġl ab
he ad
Ġd am
iv il
Ġofficial s
Ġst ri
S o
Ġ201 2
Ġt re
id ay
l u
ib ility
Ġrele ased
ĠIn st
Ġbe gan
ĠD av
ĠA pp
ĠS outh
Ġo pt
ob al
Ġstud ents
Ġt reat
Ġfin al
Ġcharac ter
Ġpos ition
Ġmat ter
Ã ©
end er
Ġen er
l im
Ġout side
Ġd ou
er y
se c
ad es
viron ment
Ġdevelop ment
Ġstate ment
Ġhim self
Ġ201 7
Ġst at
Ġab ove
l ike
Ġin it
Ġbre ak
Ġ1 00
Ġam ount
Ġprov ide
at t
Ġhour s
Ġit self
Ġthem selves
Ġoff ice
Ġrep resent
Ġa ction
Ġd i
Ġbec ame
Ġ19 8
Ġgener al
Ġcontin ue
ĠP art
Ġcount ries
ĠIn tern
Ġne g
Ġadd ress
i od
te e
Ġ2 5
Ġg un
ac ed
as k
Ġtr ue
Ġspec ific
ograp h
um b
ar ter
re g
Ġl arg
Ġsignific ant
l ish
Ġsim ply
ĠA ss
ĠR es
Ġwas n
' ll
il i
Ġinter view
ace book
Ġg round
Ġr ad
o id
og n
Ġdiff icult
Ġrun ning
ĠJ ust
Ġev idence
Ġad minist
B C
Ġc op
1 7
re am
Ġd rug
Ġvers ion
Ġb ar
og le
Ġag ree
idd le
e ks
Ġbuild ing
ĠCh ina
Ġneed s
Ġprof ess
ang u
Ġgroup s
Ġty p
Ġresp ons
Ġcomm on
Ġshow s
Ġevery one
Ġd om
Ġd est
Ġre d
Ġneed ed
Ġb all
Ġwom an
__ _
ĠG erman
Ġl at
Ġbel ow
r ight
ĠS ep
l ight
ourn al
Ġmus ic
Ġex c
Ġrele ase
if t
Ġin j
Ġpret ty
ĠA b
A R
rib ut
ĠM ed
Ġinclud e
Ġsa w
Ġde ep
b ody
Ġa p
1 8
Ġplay ed
Ġqu ite
Ġindust ry
Ġch arg
Ġm ag
Ġener gy
Ġplay ing
Ġm ot
Ġ5 0
Ġcand id
Ġs ense
Ġph ys
Ġl ate
Ġal leg
Ġwh ite
ĠH is
iv al
Ġfriend s
Ġg en
Ġleg al
at ur
b o
Ġan im
is c
y le
ĠA fter
om m
H ow
A S
w here
Ġab s
le v
Ġinst ead
Ġb illion
Ġl ost
Ġes pecially
Ġval ue
ĠM us
ĠW est
Ġh ost
t ime
os ing
or ing
Ġh om
ĠNew s
ag er
Ġp le
ist ic
Ġwe eks
e g
ep end
ĠN ot
cc ording
Ġfor ward
Ġdet er
Ġe lection
Ġrecent ly
Ġj ud
Ġtr ack
Ġsu ff
Ġvot e
l t
ĠT witter
Ġob ject
med i
Ġper iod
Ġchang es
Ġopp ortun
ĠWh ite
ĠO ct
Ġlong er
ir t
ar c
o ke
Ġp ain
iqu e
Ġso on
Ġs ite
Ġ {
Ġe p
h od
ri pt
ac hed
Ġac cept
ĠC ong
_ __
ir m
Ġsh oot
Ġeconom ic
Ġhop e
Ġmom ent
Ġdec l
le ge
Ġcons um
ĠW ill
Ġp ie
Ġt it
Ġche ck
op h
o e
Ġpot ential
Ġbl ock
ĠM arch
o le
Ġwr ong
du ct
n ers
i j
d en
ĠDep artment
Ġhig her
on se
Ġc red
Ġon line
Ġfoc us
Ġ2 4
Ġcons ider
ke y
Ġed uc
anc ial
ĠM y
n s
id ing
Ġc irc
Ġwor ks
Ġrel ig
Ġsh are
Ġp arent
c ial
Ġhe ld
2 5
Ġp red
ĠD r
Ġw alk
Ġwe bs
Ġl o
ul arly
= =
Ġre ve
Ġl ed
le ar
Ġst ay
ĠThe se
ove red
Ġst ru
Ġgo al
ĠRepublic an
Ġris k
Ġword s
ĠA ug
Ġre v
Ġso ld
Ġre view
ic ro
Ġcont ract
Ġresult s
Ġserv ices
Ġlaw s
The y
Ġc ode
c il
ĠM ich
Ġw ind
Ġfun ction
Ġa ud
ĠSy ri
p ut
Ġc e
Ġtot al
a ut
f ect
Ġart icle
Ġa ge
Ġapp lic
Ġmin utes
Ġperson al
il ities
Ġany one
u ary
i ents
it ution
ĠJ une
as ons
ate g
Ġpr im
ang er
Ġtarg et
Ġd en
Ġear lier
u le
Ġfav or
Ġexp ress
h aps
f er
Ġde ad
Ġan sw
c he
Ġup d
Ġpop ular
Ġcomp ut
Ġv ol
pr il
Ġne cess
h am
Ġh y
Ġr ate
E S
ag ing
Ġtechn ology
ap an
Ġres pect
v al
Ġen vironment
Ġ201 1
P h
Ġrece ived
Ġexpect ed
em ber
ĠS m
ĠP ar
end s
ud e
Ġb ase
Ġcre ated
Ġsur pr
Ġant i
e ch
ĠJ uly
al t
et er
Ġproble ms
u el
Ġw ays
ip le
Ġp ort
act ion
Ġpriv ate
ĠD o
Ġsc ient
Ġincre ase
r ay
re et
Ġannoun ced
Ġcom ment
is l
Ġcan not
Ġeas y
A l
Ġsh ot
ĠCong ress
Ġquest ions
ĠE n
b it
Ġfor ce
ater ial
ĠP e
Ġimp act
her n
Ġe t
ĠM ond
pl es
Ġp ack
Ġ +
Ġp ur
ĠF acebook
Ġl angu
at ives
ĠG od
ct or
Ġinvol ved
om b
av ing
ill s
6 0
le x
h ood
on st
ĠAust ral
Ġd iv
ues day
Ġexec ut
Ġmod el
it iz
Ġs en
Ġspe ak
Ġst aff
Ġex act
Ġc ivil
i res
Ġne arly
Ġty pe
our t
ok es
Ġorig inal
Ġc ases
Ġcont ent
Ġ19 7
Ġrelations hip
Ġter ror
ĠGo ogle
T o
Ġle ave
ĠFr iday
Ġresp onse
Ġcap t
Ġins ide
Ġ <
Ġph ot
A t
ll ed
Ġf ans
ll ig
ĠA pril
Ġintern ational
Ġco ll
Ġhe art
Ġa verage
e ed
Ġbro ad
Ġar rest
Ġus ers
ĠC ount
c ast
Ġc al
re l
Ġc ell
Ġwor th
ĠE m
Ġso ft
Ġ ur
Ġl iving
b or
ĠR ed
ip s
Ġn ation
k y
Ġkill ed
Ġreport s
Ġ201 0
ã ģ
Ġbec om
Ġsour ce
ĠMond ay
ĠT uesday
Ġsub ject
Ġwork ed
at ural
est s
Ġest ab
Ġim medi
E N
Ġresp ond
Ġgl obal
Ġass oci
j oy
tem ber
Ġcl ub
op s
ĠAmeric ans
a el
Ġob s
it es
ĠP er
ĠP al
Ġch ance
Ġo il
ĠA ct
Ġab ility
Ġt akes
rough t
Ġwe ap
he l
Ġpr ice
ĠJ apan
olog ical
Ġdirect or
iz ing
Ġwork ers
Ġter ms
Ġt ou
Ġro ad
m on
Ġpubl ished
Ġde l
ĠWh ile
Ġph one
r ain
Ġcol lect
Ġfin ancial
Ġm id
os ition
Ġdec ided
is es
O R
ĠRuss ia
es e
ĠS ome
Ġm other
Ġs qu
ĠW ed
Ġl ack
Ġdef in
ove mber
Ġ4 0
Ġg irl
Ġst ore
Ġg ave
Ġbu y
Ġinf lu
ĠCal if
Ġl og
Ġhappen ed
Ġrequ ire
ĠN ow
Ġe mer
in o
Ġf em
ĠS an
Ġcap ital
cl us
Ġfore ign
Ġcurrent ly
ĠO ff
b ased
Ġgo es
ĠB y
ov ed
ĠGe or
vert ise
Ġsit uation
ĠC or
Ġind ic
Ġoff er
Ġwho se
Ġ @
Ġt al
Ġm aterial
Ġl ives
Ġaff ect
ro wn
ough t
Ġpl ans
he m
nes day
un t
Ġar ri
Ġb ur
Ġmem ber
Ġp ict
urs day
ĠF eb
Ġpartic ip
ru ction
Ġrec ogn
Ġturn ed
Ġmet hod
Ġev ents
ĠJan uary
ĠH ill
Ġnet work
" .
O ne
ct ions
Ġteam s
ĠS und
f ully
Ġb ank
Ġmeet ing
4 0
Ġn orm
Ġint rodu
Ġsim ple
ĠA g
ĠIs lam
Ġ ill
Ġh uge
ĠSep tember
Ġreg ard
Ġare as
Ġc y
ĠM e
ord er
ĠT V
b l
Ġcou ple
Ġappro ach
a ur
Ġcare er
ĠAf ric
ĠG l
tt p
l oad
" ,
Ġde li
ou d
Ġr ace
e es
Ġperform ance
Ġp age
et y
ap t
ĠN ovember
Ġto ol
ĠDav id
Ġf elt
Ġquick ly
Ġm is
Ġnum bers
o or
Ġem ail
ĠE l
Ġ2 1
a ily
Ġor d
ist an
Ġadminist ration
Ġh on
ĠWed nesday
Ġvict im
ĠP aul
Ġv ia
Ġimpro ve
Ġeng ine
Ġte xt
ch ie
Ġf re
Ġp ull
ĠA ng
Ġr ound
Ġbu ilt
Ġ2 2
Ġp ers
ĠEurope an
Ġd ig
ĠTh ursday
Ġf ather
orn ia
Ġl oss
av y
Ġth ous
Â Ń
ruct ure
Ġprodu ction
Ġb oy
um e
l in
Ġhe ard
d own
S h
Ġeconom y
Ġen joy
ĠAug ust
Ġtr ade
ĠS ch
f ace
Ġwebs ite
im ent
Ġsec ret
Ġco ver
Ġreve al
Ġw ide
Ġbo ard
Ġm atch
A L
Ġallow ed
ĠC ourt
Ġhand s
Ġsp ent
Ġtra vel
Ġl ower
Ġb i
Ġre pe
at ory
Ġpo ll
Ġinclud ed
ce mber
Ġst e
ĠOct ober
Ġne igh
Ġleg isl
or ters
us es
Ġbeh av
ict ion
Ġkn ew
Ġwant s
Ġto wn
? âĢĿ
ight s
ĠBrit ish
Ġse par
ĠN e
en ces
es tern
Ġvis it
ĠCanad a
re ct
an ks
W ith
Ġper fect
Ġget s
ess ion
Ġmove ment
Ġare n
is hing
ra z
g round
age ment
Ġtri ed
Ġc ause
âĢĿ .
g est
Ġ }
Ġfor ces
ĠSund ay
Ġen s
A fter
for ce
ce ed
Ġatt ention
Ġpartic ular
ur d
] [
Ġve h
Ġb ud
Ġf ear
Ġpop ulation
Ġvar ious
en ed
ĠU K
Ġre ach
Ġlook s
Ġ2 3
ĠCalif ornia
Ġb rought
Ġv o
ĠK ore
Ġl ink
ib ly
) ;
ar ily
ĠI S
2 00
Ġprev ious
E D
Ġm ention
ĠRuss ian
Ġmor ning
ĠQ u
c le
ide red
ĠS w
' d
Ġf air
Ġgrow th
ak er
und red
9 9
se qu
y ond
Ġpro gress
Ġfe ll
all ed
Ġs ong
i am
en ing
A C
Ġtr aining
h old
Ġs ize
u k
ĠBl ack
c ies
ĠDe cember
ident s
f ield
led ge
ĠH er
Ġcont act
Ġh or
Ġdem and
Wh ile
Ġim age
Ġr ac
Ġh ot
ific ation
O S
Ġlead er
ec ause
Ġrul es
Ġl iber
Ġpre p
Ġse arch
z e
Ġ ess
ĠP ost
s et
Ġc itiz
Ġup on
Ġstru gg
ĠSt reet
Ġlat est
c ome
ond on
Ġind epend
U S
u ments
in ks
ar th
Ġfeat ures
Ġco ach
ĠP ark
T r
Ġf ast
Ġtalk ing
ĠC ont
ĠJ ew
Ġadd ition
g es
Ġst ar
Ġw ond
ĠSen ate
o o
I T
ĠP at
Ġspe ed
Ġex am
i ant
Ġcons idered
ra q
ic les
ar ies
Ġre b
om p
Ġlevel s
et h
ĠT imes
ĠCount y
llig ence
Ġsl ow
Ġinvestig ation
b ed
il le
Ġcon duct
ap h
ĠPart y
2 2
ĠK ing
Ġmed ical
Ġm ach
Ġs n
im ately
v ent
Ġa chie
Ġlangu age
atur day
Ġc ard
un k
Ġcrit ic
Ġs ort
ĠCent er
op e
ĠT ex
Ġp en
Ġu nd
ĠInd ia
Ġp aper
w o
ys is
I C
Ġ200 8
p ir
Ġcons erv
Ġparent s
Ġsex ual
m a
Ġsystem s
Ġpri or
u it
as c
im in
Ġdo ll
Ġwrit ten
u f
Ġb ox
Ġsp okes
ig r
Ġsee k
Ġs ens
e ared
Ġdoc ument
he t
id ge
Ġincre asing
Ġhe ar
an i
at form
Ġd raw
Ġse ven
Ġs on
ĠMus lim
Ġeff ort
ru ary
Ġjob s
sy ch
ĠI ran
Ġext reme
Ġprev ent
Ġlear n
in ing
Ġser ious
Ġreg ul
Ġin n
Ġr ange
ro om
r ast
Ġviol ence
ĠM ark
8 0
our ces
ĠI raq
it ch
O P
Ġsur ve
Ġcomplete ly
Ġcon c
Ġ ...
Ġ200 9
Ġmess age
t r
ic o
h a
Ġ â
Ġob v
Ġinterest ing
reed om
S he
Ġsc reen
ab or
Ġopportun ity
e ff
ĠCh ar
Ġcl imate
2 4
Ġmajor ity
an ced
Ġpartic ularly
Ġdou b
Ġj ournal
Ġdes pite
ĠR om
Ġclaim s
ĠK e
Ġansw er
Ġsoc iety
ĠL ondon
Ġdef ense
Ġcar ry
ent ially
m p
am ing
Ġgu y
Ġext ra
ens ion
ĠDon ald
is ions
Ġattack s
Ġrequ ired
er ve
ren ch
ill ed
Ġbig gest
vertise ment
Ġexact ly
ĠE ast
Ġp aid
ĠM ore
ib r
i ers
. ..
Ġexper ien
ly ing
uc lear
ines e
is i
Ġmod ern
f ort
Ġrem ain
Ġqu arter
Ġoffic ers
Ġh undred
Ġc ross
Ġex cept
ĠN et
ut ions
ar i
Ġt able
Ġpract ice
in ally
Ġn atural
Ġm iddle
er c
Ġ2 7
Ġcertain ly
n a
Ġd ro
os es
ĠS aturday
Ġst ories
Ġhist or
Ġg as
Ġproduct s
Ġsur v
Ġlook ed
Ġsomet imes
n ces
Ġst uff
Ġsc ience
Ġfin ally
Ġus er
ĠT ur
A M
Ġsum mer
Ġmov ie
Ġbl ood
osp ital
av es
Ġcommun ic
Ġa w
ous ly
Ġl ay
Ġchang ed
Ġter m
Ġon es
Ġlead ing
Ġdescrib ed
ĠS and
Ġim ag
Ġe ight
ĠFeb ruary
Ġpr ison
Ġcon vers
f l
n y
Ġdet ails
ic ks
Ġstart ing
ĠS pe
Ġqu ality
Ġocc ur
Ġp an
h ib
Ġshow ed
Ġn amed
Ġg iving
Ġu lt
Ġrem ains
ĠMc C
u ing
Ġreg ion
pp er
Ġprov ided
Ġcost s
ak ers
ĠS oc
ar r
Ġdam age
ĠM or
Ġm ob
Ġd anger
Ġf it
ĠT H
Ġch ief
augh t
Ġpo or
Ġp ath
id a
Ġeduc ation
Ġmult iple
Ġcontin ued
et t
en ge
Ġgrow ing
N o
Ġdem onst
Ġ *
Ġpart s
Ġ2 6
Ġwrit ing
Ġcom ments
Ġ2 8
Ġm ent
y l
Ġmain tain
Ġsaf e
Ġass ist
Ġthink ing
ĠD es
in ary
ĠRepublic ans
ĠE ven
Ġpur p
Ġrequ est
Ġwr ite
Ġf ix
Ġit em
Ġp urch
ĠC oun
ab les
Ġd ied
ĠDemocrat ic
F L
ar a
ag o
co in
Ġread y
Ġwould n
Ġimp lement
2 3
Ġincre ased
Ġcult ure
Ġeff orts
Ġvot ers
u x
Ġc amer
Ġm ill
al y
p re
op er
Ġread ing
mit ted
im inal
Ġf ile
Ġus ually
Ġcall s
Ġsp ot
I m
Ġeffect s
ĠG ener
z z
b an
Ġper haps
ar ian
Ġal one
il es
ĠF irst
ĠM on
Ġal though
Ġto wards
ĠLe ague
Ġcons ist
he st
ĠB ill
ĠTex as
Ġse lect
Ġgu ys
Ġstand ard
ĠMich ael
Ġsub st
Ġce le
Ġbe yond
Ġdirect ly
Ġpl atform
ĠCh inese
Ġ( @
Ġh ous
us ing
it ute
Ġspe ech
te red
Ġreal ity
ic ated
Ġk ids
ĠJ ames
Ġav oid
Ġthrough out
Ġfoot ball
Ġstud ent
Ġt ur
Ġcould n
B I
f ord
Ġun f
Ġimmedi ately
ou l
Ġro b
Ġinclud es
Ġc at
Ġcon cept
Ġcent er
Ġcho ice
Ġsc ene
Ġcomple x
an ch
Ġadd itional
s p
Ġchall eng
ĠC ons
Ġw ife
Ġcl os
R e
Ġt ro
Ġrec omm
Ġrese arc
Ġep is
it or
Ġ ver
ĠMin ister
Ġs le
A ll
Ġcor por
ĠâĢ ¦
Ġdesign ed
ĠS er
ag on
Ġrem ember
Ġsoft ware
Ġsaf ety
ĠInd ian
w ise
Ġg one
Ġ il
ast ic
port s
Ġse ll
Ġto ward
Ġag ency
Ġt en
Ġoffic er
ac hes
b ur
Ġfig ure
Ġpie ce
Ġbr ain
om en
Ġbat tle
ĠJ ack
Ġcoun ter
m en
Ġdeb ate
air s
ress ion
st on
Ġthous ands
ad em
ru pt
ing in
Ġa head
Ġop in
ic ient
N ow
im um
Ġrel ative
ir th
Ġlet ter
Ġrece ive
Ġpress ure
Ġ Ð
Ġbl og
o es
il ies
amp ions
Ġ >
Ġs il
Ġmov ed
Ġla unch
Ġappear s
Ġo ption
ĠPl ay
Ġpass ed
Ġ ut
Ġcle an
Ġpre c
Ġst age
ro y
Ġ6 0
ĠB o
ĠS erv
ol ute
ĠI I
ate ver
ber g
O T
Ġproper ty
2 7
Ġhelp ed
Ġdri ve
ĠApp le
j ust
Ġalleg ed
ĠG reen
Ġtw e
n ew
Ġdis app
Ġt our
Ġmean ing
Ġro ck
Ġdo g
Ġ x
it ation
ur t
Ġcr is
ĠAss oci
Ġsus pect
Ġd ate
ĠR ich
augh ter
Ġmov ing
Ġsc ore
ĠDemocrat s
Ġorgan ization
Ġs at
Ġcond itions
Ġtou ch
Ġd ark
Ġcomm and
ĠThe n
? "
Ġ ign
Ġre asons
Ġbud get
Ġc row
Ġp ark
m ore
Ġn uclear
Ġmy self
Ġn om
Ġde g
Ġhapp y
Ġdev ice
Ġdiffere nce
ri ef
ĠS im
Ġmay be
Ġbegin ning
A D
Ġcop y
Ġn ature
Ġfail ed
Ġf an
w ood
y an
Ġcharac ters
Ġc ast
Ġcomput er
Ġenc our
s is
Ġa im
Ġtit le
Ġw all
Ġcomp ared
Ġle ague
ock ed
ĠSu per
iv ity
Ġest im
ad d
ĠV al
ĠSt ar
Ġcol lege
e an
Ġey es
Ġsh own
ĠEng lish
Ġcent ury
Ġpower ful
ĠD ay
le ase
our ce
Ġb al
ain t
Ġlim ited
Ġy es
Ġb and
Ġcont ribut
Ġpos itive
Ġfor ced
Ġnecess ary
ĠC he
Ġref er
Ġcandid ate
Ġst ra
Ġdis p
3 5
ci ent
Ġbook s
Ġtr ust
A P
ĠF rench
Ġlarg est
2 6
Ġar ch
ent y
Ġs al
ĠH ere
Ġconf erence
a ud
ĠR ober
Ġnot e
Ġanal ysis
uf act
Ġsp ending
Ġpresident ial
4 5
ĠO f
Ġcitiz ens
or ks
Ġschool s
ĠM art
ig ration
ĠSyri a
Ġth row
ĠB en
ven ue
Ġa ware
Ġme ant
Ġexecut ive
Ġevent ually
M y
Ġphys ical
Ġfollow ed
Ġfe ature
a res
Ġf irm
ĠT or
Ġtreat ment
ĠW ind
ĠA ir
Ġstre ng
Ġm ix
Ġconf ir
Ġb ott
er o
or ney
Ġ2 9
ĠD is
Ġgr ad
Ġrelig ious
Ġeas ily
b and
Ġaut om
bo ard
Ġes c
Ġp us
Ġco ol
et ro
Ġ19 6
Ġfam ilies
Ġil leg
ress ed
c raft
c ul
r ated
Ġact ions
Ġover all
ĠM ex
Ġallow s
Ġg ives
Ġfe ed
ĠÂ £
) :
Ġsus p
ub e
Ġyour self
B y
I s
Ġd raft
k en
b um
Ġapp eared
r am
Ġsm art
Ġdet ail
Ġinc ome
ir ing
Ġanal y
ĠB el
Ġsign ed
N ew
en cies
ĠH am
Ġcent ral
Ġide as
Ġan g
ĠGo vern
Ġsen ior
Ad vertisement
Ġfre qu
Ġweap ons
Ġh ar
I D
Ġdis play
Ġprom ot
Ġn ice
in n
Ġcred it
Ġdec ades
Ġp sych
Ġpolit ics
D on
Ġcr ime
O M
ch an
E C
Ġus es
Ġdo or
Ġdis e
ut y
ĠIntern ational
Ġun ique
2 8
Ġs we
Ġal tern
Ġl if
A ccording
Ġd rop
Ġs ales
m ar
Ġdevelop ed
** *
res h
Ġcustom ers
E T
Ġbenef its
Ġconf lic
ur ance
A r
Ġrel ated
Ġcris is
ĠS chool
Ġm ist
er ry
i able
Ġpred ict
Ġnot ed
ĠC ap
2 9
ĠAustral ia
ĠE U
b ox
Ġtr uth
Ġgo als
in y
Ġindividual s
Ġch arge
ĠE arth
p art
Ġbe aut
Ġcontin ues
on ents
ĠUn ion
ĠAr ab
Ġobs erv
Ġr ap
Ġchall enge
qu e
Ġst o
n own
Ġapp arent
ĠAng el
B e
ite ly
ĠSm ith
Ġl ic
Ġproject s
Ġpe ace
Ġmeas ure
ĠPol ice
Ġcor rect
ot i
Ġinte lligence
ĠChrist ian
Ġprev iously
ĠGerman y
Ġfull y
Ġr ule
Ġman ager
Ġbro ther
Ġr ates
Ġadv ant
ch ange
Ġexp and
Ġcle arly
Ġre form
Ġl ines
n et
Ġsuccess ful
ri age
Ġhigh ly
Ġlarg er
ound s
Ġtr aff
U n
Ġsp read
i ance
Ġseem ed
ĠCoun cil
Ġstra ight
S ome
ĠCom p
Ġcr iminal
Ġmin or
Ġem b
ĠGeor ge
Ġprogram s
ic ed
at tle
ow ers
ĠFr anc
Ġinc ident
Ġres ources
2 1
ĠT om
Ġgreat er
Ġprim ary
I A
in ated
ant ly
Ġknow ledge
k i
Ġstud ies
wh ile
d om
Ġsa ve
or ter
Ġwe b
ate gy
Ġke pt
Ġatt ract
ĠFl or
ol ic
Ġsp ir
Ġem ot
Ġcol or
Ġfe et
se y
Ġr are
Ġre ached
Ġar m
sec ut
ĠH igh
lev ision
ĠIntern et
ĠBro wn
od ay
id ers
os h
r s
Ġfavor ite
Ġpl aces
ĠC r
ĠR ec
Ġreg ular
w ide
ot a
b on
Ġman ufact
Ġla un
ĠD ef
1 00
Ġs end
ter m
Ġpre m
ro ll
lic k
ic it
ing ly
Ġknow s
Ġshoot ing
Ġactiv ity
Ġp un
Ġsour ces
Ġnorm al
ic ago
on ent
s er
ĠA nt
v ille
Ġstat us
Ġfight ing
Ġvo ice
Ġr ise
oc ks
Ġf ine
Ġown ers
Ġca used
Ġclaim ed
ĠM ac
Ġen em
Ġlit er
ĠR ob
ĠGener al
a ith
E O
Ġopt ions
Ġ200 7
Ġinte gr
eng th
ĠU p
us ion
Ġsp end
ĠG old
ad o
Ġc ities
m iss
Ġorgan iz
IN G
Ġend ed
ww w
Ġresearc hers
il ed
Ġcall ing
Ġsh ut
Ġref lect
ĠL a
or g
m ission
P ro
m ark
âĢĿ ,
ol es
7 0
ro id
Ġpr ices
ĠE very
Ġal bum
ĠF rom
if ying
Ġemploy ees
Ġfem ale
ĠEng land
y a
Ġv irt
Ġcrow d
Ġha ven
Ġe le
Ġra ised
mit tee
u ana
Ġj ump
3 3
Ġsupp osed
it ness
Ġhapp ens
Ġadd ing
Ġpolic ies
Ġn ames
Ġcharg es
Ġpro s
Ġtr ou
rib ution
ic a
um an
Ġbas ic
N ot
iver se
ing er
ĠM ag
Ġconcer ns
Ġtrad itional
ĠB re
Ġwa it
Ġabs olute
Ġac qu
Ġpl ant
Ġh ospital
Ġfund ing
ĠB ay
Ġsl ight
ro l
Ġcom mer
Ġpr int
Ġpat ients
S c
Ġauthor ities
Ġmin ister
ve re
Ġcreat ing
Ġh ttp
Ġf reedom
ĠA P
Ġme chan
Ġsc en
ĠM o
Ġst yle
Ġsee ing
Ġgr and
. âĢĻ
Ġbe at
Ġl ik
d d
ri an
on a
Ġst ation
ĠSc ott
se e
Ġp ush
ij uana
Ġbehav ior
Ġle aving
Ġc ry
Ġim pl
Ġb irth
Ġ ir
Ġact ual
p en
E L
Ġens ure
Ġoff ered
Ġagree ment
ĠFlor ida
Ġe th
ĠB er
so ft
ĠHill ary
Ġpost ed
ĠRe g
Ġgo ld
ĠS un
Ġweek end
Ġg reen
ĠM ost
al se
Ġwe ight
O U
. '
ac ing
Ġdeter min
Ġv ac
H ere
Ġreveal ed
ĠWe ll
Ġapplic ation
Ġmost ly
Ġval ues
Ġprop os
it ude
ĠA lex
ab y
Ġwill ing
ear ch
Ġr ank
Ġad op
ĠA ccording
Ġad ult
tt ps
Ġestab l
Ġey e
Ġrecord s
am b
âĢ ¢
5 00
Ġen force
Ġpict ure
Ġbelie ved
ĠL et
Ġm er
p ri
u ild
Ġb rief
Ġlear ned
ĠL aw
Ġinst all
g en
Ġstr ategy
Ġapp l
ign ed
Ġcho ose
ist ry
S A
Ġd ire
Ġwond er
Ġqu al
Ġmass ive
c her
Ġdev ices
Ġbenef it
Ġw ild
Ġpart ies
ĠCh icago
Ġlaw y
Ġun s
ĠPe ople
Ġc ars
ĠTr ans
ĠPh il
Ġarrest ed
ĠM at
Ġm ount
Ġwh atever
Ġw at
ĠO h
ĠFr ance
Ġstre et
Ġ ;
Ġprov ides
Ġwh om
Ġass ault
9 0
t ies
li ament
Ġask ing
Ġinflu ence
Ġjud ge
Ġl ose
Ġf at
Ġfeel ing
Ġoper ations
Ġprodu ced
Ġtem per
c ont
st e
Ġcrit ical
ĠL ou
ĠSec ret
Ġneg oti
Ġm ission
Ġent er
ĠB ush
E x
Ġim ages
Ð ¾
ĠSt ud
Ġconfir med
p oint
Ġshow ing
I L
ĠP ort
Ġdist rict
ri ption
Ġrun s
Ġpat tern
Ġt end
== =
Ġb order
Ġres idents
or ial
ra v
Ġdeb t
How ever
Ġ Ã
ak ed
Ġc ru
Ġte ac
ĠCom mittee
m ine
C l
Ġopp osition
Ġcele br
ĠW all
ĠHe alth
Ġse ction
Ġdef end
Ġet c
est ic
Ġprodu ce
ic ial
ĠIn te
ĠComm ission
Ġdr ink
Ġindepend ent
ĠM od
r ont
ce ll
ĠWh y
Ġbr and
ent ed
u gg
ag s
Ġc ore
ĠP ress
Ġt ick
Ġdig ital
ĠB it
Ġhe ro
Ġadv oc
Ġdoll ars
a e
ĠS am
oc r
ri al
Ġeffect ive
Ġsol ution
ĠM al
Ġv ill
Ġinterest ed
ĠKore a
B A
Ġhig hest
ir g
ord s
Ġmem ory
Ġopen ing
Ġwor se
Ġlear ning
Ġrespons ible
Ġtri al
Ġd aily
Ġk ick
Ġthe ory
ĠO ther
Ġoff ers
ĠPal est
m e
Ġrepl ace
Ġrest rict
ĠG et
Ġm ur
ĠOff ice
Ġag reed
Ġte levision
ĠFranc is
ci ence
ĠM icro
ĠB ecause
Ġocc as
S T
ill ing
C C
Ġv s
Ġdet ect
Ġtr ain
as te
Ġinvest ment
Ġtyp es
i ation
ĠW estern
ic ians
Ġch air
ak s
Ġmil es
Ġmill ions
C on
n o
g ency
Ġche m
ĠJust ice
ĠD el
Ġgener ally
Ġbas is
Ġprop osed
Ġ8 0
ĠM ike
ĠM il
ĠC up
The se
i pe
Ġhe avy
Ġexpl ained
ĠO ur
Ġm ap
ur ies
A A
r ad
Ġd er
o ly
Ġpart ners
and er
Ġopin ion
Ġdef e
Ġon to
Ġprot est
G et
Ġassoci ated
Ġl oad
r ig
az ing
ĠN FL
w in
r ate
o om
4 4
ĠF ound
Ġm ale
Ġbecom es
Ġre ject
v est
out hern
= ==
ĠSec urity
Ġco al
Ġob tain
Ġdest roy
Ġadvant age
Ġass um
ĠL iber
Ġcond ition
Ġannoun ce
Ġhundred s
ad ing
Ġachie ve
Ġopen ed
el ine
Ġunderstand ing
od es
ĠJohn son
com ing
ic ip
Ġsur round
we ll
ort hern
ber t
u pp
Ġinit ial
ĠB ig
Ġsle ep
3 6
Ġsh ip
re y
Ġmar riage
Ġman agement
ĠWind ows
Ġth us
Ġlim it
Ġb orn
Ġbecom ing
k nown
Ġph oto
Ġeas ier
F C
ĠG reat
Ġr at
Ġlegisl ation
Ġcontro vers
Ġun like
Ġelect ric
ĠM any
3 2
Ġcamer a
ĠM ad
wit ch
Ġacc used
Ġs pl
Ġneigh bor
Ġdou ble
Ġ ice
Ġspec ies
Ġsh ared
Ġjo in
Ġilleg al
Ġ3 1
ĠL ab
Ġ200 6
M r
Ġmach ine
Ġh arm
Ġserv ed
ĠJ er
G B
Ġextreme ly
ol f
Ġact ive
Ġ3 5
Ġser ve
Ġdoc uments
ĠIslam ic
Ġfr ame
Ġstri k
le vel
z a
ĠD ist
Ġaud ience
B S
Ġloc ation
l ant
ĠA M
Ġscient ists
Ġbott om
or row
Ġvictim s
Ġwe alth
Ġprofess ional
Ġres ist
Ġredu ce
Ġbelie f
Ġn ine
Ġsol id
Ġwin ning
Ġmar ijuana
ĠU k
Ġneg ative
7 5
i h
if ul
land s
Ġcommun ities
Ġreturn ed
ortun ately
ear s
Ġinc red
ĠP M
ĠInst itute
m et
Ġch urch
P S
Ġdep artment
ĠSand ers
Ġr an
Ġvict ory
Ġpurp ose
Ġ9 0
ĠComm un
Ġam b
Ġveh icle
Ġintern et
Ġleaders hip
ĠH all
ist ics
Ġb omb
Ġmob ile
i os
gh an
Ġinst ance
i pped
3 8
Ġsepar ate
Ġexist ing
Ġnot ice
Ġhe aring
Ġd ie
Ġexpl ain
Ġdoub t
Ġf aith
Ġte ach
h ouse
ĠY our
at ically
Ġepis ode
Ġb ed
Ġwatch ing
Ġcom fort
ĠCanad ian
ĠF in
ĠB ank
Ġnot es
ar an
ĠA tt
irg in
ĠE v
Ġf resh
Ġun c
Ġrad io
ĠIn c
Ġview s
Ġput ting
as y
ĠS l
Ġsupp orters
Ġconserv ative
Ġp urs
Ġarg ument
om as
ĠF ox
Ġm icro
ar io
ac ity
Ġlaun ched
w orks
sc rib
O L
Ġapp eal
ili ar
Ġitem s
Ġcommit tee
ĠAr t
res p
wh ich
Ġdefin itely
ad a
Ġdanger ous
ill er
z en
Ġco verage
Ġdire ction
ĠO ver
Ġs un
Ġcharg ed
Ġfl oor
P A
Ġm ax
ograph y
3 4
E M
ĠCar ol
ĠCh urch
Ġiss ued
Ġdrug s
Im age
Ġt ask
i pp
Ġback ground
Ġcompet ition
Ġtre nd
Ġst ated
v ention
and om
Ġtraff ic
ĠF BI
Ġcommer cial
ĠD irect
Ġsp oke
in ct
Ġtrans fer
ct ors
Ġsuggest ed
Ġst ructure
Ġset t
ad y
Ġsit es
Ġh us
Ġn orth
ĠS ince
ĠL ike
Ġrest aur
ampions hip
Ġlab or
Ġdec ade
ĠB ur
Ġrepe ated
ĠG ame
g ers
Ġre act
om an
Ġc ards
Ġanim als
go ing
Ġno vel
b ing
b ut
N A
rib ute
Ġd aughter
ant ed
Ġdri ving
Ġcl osed
Ġwor st
Ġcont ain
Ġentire ly
Ġd ed
ĠBrit ain
ic i
B l
Ġdri ver
ĠW il
Ġdise ase
Ġn or
Ġtell ing
il ing
Ġsmall er
Ġdisc overed
ak istan
ĠP ri
A meric
a it
ĠL os
Ġh ack
! âĢĿ
e qu
f erence
ĠQ ue
s pe
Ġf alse
Ġc ash
Ġconcer ned
ul f
Ġpl ays
Ġsur face
se mb
ud d
ann el
Ġsupport ed
ul ated
Ġtool s
Ġcomp ar
oy al
ĠCh ris
Ġexper iment
Ġfind ing
Ġtrans port
n ight
Ġc ateg
ã Ĥ
Ġas pect
# #
Ġbusiness es
Ġ7 0
ĠU N
Ġfar m
Ġple ase
Ġold er
az on
ph one
h ow
Ġactiv ities
Ġrequ ires
it t
C H
Ġg ay
ĠJ ones
Ġg e
ibr ary
Ġstreng th
Ġwe l
4 8
and on
d o
Ġins urance
Ġcon sequ
3 7
Ġlarge ly
Ġmur der
N N
5 5
Ġex erc
Ġc aught
Ġcandid ates
k ins
ĠIsrael i
Ġallow ing
ic y
Ġbl ue
ĠA re
Ġann ual
ĠK en
Ġtest ing
oss ible
Ġstr ateg
ĠS up
i us
Ġra ise
Ġst ock
o very
ĠRober t
iz es
Ġdec isions
Ġacc ur
r ick
Ġcon text
l or
Ġf uel
ĠA c
S P
os ure
ĠUk rain
Ġconcer n
Ġaff ord
Ġbelie ves
Ġconst ruction
Ġtr uly
* **
Ġt im
ĠT y
ĠM iss
Ġjust ice
igr ants
Ġgener ation
Ġhigh light
r im
Ġun it
ĠT re
Ġpres ence
ĠJew ish
ang ing
! !
ĠS il
Ð °
ter y
Ð µ
cept ion
ĠAfric a
Ġgu ess
an cy
Ġw itness
it able
Ġhold ing
ĠG ree
Ġestab lish
Ġl ength
Ġplan ning
av a
ĠAfric an
Ġse qu
ck now
Ġs an
Ġref uge
Ġpl aced
Ġc atch
ĠAf ghan
ĠAssoci ation
Ġtell s
âĢ ĺ
in ter
Ġsc ale
b re
Ġspokes man
n el
L e
Ġr ough
Ġatt end
oll y
ĠV er
Ġcell s
Ġjo ined
ĠAd d
Ġmention ed
Ġinterest s
Ġab use
âĢĶ âĢ
pect ive
ĠJ im
M ore
Ġhas n
ĠP C
Ġinit i
Ġk id
Ġenforce ment
l a
ĠG OP
Ġintrodu ced
Ġdeli ver
Ġconflic t
ĠP re
ĠM er
Ġr out
ĠMicro soft
Ķ âĢĶ
Ġph il
Ġupd ate
Ġmiss ing
Ġprov iding
Ġwa iting
e y
Ġcan cer
3 9
Ġrecomm end
ocr acy
Ġestabl ished
b our
is ation
Ġe at
ĠY es
Ġocc up
ĠFr ank
ĠJ eff
ĠAngel es
Ġrem oved
Ġ200 5
ul a
Ġoff ensive
ĠF ore
ĠInst ead
ic on
Ġinj ury
Ġsp orts
4 7
Ġf ant
Ġdiscuss ion
l ig
Ġoper ation
Ġdown load
Ġuse ful
Ġnews p
Ġconvers ation
Ġhom es
ron ic
Ġs outh
Ġc ook
ĠC EO
Ġass ess
it z
ĠG roup
form ation
Ġban ks
ont o
Ġsto pped
ĠCon st
Ġobv ious
ic ations
Ġmeas ures
Ġmod els
ĠK h
Ġfour th
ĠM P
O ur
se ason
wh at
Ġb ul
D A
Ġ201 8
and a
Ġfil es
Ġgirl s
ĠLou is
Ġst ick
c ks
v ant
az ine
m ail
um n
Ġman aged
it er
app ed
ot ed
ĠT im
Ġfig ures
om s
ĠLe g
P l
Ġident ified
Ġgr aph
0 00
ĠJ ud
ĠS al
Ġfin ished
ig an
Ġfund s
re al
ĠP akistan
Ġset ting
Ġconc lud
Ġpre fer
Ġha ir
Ġcommit ted
ĠMex ico
4 9
Ġsk ills
Ġappro pri
Ġspir it
ĠR ock
Ġve ter
Ġfoc used
Ġarri ved
ĠTH E
Ġhous ing
ro s
Ġkeep ing
Ġthere fore
Ġa cknow
ul ate
D es
Ġpart ner
Ġex clus
ĠAnd roid
k in
ens es
up s
r d
Ġear th
Ġtrans l
pl ace
Ġt ough
out s
ĠJapan ese
Ġ2 000
Ġrelative ly
Ã ¡
ĠSup reme
ow l
w ing
g l
Ġident ity
Ġfeel s
ĠM et
Ġother wise
Ġsurve y
ĠR yan
oc al
R A
ic ation
itution al
Ġprote ction
Ġex change
Ġown er
ĠV irgin
is f
Tr ump
Ġtri p
Ġstep s
Ġhus band
ĠIn ter
ag n
Ġtwe et
Ġconnect ion
ĠAr my
Ġslight ly
ĠPro f
ere nces
e ah
ĠS ur
Ġwe ak
ĠGovern ment
ver se
" :
Ġcirc um
Ġele ments
Ġcl ick
ĠRich ard
Ġstri ke
Ġphot os
Ġme re
Ġdef ensive
ĠN or
d den
Ġg ain
Ġf le
g ar
Ġdep end
uck y
Ġcol lection
ony m
Ġkill ing
Ġro ll
igh ter
hen s
G o
Ġcor ner
k a
anc ing
od ies
Ġsuggest s
u ct
Ġag gress
w ith
pro f
Ġgu ard
Ph oto
Ġg ender
m akers
ĠCol lege
Ġcomm ission
ĠAl though
r ange
Ġd at
4 6
ĠI r
ĠD ec
Ġment al
ic ide
re es
Ġam azing
ĠS ub
h i
Ġplan et
ĠTe am
ren cy
ĠO ut
Ġbig ger
Ġfail ure
ĠJ ose
Ġsupp ly
Wh y
an ia
Ġstart s
Ġs ides
hed ul
is er
Ġfam iliar
Ġrem ind
Ġsu st
y m
il s
Ġspe ct
u ate
Ġspe aking
Ġtal ks
Ġhappen ing
Ġorganiz ations
Ġh ate
gy pt
Ġwind ow
Ġar my
ĠG ood
ĠJ oe
Ġn one
u ke
ĠP et
Ġtax es
Ġplan ned
ĠMart in
Ġthan ks
m as
ĠM ary
Ġst ruct
Ġp it
Ġdec ide
Ġsu dden
Ġw ish
Ġcre w
Ġcar ried
ĠM ont
ost on
Ġp et
a wn
ag ues
yn am
Ġreg ist
T C
Ġmult i
id ering
Ġhelp ing
an o
L ast
Ġa ward
Ġstand ards
Ġ3 2
ĠF ire
Ġrev olution
Ġenvironment al
ĠWe b
p m
ars h
ĠTh omas
ol it
Ġsc ript
ol a
Ġsecond s
r un
ĠRes earch
g n
Ġscient ific
Ġimm igration
ĠB ern
Ġstand ing
ĠThe ir
Ġ4 5
st ream
oc ol
Ġqu e
Ġbe er
Ġdom estic
im al
ad ium
Ġp air
ut ers
ĠAl so
ĠSecret ary
ĠU s
Ġac adem
f e
Ġco ld
Ġvar iety
Ġmark ets
a ven
Ġs ch
] .
H L
Ġter rit
Ġdro pped
Ġaccount s
! "
Ġfil ed
er ous
ack s
ill a
Ġbal ance
el ess
Ġimp ossible
ĠT er
Ġinter act
Ġr ou
Ġneighbor hood
l o
Ġdeg ree
R ead
ĠAt lant
Ġturn s
it ect
Ġposs ibly
Ġapp re
Ġoper ating
Ġpr inc
Ġaltern ative
are n
Ġun ion
Ġvot es
Ġv ul
ad er
Ġprofess or
Ġt ack
ĠServ ice
Ġincreasing ly
ay er
ru it
Ġapp ly
Ġfell ow
Ġcut s
ore s
Ġhon est
Ġun ivers
ĠPr ime
Ġser ver
Ġdevelop ers
ar ks
ĠSyri an
Ġapparent ly
v is
ste in
Ġl ived
Ġchang ing
Ġwor ry
rast ructure
ĠCarol ina
Ġtest s
Ġun its
Ġr ich
ĠT wo
c ious
ict ed
F rom
ad ed
Ġhum ans
I M
ĠFound ation
ĠM os
Ġag encies
Ġsound s
as hed
Ġtw ice
Ġult imately
ob by
Ġl osing
Ġphil os
Ġauthor ity
Ġsold iers
ã ĥ
Ġanim al
Ġat h
ĠIm ages
Ġset tle
Ġsc hedul
Ġm ut
Ġcol le
Ġcorpor ate
Ġabsolute ly
Ġhealth y
Ġpay ing
o ch
Ġequ ip
g u
i ams
Ġdevelop ing
Ġse a
Ġclos er
ĠD en
Ġinn ov
ĠT ime
rel ated
Ġseek ing
Ġregard ing
c oh
Ġsk in
Ġexp ensive
ans ion
Ġposs ibility
Ġbeaut iful
Ġrelig ion
ĠCent ral
Ġap art
Ġfund ament
Ġexper ts
Ġsol ar
6 5
Ġy ards
Ġwrit er
Ġfl ight
Ġv ast
ĠDist rict
ĠL ast
Ġde ploy
Ġad just
O f
Ġintern al
ĠU nder
ĠL at
ĠP eter
ĠPl an
ap ers
Ġimag ine
ĠJ on
I V
Ġapplic ations
olog ies
3 1
Ġv ision
l ook
st ate
os en
ĠFrancis co
i ot
ĠTor onto
Ġsit ting
Ġtr ail
Ġun less
ĠUS A
ĠJ es
ist ed
Ġhe at
Ġg ar
Ġ200 4
I P
E ven
Ġrespons ibility
Ġcap acity
at ures
ĠM iddle
Ġer ror
ain e
Ġsy mb
Ġf ol
ĠD an
p ire
Ġar ms
Ġp il
Ġc overed
idd en
i as
Ġapp oint
Ġfam ous
ĠC amp
Ġfor ms
u zz
N D
Ġun iversity
Ġt ight
t op
Ġpresent ed
ort ion
ov ing
en ced
ĠS T
Ġcl im
ĠE gypt
Ġear n
ĠP ut
Ġconv ention
u nder
J ust
ĠP ublic
Ġsurpr ise
Ġatt orney
Ġelect ions
Ġestim ated
Ġf if
ĠM ur
ĠA ri
Ġte en
Ġinst it
Ġveh icles
rib le
ĠAm azon
ro ad
Ġint ended
.âĢĿ <|
Ġr id
Ġo dd
Ġhelp s
Ġoccur red
p erson
al a
Ġstre ets
ust er
h and
ĠB oston
ĠS ol
Ġ= >
rou d
= "
Ġsp ort
s en
Ġdeter mine
ress ive
ĠBit coin
Ġexper t
Ġsc hem
all s
Ġcons ult
ur ation
L et
Ġbro ken
Ġgu aran
le ts
Ġf ired
Ġt on
Ġfl ow
Ġdom in
por ary
ed er
L E
Ġsh all
in te
Ġres erv
Ġtro ops
I ON
ĠTh ose
Ġhy p
U p
Ġn ar
ter day
Ġpie ces
ĠCh ief
Ġprep ared
ĠM ass
ĠC ath
Ġrap id
or age
ĠJ o
Ġloc ated
ĠSoc ial
Ġb aby
Ġcon clus
Ġbring ing
Ġpro ve
Ġspecific ally
ĠAn y
Ġpot entially
Ġse ctor
anc he
Ġr andom
Ġj ail
O W
Ġse lling
Ġgovern ments
ĠO nce
Ġequ al
A b
cl ass
Ġf aster
Ġhe av
ĠS pr
Ġbo ost
use um
ve y
w ar
Ġpropos al
ot y
Ġfact ors
Ġcl in
ĠG al
Ġpl enty
T H
Ġequip ment
Ġcoun cil
Ġer a
Ġinf rastructure
D o
Ġst ress
ph as
Ġst ars
ĠJ ournal
ĠR ub
end ment
ĠVirgin ia
Ġb reat
Ġpro secut
Ġvot ed
Ġoff ering
Ġcar bon
in ent
Ġexpress ed
Ġcomb at
Ġvul ner
Ġbro ke
( )
ure au
Ġcl ot
ĠC ur
our s
ĠF ederal
Ġrul ing
Ġret ail
ĠGu ard
Ġref used
Ġdr am
Ġelect ed
ĠO pen
ĠR iver
E very
Ġsec ure
ce an
Ġse asons
Ġconduct ed
, '
ĠPar is
Ġchalleng es
Ġrem ove
is her
ro g
Ġmethod s
h t
Ġweap on
n oon
Ġpoint ed
ĠIs land
Ġm aster
Ġrem ained
ĠAustral ian
Ġpr ime
EN T
Ġtr ig
ĠM el
Ġpos itions
ĠC ru
Ġinf ect
Ġd in
Ġcritic ism
i pping
F irst
ock ing
ĠMed ic
ĠP lease
t ion
on om
I G
Ġs ale
ĠF e
ol ved
Ġcult ural
th at
Ġwere n
Ġsignificant ly
Ġb row
et ic
Ġorig inally
S te
ri e
ĠD uring
Ġst ret
Ġaffect ed
Ġappear ance
Ġc as
ĠS ant
Ġt ourn
Ġfac ing
Ġgreat est
Ġfin ish
ĠLe e
Ġyou th
Ġte le
y r
ĠWh o
Ġpercent age
ĠPh oto
c ol
Ġdetermin ed
Ġsign s
Ġinvol ve
9 5
ce l
Ð ¸
Ġthan k
Ġb ought
Ġ5 00
ly n
stand ing
Ġchem ical
ash ion
6 4
Ġsh ape
ĠS ing
Ġreg ime
Ġg rew
p ired
Ġrem aining
ĠSte ve
ly mp
ĠR o
Ġmin imum
ĠS aud
re ens
Ġind eed
Ġd ream
ri er
S ince
al ing
Ġm arg
S p
ĠB oth
> >
Ġmod e
Ġher self
Ġvot ing
ĠCol or
Ġobv iously
ĠFor ce
Ġredu ced
ĠN ov
ĠR em
Ġw ood
ord in
Ġrecord ed
Ġarg ued
Ġ199 0
Ġre venue
Ġt act
Ġwe aring
igh ters
Ġlead s
Ġh un
ed ia
Ġpolit icians
Ġpl us
Ġs witch
Ġcont rast
Ġhand le
Ġpurch ase
Ġth r
Ġsub s
Ġcon cent
Ġpro ced
Ñ Ĥ
Ġag ent
h ab
m m
ar p
ĠWill iams
Ġappre ci
Ġexperien ced
Ġh urt
Ġexc ited
Ġvide os
Ġh ttps
coh ol
Ġsupport ing
D P
ĠH aw
Ġv ir
ĠF ree
Ġsurpr ising
ll er
Ġmin ute
Ġexpl os
ĠP ac
Ġbel ong
Ġconsum ers
Ġident ify
Ġcons idering
ow nt
ĠCons erv
ap ter
Ġair craft
Ġa id
N e
C L
Ġpull ed
Ġre nt
g ment
Ġbas ically
Ġdiffere nces
og ue
ĠB ook
Ġgl ass
h ttp
ĠR ad
Ġafter noon
Ġsh ift
Ġdis s
Ġend s
ess ions
Ġtur ning
Ġb ound
Ġfil ms
Ġsp ring
Ġdep art
Ġpros pect
ru ption
k et
ĠChar l
l ife
Ġtre ated
Ġacc ident
, [
Ġmot iv
Ġlist en
Ġse at
ĠP ower
Ġcomb ined
Ġconst ruct
I nd
Ġser iously
Ġpriv acy
app ing
Ġeven ing
he red
Ġopportun ities
as p
h y
Ġstrugg le
Ġ19 5
Ġpan el
Ġenem y
Ġlot s
Ġcomple ted
ĠD aily
Ġvis ual
H is
p et
Ph one
Ġtalk ed
pt ed
Ġhop es
ut s
Ġpass ing
or al
Ġ id
Ġapp s
os ite
0 5
g ent
ĠSte p
P D
Ġcal cul
Ġm ort
An other
Ġwide ly
ens ions
Ġemer gency
ĠH ol
am m
ĠSh ow
Ġsu it
Ġe lement
Ġa st
ang ed
S S
uc ks
al ed
Ġp owers
ĠR el
ĠB BC
Ġfl at
ĠO lymp
Ġb urn
T V
Ġdisc l
Ġpl ants
ĠSp ace
at o
Ġliber al
P e
ra ud
ob e
Ġopp osed
Ġs ad
W ell
Ġpro ceed
om pl
Ġcopy right
ĠPro ject
ok ing
Ġadv ance
Ġfact or
Ġdist ance
Ġ200 3
ive red
Ġdis miss
pl om
Ġattempt s
Ġt un
et te
A m
ĠR oad
ab ilities
ĠI N
ribut ed
Ġtrou ble
un ction
Ġh ol
Ġcoll abor
Ġdef ault
id el
Ġz one
Ġenc oun
ĠJack son
Ġup gr
it a
ra wn
Ġre action
Ġst orm
Ġrep orters
ĠM em
Ġfr ust
P R
ne ll
Ġwrit es
ad ow
m osp
m ond
ain ts
Ġtyp ically
l ines
ĠT oday
resp ond
U T
Ġp ages
Ġinst ruct
in ian
ed s
tern al
Ġref erence
Ġgr ab
z er
Ġpack age
Ġb odies
Ġmat ters
st s
0 1
f ree
Ġden ied
c are
A pp
Ġqu ant
Ġdisapp oint
Ġse m
Ġexpl o
ĠB et
ĠN AS
Ġopt im
ac he
Ġqu iet
Ġent ertain
Ġrespond ed
Ġappro ved
ĠTur key
Ġsat isf
ap ed
R ep
Ġbroad cast
es ters
Ġinstit utions
Ġad vert
4 2
Ġstand s
ĠDirect or
Ġset s
est ival
g a
Ġel imin
raz y
Ã ¤
h ost
Ġval id
Ġre new
ĠOh io
C ont
Ġspl it
Ġse vere
ĠWill iam
Ġs ac
Ġcap able
ĠM att
ĠP enn
Ġ200 1
Ġ //
Ġp itch
ani el
Ġcapt ion
Ġl oved
Ġtechn ical
Ġg iant
p ass
Ġtrad ition
is ters
Ġcan n
w ater
Ġb ull
ab in
Ġconf ident
ell y
u ous
Ġconf idence
r um
Ġnum erous
Ġreported ly
ĠM a
Ġfac es
] ,
w rit
Ġwe ather
Ġf ly
r id
Ġtrans ition
Ġ3 6
ĠSy stem
un te
ĠAfghan istan
ĠS qu
Ġwas te
Ġcre ation
Ġpers pective
Ġun able
Ġfor get
ĠLab our
D e
ĠY et
as tern
em ploy
." <|
ok en
ĠMed ia
ang ers
I I
Ġc raft
Ġsubst ant
Ġco oper
Ġviol ent
Ġsuff ered
il it
Ġm and
amp ion
Ġco ast
4 3
Ġpict ures
Ġexperien ces
Ġappro x
Ġrou te
ab led
r ant
8 8
Ġfl ag
Ġadv ice
ĠAnd rew
us iness
Ġdecl ared
Ġord ered
ĠH uman
raz il
Ġcr imes
Ġco ff
Ġp roud
is hes
Ġreport ing
Ġmess ages
se x
Ġcircum st
Ġfind ings
R es
ul ations
Ġev al
Ġex cell
O ver
Ġdecl ined
ĠW al
Ġexpl ains
ĠL in
c an
Ġdel ay
Ġ \
ĠF ollow
Ġnewsp aper
ound ed
Ġconnect ed
il ty
Ġshould n
Ġm al
ev in
ov es
Ġon going
Ġcl oud
du le
Ġv an
Ġmov ies
Ġpick ed
res ents
7 7
Ġad mitted
Ġg ra
Ġdel ivered
D uring
Ġgun s
ĠM L
ion ally
ĠSc ot
Ġwalk ing
Ġpr in
Ġag ents
c alled
Ġedit or
Ġthough ts
Ġmar ried
ĠT ra
Ġa uth
Ġem ails
Ġappropri ate
ed d
Ġem phas
ĠR od
u ations
Ġed ge
Ġarch itect
ĠGr and
Ġle aves
Ġupd ates
Ġacc ompl
O D
Ġg ather
Ġfor g
ĠMuslim s
ans as
ĠW ood
Ġquarter back
Ġs ession
o oth
Ġpo ol
ĠTe chn
ĠS cience
c os
Ġinj ured
ar n
Ġpublic ly
ell ow
ĠS ov
Ġstate ments
Ġper man
ar l
Ġleg it
Ġconf irm
ner gy
ĠL ake
Ġour selves
O ther
Ġreal ize
Ġdri vers
Ġro t
M A
ĠA v
ĠD ou
m ates
, âĢĻ
Ġar med
ess or
Ġd ial
c ons
T e
T A
Ġlawy er
our ney
Ġr ail
Ġread ers
re land
Ġcont ains
Ġarg ue
ĠRe v
Ġtal ent
Ġf illed
ĠS um
Ġalleg ations
Ġactiv ists
ĠChrist mas
Ġd ynam
Ġ198 0
ĠMich igan
d ate
ĠB ack
ĠR on
l ong
Ġcr ack
Ġtrans form
ĠRe ad
T ube
Ġbuild ings
Ġwe ar
M any
ĠI ll
Ġs am
Ġterror ist
Ġt ree
Ġexerc ise
end a
Ġlab el
Ġeffect ively
O h
Ġpract ices
Ġg od
Ġsub sequ
ĠJ ul
ĠS her
T S
ul s
Ġfl o
Ġf ish
ent ure
Ġsh op
Ġexam ples
4 1
ĠH y
Ġpat ient
ĠG en
ĠSe attle
Ġobject s
ĠSe e
Ġte ch
Ġsecret ary
g ia
as ure
Ġr ain
ur ning
Ġmiss ed
Ġca uses
ill y
Ġdeb ut
Ġess entially
6 6
Ġmor al
ord ers
ad or
w ord
d ef
ac ter
ĠW ork
ar ters
ĠUkrain e
Ġcent re
ĠSt an
he dule
F ollow
am in
ĠV ict
ĠI D
Ġinj uries
ic ing
ĠPh ot
Ġmot or
Ġi Phone
Ġart ist
Ġcl ient
Ġb ond
Ġth inks
i at
az a
or se
ou ston
Ġp ure
Ġhe ll
Al though
ĠSaud i
Ġfact s
Ĥ ¬
Ġdes ire
ag ers
Ġs ke
or ry
Ġlink ed
Ã Ń
Ġgovern or
ĠB at
Ġmaterial s
n an
Ġperform ed
S pe
Ġfr anch
es ome
Ġsu c
Ġphilos oph
Ġinit ially
ĠS ign
Ġnecess arily
ĠK im
ĠF er
Ġexp ansion
Ġschedul ed
ER S
Ġwar ned
i est
Ġdi plom
Ġadv anced
Ġexpl an
Ġ ing
Ġvar i
Ġevery body
Ġj oint
Ġdec re
Ġres olution
Ġincre ases
en ger
Y es
Ġaccept ed
Ġinc or
Ġmy ster
Ġfac ed
Ġb are
ill ance
Ġannounce ment
Ġfollow s
ĠM ount
Ġn ations
Ġplay off
ĠL ife
Ġab andon
ĠSec ond
ĠI d
Ġrad ical
Ġath let
Ġne ither
Ġyes terday
Ġdat ab
Ġnear by
Ġdist ribution
ot ic
Ġappl ied
ir ty
Ġmag azine
M ost
ath an
r ich
Ġconsequ ences
Ġm ir
Ġdo ctor
Ġlist ed
u y
ĠCol umb
Ġat mosp
Americ an
Ġsurpr ised
Ġfor t
Ġoff ense
Q u
it ors
ĠC NN
ĠR E
Ġsp ons
Ġbeg ins
ĠWe ek
Ġthreat s
Ġa f
semb ly
Ġrep resents
ĠJew s
ĠG M
ĠA ff
Ġen h
Ġmov es
Ġrem ark
ĠT O
Ġsong s
Ġp ra
k ay
Ġbehav i
Ġr ide
C an
Ġadd s
Ġwith d
Ã Ĥ
Ġimpro ved
ri p
Ġp hen
ĠBl ue
Ġb ot
Ġwar m
Ġal cohol
Ġout put
l aw
ĠA T
Ġfl ood
ĠDe velop
ĠH en
w hel
ed y
Ġsh ots
Ġf ill
ĠV ol
Ġst ood
Ġbr ings
Ġal t
Ġpus hed
Ġgu ilty
ĠRom ney
Ġsub scrib
8 5
Ġent ry
ocrat ic
ĠDe v
ĠB razil
Ġdem ocracy
Ġboy s
bur g
r ac
Ġ3 3
Ġro w
Ġconf ig
ĠN BA
Ġlaws uit
ĠI reland
Ġmanufact ure
Ġrece iving
Ġre in
ĠBar ack
The n
Ġt rib
Ġtot ally
ĠOn ly
Ġdiscuss ed
Ġrestaur ant
Ġs ought
Ġr ising
Ġent ered
ĠIS IS
ĠBo ard
Ġ3 00
Ġconsist ent
Ġhistor ical
t witter
Ġst orage
ide o
Ġcor respond
Ġplan e
Ġcomb ination
Ġsc ored
Ġin put
Ġsymb ol
Ġbr ight
Ġbut ton
ird s
Ġsuc ceed
st ood
Ġcreat ive
Ġinvest ors
Ġsqu are
Ġart icles
Ġ200 2
Ġis land
pt y
Ġdeath s
Ġsc r
Ġfun ctions
Ġnet works
Ġclass es
Ġunlike ly
al ty
ĠP rem
Ġhead s
ic ian
Ġb oss
Ġn ative
ic ious
Ġl ie
Ġsa v
ĠL ib
Ġrough ly
Ġconsum er
ĠW he
ĠW alk
f ortunately
ĠM s
Ġstr ing
ĠMay be
Ġheav ily
ĠAn other
Ġfair ly
Ġtemper ature
ard en
ic an
Ġk it
Ġexist ence
ĠIt s
ĠAs ia
Ġcont est
Ġpl ot
iss ions
ĠC ub
Ġres ident
us al
Ġtarg ets
ĠB ob
Ġres c
ĠKore an
du c
Ġl ock
Ġyoung er
Ġcolle agues
ĠSt r
' ,
ĠSw ed
P U
ab b
Ġl ibrary
Ã ¶
Ġr ally
Ġpar liament
Ġprot ests
Ġany where
ok ed
ĠS ports
ĠS ky
Ġb ike
z ona
Ġbre aking
ac le
Ġstore s
Ġexpress ion
Ġsy m
Ġch ain
Ġbl ow
Ġwar ning
Ġimport ance
Ġdef ined
Ġch art
Ġbu ying
Ġman age
Ġpro hib
i i
Ġclass ic
Ġc ere
Ġs now
Ġadult s
Ġill ust
ĠE ach
S ee
O b
Ġmarket ing
Ġl inks
Ã ³
b orn
Ġsh if
iqu es
and al
ĠCl ub
Ġto w
ĠH ist
Ġf raud
O C
M an
p ret
d is
Ġfac ility
olly wood
Ġhard ware
Ġsch ol
Ġalleged ly
Ġ3 7
ch o
Ġregul ations
Ġb on
Ġdo ctors
ĠColor ado
Ġcur rency
Ġhouse hold
Ġrepl aced
ag an
Ġess ential
ĠR am
E n
op y
on na
Ġsome what
ĠD iv
p ress
8 6
Ġn av
p ower
Ġfav our
Ġprom ise
ĠD C
ĠB oy
Ġl augh
P ol
ĠR ights
en a
Ġhold s
Ġopp osite
ock et
Ġto m
Ñ ģ
Ġmom ents
w est
Ġh at
ter ing
Ġopp onent
Ġbu g
ĠF ar
Ġcamp us
Ġact s
Ġr um
etro it
Ġvers ions
Ġmet al
Ġmot ion
hip s
Ġev olution
omet imes
Ġv ice
an ish
Ġse es
ĠIm age
Ġb ag
Ġrele vant
Ġindust rial
Ġz ero
I R
Ġs ick
om a
Ġclose ly
het ic
Ġemot ional
c hen
g ame
I F
ĠYou Tube
ĠY ear
v a
Ġfew er
Ġdiv ision
ol ve
Ġad m
Ġd ownt
Ġhard er
Ġref ere
Ġcustom er
Ġhop ing
olog ist
ĠBro ok
Don ald
ĠVal ley
Ġh ur
Ġmechan ism
it tle
in em
ĠG ra
m l
ĠH ouston
ĠE lect
Ġreturn s
N C
ate ll
Ġvol unte
Ġparticip ants
Ġext ent
Ġint ention
al ian
p an
Ġexcell ent
ĠSov iet
Ġacknow led
l lect
Ġsy n
ul ous
ĠM ot
om ing
ĠG ames
Ġsqu ad
Ġcircumst ances
Ġf ashion
Ġis ol
es c
Ã ¼
ot al
g reg
Ġimmedi ate
ĠE ric
Ġsuff ering
p o
ĠW atch
Ġl ies
Ġt iny
Ġauth ors
Ġbat t
Ġ3 8
Ġg rown
ĠG ar
ig er
or a
Ġimm igrants
Ã ĥ
pr int
Ġkind s
ut ch
Ġ4 9
ĠD ie
Ġche ap
Ġm ine
Ġdetail ed
ĠH el
ord an
n ame
Ġfeat ured
ik i
ay ers
Ġme at
Ġun us
ĠA ut
Ġcompet itive
ĠI P
Ġdescrib e
Ġfor med
ĠH ome
n ic
cer tain
Ġcarry ing
Ġtourn ament
Ġtr ick
n am
Ġrelationship s
f riend
Ġfundament al
ke l
Ġw ave
Ġcy cle
Ġc razy
Ġsign ing
ĠW ay
ĠC y
Ġter min
Ġgu ide
ef ully
Ġw ins
ĠCath olic
Ġear ned
Ġdec line
Ġreg ional
ens us
st yle
Ġem br
Ġstr ange
ĠPalest inian
ĠJes us
ĠAn n
ĠL ong
b ar
Ġan cient
Ġfrequ ently
Ġact ing
ĠPut in
Ġman ner
Ġeff icient
ĠS ar
rom e
Ġpus hing
ĠC IA
Ġcomfort able
ĠC ard
Ġp ip
O RE
ĠE r
P er
Ġsh aring
Ġw ire
Ġsk ill
ĠE conom
oc key
c hers
Ġinst ru
Ġown ed
ĠE ll
aw a
Ġcommit ment
Ġalong side
ĠO F
u ated
ĠL ord
ĠDav is
an es
Ġc art
r ison
Ġcontrovers ial
Ġart ists
Ġrefer red
we ight
Ġe gg
Ġm outh
Ġrepeated ly
0 6
Ġ4 8
ĠT op
ï ¿
Ġ3 4
F P
Ġattempt ed
Ġfem in
Ð¾ Ð
um ber
Ġupd ated
f oot
Ġc ert
Ġpre gn
ĠO ld
u a
Ġsc hedule
v in
x y
ĠP S
am ily
ad el
Ġded icated
Ġpost s
ĠA L
Ġsent ence
Ġup coming
ĠD own
b el
ĠN Y
Ġcol umn
ĠD i
h us
Ġdep th
0 9
Ġpl ed
Ġvirt ual
u able
Ġj ourney
Ġstru ck
Ñ Ģ
Ġdes k
Ġstud io
Ġreal ized
ĠE nergy
Des pite
ce ived
% )
ograph ic
D S
u gh
Ġmed ic
iam i
Ġserv ing
Ġwalk ed
ri ve
iven ess
Ġk ing
Ġr ing
k o
Ġrep ut
ph y
y ou
Ġur ban
ĠC le
ĠChar les
ĠW ild
Ġtarget ed
Ġch annel
Ġass ets
lud ing
Ġins pired
Ġhot el
ĠAri zona
0 8
Ġnews let
L ike
T wo
ĠSu pp
Ġun iverse
0 7
Ġag enda
Ġca using
Ġwat ched
Ġsu icide
Ġt ort
Ġstre am
ĠM en
m em
Ġover whel
ĠP y
Ġus ual
Ġsurve illance
Ġint ent
so le
Pe ople
Ġl iqu
Ġs ister
Ġopp onents
Ġchair man
Ġd u
ĠW ars
ĠCru z
Ġmain stream
Ġlat ter
Ġh all
Ġsurround ing
Ġfol ks
Ġknow ing
Ġord ers
ĠIn f
om in
ig g
Ġrem ote
Ġ7 5
Ġs and
Ġliter ally
ĠJ ava
Ġobserv ed
ĠAg ain
ĠR ight
Ġsubs id
g or
ĠDef ense
Ġinf l
ob b
Ġappro val
ĠV an
ren ce
im ents
Ġbas ket
r ations
av or
Ġteac hers
az i
iz z
F r
Ġwin ter
ici ency
al le
az e
Ġexc iting
ac c
ay lor
ĠT al
Ġform at
b oy
Ġcon gress
i ro
Ġprotect ed
at i
Ġnot iced
Ġsim pl
Ġdeal ing
ĠYou ng
ĠCh ild
Ġprec ise
ĠP an
x ual
6 7
Ġdeep ly
Ġcommunic ation
Ġg ang
Ġs ending
i pl
Ġfor th
ĠJ r
Ġf asc
Ġbat tery
Ġw al
m un
Ġsk y
Ġn arr
Ġfix ed
p ost
Ġas ide
Ġrequire ments
ab is
um s
Ġproper ties
r ors
st r
Ġal ive
Ġnar row
Ġw ake
all as
Ġpass ion
ĠAr ch
onym ous
Ġe ating
ens ity
Ġmist ake
w art
w oman
Ġexpl ore
Ġcoff ee
Ġ197 0
Ġra pe
Ġvol ume
Ġprom ised
Ġd iet
ack ing
Ġris ks
Ġex hib
ĠPol it
Ġswe et
M ay
ĠEn ter
ĠW at
Ġne ut
Ġinvol ving
Ġw age
Ġse lection
ĠM ax
Ġtest ed
et her
Ġfl u
ult ure
Ġdefe at
Ġn orthern
Ġre ward
Ġwel come
Ġext ended
Ġput s
Ġterrit ory
Ġphen omen
Ġun employ
Ġrefuge es
Ġs ample
Ġhe ight
Ġapprox imately
ĠK evin
Ġbl ame
ĠBr ad
Ġany way
5 9
ĠD etroit
Ġdestroy ed
ob ile
Ġsh o
Ġimp ressive
ĠStep hen
as ks
Ġpro of
Ġg ap
Ġd ry
ï¿ ½
Ġcr ash
ing u
Ġun known
Ġloc ations
Ġselect ed
ap se
Ġw est
ang es
ger y
ĠF il
st one
Ġattack ed
ĠT it
a ire
l v
Ġmax imum
ĠM iller
ĠWil son
Ġprom ote
âĢĻ .
Ġshe l
as er
Ġmere ly
Ġfranch ise
ar ry
0 4
Ġrequ ests
Ġret ire
Ġsudden ly
Ġslow ly
Ġprot esters
Ġdis ag
Ġteac her
Ġtyp ical
ĠIn s
i xt
og an
d ro
ĠW omen
Ġcon ver
l ist
Ġch ose
ĠC amer
a o
ĠCl ass
ĠL u
Ġmat ches
Ġlic ense
Ġproper ly
Ġass ume
or ation
Ġdisc over
Ġw id
ĠP R
R el
ĠM ic
Ġwor ried
Ġmod er
O r
Ġab ortion
f ire
ow ered
Ġall ies
Ġob lig
Ġterror ism
Ġsupport s
Ġ Î
uild ing
Ãĥ ÃĤ
ins on
ver ty
Ġarg uments
Ġad apt
Ġthem e
Ġconf ront
Ġfac ilities
Ġsust ain
g ender
Ġp al
Ġe ast
Ġrecogn ize
ig ure
Ġf uck
ÃĤ ÃĥÃĤ
ÃĥÃĤ Ãĥ
l ies
Ġequ ival
Ġobtain ed
Ġpo verty
Ġr ub
ĠIt aly
Ġnom ine
0 3
Ġde als
Ġfe es
it arian
os is
al o
S e
ĠH ollywood
Ġunder stood
Ġcontro lled
V ER
ĠB est
Ġtop ic
ĠD am
Ġcrit ics
ĠSoc iety
ĠAg ency
ax y
ĠF ord
Ġso le
ĠJer sey
ar ity
Ġvill age
Ġdi agn
ĠAd minist
ra id
Ġlik es
ce ler
ĠF our
st ers
6 8
Ġev il
Ġpun ish
Ġd ress
c ript
ĠGeor gia
ast s
Ġb unch
ĠComp any
Ġjournal ists
J ohn
Ġexp osed
Ġp ed
Ġreg ions
red it
oc ation
Ġcommunic ations
Ġschem e
ll s
Ġtrans p
Ġst im
Ġlim its
Ġsome how
Ġstrong ly
Ġhon or
Ġdr ag
au g
Ġresist ance
Ġch ampion
ĠCar l
ĠL abor
Ġph ase
ĠNAS A
p ool
Ġtr uck
Ġprof it
Ġconst ant
Ġcond em
Ġesc ape
Ġperson ally
ĠD un
rim ination
ĠN ight
ĠL and
Ġb id
ĠF ort
ĠN HL
ĠSt and
Ġvac c
Ġdec k
Ð ½
nes ota
if orm
Ġfall ing
ad s
GB T
ĠNet work
Ġsome where
c ers
Ġemploy ee
Ġhar ass
m o
C A
Ġbe ar
ĠC D
in er
Ġcompar ison
ort ed
ci ples
Ġpoll s
ow a
ret t
Ġin qu
ĠL ove
pect ed
Ġs outhern
Ġdec ent
or ic
c ow
ĠSp anish
Ġencour age
Ġem issions
Ġ3 9
ĠV iew
ĠC am
end ers
Ġem pty
ĠM iami
Ġh its
ost er
Ġdefin ition
ĠK n
Ġdirect ed
Ġp ic
ĠB ell
p es
Ġf lex
w an
z ens
ĠO k
5 7
Ġmeet ings
ĠE nd
Ġcomp rom
Ġwin ner
int end
ick en
Ġgot ten
ĠD aniel
ĠTur k
Ġelectric ity
Ġch osen
Ġoffic ially
Ġben ch
Ġstret ch
Ġdatab ase
ĠDes pite
Ġsp in
Ġinte llect
ig ation
Ġstrong er
a un
Ġde leg
Ġpurp oses
ĠD NA
te en
Ġcut ting
ĠT urn
Ġf old
r ary
Ġext ensive
C om
Ġamount s
Ġdes per
Ġtre es
Ġan x
Ġide al
ĠAs ian
Ġth read
Ġfif th
Ī Ĵ
C S
U R
Ġgood s
Ġcol on
Ġdevelop er
Ġclaim ing
un ning
An y
Ġre tain
Ġs oul
Ġcapt ured
ĠTh ough
Ġfind s
Ġdri ven
Ġpay ments
as ters
r as
Ġt ies
ĠJ ordan
Ġreason able
Ġdog s
â ĸ
Ġsome body
Ġend ing
0 2
ĠN ations
Ġcho ices
Ġb le
Ġp od
Ġse ats
ĠServ ices
ĠTh ank
Ġeng age
Ġd rawn
ol t
Ġs ight
Ġpar am
C E
Ġthreat ened
Ġrul ed
ĠD ar
ĠAtt orney
ĠIr ish
ep ing
ĠSe a
Ġtrad ing
ow ed
Ġprim arily
ur a
Ġaspect s
Ġf ighters
M L
Ġansw ers
Ġperfect ly
ir ms
Ġinc l
ĠAc adem
Ġr ival
Ġpark ing
Ġreject ed
ĠG all
ĠC at
Ġconst antly
Ad d
ĠH un
Ġpay ment
f ast
Ġdist inct
Ġf lying
Ġr ig
Ġtechn ologies
ĠRe al
m od
ĠU t
< /
Ġcomp onents
Pol ice
Ġad mit
ĠScot land
Ġelse where
ĠD ark
d it
Ġconst it
Ġany more
ld er
ĠC ast
Ġfield s
Ġ icon
Ġestim ates
E W
se a
Ġsol utions
Ġresult ing
7 8
ĠB ru
ur b
Ġaw esome
Ġprov ince
s m
Ġworld wide
Ġact or
Ġreg ularly
ĠMo ore
Ġcour ts
Ġnarr ative
O nce
Ġb oot
Ġenem ies
Ġmix ed
3 00
reg on
ĠO S
ĠDis ney
ic er
Ġhous es
Ġno body
ĠS k
in ations
Ġcontrol s
ĠW ater
Ġlet ters
ap es
ag ram
im p
ian a
Ġ4 2
Ġmay or
Ġm urd
Ġout come
ĠM S
Ġcon tem
se ll
ĠT em
v y
S ec
od d
s hip
ĠL ight
is an
on ic
Ġap artment
ĠB rian
ĠSte ven
Ġcoal ition
Ġcontribut ed
ĠB as
Ġt ank
Ġconclud ed
ĠAd am
Ġex ists
Ġfound er
ĠL ew
Ġatmosp here
Ġprof ile
Ġbre w
ĠT w
Ġsit uations
ĠCh ampionship
Ġlo an
l s
ĠA uthor
r ates
Ġincred ible
ĠConst itution
Ġsign al
ot es
ĠR og
Ġaccur ate
k er
ĠVict or
ot ten
Ġun p
ĠW here
ĠS outhern
." [
Ġemploy ment
ear ing
Ġcl ients
Ġkeep s
in ity
Ġinform ed
Ġcontin uing
Ġt aste
Ġbase ball
Ġgener ate
Ġtick et
Ġcon ven
of t
Al so
ĠCon f
Ġwe ird
l ock
Ġt ied
adel ph
Ġcateg ory
z y
il arly
ar on
ack ed
Ġang ry
ĠOr gan
Ġrout ine
Ġk il
Ġra ising
if er
Ġmach ines
Ġregist ered
the re
Ġprov ed
Ġdem ands
Ġg aming
ĠIt alian
Ġincred ibly
Ġcru cial
M P
Ġst uck
ĠC ivil
ĠD allas
Ġter rible
Ġfeed back
Ġu pper
Ġpl astic
Ġim per
Ġnew ly
ĠJose ph
Ġconsum ption
r age
ep t
Ġdo zen
Ġent hus
Ġest ate
al i
5 6
Ġinn oc
Ġman ip
Ġcons cious
Ġbill s
ĠC ross
ĠSp ain
ific ations
T oday
Ġwrit ers
Ġex cess
ind ing
Ġaggress ive
Ġrep orter
Ġcomp ens
Ġret urning
Ġst ead
Ġprogram ming
ĠTh anks
Ġrepresent ed
Ġconclus ion
9 8
Ġr us
ĠB owl
M S
ĠA R
Ġorig in
Ġassist ant
adelph ia
Ġro ster
ĠMin nesota
Ġorgan ized
ri a
Ġpen alty
Ġdrink ing
l ers
Ġpain t
Ġs atell
Ġg ro
ĠPro gram
em e
Ġcapt ure
Ġcons pir
Ġinter pret
Ġexplan ation
isc al
Ġcount y
isc ons
ess ed
Ġ %
D r
ann y
m ont
gor ith
iscons in
Ġassist ance
5 8
im a
Ġcompl aint
ĠRom an
st ar
Ġr u
Ġn ut
Ġmag ic
Ġt all
ĠO per
Ġgr anted
B ecause
ĠCont in
L A
O ff
ĠPar liament
Ġcompl icated
em en
Ġch ances
Ġaud io
Ġext ract
b al
er a
ĠG i
Ġ199 9
ĠE duc
Ġsh ares
Ġhe l
Ġsuccess fully
re te
es y
ĠW in
ĠH ot
Ġpil ot
ĠI T
ĠE p
Ġmy th
Ġ 00
Ġrec overy
ĠT est
Ġtechn iques
Ġ iron
ĠC are
ĠZ eal
ĠS C
Ġscen es
Ġveter an
ĠF re
Ġ( $
Ġdeg rees
act ions
the w
Ġsym pt
Ġlaw makers
k ed
Ġw estern
Ġoper ate
Ġad s
r ating
Ġha bit
re p
Ġaim ed
In st
anche ster
Ġph r
id ency
Ġeng aged
Ġpriv ile
Ġ5 5
Ġr ating
Ġteach ing
Ġacadem ic
ĠO s
! <|
Ġthe rap
Ġpass es
Ġdoll ar
Ġautom atically
u an
it ar
he nt
ĠPac ific
Ġmon it
Ġbl ocks
ab ama
Ġatt ended
Ġperman ent
Ġsurv ive
Ġant icip
Ġext rem
Ġen able
ĠL ook
ĠFore ign
Ġch at
ch ain
Ġmark ed
it als
Ġh idden
Ġacc omp
Ġtit les
ĠSen ator
ĠN BC
Ġt aught
c r
ĠLin ux
Ġb om
Ġind ex
ever al
Ġel ite
ib ilities
Ġlawy ers
Ġdep ending
f rom
Ġval uable
Ġinst alled
Ġch ampionship
Ġro ot
Ġcomp re
ĠB ull
Ġdownt own
a ed
m al
Ġequival ent
Ġsol ve
r ific
Ġd uty
ĠSpe cial
ĠB usiness
Ġ6 4
Ġp ace
H S
Ġreput ation
Ġun certain
Ġph ones
u ine
Ġover se
ĠT aylor
Ġperson nel
Ġp in
re ams
atur ally
Ġsuff icient
Ġvis ited
Ġwar ming
ĠS n
Ġprin ciples
Ġvulner able
Ġenjoy ed
Ġf ake
ĠN ick
Ġadv is
Ġnegoti ations
ind er
Ġgener ated
Ġexp osure
Ġrec ording
b ro
Ġcollect ed
Ġregard less
Ġd ict
% .
E A
Ġbit coin
Ġe lev
ã Ģ
act ive
ĠK elly
ĠAn th
Ġc up
Ġpattern s
Get ty
ĠT ake
) )
ĠA venue
ĠJ osh
Ġdis aster
Ġc able
Ġ6 5
Ġwork er
Ġmain ly
ll a
Ġrac ial
qu arters
ĠV iet
ĠCo ast
mon th
Ġp ounds
Ġ1 50
ĠC all
Ġport ion
ĠA h
Ġaf raid
Ġins pir
Ġb es
Ġdef ence
ĠE astern
ĠT ony
Ġtrack s
Ġbus y
Ġsh it
y e
Ġint ense
ĠSer ies
ĠL GBT
man n
or ne
ĠSt ill
ath y
Ġfun ny
Ġap olog
Ġsur gery
ĠMos cow
ĠC oll
Ġposs ession
Ġprom inent
ĠM ars
Ġcom ic
ĠG er
as hes
9 7
ul es
ĠR ay
Ġth in
Ġengine ering
Ġtrou b
ĠK urd
th is
Ġprocess es
ĠN ation
ĠK ent
ĠC ome
f all
Ġent it
Ġ âĢĻ
Ġunus ual
rap h
et ary
Ġdescrib es
d a
w orld
9 6
Ġresult ed
Ġd im
Ġemer ged
Ġtax p
Ġg all
il er
Ġ4 00
Ġprop ag
ĠI owa
ĠO regon
Ġco ordin
Ġcor ruption
Ġst ations
ĠIn vest
e z
Ġf ought
ĠA D
Ġbr ut
Ġext ension
pr ise
Ġbl ind
Ġadop ted
Ġcompet e
Ġrec ru
Ġgr ant
ĠZeal and
Ġhad n
P r
Ġm ail
re f
Ġevery where
ĠB alt
R ec
C ol
M ean
ic ate
Ġcry pt
he rent
Ġcontract s
ĠA li
Ġne uro
ĠI nt
f ront
ĠDe ad
ĠR ick
Ġfeel ings
Ġf irms
idel ines
âĢĻ ,
Ġminor ity
t es
c les
H A
Ġadvert ising
Ġsp r
Ġrare ly
Ġdisc ipl
m aking
ĠN orthern
Ġsan ctions
ĠV eg
sc ape
ĠPhil adelphia
up id
Ġcamer as
l og
Ġexpl icit
Ġstr ict
v iously
Ġen orm
Ġfin ance
g un
Ġc ited
if ies
ĠBe fore
Ġshort ly
U L
ĠPol icy
Ġexpect ations
Ġimplement ation
og en
Ġrec ip
cl ing
ĠGree k
Ġth ick
Ġthous and
ant ic
ĠM u
ist ent
Ġl oud
Ġaff ili
t est
or ough
ur rent
ĠN avy
Ġin ev
c us
Ġphot ograph
Ġmed ium
az z
ĠH om
ĠW isconsin
Ġscen ario
ĠF ood
ĠL ive
Ġsu p
il ton
Ġpl ug
Ġve get
C o
Ġh o
Ġvis ible
Ġlight s
L C
Ġcreat es
Ġprior ity
Ġv en
Ġbr idge
Ġob st
ink ing
AT E
Ġag ric
Ġper mission
M ar
ĠF oot
Ġal gorith
iz on
Ġparticip ate
ask a
Ġw ing
wh o
as ion
Ġt or
ĠPro te
Ġbrow ser
ĠGl obal
Ġt ag
c ar
ĠH as
Ġm el
ĠAs h
Ġac celer
e lect
## #
Ġdo zens
ĠKing dom
Ġhistor ic
Ġcomput ers
Ġla id
Ġbasket ball
Ġloss es
ĠS af
Ġun w
og ether
: :
ĠAm endment
Ġstrik es
Ġprinc iple
ĠDevelop ment
Ġform al
E P
Ġsc oring
l an
7 6
ob s
at hered
Ġ4 4
Ġcoun sel
+ +
Ġsh ock
Ġwonder ful
ĠS P
Ġbeh alf
ab s
Ġun com
prof it
ig en
ent h
b ell
em s
Ġinter face
Ġestablish ment
Ġto ler
ĠHen ry
le te
ĠG reg
am ber
ĠM ajor
i el
j o
ĠTh us
U s
Ġg ained
Ġfe e
Ġfound ed
Ġfound ation
et ime
ĠE SP
ili pp
Ġclub s
Ġcann abis
Ġj u
5 4
5 2
Ġair port
a us
y stem
ĠKe y
Ġb orrow
we et
ol is
B O
Ġmanufact uring
Ġre ly
ĠH it
ĠP ay
ĠAl abama
Ġgen uine
ĠR oyal
rat ors
Be fore
Ġcomp onent
Ġrid ic
ose xual
Ġwhe el
r ative
ĠO ak
Ġjournal ist
Ġrel ief
u er
Ġsa ved
5 1
Ġh ole
Ġy ield
Ġhead ed
Ġcy ber
ĠM oh
s he
ĠO l
epend ent
Ġg ift
Ġwithd raw
Ġf ault
Ġindic ate
Ġdraw ing
Ġun iform
um er
ĠR and
ar lier
Ġst able
Ġsh ips
Ġ- >
Ġban ned
ĠM id
Ġfoot age
Mean while
Ġdo ors
rou s
Ġrecogn ized
Ġ19 60
Ġcont aining
p read
4 00
ĠF C
ĠV is
Ġr iver
m es
Ġstrugg ling
S ub
b a
Ġsp ark
ĠAcadem y
Ġwall s
Ġachie ved
op her
oun ced
Ġneigh b
Ġpl ate
Ġed ition
ĠH T
port ion
m ate
Ġmove ments
Ġdeli ber
u ce
P ost
Ġsh arp
ĠA S
ĠS now
ul ating
Ġst ab
ĠTh ree
Ġepis odes
Ġneut ral
ĠPrem ier
ĠR et
ĠF und
Ġexcept ion
et ts
Ġprodu cer
ĠF red
Ġdest ruction
Ġ199 8
os a
ou red
am i
: <|
Ġbelief s
Ġ4 7
ĠRe view
Ġp ump
Ġleg end
ĠMc G
Ġback ed
Ġlik ed
Ġh ired
ides pread
c ription
Ġro les
Ġlangu ages
Ġprofess ion
Ġent ering
ĠV R
o en
Ġinterview s
Ġh ang
is p
Ġto x
Ġphilosoph y
ĠAdminist ration
Ġar range
ĠK ir
Ġfl aw
ĠN ob
inte rest
Th ose
sy lv
im ore
Ġst adium
ĠAtlant a
ĠJ ac
Ġredu ction
Ġdin ner
bur gh
Ġb ath
u per
Ġmag n
ĠTurk ish
ĠRep ort
em an
it i
Ġa ver
Ġf inger
ĠN ote
ĠCon ference
Ġtack le
t a
Ġch a
Ġg onna
ĠDie go
ĠCent re
Ġc rop
Ġfarm ers
ĠM anchester
Ġnomine e
Ġ4 1
ĠAr m
ach ing
ĠJ ason
Ġbare ly
AT O
Ġstruct ures
Ġcont ained
c a
Ġsy nt
Ġdeli very
ĠO tt
% ,
Ġprocess ing
Ġdisc rimination
Ġconv in
Ġinc ent
ri ers
ĠF air
erv ed
R S
5 3
t hen
ĠL o
ĠD ata
j a
abin et
Ġintellect ual
E d
ams ung
Ġ4 6
ĠRad io
ĠB ry
M e
ĠO K
ĠF ield
ĠD id
Ġup set
ĠPer haps
ĠEduc ation
sylv ania
aw ay
ĠM ir
P resident
Ġchalleng ing
ri k
Ġpro ven
Ġrestrict ions
i y
Ġfore ver
h ttps
ol en
Ġelect ronic
Ġhit ting
ĠH ay
Ġe uro
Ġun ex
Ġreview s
ĠChrist ians
Ġ4 3
ĠH or
St ar
Ġconv icted
Ġill ness
Ġsm ooth
D av
p age
Ġret ired
Ġindic ated
h o
us ive
Ġh am
Ġprodu cing
ĠHar ry
ĠAb out
Ġrapid ly
Ġro se
Ġh ide
Ġcorpor ations
Ġo cean
ĠN C
ĠR us
ĠP oint
ay ing
ow ing
ĠS at
Ġlist ening
ĠRe uters
ĠU FC
Ġtechn ique
Ġm o
y ard
sel s
less ly
Ġl oyal
ĠN ic
ĠP en
ĠMe an
Ġrob ot
Ġnot ion
Ġbeg un
Ġut il
ĠF ed
Ġrecogn ition
ou ver
eng ers
Ġper pet
Ġassoci ation
in f
Ġmil k
Ġas ks
Ġre n
8 7
Ġwebs ites
Ġdesc ription
ĠP ack
Ġtick ets
ach us
Ġfl ash
Ġsuggest ing
enn y
ĠJud ge
Ġexclus ive
Ġreach ing
Ġb ra
Ġprep are
ĠK ansas
f ound
Wh o
ion e
Ġb ail
Ġfr ag
Ġprogress ive
im m
Ġex ceed
Ġequ ally
ĠH ard
Ġhard ly
Ġw idespread
ĠA BC
Ġcampaign s
ĠMay or
Ġcont ribute
ud es
el f
olog ists
Ġbr anch
L ook
ĠR ose
Ġgr ass
Ġiniti ative
ĠMark et
Ġeth nic
Ġex ternal
ik es
ĠC irc
um a
ri ent
Ġsens itive
Ġpract ical
ust ed
Ġunc lear
Ġnorm ally
R ef
Ġrepresent ative
p at
b ec
Ġwe lf
ĠF ull
th on
Ġredu cing
app y
l ad
Ġfriend ly
Ġcare fully
ĠArab ia
ĠR ef
8 9
ĠL y
P M
ĠL uc
Ġrac ist
Ġinv ent
r ical
P G
ou ch
ĠC O
Ġrespect ively
sen al
Ġex em
rat or
Ġt ail
ĠMcC ain
ĠBern ie
anc ouver
Ġoverwhel ming
Ġview ers
ĠBe ach
Ġwelf are
arr ass
st ract
ĠF urther
Ġconvin ced
U N
Ġsm oke
um es
Ġcoll apse
Ġinvolve ment
ĠL ind
Ġth rown
pl oad
Ġconnect ions
he ast
Ġterror ists
ĠB attle
Ġstrateg ic
Ġh ook
Ġrec over
ĠLat in
omet hing
ĠO nt
Ġw ine
ĠNe xt
M c
ino is
ĠMus ic
ro lled
Ġmind s
igr ant
Ġv ital
Ġsettle ment
Ġstat istics
Ġl ists
Ġv ary
Ġfeat uring
ĠESP N
ec ut
achus etts
ĠS ir
Ġbehavi our
Ġindepend ence
ĠD ig
w orth
Ġfant asy
Ġdev ast
ned y
c ore
ut ies
Ġinv ited
Ġcompl aints
Ġjo ining
Ġscore s
Ġf iscal
Ġdeep er
d em
ĠPenn sylvania
es ter
if est
Ġst eal
Ġan ger
Ġdep uty
Ġel ig
Ġw ars
ĠSqu are
Ġinvestig ate
ĠT enn
ĠT own
Ġsu gar
Ġconst itutional
ĠII I
ĠP it
Ġschol ars
Ġi OS
Ġany body
Ġsubject s
ĠA ND
Ġar ray
b n
Ġal ien
F A
ĠG ov
Ġl obby
Ġowners hip
Ġframe work
ĠU lt
Ġunemploy ment
ĠDiv ision
Ġtrans gender
e le
ĠS S
Ġimprove ments
Ġmen u
Ġpe ak
B ack
Ġsc reens
ih ad
Ġin ject
Ġl uck
ivers ary
Ġdef ine
Ġt asks
ĠX box
Ġdem ocratic
Ġsc andal
ick ing
Ġj ury
ĠAnt on
ĠMin istry
C he
ĠK at
Ġc os
Ġcompre hens
os it
un ior
Ġdisc overy
Ġreg ister
ĠE s
ag g
Ġcas ual
Ġrem em
Ġcitiz en
Ġf ab
R I
S m
U nder
Ġroad s
Ġdisag ree
Ġfail ing
ĠN ever
ĠL ittle
ĠJ ay
Ġdynam ic
Ġserv es
ĠCamer on
ĠBro ther
ĠM ah
Ġtest im
Ġg athered
ĠSt one
ĠIn formation
ast y
Ġs oph
od ing
Ġimplement ed
Ġcontrovers y
Ġcollect ive
Ġtr ained
ann a
ĠN SA
Ġneigh bour
Ġfear s
Ġguaran te
level and
Ġsam ples
Ġf iction
Ġpro sec
Ġest imate
ĠCommun ity
ĠI ce
ĠMed ical
ĠSep t
Ġ199 7
ĠPh ilipp
Ġrefer ring
Ġt ip
Ġcap tain
W ill
Ġ199 6
Ġsp aces
6 9
c ific
Ġt rem
ĠWalk er
Ġvers us
Ġleg s
ĠSant a
Ġtem porary
P C
Ġno ise
Ġs in
ĠH D
Ġincor por
Ġt one
el and
ac on
Ġover t
Ġvisit ors
Ġre ven
Ġcivil ians
Ġw ages
Ġhyp ot
ak a
Ġrem arks
Ġaware ness
ĠO N
ĠSpr ing
Ġrecomm ended
Ġst upid
ĠAll en
Ġhead ing
Ġhand ful
um in
Ġreg ulation
ick et
ĠA ction
ĠC ore
Ġplatform s
Ġacc us
ĠAnth ony
m ad
Ġaff airs
g ener
Ġtouch down
Ġr ural
Ġattack ing
Ġext end
Ġult imate
Ġatt ached
ĠVeg as
Ġdiscuss ions
Ġhor se
ĠB rew
Ġrep rodu
Ġgen etic
Ġexpand ed
Ġattempt ing
ph ones
ĠMat thew
Ġr aces
inc luding
ĠQue en
ir y
Ġr aw
Ġign ore
ĠColumb ia
s erv
ĠP ent
ĠGuard ian
h our
ĠC ook
Ġi P
h an
ition ally
Ġg ear
Ġsympt oms
ĠPat rick
Ġsuff er
Ġsett ings
ĠM ake
all ing
Ġsal ary
c ase
Ġlic ens
Ġro of
m ary
G O
Ġtweet ed
ang el
Ġpublic ation
Ġbr ill
Ġfact ory
' .
Ġsuspect ed
Ġpurch ased
Ġinter vention
are t
Ġeas tern
Ġhol iday
ty pe
20 14
Ġprom pt
es h
Ġthe at
Ab out
Ġdis pl
Ġrank ed
Ġne ck
ĠConserv ative
ĠAust in
ĠM useum
ĠR oy
" )
Ġc ro
ĠB udd
S en
Ġenorm ous
# ##
intend o
Ġc ogn
Ġlog ic
ult ural
ict ions
ĠAP I
Ġimprove ment
Ġview ed
Ġing red
Ġentertain ment
A ss
Ġlegit imate
ĠProf essor
omm od
Ġpres um
ĠAl bert
ĠMass achusetts
ĠB all
Ġ201 9
Ġw ww
New s
Ġact ors
Ġsubstant ial
Ġhuman ity
Ġinvol ves
Ġres ource
ar ms
Ġbrother s
Ġliqu id
Ġr ational
Ġseem ingly
Ġs orry
Ġlay er
Ġlo ans
Ġro ok
Ġinvestig ating
Ġabs ence
Ġprov iders
Ġtom orrow
Ġfall en
Ġb ureau
re c
Ġground s
Ġco aches
Ġst ake
Ġres ign
Ġout s
Ġadvoc ates
Ġâ Ĥ¬
R C
Ġinvestig ators
Ġconspir acy
Ġmedic ine
Ġdram atic
W here
Ġf ulf
Ġmon itor
ĠCh air
re pre
ES T
Ġch apter
ĠSe ason
Ġc oc
ov al
Ġover s
G E
l ah
ple te
. -
Ġactiv ist
Ġbo at
ĠChe ck
ĠCont rol
Ġg am
Ġj ur
Ġsusp ended
Ġp apers
Sc ript
ĠGree ce
Ġopin ions
ĠS uch
ĠR oss
Ġmiss ile
ĠGold en
Ġcele b
ĠRev olution
p ed
20 16
ĠHe ad
Ġstay ed
Ġco vers
iver pool
Ġd iversity
oty pe
Ġb ars
R uss
re ts
x it
Ġemb arrass
Ġoffic es
ĠA cc
our se
ĠP ot
ĠH o
cl aim
P art
ĠIran ian
Ġdis rupt
co ver
ĠW W
Ġpre ced
Ġpo ly
Ġfore st
we red
Ġcare ful
repre ne
b i
v ard
il a
Ġam id
ĠHist ory
Ġm ad
h ot
qu est
ĠH ospital
ist ing
am med
ĠA le
Ġaut hent
ĠA p
ĠIll inois
ĠC BS
ĠS ony
u ction
7 9
ge on
Rel ated
r ine
Ġtransport ation
ĠV ancouver
ĠG aza
Ġhand ed
Ġprot ocol
Ġconsist ently
Ġmount ain
Ġ5 2
Ġread s
ĠSt at
Ġpre f
Ġclot hes
Ġatt itude
i ability
ect ion
ĠP o
ĠSh are
ĠKen nedy
Ġp orn
Ġprinc ip
ĠF reedom
s es
Ġdep ends
Ġmin ing
d es
Ġpet ition
Ġnot ing
Ġcon ce
Ġcol ors
Ġlow est
ĠAnd erson
Ġwar rant
ĠT ri
Ġaddress ed
ĠF amily
7 2
ĠR a
un es
Ġent r
pt ions
x x
ĠSt adium
Ġthrow ing
Ġj e
7 4
Ġvirt ually
Ġf ruit
! )
Ġst one
Ġf oss
Ġguaran tee
Ġrefere nd
in ch
B oth
Ġspeak s
ĠBalt imore
? ?
Ġste el
Ġcl osing
it ting
Ġread er
ĠC re
d ri
F F
Ġbu ff
Ġperson ality
Ġappreci ate
Ġsur f
ĠIraq i
pt on
ĠEn vironment
Ġn erv
ien ces
m aker
ke ep
Ġhand ling
Ġprof its
ord on
Ġg rav
l ow
Ġk m
Ġmar ks
Ġtri es
ĠBro ad
ĠE xt
Ġcontribut ions
ĠEng ine
rop ri
Ġspirit ual
Ġconvers ations
Ġfant astic
ĠT ro
z ed
Ġl ands
Ġcon sole
Ġhor ror
pp ers
" .[
ic ity
Ġg ains
H er
Ġcover ing
Ġte a
iv als
ĠHar ris
Ġast ron
Ġh int
av al
Ġshould er
sc ale
Ġw rest
Ġgu est
Ġacc ommod
ut ed
u its
Ġdep ression
ĠC A
Ġ _
ĠLew is
Ġl ucky
ĠB ang
Ġencour aged
fl ix
am ac
Ġjud ges
Ġinc idents
ĠC leveland
Ġd rew
Ġsubsequ ent
Ġsp oken
ir a
ĠR en
ĠHow ard
ĠB ad
Ġbro wn
Ġb acter
P lease
ix ed
ann els
Ġr het
Ġr anks
ĠGet ty
Ġphot ograp
Ġinfl ation
Ġin ner
ĠInte lligence
m at
ĠB a
Ġm aps
ab eth
ĠPat ri
port ed
ij ing
pl ate
Ġdiv ided
Ġ199 5
ĠN ATO
Ġpar alle
Ġdr ama
ĠMex ican
Ġdist ributed
Ġg al
Ġinnov ation
un icip
Ġc ust
ĠUn fortunately
Ġprem ium
Ġvot er
Ġper mit
Ġre vel
ĠK ong
Ġd ance
pl ed
Ġsw ing
ĠL as
Ġeff iciency
Ġprom ises
ĠInd eed
N ote
ĠC H
ĠWh ich
ĠAd v
Ġball ot
Ġ5 1
ed ing
Ġtemper atures
ĠS amsung
Ġport ray
Ġspokes person
Ġl ocked
Ġl ying
Ġimpro ving
8 00
Ġth rew
Ġj oy
Ġd ump
Ġmus ical
P P
Ġmist akes
d ated
Ġsh out
con f
Ġhom eless
Ġreplace ment
er ies
ĠSt art
Ġcom edy
Ġche cks
ĠM oon
ĠWith out
Ġinstru ment
oun ce
ĠCon nect
Ġacknowled ged
Ġbar rel
Ġrespons es
Ġprotect ing
back s
ĠD et
Â Ĵ
he im
Ġsil ver
Ġcop ies
Ġl es
ĠA C
Ġd ad
Ġbreak s
ĠPl us
ĠB uff
Ġcommon ly
Ġle ts
Ġleg acy
it age
Ġmat hem
Ġprote in
e en
Ġjo ke
amac are
er ted
Ġpass engers
20 15
Ġy ellow
ĠMar vel
h op
Ġn aturally
Y our
ĠS cient
Ġnom ination
S ource
Ġmeas ured
ap ing
al ia
ĠU se
Ġabandon ed
od ed
ĠPr ince
Ġstud ied
ĠFoot ball
Ar t
hel sea
Ġd iverse
ast ed
Ġr om
arg o
Ġacqu ired
iet ies
ĠL yn
C ons
ĠM arsh
Ġso il
Ġdemonst rated
Ġre ar
Ġfund ed
Ġhead quarters
hes is
est y
Ġst olen
ini ans
Ġsc an
Ġcount s
Ġt ape
Ġpartners hip
Ġmid field
ĠN OT
Ġ( âĢľ
Ġupgr ade
y o
ĠC ost
ĠAtlant ic
Ġm arch
Ġgr id
Ġord inary
ĠA ud
ĠN ev
aw are
Ġliter ature
Ġpl ain
Ġst ages
h igh
ĠâĢ ¢
Ġass ert
y er
Ġ199 4
ĠA I
Ġhelp ful
Ġarri ve
Ġex it
Ġsc ope
Ġfall s
d og
Ġign ored
B M
Ġtw enty
et ers
ĠM aster
Ġcl ock
Ġcom pe
in ction
Ġvir us
ĠT rib
Ġreferend um
Ġin equ
Ġun ions
ĠDo es
ass ador
er g
Ġconserv atives
ĠG un
Ġr if
Ġsy mp
Ġf estival
Ġsho pping
Ġf ro
Ġwat ers
ĠP op
Ġcap abilities
ĠB ron
Ġa x
z ing
lah oma
Ġus age
ĠH ind
i ate
ĠEm pire
aed a
ĠIndian a
ile y
Ġtrans actions
Ġhop ed
V E
Ġdist ract
Ġgu itar
ĠE ag
ct ic
ĠAb b
Ġst y
Ġr amp
Ġassess ment
Ġunivers ities
ĠD ave
Ġm oon
orm al
Ġmonit oring
ack et
br idge
F acebook
Ġrepresent ing
ĠDe ath
Ġrat io
en cing
ugh t
ĠPro v
ĠA st
or ge
Ġconvention al
com es
US T
ĠS et
Ġtr ave
ing ton
Ġtrack ing
d oor
nt il
p ie
ĠS ometimes
on ly
sh ire
ĠS us
Ġh ung
Ġrel iable
Ġt ie
Ġpropos als
Ġske pt
Ġrepl ied
u h
ĠR os
Ġcritic ized
Ġappear ances
6 2
ecut ive
Ġrac ism
ĠL im
ĠH a
Ġins isted
or gan
r imin
Ġintrodu ction
Ġ20 20
Ġappoint ed
d ney
ĠB ureau
ol ph
ag ic
ĠP ass
c ut
ĠL ine
Ġbeaut y
Ġconc rete
Ġrece iver
f und
Ġsupp lies
Ġperform ing
m ade
ĠJ am
Ġb ub
Ġex ch
r ite
ĠHe ll
Ġvis iting
ĠTechn ology
6 3
ĠDen ver
oc ument
E E
om es
the less
ĠC apt
R L
Ġlet ting
Ġsw im
AN D
Ġdef icit
j i
Ġclass ified
ĠGal axy
ag a
Ġre nder
Ġabs or
ĠOr ig
Ġaccompl ish
Ġaut o
Ġprogram me
K e
Ġpres idency
H T
c rib
6 1
Ġblock ed
ĠSwed en
Ġe c
arch y
Ġd ust
ĠUt ah
Ġdro ve
Ġland scape
Ġcan ce
ĠPort land
pl us
Ġdismiss ed
ĠL A
Ġhy per
Ġab road
Ġbon us
ĠT our
Ġsequ ence
Ġpredict ed
Ġsen ator
Â °
ĠA ge
el a
Ġdom ain
ĠC ode
ĠB on
Ġm useum
Ġwar n
ĠAssoci ated
Ġpers ons
N S
Ġd ub
Ġrequest ed
Ġtrig ger
ĠOnt ario
ĠCor por
Ġh ockey
Ġart ific
Ġd ates
Ġtestim ony
Ġcent ers
ian o
Ð »
Ġrock et
ir ts
Ġv es
Ġtrans it
Ġcongress ional
Ġentit led
ult ane
ac co
Ġspokes woman
ĠFr ont
ĠN intendo
ĠAlex ander
Ġresc ue
ĠCo oper
m ony
Ġass ign
Ġequ ality
Ġp atch
Ġur ged
Ġb read
ĠOlymp ic
Ġdocument ary
Ġveter ans
Ġcl ar
f ol
ĠW ik
ĠâĢ Ŀ
k ing
Ġrec all
Ġpop ulations
Ġbreat h
ĠL ow
St ill
6 00
room s
ound ing
A re
Ġwhen ever
Ġviol ation
Ġtact ics
Ġw ider
9 3
Ġtarget ing
Y et
th rough
Ġpurs ue
9 2
" >
Ġle an
Ġs alt
iz abeth
Ġf iring
9 4
ĠM ill
C omp
Ġac id
in ating
Ġm ole
h ar
is ons
Ġrestaur ants
Ġcomp are
f are
d y
or ous
ect ive
enn is
Ġemploy ed
ĠRober ts
Ġcont rad
ĠB ible
Ġpolit ically
a ver
Ġphr ase
Ġsatell ite
ĠC ro
Ġsurv ival
Ġretire ment
Ġbank ing
ĠF orm
Ġbrill iant
ĠG irl
Ġch annels
7 1
Ġser vers
7 3
ĠBe ijing
Ġsoc cer
tr ans
ĠM ach
the y
Ġbur den
Ġintrodu ce
Ġexper iments
at ar
ene z
Ġprison ers
ra pped
Ġc ig
ĠW H
j ud
Ġf ighter
af e
Ġscient ist
O K
ĠY OU
usal em
ĠL ist
Ġsub mit
Ġappro ached
ĠA ward
Ġmonth ly
ĠL iverpool
re ll
Ġdesign s
Ġrepresent atives
Ġc ul
Ġtit led
ord inary
Ġqu ote
Ġpopular ity
ol ves
oen ix
Ġab ilities
ĠP D
Ġmembers hip
Ġinvestig ations
Ġfocus ing
Ġb ab
m ans
Ġh osp
ĠBr idge
Th ough
ĠMary land
Ġsa ving
b ow
Ġr ush
ĠGovern or
Ġm it
Ġsh adow
ou ri
ĠH ur
ĠB ase
Ġobject ive
ber ry
Ġenc ry
ĠT ed
er ts
eder ation
Ġpre par
Ġt ips
ĠW as
Ġpip eline
Dav id
Ġchild hood
Ġrat ings
Ġth orough
Ġent reprene
ent er
ĠV ill
ĠD utch
w as
bre ak
a is
Ġact ively
ĠK ar
ĠHar vard
Ġp ig
Ġdemand ing
Ġlo ose
em ed
Ġunex pected
Ġsm oking
Ġsm ell
Ġden y
C O
d on
Ġunivers al
ik a
Ġfore cast
Ġarg ues
Ġphenomen on
Ġoverse as
Ġsett led
w alk
old s
ĠBe ck
Ġgener ations
Ġweek ly
Ġch icken
te l
Ġprep aring
Ġ9 5
Ġsmart phone
Ġprodu cers
Ġbut t
ĠP A
Ġlegisl ative
ĠC ry
Ġanx iety
ĠH ave
Ġinnoc ent
min ute
ĠC lick
Ġmort g
Ġcelebr ate
Ġprov ision
D em
ĠD O
ĠU r
Ġke ys
Ġm ini
Ġsh ame
Ġarg uing
ĠJust in
ĠDes ign
he ld
Ġquestion ed
Ġfor cing
ĠC ow
ĠH op
ag h
omp son
â Ķ
Ġbroad er
Ġencoun ter
m ers
Ġfl ags
S L
Ġf ool
S im
Ġf ur
Ġm ac
Ġ5 3
Ġdead ly
Ġre verse
Ġwe igh
ĠEd ward
ĠAm ong
Ġt ens
Ġ ~
Ġm os
Ġwealth y
ĠOb amacare
Ġun pre
Ġt ab
Ġmaintain ed
e als
Ġsure ly
Ġsh ield
ĠPro p
ocol ate
ore t
Ġsecond ary
Ġsav ings
is a
ir lf
av ed
Ġst ability
Ġcivil ian
Ä ĥ
ĠCar ter
Ġreve als
m ind
Ġal arm
el son
Ġann iversary
Ġs orts
ĠB ra
ĠA k
vern ment
Ġton ight
E l
Ġrele ases
ĠH on
Ġroom s
irlf riend
ĠG ulf
Ġout rage
Ġprosecut ors
ĠLe ft
in als
Ġdis order
8 4
Ġw edd
Ġex ha
or ious
is k
Ġsh r
Ġrel ax
Ġwind ows
Ġthreat ening
Ġdifferent ly
p a
Ġharass ment
Ġqu oted
Ġhealth care
Ġsub mitted
Ġar bit
st ep
Ġl unch
ĠR un
Ġreform s
Ġtort ure
re ction
Ġf ate
Ġst ored
ĠBel g
Ġo kay
Ġpropag anda
Ġsp ots
Ġinstruct ions
ĠViet nam
Ġse vent
Ġround s
Ġodd s
it ter
Ġ199 2
Ġa er
ht ml
ten ance
Ġer rors
ĠOk lahoma
Ġhy dro
ic ism
G A
Ġde lic
ail ed
ĠLiber al
Ġsil ence
ĠGra ham
ĠS ab
act s
ĠWar ren
Ġgrad uate
Ġcirc le
Ġafford able
se ct
o is
ĠBl oom
o z
Ġcooper ation
Ġp icks
Ġse ar
it ary
ĠSar ah
ĠF all
ors hip
a a
ĠEx pl
v an
Ġstrik ing
Ġp uzz
Ġpers u
Ġstre aming
Ġcomprehens ive
Ġimportant ly
Ġc ow
Ġposs ess
W atch
Ġf ing
Ġexec ution
ĠRub y
l ined
Ġint im
Ġstrugg led
ĠS om
ĠP erson
ĠSil ver
Ġass ass
ĠLe ader
ut en
ah u
Ġg ent
ĠPr ice
Re uters
T y
ish op
Ġdes erve
ĠJer usalem
Ġland ing
Ġcal m
Ġal ter
Ġh al
Ġcere mony
Ġassum ed
Ġdemonst rate
Ġdifficult y
f r
Ġag es
Ġpr on
Ġd ying
Ġdist ingu
as ury
et he
Ġste pped
Ġb orders
ast ing
Ġche st
ĠW olf
ĠL t
b ury
ĠB ud
Ġadv enture
Ġpoint ing
ov a
Ġw aves
Ġkil omet
es see
ater n
ĠDe b
ier ce
ĠNet flix
Ġaut onom
Ġprecise ly
Ġarchitect ure
Ġgreat ly
ĠT en
Ġprom ising
Ġcons ent
Ġconsider ation
Ġdri ves
Ġdial ogue
ĠM ain
Ġtrem end
Ġnewslet ter
Ġrook ie
as ant
Ġaward ed
ĠMean while
a fter
Ġrepe at
ĠSt ory
Ġcont ribution
ĠTe le
Ġbur ning
8 3
part y
Ġsim ultane
ĠScott ish
ĠV ice
ak h
Ġdon ations
ĠInd ust
Ġinter f
it ol
ĠMag ic
Ġvo ices
Ġanaly st
ĠBru ce
ĠTe ch
cept ions
Ġg if
Ġfrequ ency
ĠComm on
Ġproced ure
Ġwant ing
ĠP res
Ġexecut ives
Ġplayoff s
o ice
Ġstay ing
ap olis
Ġb irds
Ġbi as
ie v
V D
ĠH ong
ĠA z
iz er
Ġinc hes
Ġtr illion
d s
om y
hold ers
Ġhighlight s
Ġsem i
Ġremark able
Ġwhere as
E X
rib utes
ĠPalest inians
Ġkn ee
op en
ĠJon athan
ra ig
Ġimpl ications
scrib e
Ġform ation
Ġsuper ior
Ġstrateg ies
Ġan s
it ual
ĠBer lin
d iv
ĠL ink
ĠSy dney
st al
ĠM ORE
le e
Ġcateg ories
ĠAr k
Ġf et
Ġfollow ers
Ġcre am
St ory
port ation
F O
Ġcontact ed
M s
Ġjud gment
ann on
Ġsm ile
b ered
Ġinf o
Ġemer ging
ig ious
r if
j s
y es
ond er
v ision
ĠE ff
vertise ments
iff s
Ġaccess ible
h att
T P
Ġphys ically
Ġass igned
Ġ5 4
Ġgu idelines
Ġdefe ated
Ġcr imin
Ġw ounded
Ġtri als
Ġst em
Ġman aging
Ġspe ll
Ġmin istry
Ġgr ade
Ġco inc
Ġr iding
Ġindic ates
Ġcent uries
Ch rist
c est
ĠAff airs
Ġop ens
ak i
Ġph arm
Ġmeaning ful
om ed
Ġt iss
ĠMr s
Ġe ase
ch ild
Ġmarg in
ĠSt ore
Ġclot hing
ĠS ix
Ġâ ĪĴ
ĠT es
ĠCap ital
Ġparticip ation
ced ented
M us
Ġre vers
ar ia
I nt
Ġpo ison
ĠBre xit
Ġ1 20
ĠY emen
Ġl apt
Ġcompet ing
i ac
Ġmem ories
ĠC S
Ġthe ories
Ġrec ipe
Ġg ross
um ble
a uthor
h ard
Ġpass age
Ġag ed
ĠC redit
Ġb in
Ġdr one
Ġbl ank
Ġdisp ute
Ġdam aged
Ġ199 3
ĠHam ilton
b ase
Ġsubst ance
Ġhost ed
T ER
Go ogle
ĠC helsea
ĠL am
Ġpromot ing
Ġfac ilit
Ġopen ly
ĠInst agram
Ġ19 50
e ven
ĠV ik
V iew
ĠChild ren
s l
ĠCr ime
Ġclin ical
O ut
Ġn ic
b its
re r
ere my
ĠH old
ere nt
Ġinvest ments
Ġcons ensus
ĠF al
ig ate
ĠLe on
Ġ9 9
Ġeduc ational
con st
- >
Ġdis h
Ġman ifest
Ġcust ody
we ek
Ġelig ible
ĠHaw ai
it o
Ġleg ally
Ġmiss ions
Ġend orse
Ġg ate
Ġmem o
er ia
ĠG T
Ġt ables
ĠP ict
Ġn in
Ġstud ying
H z
Ġchar ity
ar ation
ad i
Ġaddress es
Ġ ?
Ġins pect
Ġdisc ount
ri x
le ft
Ġbatt les
AL L
ĠD er
Ġ2 50
ĠAs sembly
Ġathlet es
ĠTr ade
Ġfoss il
Ġenthus i
ĠMan agement
Ġsuspect s
Ġt ired
Ġhe lic
P re
A ct
Ġcounter part
Ġn a
8 2
Ġd ating
ĠE th
Ġspect rum
ĠM etro
ater al
ĠSt ation
ĠB al
Ġpresent ation
Ġl ux
ge red
Ġbot tle
Ġt ap
ri ors
Ġv ig
Ġfund ra
Ġenh ance
ĠSe an
ass y
Ġtherap y
ĠW ales
ĠEx per
Ġper ceived
mark et
ĠT ok
D ef
m ath
Ġback ing
ĠF estival
Ġunder lying
Ġdef ending
ĠTh rough
Ġrac ing
Ġdiscuss ing
Ġexpand ing
Ġmus cle
Ġstop s
Ġdomin ant
u z
Ġbe ings
ĠMar x
ĠE qu
Ġtrans action
row s
ac hel
ĠU ber
C al
Ġrec ruit
it udes
ĠG ary
Ġm ood
Ġpick ing
land o
ĠM it
yl um
play er
ac her
Ġman agers
or able
Ġgather ing
Ġhop efully
ang le
ĠS on
al ysis
se ction
ĠV ideo
Ġcr us
ĠLib ya
Ġimp ression
ol ar
Ġh ip
Ã ¢
Ġscr ut
Ġro y
ĠT ai
igen ous
Ġinst itution
ĠBat man
} }
Ġst ere
Ġproced ures
ĠAnd re
Ã ±
Ġp ocket
Ġcreat ures
ĠB oe
Ġcomp at
Ġarri val
ol n
w atch
Ġe ager
Ġpoll ution
it ure
Ġfood s
Ġkit chen
oc ial
Ġrec re
Ġsurv iv
ĠMor gan
ro ph
Ġorgan ic
ĠPent agon
Ġsh ipping
ad ers
Ġcapital ism
Ġtim ing
od ox
Ġins ult
Ġrequire ment
ĠB i
Ġunf air
s ub
ĠO p
Ġm ice
Ġ5 6
ĠAss ad
ĠRep resent
ĠM ess
ĠML S
M od
R em
ative ly
ĠEl izabeth
Ġdise ases
Ġindust ries
ĠOak land
Ġb owl
ĠMur ray
ĠC reat
Ġhelic op
Ġdiv or
ag ger
Ġbe ach
Ġpunish ment
ab et
Ġshe ll
Ġfl ed
Ġhosp itals
miss ions
Ġt ons
ĠK ick
Ġse ed
og y
A F
8 1
ĠCome y
opy right
Ġter r
Ġstat ist
Ġengine ers
Ġob sc
Ġh ire
Ġmod ule
R eg
A Y
Ġcoach ing
am ous
Ġs ed
oc a
Ġans wered
S C
T R
Ġgraph ics
Ġint r
Ġregul atory
Ġso vere
Ġst ance
Ġb ow
ĠKe ep
alt ies
C lick
Ġexpl aining
Ġrhet oric
Ġbe ating
Ġt ut
ĠF riend
ĠEm ail
ri or
ĠY eah
Ġacknow ledge
ĠMic hel
Ġprincip al
Ġpull ing
erv es
Ġsign ature
br id
ol ving
Ġconv ince
ĠR oll
Ġvar iable
cos ystem
Ġp ill
Ġsearch ing
ĠO x
Ġd ies
Ġover come
G e
Ġprefer red
du ction
Ġsix th
Ġadv iser
ĠTenn essee
Ġtrend s
ĠRus sell
Ġ( "
ĠTh ompson
Ġmer ch
Ġreb els
Ġinter action
Ġperiod s
Ġpsych ological
M ich
ĠS ure
em ic
ĠUs ing
Ġeconom ics
ĠCharl ie
Ġout lets
ĠG il
Ġsign als
p g
Ġe cho
ĠEx ecutive
ĠKent ucky
Ġtem por
Ġbill ions
Ġline up
ĠY an
Ġm ath
ur g
ar re
20 13
Ġ199 1
Ġset up
Ġre nd
F inally
net ic
Ġegg s
C omm
Ġse gment
Ġbad ly
m ic
Ġar r
ĠL i
ke e
Ġsent enced
Ġevery day
ĠJ ean
ĠDr agon
Ġcommand er
ĠH art
ĠH oll
ĠA N
Ġl oves
unicip al
Ġgen es
w ill
u i
N BC
Ġb old
Ġrequ iring
Ġbul let
Ġinv asion
ĠInte l
Ġpart ly
Ġesc al
9 1
che ck
Ġg ene
Ġar ts
Ġrem oval
Ġunder t
Ġu pload
Ġinst ant
li est
Ġtop ics
ĠI ron
enez uel
Ġ !
Ġinqu iry
Ġam endment
Ġweak ness
ĠR ather
Ġconcept s
new s
ĠMc K
P L
Ġsh oes
c or
ĠS ound
gr ade
Ġfab ric
ĠZ e
iz za
E arlier
ĠDel hi
ts burgh
Ġfrequ ent
v ia
Ġse ctions
Ġocc urs
ol i
Ġm igrants
Ġcompens ation
ĠB ox
Ġengine er
en ess
Ġg ig
Ġl ad
h as
ĠF inally
Ġf o
Ġattract ive
Ġun ve
Ġ ).
Ġc iting
Ġtwe ets
Ġut ility
aren cy
Ġpost ing
Ġridic ulous
Ġblock chain
Ġcl er
ĠCl ark
Ġspeak er
âĶ Ģ
Ġdi am
Ø §
Ġcor rupt
Ġtal ented
Ġle ct
Ġcoll aps
Ġm ask
âĢ Ĳ
ne cess
sc reen
Ġnot able
ĠThere fore
Ġe lder
Ġgen re
in stein
Ġdead line
Ġro lling
Ġcar ries
ĠB M
T op
ĠF inal
ĠE T
ent al
Ġappro aches
Ġelimin ate
ĠPri v
Ġanaly sts
Ġs its
Ġc ens
St ate
Ġinst ances
ĠSim on
Ġpubl ishing
Ġunpre cedented
Ġcol our
Ġro ots
ĠPh oenix
V P
Ġc ock
Ġb ene
ĠD ur
ĠP sych
Ġtox ic
ĠHe art
g us
Ġcollabor ation
Ġar c
Ġinequ ality
Ġneighb ors
Ġins ight
Ġdram atically
ĠHar per
Ġhom osexual
Ġtown s
Ġpri ze
!! !
Ġextra ordinary
Ġper ception
ĠG ordon
ĠWhe ther
ĠPh ill
Ġpar ad
Ġg est
arg et
Ġmain tenance
ows ki
ĠG O
Ġche aper
is dom
Ġassoci ate
d ie
Ġcou p
ĠG ro
M ark
ĠE vent
Ġshe et
ĠB ow
ĠBel ow
Ġdist ur
ĠS av
p ack
ĠCap tain
Ġcogn itive
Ġencour aging
Ġd reams
ĠP ers
Ġse ized
Ġinterview ed
Ġdeploy ed
Ġviol ations
Ġcamp s
Ġcom ics
Ġconstit u
ĠRe agan
Ġgl ad
Ġreserv ed
Ġbu ck
Ġemploy ers
at us
Ġaim s
Ġfunction al
Ġmyster y
Ġdisplay ed
P aul
ib an
ĠS a
est ed
Ġsp an
Ġlo op
ap ore
Ġde light
c re
Ġtr aged
ĠEconom ic
ixt ure
Ġ5 7
ric ane
Ġoccas ionally
Ġv end
ĠS ud
Ġex port
T ON
Ġbirth day
w a
ll y
Ġhero es
Ġfat al
est yle
og a
Ġcorrect ly
on z
Ġprom pted
ĠV e
Ġst amp
ĠCo le
Ġcontem porary
ĠA ccess
ĠJ enn
Ġprospect s
ot ing
Ġir re
A B
Ġrecommend ations
Ġdiplom atic
th rop
m ir
Ġp a
igh th
Ġparalle l
Ġexc lud
Ġconst itution
Ġdisappoint ed
Ġmanufacture rs
Ġad equ
ĠSt aff
Ġmoder ate
ĠE ver
ĠD og
ol s
Ġe cosystem
Ġaccomp an
el ing
v i
Ġdemand ed
T ime
Ġ8 5
ĠG DP
ĠPhot os
Ġn ose
ĠMont real
ĠD ick
ail able
Ġinter pre
end ar
Ġple ased
20 17
row ing
Ġlab our
Ġlif etime
ĠBrook lyn
ĠT ax
ĠE st
ĠRes erve
ro ck
Ġcommunic ate
Ġfight s
Ġmod ified
Ġdr unk
ĠO cean
Ġs essions
Ġwedd ing
n on
Ġkn ock
Ġexplos ion
ĠL ibrary
Ġbi ological
Ġrep air
Ġland ed
ĠE PA
Ġ5 8
ĠAuthor ity
Ġsub sc
Ġrepresent ation
ĠG iven
Ġartific ial
2 50
le ans
F i
Ġrel ation
Ġown s
ix on
ĠKh an
ĠAnton io
ĠDig ital
Ġl ift
ag en
Ġdesign er
Ġrec on
Th anks
Ġem p
Ġconscious ness
Ġkick ed
ĠOr der
Ġdef ender
Ġh anging
Ġless ons
h ist
Ġimp osed
Ġgu ests
ĠB ul
Ġadop t
Ġan onymous
1 50
Ġs li
Ġconcer ning
f it
w ind
Ġpregn ant
ĠF ive
inc oln
Ġunder ground
Ġmaintain ing
Ġass et
ac re
ĠCh annel
ĠAl an
Ġp unch
ĠR ome
bour ne
) <|
Ġsh irt
Ġingred ients
Up date
Ġche ese
Ġinte llig
gr aph
is ition
ĠCon vention
Ġinter ior
Ġpod cast
": "
Ġemot ions
ch ing
h uman
ĠAr gent
Ġcou ples
Ġab stract
Ġless on
Ġcreat ure
Ġres olve
Ġsh ocked
Ġopp ose
W he
Ġsum mit
Ġperform ances
ĠS U
Ġvolunte ers
ĠB urn
D is
ĠB ol
s ome
Ġsold ier
Ñ ĥ
Ġstim ul
Ġlog o
b in
à ¤
app ropri
Ġv ocal
Ġacc um
w ich
Ġg irlfriend
ĠProte ction
ist ant
w ed
b en
ult y
Ġjump ed
Ġann oy
ĠP age
Ġj ihad
Ġm ile
Ġn urs
S E
ĠL ear
Ġ6 00
Ġmilit ants
us er
Ġgu id
ĠMiss ouri
Ġprofession als
ac les
G ener
( "
ĠAn na
Inst ead
ik h
ial s
Ġbut ter
Ġs wit
Ġref ers
Ġdesk top
Ġtravel ing
Ġl ibr
g ets
Ġisol ated
Ġfor um
Ġadvoc ate
Ġexist ed
Ġopp osing
ĠCo al
Ġrec alled
St ation
ĠC ase
Ne xt
Is rael
Ġintegr ation
Ġdescrib ing
Ġbox es
ĠJava Script
ĠF ant
ĠOr leans
ear ly
Ġst ro
I d
ĠH al
C D
ĠM ail
Ġmin imal
tain ment
Ġconf used
ĠC ustom
ĠS D
ump h
Ġpeace ful
Ġin herent
od ge
Ġsurround ed
s a
ro t
g ate
c al
el le
own ed
Ġ vert
ĠCap itol
hatt an
ĠH and
com mun
Ste p
Ġh oles
e xt
Ġme al
Ġ198 9
Ġintegr ity
ĠR s
ĠK now
ĠPlay er
s iss
Ġp m
ĠB an
Ġinspir ation
Ġconfig uration
Ġs ne
ĠTr ust
ð Ł
he ro
Ġexp ense
iss is
ab e
Ġcred its
ĠN on
Ġsub ur
Ġide ology
Ġelect oral
Ġy ell
Ġsil ent
Ġd ual
ĠMar ine
ĠDo ctor
Ġst ack
ĠBar b
Ġsusp ic
Ġbur ied
ĠNev ada
T E
Ã §
im ize
Ġdesper ate
ĠO cc
st arter
Ð º
Ġsc ream
Ġcl ip
Ġcho osing
Ġbom bs
at ics
Tr ans
ĠC B
Ġb ands
Ġteam mates
Ġfle et
ĠS H
âĢ¦ .
i ens
Ġcon vert
t ra
Ġaccept able
ĠOr lando
ib l
d r
Ġj er
ĠW right
Ġregist ration
L ist
G u
ĠE ve
ĠPort ug
ĠHit ler
Ġbrut al
aw ks
S U
N et
ĠM ove
Ġsc ar
Ġan cest
ĠOn line
ĠAll iance
e lection
to o
Ġsubscrib e
Ġstrugg les
ar o
Ġkey board
Ġmoment um
ĠLe ban
ĠAre a
Ġpromot ion
ĠAr senal
ĠV en
Ġev ident
F l
Ġqu it
h ire
f ather
N ame
Ġorgan isation
ĠH an
Ġwond ering
ĠInd ones
Ġclos est
m its
Ġembr ace
ĠSte el
book s
is d
ĠFollow ing
Ġrefuge e
ĠH amp
Ġte eth
AR T
Ġpro be
Ġut ter
Spe aking
che ll
Ġat he
ĠW ord
Ġoccas ional
Ġmon ster
str ong
Ġas sembly
Ġbank rupt
Ġref erences
Ġjournal ism
Ġexp enses
Ġsubsequ ently
gr ad
st op
ok er
Ġpr ide
Ġgu ards
Ġinterpret ation
ĠV enezuel
Ġy eah
ï ¼
h r
ĠM un
Ġrem oving
Ġor bit
G l
ĠInd ependent
Ġl in
Ġprof ound
ĠW rit
ip edia
20 12
ĠPit tsburgh
Ġcomprom ise
Ġkn ife
Ġdistrict s
Ġexclus ively
Ġsurv ived
ĠS ource
Ġconsider able
Ġst ating
Ġeng aging
ĠC ould
Ġref use
Ġb ird
Ġcharacter istics
ĠMount ain
ĠR aj
Ġjust ify
H P
Ġdom inated
Q L
Ġ7 2
Ġpro st
Ġbrief ly
ĠN azi
G r
b ound
ars on
ĠR est
Ġch ip
Ġmin isters
Ġelect ron
re nd
Ġtremend ous
Ġcont rary
Ġg ri
Ġsustain able
Sh are
Ġload ed
Ġfl our
Ġdisapp ear
Ġnerv ous
Ġrout es
orne ys
Ġpro portion
ot te
Ġsoph istic
at tered
Ġexecut ed
oc ated
Ġ8 00
ĠD uke
Ġas ylum
ut ter
ĠEvery one
Ġgame play
Ġsex ually
7 00
Th ank
He y
am ine
Ġp ir
Ġdon ors
ĠB u
Ġconf usion
ĠD ream
Ġrevolution ary
c ap
ĠA aron
el ve
ĠAnd y
A g
Ġcur ious
ĠTre asury
Ġh arsh
lim ited
li hood
inc ome
K E
Ġatt ending
ĠAd ams
im mer
ĠI M
Ã ¨
sec urity
U C
Ġspeak ers
Ġc abinet
Ã³ n
ree k
Ġnow here
Ġfle e
Ġv oid
Ġbr ands
Ġch ronic
Ġprint ed
ĠTes la
ou b
Ġcharg ing
Ġeng ines
re ck
Ġphys ics
ĠH aving
Ġconcer t
ĠA lp
sc ar
f unction
ĠSher iff
ing e
Ġout comes
ĠA ren
ĠOff icer
M AN
ubl ished
ol id
ĠM ult
Ġo rient
Ġmir ror
in st
Ġstreng then
ĠG ib
th ood
ĠJ un
Ġfail s
Ġsp o
. ]
Ġobs er
Ġcha os
Ġpass enger
ĠiP ad
Ġcrimin als
ĠCur rent
Ġf el
ĠSp ir
Ġstead y
Ġl obb
ĠRob inson
ĠNet her
mer ce
ĠÂ ±
Ġrob ust
ĠMan hattan
ĠC ON
wh ite
I E
Ġend ors
Ġspec ulation
ĠCh ange
ĠSh ort
res hold
Ġcert ific
Ġde emed
ĠTal iban
Ġdro pping
Ġh iring
ĠN orm
ĠGi ants
ĠSing apore
C or
Ġintegr ated
ĠPer ry
Ġpres ents
Ġav o
ĠB and
ĠF A
Ġguarante ed
app er
Ġf ert
Ġep ic
Ġle aked
ĠT s
ĠK ings
Ġpack ages
m ble
Ġple asure
B N
op t
Ġsusp ension
Ġchalleng ed
Ġpack ed
Ġcheck ing
à ¸
Ġb its
g ood
Ġv it
Ġeng agement
ĠK it
Ġrad iation
Ġsl ot
le ep
Ġbomb ing
Ġpat ri
Ġd a
Ġal ert
P al
ist le
ĠH u
Ġw et
r ics
Ġhun ting
ĠT el
ĠUS B
ri v
Ä ģ
Ġprodu ces
Ġwitness es
ĠC raig
oph ob
ĠP ant
Ġedit orial
Ġdef ended
Ġrec overed
ĠH oly
ĠR ou
ment ed
R ed
Ġdevelop ments
Ġsimultane ously
Ġbo om
ĠL og
Ġbacter ia
Ġblock ing
ĠL ater
Ġ5 9
Ġattract ed
B r
Ġ6 6
C ar
Ġfig ured
ĠO pp
ĠH ung
Ġcor rel
Ġall iance
Ġresearc her
Ġtaxp ayers
ĠEnter tainment
ĠL es
ĠN one
Ġcap s
c ard
ĠJ eremy
Ġhost s
Ġc inem
Ġpat ent
ĠRuss ians
Ġexam ine
iz arre
AT CH
ĠF uture
Ġvari ables
ER E
ĠL incoln
if ier
Ġo xy
Ġem bed
im b
Ġj unior
lyn n
ate ful
Bl ack
ut er
ĠChair man
Ġpubl ish
ĠT ower
J P
Ġt ear
ĠG h
on ed
Ġ6 2
Ġmet h
ĠV lad
D R
g ly
d ep
Ġv ent
ĠPol and
ĠUkrain ian
ĠStud ies
ades h
gg ed
R ight
Ġen act
m ay
ĠD ak
Ġfl ights
om ic
Ġaccur acy
ĠB or
Ġfl av
Ġdist ribut
Ġl os
Ġimpact s
Ġsurprising ly
Ġsol o
Ġra ises
Ġburn ed
Ġr ic
d am
ĠS ci
Ġang le
secut ive
Ġbre ast
ĠW ould
Ġev ac
Ġqual ified
ĠSte wart
Ġdecre ase
t own
ĠC PU
n ie
v as
Ġev olved
Ġfl avor
olit ical
im ir
Ġun necess
Ġas semb
ĠT otal
Ġintim id
Ġcourt esy
ĠO R
Ġfing ers
ĠMP s
r ition
Ġproduct ive
d f
Ġv oc
Ġbl amed
ethe less
ĠH IV
Ġdepend ent
Ġexpect ing
Ġtransfer red
ĠR angers
b ul
Ġen abled
Ġident ical
Ġvis its
Ġexpect s
Ġl ane
d ict
ĠG ill
Ġign or
Ġacc ord
ĠGr iff
ĠW i
ĠU b
ter ror
is hers
B ook
an im
Ġv enture
ĠC C
Ġb arg
Ġsh ops
Ġdepart ure
ĠComm and
ĠMiss iss
Ġkill er
Ġrepe al
Ġmotiv ated
Ġstri p
Ġrest ore
Ġagree ments
Ġconflic ts
th odox
Ġorgan is
Ġsc ared
ĠD u
Ġforg otten
ĠTh ink
id en
ick ed
ul se
b ian
Ġin her
Ġnation wide
ĠEd ition
Ġcy cl
Ġinflu enced
Ġcrit eria
ern and
Ġoccup ied
Ġanim ation
ĠB C
Ġtrail er
Ġrank ing
ĠP ope
ĠN i
ĠSh ould
ĠTh ings
Ġ `
ah oo
Ġback s
Ġtele phone
Ġoccas ion
T O
ab out
un ity
Ġanal ys
ĠRed dit
Ġfunction ality
Ġcheck ed
Ġconcent ration
ĠMod el
look ing
Ġhousehold s
l ink
Ġre ass
ond uct
Ġalgorith m
Ġcour age
ra h
ress ing
ĠSupp ort
Ġpromot ed
ĠH ug
Ġimp rison
am ents
Ġexplicit ly
Ġbat ter
Ġdes p
Ġbab ies
Ġt anks
Ġo ught
Ġst atic
ĠPro duct
ou p
Ġrele asing
Ġant ib
ĠPl ace
ri ke
Ġsub tle
For mer
art ed
IL L
Ġst ats
Ġb ases
Ġdo ct
l arge
u ating
âĶĢ âĶ
ag ine
Ġprivile ge
ĠJ erry
M B
ĠMore over
ĠWar ner
ĠN O
Ġmet ers
Ġentr ance
ac o
ipp i
Ġn od
Ġtow er
Ġinvestig ated
Th ree
Ġsen ators
z one
ie re
ĠC old
ĠCanad ians
Ġh ub
Ġw ise
Ġover l
ĠE b
Ġappl ies
Ġform ula
ĠStand ard
oll ar
ĠEgypt ian
ĠChrist opher
Ġm art
Ġinev itable
bre aking
Ġuncertain ty
Ġprov ider
act or
Ġpain ting
Ġcontin u
Ġmod est
Ġl ens
Ġinflu ential
Ġdest ination
ĠQue ens
ĠM ap
iz ations
for ward
" ,"
Ġch ips
be ing
S upp
Ġall y
Ġinfect ion
Ġd imin
le ading
ĠUn ivers
Ġj et
k es
Ġsole ly
Ġbel t
Ġsc rew
Ġin aug
Ġ6 3
Ġins ist
G ood
Y eah
ĠT R
ĠN iger
Ġthe ft
u ccess
ĠM arg
Ġpolit ician
ĠAl aska
Ġtransp arency
ĠPlay Station
Ġinvest ed
Ġsing er
Ġimm une
ĠOtt awa
Ġprov isions
ist ance
Ġp y
ĠSt ock
Ġhand led
o vers
Ġuncom fort
ĠJ ane
amp a
ĠOlymp ics
ĠLouis iana
Ġimp ressed
Ġin box
ĠO il
Ġoper ator
S D
ard o
unt u
ĠNether lands
E m
Ġball s
Ġt ent
il ation
Ġcol leg
ĠK r
Ġsim ilarly
Ġlif estyle
com p
Ġhead lines
id al
off s
ol as
Ġbo ards
rif ice
ĠTre k
Ġdis abled
Ġ ..
th ur
ix el
ĠStan ley
B ar
Ġoper ated
Ġregard ed
ĠTy pe
Ġlaunch ing
ĠS N
Ġrel uct
ĠEx p
ach ment
D own
ĠM other
w all
Ġb ol
ĠD rug
Ġphotograph s
Ġvol unt
s uch
Ġkid n
? âĢĻ
Ġsa ke
c itation
Ġke en
i ar
tr ack
Ġdet ention
Ġcon secutive
r c
Ob ama
Ġg ym
ĠUn like
in ite
v ar
m illion
). [
ĠBl ood
? )
Ġprosecut or
Ġfil ter
ĠD a
Ġprosec ution
ke ley
Ġsu ck
angu age
Ġconv iction
ut her
Ġearth qu
Ġro lled
Ġk iss
ĠT able
on ing
eral d
ar med
ist a
ĠMod i
ĠCorpor ation
ah a
ĠCapt ion
t arian
ĠCor p
bit ious
Ġbul k
ĠHamp shire
f irst
Ġm ales
ĠF O
J o
Ġun re
Ġin ex
Ġt ears
Ġtraged y
ll or
Ġch ocolate
Ġm ouse
Ġpo et
le an
Ġpres erve
ig e
ĠT am
Ġguid ance
ĠF ather
ĠBe ing
Ġle ak
ĠPhilipp ines
B el
ĠFore st
ur ches
ass ion
Ġb ags
Ġn u
ĠS everal
Ġrec k
bl ock
Ġdest ro
Ġexam ined
Ġsy nd
Ġaccept ing
Ġel abor
Ġmiss iles
F urther
Ġabs urd
Ġbene ath
Ġne ur
Ġparticip ating
viron ments
b es
Ġ1 000
ĠH ans
Ġneighborhood s
uck er
ĠStan ford
Ġcompe lling
Ġreflect s
Ġcompl ained
ĠW y
Ģ âĶĢ
Ġad ap
Ġb other
Ġcontro ller
Ġlux ury
ĠVictor ia
ĠMar c
ĠEd it
te x
ĠM orm
ay a
l aim
Ġthe ater
ĠMar io
Ġen for
ĠN elson
Ġshel ter
st ra
ry ing
boy s
Ġf er
r in
ĠMedic are
ĠCl oud
spe ed
Ġf its
ĠGr ant
v o
ĠMedic aid
Ġjur isd
m ons
ous es
Ġpost er
ust ing
Ġ< /
b at
ĠK night
Ġcons ists
o pp
Ġp ose
Ġsignific ance
Ġpo lling
ĠFil m
Ġsto pping
Ġoccas ions
ne g
Ġb one
ĠD E
ĠTok yo
ĠRub io
ĠC as
Ġwire less
Ġreal istic
Ġexc use
ĠL ocal
Am ong
friend ly
E ach
ĠIm m
ĠCh ron
âĢĿ )
Ġt ension
Ġaccompan ied
Ġsee ks
ĠG ard
Ġback up
ot ion
as m
Ġrese mb
Ġmand ate
ĠH ad
Ġthe oret
ĠP a
ĠContin ue
or ate
f ish
Ġass ists
Ġposs ibilities
ĠQu est
ĠW inter
Ġbet a
Ġaccus ations
ia h
Ġadv ent
Ġcook ing
ĠC R
ĠCh ampions
ĠAb u
Ġsupposed ly
Ġin hab
p ing
ĠSnow den
Ġemphas is
Ġfin ishing
ĠD al
ĠS port
Ġsust ained
Per haps
c at
ĠMal ays
Ġbeat en
ĠS EC
Ġb ump
ite ment
ĠP ear
i per
Ġd ressed
Ġa wards
Ġproject ed
ism s
ĠNot hing
Ġt orn
Ġinnov ative
ĠEvery thing
ĠM ind
Ġaffect s
ĠB ir
Ġpol ar
ĠAb d
Ġprevent ing
Ġconstruct ed
ĠFl ash
ĠK a
ber y
Ġlong time
AT ION
th al
Follow ing
ĠS ection
te ch
Ġfuck ing
ĠV in
Ġer u
Ġg arden
Ġ3 60
I O
ĠOrgan ization
Ġspeed s
Ġf ed
Ġoper ators
il st
Ġg ut
ĠFin ancial
Ġdr um
Ġman ual
Ġout standing
Ġpass word
Ġmortg age
ĠHam as
Ġent ity
Ġrec ession
c ott
ĠN ich
ĠPy thon
un a
Ġw isdom
ĠSte am
ĠN ature
Ġdocument ed
Ġtrad ed
Ġint rig
ĠI V
Ġg olf
ĠJim my
Ġoccup ation
ĠKurd ish
Ġold est
Ġf ut
Ġdocument ation
Ġfavour ite
io x
Ġpra ised
Ġresident ial
inc ial
Ġspot ted
Ġcop s
cent ury
ug by
Ġreven ues
ĠComm ons
ĠTh ird
Ġlay ers
Ġwal ks
olit an
ĠM A
Ġinteract ions
ĠPatri ots
Ġsur ge
ch arg
Ġb icy
Ġaw ful
Ġpan els
Ġthe r
Ġcalcul ated
eg a
ĠD om
Ġinf ant
Ġcirc uit
c ular
i ated
Ġexperiment al
Ġ6 7
r ons
â Ĥ¬
D C
Ġrenew able
qu es
Ġautom atic
ĠC L
Ġmyster ious
Ġd irty
any ahu
ĠL ad
Ġtr ains
ĠS oft
ĠOther s
Ġth reshold
Ġt ale
M on
ĠN ash
Ġ6 8
er r
Ġdeal t
ĠR h
Ġreview ed
ĠK al
Ġ6 1
âĸ Ī
l ied
Ġpain ful
Ġgl obe
ĠC itiz
le ted
ir s
m n
Ġco in
Ġtri ps
ĠTr ue
ĠAir port
re qu
ect s
ĠWay ne
Ġcle ared
om er
ĠF le
Ġearn ings
~ ~
ell o
ard ed
B en
Ġcross ed
Ġadminist rative
Ġconven ient
Ġgraph ic
Ġr iders
ll i
ĠE mer
ĠN ik
Ġl ady
Ġliber ty
Ġr anging
Ġb izarre
Ġp our
Ġit er
ut o
Ġor g
Ġhe s
for mer
Ġdispl ays
Ġicon ic
Ġen vironments
Ġrob ots
Ġmother s
Ch ina
Ġhost ing
Ġam bitious
Ġ198 8
d ing
ow der
sel ess
Ġdes ert
be at
Ġres erve
Ġsec ular
Ġsent iment
Ġpred ec
P s
ĠMc Donald
is ive
j amin
On ly
Ġconver ted
ĠCl imate
Ġtiss ue
? <|
ĠMur phy
ĠL arry
>> >
Ġt um
ĠA FP
ĠF OR
Ġdrop s
ĠDe an
ĠDe ep
sh ore
k ind
D id
Ġexplo it
w ords
ĠRed s
ĠSum mer
Ġcreat or
Ġres ort
Ġaddress ing
Ġan ch
Ġs ons
Ġsafe ly
Ġh iding
Ġatt orneys
Ã ¥
Ġdevast ating
M art
ĠS in
EM ENT
t wo
Ġsp ray
Ġsleep ing
u ably
Ġcross ing
Ġp ension
ĠS ac
Ġrestrict ed
Ġarrest s
Ġw ore
Ġscrut iny
IC E
Ġunf ortunately
put er
u j
Ġbur st
ĠP ir
ĠT an
Ġlibr aries
Ġdepart ments
Ġmurd ered
Ġcompet itors
ĠWh it
ĠD rive
Ġwh is
Ġal ign
ph an
Ġcontain er
Ġavail ability
Ġnewslet ters
Ġfil ing
ĠSing h
k ward
Ġadop tion
ail ing
Ġnewsp apers
Ġm isc
p in
b et
at ter
Ġproduct ivity
Ġto ss
Ġre ign
Ġbuild s
ĠS E
Ġdisc rimin
Ġpregn ancy
ĠN S
cel ona
Ġover night
Ġindic ation
Ġappear ing
oy d
ar ians
Ġpubl isher
Ġear ning
ight ing
Ġcomb ine
c ount
Ġview ing
Ġd uties
e velop
AS H
ĠMan ning
Ġm m
Ġf ishing
Ġreflect ed
o j
is ode
ari os
Ġuncomfort able
ĠMag azine
Ġt u
Ġreg ret
go vernment
Ġm unicipal
ĠFurther more
ĠE nt
n amed
d ata
Che ck
g ence
ĠN ative
ag u
d ev
U D
Ġhor rible
b ably
o op
Ġchemical s
Ġrel ie
Ġan onym
Ġc ave
ac cept
Ġsepar ated
May be
u els
Ġsophistic ated
W orld
or ia
Ġr ivals
Ġre wards
ĠF ig
Ġv iable
Ġdes erves
Ġpr icing
Ġact ed
ĠPh ys
ĠW iki
Ġrel atives
Ġin du
ĠM and
Ġwin ners
Ġre cept
ĠMad rid
Ġsl ide
Ġprepar ation
vers ion
Ġequ ipped
Ġr itual
Ġlimit ations
ĠCh rome
ĠIn n
ern el
Ġ198 4
Ġcomplex ity
Ġamong st
ĠRon ald
Ġ= =
Ġmechanism s
Ġpe er
Ġcomm od
les h
Ġparam eters
ĠF ederation
Ġfire arms
Ġcar rier
Ġb ip
Ġto b
ĠN az
s ize
Ġsuggest ions
g al
i ors
Ġdelay ed
ĠN a
ĠHT ML
ĠBl u
Ġexpl oring
Ġme ets
win ning
Ġtou g
Ġ198 6
Ġco ord
t it
ĠTai wan
Ġlight ing
Ġcur ve
Ġstart up
ell er
ĠColl ins
em it
Ġintellig ent
Un fortunately
Ġg host
Ġcelebr ated
ĠMississ ippi
Ġab und
Ġce ase
are r
Ġinter ven
b urn
Ġquiet ly
Ġens uring
ĠP oll
X X
AT ED
Ġreb el
ĠL uke
Ġnight s
m ap
qu er
Ġcollect ing
20 11
Ġtransl ation
Ġworld s
Ġdet ained
Ġor ange
ĠMcC on
prof ile
DA Y
Ġbe ef
Ġemploy er
ĠD VD
ĠLe vel
P at
ĠB ab
Ġrad ar
Wh ite
Ġinstall ation
ĠBl ock
Ġdeliver ing
a very
Ġdesign ated
Ġco ins
Mich ael
Ġm igration
Ġdeb ates
Ġ) ;
TH E
Ġpled ge
ĠMel bourne
od a
Ġcat ast
ĠS ex
ĠE C
Ġgr ants
Ġca ution
Ġoff season
Ġnot ably
Ġbug s
Ġtable t
hy th
f i
Ġthem es
R O
u ates
em in
ĠEx press
Ġw rap
or i
n atural
Ġgold en
Ġdeleg ates
g ov
Ad vertisements
Ġcour ses
âĢ ³
Ġcount less
ĠD isc
ĠEag les
am an
Ġwitness ed
Ġgrad ually
ĠQue bec
al id
Ġcomm ands
ĠCub a
c ode
ĠCoal ition
med ia
Ġt ends
ĠSm art
Ġviol ated
Ġmean while
Ġpsych iat
Ġdemonst ration
p ot
Ġdem o
ĠC rit
ĠP od
form ance
Ġcomment ary
wit zer
ĠSwed ish
Ġann ually
Ġfor b
Ġp ending
ond s
ĠHe at
Ġobserv ations
Ġth ro
ĠN ap
or ical
ath on
ĠS aint
op les
ers ion
arent ly
ĠT oy
âĢĻ âĢ
arm a
Ġremem bered
Ġf ires
Ġquestion ing
ren cies
Ġclim b
F S
Ġlapt op
ru p
Ġver ify
Ġimp ose
Ġhighlight ed
Ġrepl acing
Ġcor n
/ .
ĠL ady
Ġse eds
Ġcont ents
Ġh unt
Ġpre view
el come
M edia
Ļ âĢĻ
Ġfrust ration
ĠMarsh all
Ġdiscipl ine
Ġpat rol
Ġsupp lement
Ġpoor ly
ond a
ude au
Ġcom ed
Ġgra ve
ĠPro gress
Ġpra ise
ĠPe ace
ĠAr ts
Ġf urn
Ġbath room
ĠP el
ra it
Ġact ress
Ġas pir
Ġhapp iness
ĠK y
Ġexpl oration
Ġgent le
ĠR ound
Ġcru el
ĠL ions
om ach
Ġst arter
out ing
ĠHun ter
Ġprevent ed
ĠBl ake
Ġch amber
ĠL en
ĠW ard
Ġpr ayer
Ġcult iv
ĠSt orm
Ġven ue
Ġper mitted
Ġinst antly
Ġoxy gen
W ar
ĠH uff
Ġalt ogether
ur ities
at al
Rep ublic
Ġbond s
Ġamb assador
ĠBe at
ĠMot or
. ),
Ġaren a
ug s
Ġcon ced
ĠBer keley
ĠM as
Ġdisapp eared
Ġplan es
Ġ7 6
Ġtechn ological
M in
st ring
f ile
sh ot
ier re
Ġsuggest ion
ĠRog er
ĠA y
Ġpart ially
Ġagric ulture
ĠO w
anc hes
Ġun l
Ġd il
Ġdr inks
oc ur
ĠCamp bell
fl ow
ĠFer gus
Ġs izes
T witter
Ġincor rect
Ġprotect ions
ĠF R
h ill
Ġfasc inating
ĠEnvironment al
ĠChristian ity
g roup
Ġvacc ine
ĠHawai i
ĠAdd itionally
Ġlog ical
ĠH ann
Ġpar ks
ĠM uch
au cus
Ġsty les
at ical
Ġsupp orter
Ġhonest ly
Ġad j
Ġal ike
ĠL aur
appropri ate
ĠNC AA
Ġpro l
Ġtob acco
Ġmarg inal
ĠG ene
en cer
Ġsum mary
Ġto ll
olog ically
ĠV ar
Ġfle w
ĠG re
ĠKick starter
Ġadv ised
ĠG ab
Ġheart s
Ġcomp r
Ġsing ing
Le aks
Ġw ound
The ir
Ġappoint ment
ĠQ ual
ĠFor ces
ĠCongress ional
Ġeth ics
tt es
Ġst unning
Ġt ar
es ides
ĠJ en
Ġcap ability
ĠMit chell
Ġtrans mission
Ġenter prise
ĠVlad imir
ct ive
Ġmet aph
ch ron
b u
ĠSpe aker
Ġpros per
Ġp owered
Ġbl ast
ĠMan ager
Ġreact ions
iv an
ĠEd itor
Ġess ay
Ġelect rical
Ġc ous
pl ing
p y
Ġst ressed
Ġha z
st art
ĠT odd
Ġfac ulty
Ġm akers
ĠCor ps
Ġas h
ĠAren a
s k
Ġce iling
Ġsk et
Ġder ived
ĠRe id
Ġsevent h
ĠN ame
Ġmount ains
Ġceleb ration
Ġr ice
Ġpress ing
Ġarg uably
Ġdraft ed
Ġc rown
Ġdam n
Ġdep os
lect ed
Ġra id
ĠJ ess
ĠOr ange
ĠR T
ĠU I
N T
Ġend less
F e
ĠIm p
Ġtravel ed
Ġcompl ain
ĠB enn
Ġdr ones
ĠS essions
ĠCommission er
ĠOx ford
T IS
Ġin eff
ĠBr us
ĠR ow
g ments
Ġaw kward
Ġbu nd
ore r
witzer land
Ġapp lying
ĠWat son
Ġsac rifice
Ġaccompl ished
Ġshoot er
ĠB ah
g ary
( '
Ġbub ble
Ġwe aken
ult s
T ake
ĠF lynn
Ġep id
on ia
Ġmechan ics
Ġassum ption
augh ters
Ġadvoc acy
Ġc ats
Ġhost ile
im s
Ġbre ach
Ġreveal ing
B L
Ġrespect ive
Ġfr act
st orm
hand ed
b ie
Ġscr atch
H ave
ĠMod ern
S everal
Ġexpert ise
ĠDak ota
Ġdev oted
Sec ond
at oes
ĠPark er
h ol
ĠInd ians
ĠB aker
Ġan arch
Ġcirc les
m are
Ġstrong est
at in
ĠR ap
ĠCh all
writ ten
Ġfocus es
D E
b les
ip her
Ġsh ocking
Ġsw ord
Ġcal endar
ue z
Ġaud iences
Ġm ic
Ġ- --
Ġl one
Ġcitizens hip
ĠK as
Ġbuy ers
ag raph
Ġconfirm ation
ut t
ĠMedic ine
W S
um ing
E ng
form ed
Ġtr ucks
Ġ7 00
Ġpartic les
id th
Ġfr ank
Ġacqu isition
Ġconclus ions
Ġcomput ing
Ġsa uce
â Ħ
s ur
ĠLaw rence
uer to
o ard
Ġunnecess ary
Ġdirect ors
m id
D ata
B re
Ġro d
Ġl yr
ĠD ate
Ġline back
act ory
G M
Ġpen alties
Ġdec or
it ate
h alf
Ġsp y
Ġlong est
Ġrespond ing
ĠTem ple
li ver
pie ce
n or
v ol
v ious
20 10
H ist
it ivity
and ed
ĠF ind
M en
Ġbit ter
ĠE D
b rew
by n
Ġst ir
ĠRes p
ĠH us
oc us
at re
ĠD or
Ġhistor ically
Ġent ities
ĠMor ris
Ġad vertisement
Ġinter rupt
Ġp or
Ġadd iction
Ġy ard
Ġbe ars
Ġpl acing
ĠY ang
Ġcontribut ing
Ġbound aries
st an
Ġg reet
Ġqual ify
j an
ĠFergus on
Ġunderstand s
ĠSun n
Ġcomp osition
Ġd uration
? '
Ġquant um
bor ne
ĠHot el
Ġconvers ion
Ġsh ake
Ġfrust rated
Ù Ħ
Ġcoordin ator
ĠLeg isl
Ġoper ates
Ġorient ation
z es
Ġhack ing
m art
ĠSaf ety
ĠP rom
ĠBar celona
M M
Ġc am
Ġst un
G iven
ĠR oc
P I
ĠRec ords
Ġpri est
Ġfemin ist
le ments
ĠHis pan
ĠJac ob
In ter
Ġ198 7
B ig
ac ular
and y
âĢ¦ âĢ
Ġdist ant
Ġmotiv ation
Ġfast est
mind ed
bo ards
Ġgro cer
Ġpain ted
Ġpop ul
ĠI an
S et
ĠNet anyahu
um m
out heast
Ġped est
ĠF CC
lim inary
Ġover d
con nect
ĠR ain
¦ âĢ¦
IS T
Ġn ode
Ġd ensity
ĠU C
PD ATE
Ġovers ight
Ġtun nel
Ġexperien cing
Ġcontro lling
Ġcount ies
ĠR y
Ġm ild
Ġsaf er
ĠH end
L a
ĠS ong
Ġt ill
Ġv ague
Ġ197 9
Ġdiv ide
ĠF if
f s
ĠB E
ĠSw iss
M ed
Ġtrans formation
Ġdirect ions
k m
Ġrece ives
Ġsent ences
Ġimper ial
d ec
Â ·
F igure
Ġu gly
le ton
Ġsup rem
Ġilleg ally
H ar
com ed
Ġprob ability
Ġint ensity
Ġcomp osed
ab ling
E uro
ac ies
Ġenjoy ing
ĠC os
ac er
og g
ĠAbb ott
w estern
Ġhe aven
Ġd ign
s upp
ĠS ide
Ġmand atory
spe cific
AC K
Ġconserv ation
Ġachieve ment
Ġg aining
ĠRem ember
ĠBloom berg
Ġins ane
ĠAgain st
Ġagric ultural
Ġbal anced
Ġl ung
Ġ6 9
Ġcondem ned
Ġst omach
Ġ198 5
Ġres idence
Ġdist inction
ĠL ie
Ġprint ing
Ġp ione
Ġemer ge
Ġprot otype
ĠB eng
ĠC a
Ġw ings
he alth
Ġspace craft
Ġinvest ing
Ġaccept ance
Â Ķ
Ġ7 7
Ġtou ched
ĠR ice
Ġt une
Ġz omb
Ġto ile
ĠTe a
Ġiniti atives
ĠB uilding
Ġexch anges
oty pes
Ġsc ary
Ġp ays
ĠD J
Ġide ological
ay ed
Ġp ink
ĠBl og
or ient
m ain
Ġscen arios
idd ing
Ġf illing
Ġmanufacture r
ĠBe h
ro c
ĠSte in
] <|
ĠBen jamin
ĠT ampa
ĠEv ans
ĠE lection
Ġser ial
âĦ ¢
Ġinf ring
Ġconst rain
ock er
lam m
Ġrot ation
ĠTe xt
âĢ ĭ
Ġrespect ed
ĠMc M
w hen
r idge
ur i
ĠK u
ĠD raft
Ġpress ed
Ġnon profit
Ġpe ers
b ecause
Ġacqu ire
Ġc ake
Ġoper ational
Ġinc omp
Ġcrop s
Ġl anes
abet es
z o
ĠK l
in itely
UT ERS
Ġcomple tion
ĠLa ure
Ġhigh way
Ġtreat ing
umb led
Ġprior ities
Ġsubsid ies
Ġexplos ive
Ġanim ated
Ġres igned
ec onom
m other
Ġe ars
g t
ch i
Ġl un
ortun ate
Ġsl avery
Ġdifficult ies
ĠAr ctic
ust ers
i ary
ĠM obile
d eg
au c
Ġis lands
ĠCo hen
st ory
ĠÂ ©
Ġfree ly
Ġch urches
w he
ĠCh ance
ock ets
Ġsh orter
Ġfr ight
ow ell
Ġform ally
Ġappro ve
Ġreserv es
Ġt el
Ġdes ired
ol o
Ī âĸĪ
Ġqu otes
or ph
Ġrif le
ĠG a
Ġrespond ents
Ġparticip ated
ĠBr andon
Ġb ones
Ġdiscl osure
th ink
ĠR io
ĠF igure
ĠR ail
z b
ble m
ĠA wards
Ġcrowd s
Ġ19 30
Ġhuman itarian
Ġworth y
Ġvolunte er
Ġs her
Ġmechan ical
ic ut
Ġtut orial
val id
ĠÃ Ĺ
Ġcle ver
Ġsec ured
Ġre hab
Ġh ier
Ġjud icial
Ġatt ributed
Ġrum ors
Ġm amm
Ġcr ude
r ane
o ons
ch arge
ĠS aints
Ġcon j
Ñ ı
Ġmon etary
Ġdeliber ately
ĠCent ury
ĠF ro
( );
ict s
pro duct
Ġcult ures
Ġro cks
Ġanticip ated
ab l
A tt
is en
Ġin hib
Ġflex ible
erv ing
Ġeconom ies
ĠN eed
ud ge
K ey
ĠMcCon nell
Ġinc ons
Ġb ass
ĠPro t
im ens
b art
ĠR aid
at ile
ĠK yle
P ar
Ġexp ed
Ġgr ateful
Ġelder ly
Ġconsequ ence
Ġj okes
s ized
Ġher itage
Ġpan ic
Ġteen ager
Ġdis par
Ġspread ing
cont rolled
Ġinter rog
Ġdisp os
Ġflex ibility
Ġto ken
Ġaff air
ĠSm all
Ġch ap
Ġaltern atives
ĠF arm
ici ary
ĠT alk
ĠB art
Wh ich
d rop
Ġz ones
Ġn aked
Ġdecl are
ĠCirc uit
ĠP ok
c rat
Ġvir al
Ġfin an
gl as
Ġabs ent
ĠK erry
Ġattend ance
Ð° Ð
ĠT erry
Ġadvant ages
az y
Ġtrig gered
B est
Ġbu zz
ĠAlbert a
iz ard
Ġtechn ically
Ġre aches
ĠS witzerland
ĠCh ap
Ġt ensions
Ġp osed
ĠB uck
Ġdetect ed
ll ers
Ġinst inct
Ġkn ocked
VER TIS
Ġdesign ers
Ġdistur bing
C urrent
Ġprev al
ĠE arly
ĠArt icle
ĠT reat
Ġpled ged
ĠT un
s ky
ĠPost s
or ig
ĠBrus sels
ur se
Ġinstru ments
A ust
val ue
Ġs ends
Ġsatisf ied
ĠI C
R T
Ġprocess or
Ġw rapped
il ateral
ĠM ov
Ðµ Ð
are ttes
Ġexc itement
iv a
Ġf are
Ġgreen house
Ġshif ted
Ġequ ity
ĠT a
Ġflu id
Ġbreak fast
N orth
ne ver
Ġflo ating
Ġdo se
Ġremind ed
ĠKir k
Ġharm ful
ĠP uerto
inc inn
ĠPart ners
urn ed
Ġtr apped
Ġrep ly
Ġwel comed
Ġn ull
d i
Ġapp eals
ĠCamp aign
ĠFrank lin
Ġhar vest
Ġres olved
Ġlegend ary
Ġsu itable
ation ally
Ġtransp arent
ĠAnt i
ĠC row
b est
ĠI ss
Ġmag ical
Ġbr ains
Ġref using
Ġfit ness
Ġ7 3
Ġavo ided
pr ising
Ġgr asp
Ġport fol
Ġident ifying
est one
ĠGr ay
Ġdecl aration
Ġannoun cing
Ġ7 4
Ġrec y
Ġab ol
it ably
Ġinn ings
f ox
P ress
ĠAm b
Ġl ib
Ġh orm
ĠLyn ch
ĠBuff alo
Ġste ep
Ġprov incial
ĠCommun ist
Ġcondem n
Ġha bits
oc ate
Ġrus hed
ĠM D
found er
Ġimm igrant
Ġmut ual
Ġem pire
Ġhat red
ĠBar ry
st ock
ĠM aine
s ki
Ġhy brid
Ġassum ing
ra ham
Ġminor ities
Ġoptim istic
Ġhope ful
Ġindic ating
Ġedit ors
Ġexcess ive
Ġfro zen
Ġwh ites
ĠPhil ip
d ale
Ġbrow s
Ġbel oved
incinn ati
ĠB ou
Ġtempor arily
Ġconduct ing
N G
ĠV ery
ĠPr in
ĠO d
ver ning
se ud
ank ing
Ġpresum ably
Ġtrust ed
Ġdeploy ment
Ġimag ination
Ġedit ing
ĠDou g
Ġsupp ose
Ġear liest
Ġass ured
ĠChrist ie
Ġst ocks
e or
Ġtend ency
Ġpen et
Ġimm ense
ĠN atural
A V
Ġsh ar
ĠRog ers
th an
ĠM om
point s
N ever
l as
Ġbar riers
ĠG PU
1 10
Ġf est
Ġtour ists
p owered
qu ality
Ġdec iding
Ġhead line
Ġthrow s
Ġcast ing
ĠB ears
Th rough
es is
Ġwor ship
ar ound
Ġcomp os
Ġr all
Ġinfect ed
ĠTr udeau
ĠJ ets
Ġm ixture
b age
Ġve gan
Ġsocial ist
keep er
H aving
Ġspark ed
ĠF un
roll er
Ġbutt ons
Ġg rip
Ġwa ited
Ġdam aging
pl an
Ġstruct ural
ĠA w
r ust
ĠOcc up
ĠP ed
ĠWar riors
Ġgrab bed
iff erent
Ġdefend ers
Ġcolle ague
ĠB und
Ġd iver
ab a
Ġcolleg es
not e
l ib
Ġcrypt ocur
ot ton
Ġun ity
Ġathlet ic
ĠM itt
V ideo
Ġarm or
s ign
per or
Ġtr ash
ĠH P
ig hed
ig ers
Ġplan ets
ĠO scar
ol k
ors es
Ġcart oon
ne red
Ġsc rap
ĠCh uck
au kee
ous ing
ĠBr ady
Ġl ake
ĠG arden
Ġparliament ary
Ġf ru
ĠJeff erson
Ġcompl iance
S ch
Ġsoc ieties
ĠF ried
w al
ĠAl t
m aster
ĠLiber ty
Ġpurs uit
Ġdis g
L ink
Ġwh istle
per ial
Ġclick ing
Ġa uction
al og
ĠGu ide
b ig
Ġtradition ally
Ġ7 8
Ġatt itudes
on er
en c
F ree
Ġsurviv ors
Ġhum or
Ġapproach ing
Ġwid th
ĠSh an
Ġn ick
ab il
Ġex ports
Ġres on
ĠColumb us
ĠTurn er
enn a
ĠWik ipedia
V al
N EW
Cl inton
ĠH ide
Ġlegisl ature
ĠIs lands
Ġbar rier
ĠKe ith
p ace
Ġch ampions
Ġdec ides
Ġpurch ases
Ġm asc
ac ent
be it
Ġh oney
ĠB h
B R
ĠD omin
Ġpure ly
Ġlif ted
p ublic
Ġdet ain
Ġess ence
Ġsec rets
ĠCor byn
ruct ive
Ġpurs uing
Ġobserv ation
Ġtext s
t ics
ĠU ntil
ĠHar vey
ĠMor ning
T om
Ġin sect
Ġthere by
Ġf ont
Ġeth ical
Ġrec ount
Ġbl ess
Ġunder mine
force ment
G ame
Ġw ishes
Ġt ang
Ġur ge
st ore
Ġgrow s
p op
ĠJ e
ĠD ub
arent s
c s
AD VERTIS
Ġregul ators
Ġoff set
ĠC rown
Ġf t
Ġag greg
T ION
IV E
Ġmeant ime
ĠY ahoo
ur red
Ġdon ated
ĠC orn
ĠCh o
Ġt ong
s chool
Ġl aser
Ġeconom ists
Ġliber als
Ġmet ab
te es
Ġtreat y
w aukee
Ġ7 1
Ġremind er
B et
Ġa est
Ġsucceed ed
Ġn ons
Ġp ist
Ġsqu ee
Ġrom antic
Ġbott les
Ġpassion ate
ll o
ĠNor way
Ġfl ip
Ġ vel
S er
Ġhack ers
Ġfail ures
ĠJ u
ĠWW E
p ath
ĠUn iverse
Ġemot ion
ĠW orks
Ġout er
icial s
ĠFant asy
aren thood
Ġbreak down
ĠP ap
ĠE V
ĠM oney
ĠE X
ro d
Ġident ification
d ig
Ġfr action
ple x
ĠMad ison
ĠF DA
back ed
Ġt rop
ĠCam bridge
A nt
Ġadm its
E G
Ġsac rific
Ġdivor ce
Ġsens or
Ġper mits
Ġ0 1
ĠR aven
Ġdecre ased
own ers
ãģ ®
C NN
ĠD NC
g ian
Ġexec ute
r ained
Ġgener ous
Ġafter math
ĠK arl
] :
Ġ( )
ĠE ss
Ġwal let
Ġcomp ly
Ġdraw s
Ġ8 2
sec ond
Ġcomp aring
U M
Ġunf ortunate
Ġarri ving
S y
Ġt at
Ġret reat
Ġfin ancing
th a
vis or
is ers
Ġstr ain
Ġdis orders
ĠArk ansas
Ġvar iation
ĠP ur
af i
ĠMil itary
Ġsl ave
Ġenh anced
ĠWiki Leaks
Ġwind s
Ġfeed ing
Ġfem ales
ĠRod rig
ĠE li
rop olitan
t ail
ĠG host
Ġver dict
Ġhelicop ter
Ġaccount able
Ġconclud e
aw s
Ġun h
ĠGu y
iz able
op es
ĠDep uty
Ġcre ep
ĠF isher
ĠS M
ĠRob in
ĠRE UTERS
D B
Ġche er
Ġtreat ments
Ġbatter ies
Ġrec onst
Ġund ers
ad vant
s ource
ĠJ ake
S outh
ĠMem orial
ĠNe il
m outh
ĠU RL
Ġpre ference
L Y
ĠConnect icut
Ġcontact s
Ġs illy
Ġlast ed
Ġmass es
ĠPol ish
Ġembed ded
ĠCommun ications
Ġcomp ound
Ġsequ el
Ġretail ers
Ġcorrespond ing
ĠM ission
Ġdestro ying
Ġlack ing
Ġd aughters
g iving
ig ma
ere r
ĠTy ler
Ġwond ered
d irect
Ġd ys
N Y
Ġcapital ist
f ive
Ġencoun tered
In te
Ġeconom ist
U E
Ñ ĭ
Ġre un
ĠR oom
Ġam pl
on i
Ġvert ical
Ġlicens ed
v ation
F our
Ġwar fare
ĠI RS
ĠK rist
ĠTh under
ĠE mb
Ġfound ing
n ormal
ĠVenezuel a
Ġc ub
Ġsm ugg
Ġag ing
ĠMar ia
ir able
Ġh ill
Ġgif ts
Ġstatist ical
h ave
in ning
Ġsl ower
Ġadv ances
ĠPakistan i
are st
Ġgrav ity
Ġf ierce
ĠConserv atives
ch ar
Ġcare ers
W ork
Ġstab il
ĠSpe ed
accept able
Ġ198 3
ah l
Ġvill ages
elt a
ard ing
Ġintent ions
ĠSc ar
Ġorganis ations
Ġsepar ation
ĠDown load
Us ing
Ġking dom
Ġauthor ized
ĠAd vent
Ã© s
Ġcount ing
ĠLuc as
g i
h aul
ĠP i
Ġtr agic
Ġgo verning
Ġwarn ings
Ġdis pro
ĠPlay ers
Ġ Ï
Ġ198 2
ĠStud ios
ĠS alt
Ġfar ms
ĠSus an
ĠMer kel
Ġdiagn osed
Ġcommission er
Ġtaxp ayer
ĠSpir it
im age
it bart
ut ical
Ġlobb ying
air y
Ġed ited
Ġdem ol
Ġal ph
Ġtransform ed
Ġclean ing
ĠH ub
Ġstre ak
Ġsuspic ion
Ġaw a
F ig
Ġele ph
ĠHoll and
Ġl ip
Ġc odes
Ġcontin uous
it ative
Ġb oring
ĠB os
ank a
ĠC z
ĠPri ze
ĠSci ences
Ġmill enn
Ġcons iders
crib ed
Ġscreen ing
Ġgam ers
ĠSt ars
Ġcont am
ĠA th
Ġdam ages
ol ine
ard less
ol er
Ġten ure
writ er
ĠTh or
Ġf ib
ĠN av
ear chers
Ġde ce
ĠZ h
ĠBr and
St art
Ġincl usion
Ġfun eral
Ġcl uster
Ġf ence
her ic
Ġa ired
Ġinst ruction
m i
ank ed
Ġtraff icking
Ġfe ared
u v
â ĪĴ
Ġdon ation
ĠP interest
ĠK le
uss ion
Ġwork place
Ġinv ite
f ly
ĠD anny
Ġcred ibility
r int
Ġte ens
Ġinst itutional
Ġmon sters
ĠD est
O G
id ays
ĠM M
Ġcollaps ed
Ġ' '
ck er
Ġjust ified
S ign
pp y
Ġhe nce
ham mad
o a
Ġn an
Ġhypot hesis
ip h
claim ed
ort heast
Ġsusp icious
Ġden ial
Ġorgan izing
Ġisol ation
ĠThe atre
ad ows
Ġgr ace
ue ller
ĠMorm on
Ġsp awn
ĠWith in
A G
in ance
Ġste am
Ġboy friend
Ġnovel s
Ġcivil ization
Ġwrest ling
Ġur ging
. :
Ġinter ference
Ġdoub led
ĠIslam ist
h ome
ĠPet ers
Ã £
Ġth irty
f il
O s
Ġreal m
Ġmag netic
. âĢľ
Ġr ib
Ġbelie ving
Ġexp end
Ġout right
Ġmed ian
Ġsoon er
Ġev angel
âĸĪ âĸ
ĠInte rest
O rig
Ġind ict
Ġbenef icial
Ġbr anches
Ġdec ks
Ġcry ing
Ġcomp iled
oll ah
Ġsu ed
Ġrecru iting
Ġm ock
Ġeduc ated
Ġen ables
ool s
Ġle verage
Ġinv ented
Ġr hyth
C ap
Ġrus hing
Ġelimin ated
co ins
H ill
J an
Ty pe
ur able
l ive
op ard
Ġspons ored
ace utical
St ud
D ec
Ġunve iled
Ġtra its
Ġbe ers
ĠCharl otte
ĠUb untu
M et
ĠStud io
Ġtem plate
ĠC incinnati
Ġroutine ly
Ġple aded
ĠB ash
A h
k h
ĠK am
Ġp izza
US A
ĠB L
ADVERTIS EMENT
Ġlab els
ĠT D
Ref erences
Ġeval uate
Ġd umb
Ġsolid arity
Ġtem ple
Ġag rees
ĠLt d
Ġbreat hing
Ġo x
Ġalbum s
au x
ĠFor mer
Whe ther
rodu ction
ĠBrad ley
Ġlay out
Ġdisc our
ĠPr inc
ĠH ills
ĠF el
Ġl au
Ġ8 8
re nder
fe ld
ĠGl ass
Ġult ra
Gener al
Ġshif ts
amp s
Ġincent ive
ĠC ut
ĠT ar
Ġdirect ory
ĠLe af
J ames
ĠC arson
st age
Ġentreprene urs
ĠB uy
ĠSol ar
ĠHind u
Ġv ibr
Ġmagn itude
M al
Ġjump ing
A lex
ast ically
Is lam
ĠC ass
Ġsmart phones
ĠO liver
Ġcompar able
Ġclim bing
w idth
ĠIndones ia
Ġarrange ment
Ġwhe els
Ġpath s
Ġtermin al
ess ional
Ġpil ots
dri ven
Ġmidfield er
Ġincent ives
Ġd irt
Ġspec ified
Ġexcept ions
t able
Ġadequ ate
Ġsn aps
Ġmon op
Ġcoc aine
U I
Ġpsych ology
p ur
Ġpe oples
ord able
arth y
Ġpre liminary
Ġc ents
ĠSen ior
ĠA B
ĠL ED
Ġpart ial
ĠMc L
Ġgl ob
ĠVer izon
200 9
ĠVer mont
ch a
ĠP ence
Ġscream ing
Ġlyr ics
Ġvis a
ill o
ĠB JP
Ġtransl ated
u cc
Ġfirm ly
ir k
Ġch ains
un ct
Ġgen et
ĠTrib une
G od
Ġintrodu cing
Ġreg ards
Ġconnect ing
f old
Ġcounterpart s
Ġam end
Ġac res
Ġcr icket
Ġb ust
ĠSt re
> >>
ĠJ oy
d ad
ĠG onz
Ġappeal ing
amb ling
ĠFriend s
Ġme als
Ġun st
an ium
ĠF ab
Ġsc ul
Ġun rest
W A
ĠCount ry
Ġwild life
b ull
Ã© mon
M ake
1 20
Ġd ivers
ĠS ox
j ar
Ġtrad itions
Ġthreat en
ĠT ob
oc c
Ġp upp
l ie
Ġcreat ors
Â £
Ġ: :
Ġvac ation
Ġsens ors
Ġlike lihood
ĠBook s
Ġdetermin ation
Ġcomment ed
Ġan ime
Ġtri ple
Ġtr ace
Ġconv inc
ias m
umb ling
c end
Ġmatch ing
ĠProf ile
Ġcount ed
Ġ ðŁ
Ġbet ray
iv ic
erv ation
Ġprec ious
res a
ĠP AC
Ġto y
Ġpl aint
ri en
ĠBelg ium
Ã Ĺ
Ġmotor cy
Ġpar agraph
Ġtrans f
Ġshe er
ĠLeban on
ul ative
Ġinvest or
Ġkill s
Ġle agues
Ġendors ed
N ET
Ġlicens ing
Ġaccur ately
ĠC her
ĠAr thur
an te
Russ ia
Ġtw ist
Ġshif ting
ĠAM D
ant o
ĠN ixon
lud e
O V
Ġfold er
ĠCow boys
ĠB Y
W est
Ġdisappoint ing
ian g
ate ur
Ġavoid ing
Ġcomp assion
at on
i ots
ack er
Ġj ew
Ġgr ain
Ġprohib ited
Ġ19 20
Ġm erc
ĠBrazil ian
ĠG arc
ĠR osen
ugg ed
pr ing
ĠArgent ina
Ġwork force
Ġaccount ing
U PDATE
ĠR ams
Ġsp are
ĠN in
Ġproceed ings
Ġn it
p se
ĠUnivers al
Ġf ict
ĠEb ola
Ġr iot
Ġlength y
Ġsl aves
l en
ĠWe iss
ĠPolit ical
ri ving
Ġdub bed
Ġin mates
Ġment ally
b ling
S M
Ġsh aped
Ġfundra ising
Ġover look
O ct
Ġtouchdown s
Ġcelebr ity
oc aly
Ġ198 1
t or
Ġshe d
Ġmar ine
Ġind irect
Ġwilling ness
ke es
Ġd ivid
ale y
H D
aff e
Ġint u
ĠBro s
Ġsevere ly
ul um
OS T
Ġgener ating
Ġestabl ishing
G reen
ĠN ex
if ting
Ġshould ers
Ġnegoti ate
ĠSer ge
Ġimplement ing
Euro pe
Ġp owder
Ġrenew ed
ĠFin ance
R ich
red ict
Ġconsum ed
Ġswim ming
Ġb ite
Ġcreat ivity
ĠQ aeda
Ġrel ating
J ack
v als
ur l
Ġse ctors
r ament
Ġfire f
Ġcertific ate
ĠGl enn
k g
ĠPh one
Å į
Ġassum ptions
ss on
ak u
ĠH unt
ubl in
Ġ Ø
D ay
pe ople
l ash
Ġinteract ive
S ometimes
ios ity
ĠT ell
Ġobs erve
au er
ĠP L
S ON
Ġtrad em
ĠG ates
Ġaccomp any
ull ivan
Ġaver aged
Ġref lection
it ated
Ġh ij
RE AD
H igh
iox ide
Ġbra ve
u ced
Ġsa il
Ġroy al
ĠM ust
ĠE c
Ñ Į
Ġdis k
ĠAn im
Ġaffect ing
is ible
R ober
ĠL ane
out ube
d ays
Ġfilm ing
Ġwor n
Ġblack s
at ers
T or
Ġfol k
Ch ris
ĠAr men
Ġind igenous
Ġearthqu ake
Ġp ub
qu al
Ġsubsc ription
Ġt ub
ĠB ond
Ġconsult ant
Ġmount ed
Ġadapt ation
Ġclin ic
Ġdetect ion
Ġ7 9
ol utions
ro se
ĠA ve
ĠAn ne
Ġcompat ible
ĠMar co
ĠMil waukee
Ġrep ublic
as i
ac ious
ĠCl ar
eng u
Ġrec alls
Ġy e
Ġ1 30
olph ins
Ġf uels
Ġcor ners
Ġspecial ist
B rit
Ġesc aped
ĠHigh way
Ġdi abetes
G erman
Ġ196 7
Ġwood en
Ġadjust ed
ĠM ason
Ġpredict ions
Ġtri umph
Ġsl ip
Ġimp ress
i ology
oot ing
Ġproblem atic
Ġless er
ĠC elt
Ġad mission
Ġliter ary
Ġfar ming
n ik
Ġtrans cript
Ġmar ry
in os
Ġm aker
Ġlaws uits
Ġaggress ion
ĠBl ues
Ġorig ins
ĠC reek
ĠCol omb
ĠH um
ab ul
Ġhe aling
Ġaud it
Ġcontin ent
ĠBull s
Ġtr ap
ĠGer mans
Ġ1 10
ett a
W H
Ġh oly
ĠDou glas
Ġdesc ript
Ġwhere ver
Ġmusic ians
ec hes
cl osure
ĠR C
ĠGold man
he w
iss a
Ġv on
S uper
ĠÐ ¿
ĠB B
Ġunder way
Ġmort ality
ĠRe ading
ne ath
et ing
Ġeval uation
bl og
orn s
Ġp ants
Ġab used
ig m
ĠGall ery
as a
Ġvulner ability
Ġbankrupt cy
Ġsuper hero
Ġdel ays
ĠP arenthood
Ġres et
Ġle ather
Ġle af
W rit
Ġsh ore
Ġindepend ently
mun ition
RE L
Ġve to
oca ust
h al
Ġsk illed
Russ ian
ĠT ry
al ph
Ġtim eline
ig nt
Mus lim
ĠSp ider
Ġle aks
ili ation
ĠV A
Ġinter cept
ect or
Ġresign ation
Ġin ch
ĠS or
Ġsu its
act ic
Ġw reck
Ġcy cling
ĠS W
ĠBron cos
Ġdark ness
Ġ18 0
Ġorgan ize
Ġsw ift
ĠM ort
ĠSuper man
Ġsher iff
ail and
ĠBern ard
ather ine
ra pe
Ġafter wards
9 00
Ġres ume
Ġse iz
Ġsupport ive
lev ant
es ity
P N
Ġshoot ings
mar ks
Ġ] <|
ĠS omething
Ġin appropriate
ĠJ oh
ah n
Ġform ing
Ġ19 40
Ġlaugh ing
Ġbehavi ors
T unes
se lling
iss ance
Ġaltern ate
ĠI l
umb l
ĠS ad
pe red
light s
Ġun anim
Ġtest ified
ĠIs a
Ġreb ell
Ġ196 8
Ġes p
Ġpract ically
ugg ing
ĠBud get
Ġbroad band
ĠD M
Ġthorough ly
Ġcr ashed
Ġins ists
Ġteen age
ĠL ock
Ġs ie
Ġb ind
Ġlabor atory
Ġdis advant
Ġpre st
row th
ĠJohn ny
Ġdoct rine
Ġencry ption
Ġun e
ĠEx change
i op
Ġcons olid
bl ack
Ġk ernel
ĠVik ings
ĠAl f
Ġloc ally
Americ ans
Ġout break
ur u
Ġexha ust
ĠG ate
Ġoff shore
Ġsound ed
ke ys
et e
Ġexp ose
Ġap ology
ĠQ B
ĠRe ed
C OM
Ġout fit
be an
IT Y
Ġcolon ial
ĠM ember
ri el
Ġautonom ous
Å ¡
Ġcorpor ation
Ġcost ly
dis play
Ġpro x
Ġne at
Ġphotograp her
Ġgr ay
Ġanalys es
add y
un s
Ġkill ings
C ity
f our
ĠSp encer
ill ery
Ġdemonst rations
Ġchart s
ĠL iving
Ġint end
ap y
Ġreason ing
Ġclass ical
Ġdem on
Ġmob il
Ġed ges
ĠPalest ine
Ġattack er
ĠW R
epend ence
Ġveget ables
w er
Ġinf er
Ġc m
ĠSe ah
Ġhe d
Ġmat ched
Ġemb assy
Ġpurch asing
Ġlect ure
lement ary
ĠAg ree
ID S
ĠF at
fund ed
Ġswit ched
ĠK och
pro te
M ike
Ġloc als
ĠWal ter
ĠIn v
ĠD iam
j e
Ġl ap
pro of
Ġr ated
Ġoblig ation
oc ity
ir i
Ġgar bage
ab ad
Ġstat ue
ĠSystem s
Ġstraight forward
ell a
it is
2 000
Ġgod s
Ġelabor ate
Ġbus es
ĠL ess
u um
Ã£ o
Ġfl owers
Ġterrit ories
Ġportfol io
Ġ197 6
ĠB ased
ĠBet ween
cul es
ocument ed
Ġ10 1
Ġinf amous
le m
Ġtra uma
Ġo h
ĠL oad
ĠMichel le
ĠM erc
Ġunf old
C R
ĠS oul
Ġor che
B it
Ġair line
op ing
ion ed
g el
oub ted
re ach
Ġh alt
ĠT ory
Ġpriv ately
az ed
cc a
ignt y
ph p
ĠEm ploy
ĠM MA
Ġs isters
Ġdeal ers
Ġbes ides
ĠHom eland
Every one
Ġ ^
ĠK ind
ĠA qu
Ġpe pper
S uch
Ġl oving
Ġf ame
ĠUn it
Ġo d
Ġfrust rating
Ġaccommod ate
ĠMu hammad
ik ing
Ġmed ication
Ġath lete
Ġfor ums
Ġ197 5
ä ¸
Ġn uts
Ġatt ributes
A v
z i
Ġpred omin
h is
ĠV eter
ĠDen mark
As ked
Ġhe ter
) (
ro lling
ĠB uild
ĠP ere
n en
ĠCom ics
ĠH at
ĠG ear
n ames
Ġrank ings
Ġclos ure
ort ions
Ġlim iting
Ġmod es
pe lled
Ġstrik er
Ġ9 8
n esty
Ġsear ches
Ġs ink
v iol
Ġimag ined
ĠCal gary
Ġ8 1
Ġwithdraw al
Ġd ated
Ġe ighth
Ġqu ery
writ ing
ĠL uck
Ġeffect iveness
resp ons
Ġst ays
Ġobser vers
ĠH em
ĠSub scribe
ĠN umber
Ġint ake
Ġsp ill
Ġm ph
Ġd ioxide
oth y
Ġcar riers
ĠSh adow
ĠW ATCH
Ġenthus iasm
Ġdis m
Ġgr at
p rom
Ġwh ilst
Ġunc ons
Ġcon vey
Ġmis leading
Ġ197 3
ĠRel ations
Ġpubl ishers
Ġmeasure ments
ĠMove ment
Ġsubstant ially
Ġnom inated
sh irt
ig a
Ġhistor ian
ĠHar rison
ov ic
ĠK el
Ġlist ing
ĠConf eder
Art icle
Ġstr ings
ĠG PS
Ġqual ities
ĠB uzz
Ġdelic ious
Â ®
Ġlock er
Ġrespons ibilities
Ġd angers
Ġexam ination
Ġhung ry
B ay
ĠBr un
Ġdiagn osis
Ġd ash
ĠS el
Ġple a
ĠPal in
S ep
D oes
Ġh ood
Ġd rought
ic he
Ġex agger
n ational
ĠP T
ĠR ace
ro ots
Ġw and
Ġdiscl ose
ĠTe h
ul u
ab el
ĠA CL
ĠH ud
âĢ¦ âĢĿ
Ġrev ised
Ġrel ies
Ġdiff er
Ġinev itably
S emit
Ġblood y
Ġmem orial
ĠJ ar
Ġvol umes
Ġign oring
Ġc her
ĠUp date
ĠR ico
min ation
he lp
Ġloyal ty
Ġ8 4
iz ont
Ġvari ations
Ġshut down
OR T
Ġmaintain s
ĠSoft ware
Ġent ries
ĠCarl os
Ġam munition
Ġ197 2
Look ing
Ġsymbol s
ĠJ a
ĠBl air
ĠW oman
Ag ain
Ġp orts
A K
Ġyour s
Ġfriends hip
Ġ8 3
art s
w ear
ol an
Ġp ile
Ġc od
Ġclass room
Ġal tered
p it
Ġdem ographic
m ines
ins ula
Ġoccur ring
Ġphot ography
ĠVill age
ĠA my
L ife
ĠD ennis
Ġtrib al
Ġqu ad
ING TON
D ep
osit ory
Ġalgorith ms
ential s
Ġh orses
Ġformer ly
Ġredu ces
Ġfundament ally
Ġbrief ing
Ġfulf ill
Ġme g
ĠPlan ned
Ġp seud
ĠP as
Ġinhab it
Ġrap ed
Ġcelebr ating
h ole
Ġves sel
Ġhero in
d el
ĠBrook s
Ġdesper ately
art isan
Ġgall ery
Ġmet res
ĠWall ace
Ġsk ull
ĠL isa
ĠD R
Ġmid st
li ent
ĠTrans portation
IN E
Ġb ikes
ĠGM T
pt s
Ġrein for
rep resent
Ġdisp ens
ĠG it
Ġde leted
we alth
com m
Ġun limited
Ġ197 8
Ġsac red
ĠM i
Ġout door
Ġsh y
Ġarch ae
ĠH ockey
ft en
ĠSunn i
Ġnew est
Ġdecl ining
id ges
M I
Ġbelong s
A c
-- ---
Ġins ure
Ġspect acular
Ġpres cription
Ġf iber
Ġexerc ises
Ġju ice
Ġexpress ing
AR D
P oint
Ġmod ules
R et
Q aeda
Ġaccount ability
ĠLiber als
Ġschem es
ĠA ld
ĠRaid ers
ĠTer ror
let ter
Ġp ipe
Ġgar age
R ob
Ġgovern ance
al so
Ġf lesh
Ġt ribute
Ġconsum e
ur ring
Ind eed
Ġrub ber
IT H
h ner
ĠEd wards
oc ide
Ġpresident s
Ġlineback er
Ġw ip
aret te
it ial
ell ar
Ġarr anged
as se
ĠP ick
ĠM C
Ġch ase
Ġsh apes
Ġfil med
RE S
Ġbed room
put ed
App le
ĠPok Ã©mon
ĠShe l
Ġsol ved
Ġ8 6
ĠSeah awks
rem lin
Ġa ide
Ġpro c
Ġn odes
ag ging
Ġre ception
ĠM ueller
Ġconf using
d b
Ġplay back
heim er
uk i
Ġbillion aire
Ġaccident ally
ĠA gr
Ġman e
al in
ĠCh apter
oubted ly
p ic
pp o
Ġb inding
ĠJenn ifer
ĠB us
irt ual
C opyright
Ġl oses
Ġr age
Ġperman ently
uls ion
run ner
ĠW onder
b led
Ġto ys
ap or
y d
200 8
S l
M at
Ġexhib ition
A ng
Ġun le
ĠSer ver
Ġsan ct
ĠCo ach
ĠSil icon
Ġmisc onduct
Ġspir its
ane ous
Ġ9 6
Ġw ounds
Ġmed al
Ġbo ats
L D
Ġth umb
work ing
ĠL ost
ch air
Ġfresh man
ĠF ly
Ġvig il
Ġl uc
Ġpre jud
Ġsell s
ĠF ame
Ġconsider ably
ĠPhot ograph
Ġdemonst rates
ĠD ublin
Ġg rey
ĠR ah
Ġlast ing
Ġstrict ly
Ġsh ipped
Ġman ages
Ġchem istry
ĠS i
on ge
Ġregul ate
Ġfin als
re ated
Ġmilit ant
Ġlabel ed
Ġ8 7
C r
deg ree
Ġfin es
Ġtoler ance
Ġt ier
ĠTr uth
ĠN PR
m el
om o
Ġskept ical
Ph ot
Ġexcept ional
Ġsp ite
L eg
Ġfan cy
ĠMalays ia
Ġsc ram
S an
r ong
M er
ie val
Ġlin ear
ĠUr ban
ung le
Ġstre ams
Pro f
ĠP ad
ĠSh ar
ĠCh ile
ĠFor um
ĠZ ion
Ġpuzz le
ĠAut o
ĠSt ring
Ġreason ably
ĠR oth
Ġins ur
Ġtack les
Ġcance lled
ĠJ uan
Ġden ying
pro v
Ġpit cher
Ġ9 7
M icro
A ug
Ġprocess ed
ĠG and
ĠD od
Ġlove ly
sp ace
ĠHer o
A uthor
ĠR at
ĠV iol
Ġmid night
Ġret rie
ĠRes ources
ĠOper ation
th irds
Ġsp ends
Ġrest ored
man uel
Ġorganiz ers
Ġmon ument
p x
Ġun acceptable
form ing
Ġsub mar
ĠY ears
Ġtun ed
Ġgenuine ly
Ġteen agers
Ġqu o
olute ly
Ġbe ll
ĠPal ace
ĠR ush
ĠAr n
Ġfacilit ate
Ġm ature
ĠC ond
ĠF ile
ĠS elf
Ġf oul
ĠRepresent atives
Ġd ancing
th s
Ġrel ate
bor ough
Ġout lined
ĠT ill
ĠBill y
Ġad vers
Ġautom ated
Ġoblig ations
Ġsexual ity
ps y
Ġdiv isions
Ġext ends
Ġtour ism
Ġsurve ys
ĠMcC arthy
ret ion
Ġle ap
Ġi Tunes
ĠTh ailand
II I
E v
Ġsuccess or
E arly
B ER
ow een
ĠCh arg
id o
ĠBenn ett
Ġspot light
ĠSh ield
ĠM ack
ĠÂ ĵ
T ur
Ġanonym ity
in ery
Ġin ability
Ġdefin ing
Ġab oard
ĠN DP
Ġtw in
ĠZ ero
ĠRich mond
Ġrecommend ation
Ġunder neath
in ate
ĠIn valid
ai ro
Ġdr illing
ri pp
eg u
ĠSp urs
Î ±
Ġgener ic
ĠCle an
ex p
ist ically
Ġsubject ed
Ġhear ings
Ġbattle field
Ġp ound
Ġinc umb
Ġsn ap
ES S
clus ion
ĠCz ech
ĠGriff in
ĠG ay
Ġse ct
w ick
Ġspe eches
Ġconsist ency
ĠOb viously
Ġvict ories
S ur
ĠBet ter
ĠBang l
ĠRet urn
ĠG B
head ed
ĠCh amber
Ġp iv
ĠH ope
Ġcontract ors
ĠChron icle
Ġcor rid
ĠSe ven
yn c
Ġl ined
Ġris en
cl osed
Ġgu ilt
rane an
Ġtong ue
Ġover haul
Ġinc oming
ĠCom merce
m ile
ant i
ai res
Ġad verse
ed ge
ĠBre itbart
ĠM aj
Ġprem iere
Ġpar ade
Ġsal aries
ĠRec ord
P H
ĠEl sa
Ġtrave lling
Ġcon cess
ĠS ay
ĠBe yond
ĠL LC
m os
Ġste pping
ĠSoc cer
Ġname ly
Ġembr aced
ou st
M em
Ġfrank ly
w rite
Ġrender ing
Ġdisc on
hold er
ĠSo on
âĢĿ âĢĶ
Ġtransl ate
ĠF itz
ĠTit le
ĠS L
Ġconfident ial
Ġm elt
ĠAcc ount
Ġ0 2
Ġpl ates
Ġexhib it
Ġconfront ed
b ad
Ġ196 9
ĠQ atar
ĠBe g
Ġd ive
Ġb inary
Ġanaly zed
Ġ ì
ic ers
Ġtact ical
Ġdef ic
Ġart if
{ \
bs ite
Ġl iability
ĠWork ers
ãĢ Ĥ
Ġem power
ĠPack ers
ĠHur ricane
ĠElect ric
ĠG P
Ġbureau crat
Down load
Ġstro ke
ĠP un
O H
ĠSur vey
c ill
Ġun ited
Ġfunction ing
te am
ag ged
Ġg ard
ĠC ape
Ġres ur
ier ra
os i
acc ur
Ġd ot
Ġarri ves
ĠB agh
Ġlic enses
Ġr ings
ĠCub an
Ġpart isan
Ġdon ate
H ouse
ĠM all
k ill
Ġm ate
Ġback lash
Ġvend ors
ĠBry ant
ĠM VP
g reen
Ġdoub ts
uster ity
ĠH alf
Ġsteal ing
Ġsign atures
Ġc argo
le tt
Ġv ib
Ġfel ony
ĠI v
ling ton
ĠN A
ĠG reens
Ġgrocer y
Ġcloud s
ĠS F
ĠML B
ming ham
Ġj ack
m or
Ġpublic ations
Ġcasual ties
Ġ9 11
Ġaut ism
Ġp ale
Ġnegoti ating
Ġcoast al
greg ation
IF A
ĠStud y
ĠR AM
ĠG as
Ġobject ives
Ġ9 3
Ġment ions
ĠPr int
Ð¸ Ð
Ġgl ory
d isc
Ġsovere ignty
Ġelectron ics
Ġdefend ants
IG HT
ang o
ĠH BO
or ity
Ġret ro
= âĢĿ
Ġ> >
Ġprem ier
ĠMet hod
Ġliber tarian
Ġind ef
ĠTit an
Ġint ens
ĠS A
Fr ank
ĠSh ah
ĠIce land
Ġarrange ments
ĠAL L
ĠReg ional
Ġp ad
ick ets
f ar
M C
Ġves sels
Ġart ic
c ry
Ġhon our
ĠK ill
ut ing
Ġac ute
Ġfl ows
Ġscul pt
ĠDef ence
ĠS ent
Ġdiscl osed
T im
Ġsport ing
Ġlack s
Ġfort un
ocrat s
ron es
B E
Ġpre season
Ġnecess ity
ĠS earch
Ġprop ri
ul ator
Ġ{ \
EC T
ĠBrother s
ĠB obby
Ġu seless
Ġpret end
Ġout let
Ġ197 7
Ġcl arity
Ġhe al
Ġconvinc ing
ent ions
Ġlegisl ators
Ġim pe
Ġcatch ing
ĠT ib
orient ed
ĠBarb ara
Ġdign ity
there um
Ġ **
Ġdetermin ing
Ġutter ly
Ġprotect ive
ĠL E
az ines
Ġr am
Ġtw elve
Ġc ute
u ity
Ġstimul us
? !
pl ess
Ġlegit im
Ġcharacter ized
Ġbl own
Ġd ense
ter ior
Ġmarket place
ĠAtt ack
Ġs lic
S ports
Ġt ube
Ġspons ors
Ġtheoret ical
ĠNob ody
Ġl ighter
Ġhas h
S and
ĠR ic
Ġspe lls
Ġc ure
raw l
Ġhun ger
ĠBe ast
Post ed
ĠSim ilarly
Cl ass
Ġflood ing
Ġadap ted
ĠEvent ually
Ġ9 2
om atic
ĠE rd
O O
ĠPhill ips
us hing
ĠBrown s
E vent
V R
uff icient
W ind
or us
Ġgen ius
aug hed
Ġprev ention
z h
f eed
ĠFr an
ĠC OM
F R
Ġse am
ĠSh i
ĠCol on
k ens
Ġswitch ing
W ashington
Ġevolution ary
Ġun ch
Ġm all
Ġfore sts
ĠBut ler
lick r
ak y
AN T
ĠB P
const itutional
Ġen abling
ĠF ast
Ġ __
Ġmus cles
Ġ Ñģ
um ns
ĠT igers
Ġglass es
Ġcomple ting
Ä į
pl ane
Ġqu arters
ĠM IT
Ġ197 4
Ġsens itivity
Ġantib iot
c ost
ĠN ag
ĠBry an
atic an
ĠM ode
Ġf art
ĠAl tern
Ġ ),
Ä ĩ
cast le
Ġca res
Ġw are
ĠJ av
Ġbarrel s
ser ver
ant ing
C are
Ġachie ving
ĠSand y
Ġmal ware
Ġread ily
Ġexplo itation
F T
Ġmist aken
Ġtable ts
ĠO m
ĠB R
Ġaffili ate
Ġmet a
Ġmurd ers
ĠCl ay
em ail
b uilding
Ġco at
Ġad min
Ġha ul
Ġw it
uten ant
) |
ĠL ang
ĠCast le
Ġastron aut
ĠN E
ĠB ishop
Ġequ ation
Ġlist ened
E r
ĠOb ject
ĠSt op
Ġjurisd iction
out ed
Ġdeb ris
Ġdr ill
Ġsubscrib ers
a ired
Ġreb uild
A FP
cont rol
Ġh ind
ne x
' '
ĠPant hers
ĠNever theless
vel t
ĠI b
Ġrefere n
G S
Ġtrib e
Ġhold ers
IC K
ĠPlan et
Ġspons or
Ġc ab
Ġl aughed
ĠV i
ĠO wn
min ed
l ast
Ġext ending
ott om
Ġspec ify
Ġsubscrib ing
ĠA x
Ġred ist
ĠIn side
Ġbip artisan
Ġcool ing
Ġf ond
Ġpredec essor
ĠTo o
Ġfr ames
Ġins ights
Ġsomet ime
M obile
col or
ĠArab ic
Ġcan cel
ri ages
Ġref usal
Ġ197 1
pt ic
ĠEd ge
Ġbe aring
Ġr ats
Ġcous in
b ot
ĠIm perial
Ġfinan cially
Ġroll s
Ġup side
Ġswe ep
Ġsynd rome
Ġend e
c m
I X
Ġnot orious
Ġnight mare
Ġpers ist
Ġp airs
Ġfire arm
Ġdu o
ĠPr im
ĠJam ie
Ġe leg
Ġswe eping
l ay
Ġbusiness man
Ġpro port
ĠOr thodox
ul k
r one
ĠLe v
Ġsur pass
Ġcred ible
Ġarbit rary
Ġa ston
ĠAust ria
S O
ĠW ii
ĠF L
ĠB ird
Ġattack ers
ĠC u
Ġ3 50
Ġc u
Ġhard est
ĠInd ex
fr ame
Con f
Ġmob ility
Ġm igr
ĠD awn
Ġ14 0
Ġre ct
Ġexpect ation
ĠN eg
res pect
Ġassoci ations
re amed
Ġmem or
Ġneur ons
ĠSp ot
ĠDou ble
Ġglob ally
b uild
ash i
Ġor al
Ġdomin ate
Ġreview ing
pro du
U K
Ġhydro gen
P ut
am y
Ġnew er
t ic
ĠK or
Ġviol ating
ĠNew ton
Ġportray ed
ASH INGTON
Ġsp at
Ġchar ter
Ġtre asure
Ġl ately
Ġb io
ĠTO DAY
Ġtour ist
Ġter rain
Ġtr icks
Ġsepar ately
D irect
Ġinf lamm
agon ist
Ġendorse ment
ĠI BM
Ġdeter ior
Ġv owed
Ġtroub led
osp el
Ġre iter
Ġrevel ation
ĠSw ift
Ä ±
ĠR achel
ĠD aw
Ġdesc end
Ġdis ability
ĠSud an
n ut
Ġa ides
ĠR ud
Ġapolog ize
Ġnation ally
Ġpos es
Ġnav igate
Ġbi ology
in ces
Ġrel ied
ĠJul ian
B uy
im port
in ho
t w
ĠG R
iz ards
am o
ĠQu inn
os ures
Ġsettle ments
ĠM ul
G reat
Ġwas h
ĠMar cus
Ġp ockets
ĠWell s
ĠÐ ²
Ġart istic
ĠTeh ran
h um
at ched
P ublic
Ġb atch
Ġcommit ting
Ġc ache
ĠSt ra
he tt
Ġg au
f in
ar cer
umbl r
.. ."
p df
th ree
Ġtourn aments
ĠLaur a
ĠB order
Ġphys ician
Ġelev ated
ith ub
Ġst raw
Ġpers istent
Ġbl end
sy stem
ĠContin ued
Ġprov ing
Ġa qu
Ġshort age
Ġdecl aring
U P
ĠC SS
es pecially
Ġpr ay
Ġinc on
ĠGl obe
ade qu
Ġident ities
ah o
ian ces
H ub
AS T
b one
Ġinter im
Ġvill ain
ĠF ish
St ring
Ġst ark
ĠBre ak
ar u
un ks
Ġles bian
Ġa ster
Ġinv isible
ĠMach ine
s im
Ġdistingu ish
ĠC ab
Ġviol ate
t alk
Ġgal axy
Ġart work
ĠAss istant
Ġgrad uated
Ġvar ied
Ġexclud ed
00 1
ĠD ue
Ġal iens
V er
Ġtem pt
Ġover time
S R
Ġd rown
Ġdefin itive
Ġover see
ĠLeg end
am as
T er
Ġinter section
Ġ8 9
Ġpron ounced
Ġg i
aus ible
M ac
Americ a
ul ates
Ġrun ner
Ġkick ing
ĠN ancy
ĠN at
Ġanal og
ro gen
Ġrel ent
Ġacc using
ĠT her
inf o
Ġassemb led
ĠCl ose
IM E
Ġinflu ences
ĠCard inals
Ġm ush
Ġren ov
Ġpref erences
ĠNex us
Ġag g
Ġpre y
Ġsub way
Ġob esity
Ġrevel ations
U ntil
N ational
ĠTra vel
ĠJ ong
ĠLad en
uc le
Ġfort une
ernand ez
Ġlay ing
Ġbul lets
" ;
Ġhel met
mont on
Ġwar r
ĠW ade
Ġbes ide
Ġp sy
Ġd read
ĠSe lect
ĠC ou
D et
C ong
ĠNe ither
Ġse al
Ġrisk y
Ġp p
Ġuns uccess
ĠT ru
Ġvary ing
Ġtrib es
Ġhand y
Ġimpl ies
ine z
Ġsh ower
Ġtoile t
ĠAff ordable
Ġrent al
Ġve t
ose velt
it utes
ĠM itch
rament o
ĠB iden
Ġban ner
Ġkilomet ers
A f
Ġre lying
ĠB annon
Ġne ural
Ġbreak through
Ġfavor able
ĠL uther
ĠH orn
ĠWh atever
ĠMem bers
s cience
Ġp etro
alth ough
Ġauthent ic
ĠDr ag
y ang
Ġtax i
Ġn urse
in is
Ġdiss ent
ĠFl ight
ĠP il
ra ke
ĠClass ic
ĠT arget
ĠC M
Ġanaly ze
Ġrecip es
L ong
Ġreluct ant
Ġaim ing
ĠP ast
l on
Ġk icks
ĠJo ined
Ġcred ited
In f
Ġpat ience
Ġins pire
Ġur gent
Ġassass ination
G old
Ġfam ously
th ird
f ull
L aw
rit ical
Ġun aware
Ġback ers
Ġp up
rib ly
ĠJ obs
B ill
ĠCol lect
Ġprof itable
Ġcl ause
ĠW ire
econom ic
ĠH R
l arg
Ġvolunt ary
Ġfact ories
Ġsubst itute
Ġca ut
Ġmeas uring
Ġmass acre
Ġrecre ational
Pl ay
Ġsum mar
omet own
as ma
ac hers
CL A
Ġpr ayers
off icial
Ġexpress ions
Ġtrick y
Ġmin im
Ã¼ r
B ased
ĠC BC
lic ation
br aska
Ġmag azines
ĠP oly
Ġtext ure
Ġcy cles
Ġp uck
Ġpass ive
Ġdisc ourse
app ro
ĠYan kees
ĠV atican
ĠAr c
Ch ar
Ġsoc ially
Ġp ause
Ġal beit
ĠGarc ia
Ġb out
e very
Ġund oubtedly
ul in
Ġf isher
ĠHispan ic
Ġstar ring
ĠK remlin
ĠE ither
he nd
ĠW inn
so ever
Ġatt ribute
ob i
EL L
om i
Ġpl un
Ġmos que
RE E
im ated
O pen
Ġrece ivers
Ġcrew s
Ġst icks
Ġhe ated
Ġprov inces
ĠM es
ĠFour th
Ġwor ries
ur as
ĠM ans
se mble
ĠAgr icult
g s
Ġcontract or
Ġdefend ant
Ġintention ally
us ions
Ġload ing
Ġse min
Ġpreced ent
Ġmem orable
Ġ ic
Ġhy d
ĠPet e
ĠG rey
Ġf oster
ĠPolit ics
ĠHol ocaust
Ġbroad ly
er ting
Ġfit ting
Ġour s
Ġsatisf action
m us
atern al
J apan
Ġdynam ics
Ġblog s
ĠPro test
ĠL ot
ĠInvest ig
ful ness
ĠH ait
Ġl iv
ĠM B
Ġfac ial
Ġbuff er
ĠB ed
he astern
an ne
Ġst er
ĠNob el
Ġmane u
ĠDe al
p ound
Ġsum mon
ĠL em
ĠC our
ĠN EW
Ġsupp lied
Ġval ued
ĠAgree ment
Ġmulti player
Ġ9 4
Ġiniti ated
ĠSn ap
ĠPh D
Ġstr anger
Ġattract ion
Ġ9 1
With out
ĠHall oween
ĠAl ong
Can ada
ĠN ep
ĠAl ice
ant le
Ġdisappoint ment
ort ing
F ox
ĠSam uel
Ġteam mate
ĠÐ ½
Ġstick ing
ĠCh and
ĠWork ing
ĠC hen
ĠTra il
ĠA bs
REL ATED
Ġne o
Ġprov es
c d
Ġsear ched
ĠEnter prise
Ġmed i
K K
head s
Ġmart ial
ĠBir mingham
Ġsw ept
Ġinc omes
Ã¡ n
S H
Ġp ars
Ġ q
all ow
ĠP ath
ĠGirl s
ĠNash ville
Ġun lock
Ġepid emic
Ġfict ional
Ġdim ensions
Ġentreprene ur
Ġmis under
ĠRe form
ĠChief s
ell ing
Ġbroad c
ĠFer r
Ġm aj
ĠEngine ering
ĠBrew ing
ost al
te lling
Ġgrand father
C P
e em
c ulation
ĠIsrael is
Ġparam eter
Ġinterpre ted
F ire
Ġtheat ers
ain ted
ĠF inn
ah an
Ġevent ual
Ġachieve ments
Ñ ĩ
Ġmod ify
am ation
Ġdomin ance
Ġflaw s
ĠCom puter
em ale
Ġyoung est
In tern
Ġcontribut or
ĠG A
Ġworry ing
Ġtr ump
terror ism
roph ic
ĠF an
Ġint act
ĠS ach
Ġpo le
ĠD ays
ir med
ĠS pect
Ġw ard
Ġconven ience
t ake
Ġar ise
Ġsub mission
Ġarch ive
Ġdef ines
ĠK ath
T ex
M arch
Ġpred iction
Ġfin ale
he ll
ced es
d evelop
Ġsur render
Ġtact ic
Ġobst acles
ĠJ oint
in formation
Ġdisc ont
ĠAl b
op ular
Ġphilosoph ical
Ġmac ro
ĠBase ball
v ised
ment ation
cul us
am bers
Ġbicy cle
ĠAl most
Ġen roll
Ġinf lic
Ġpr isons
un ique
Ġmal icious
Ġban ning
ĠB ear
Un like
z illa
or o
L ater
Ġreven ge
ange red
ĠC ant
Ġnav al
int age
ov ich
Ġwhat soever
ĠK ate
ĠS old
Ġsk ip
Ġnational ist
Ġn er
the m
Ġentertain ing
Ġc yn
ĠDiam ond
Ġdiv ine
l ation
ĠK az
Ġcorrel ation
Ġdu pl
Ġbas eline
Ġn est
Ġover r
ĠN HS
Ġneighbour hood
Ġnetwork ing
Ġshe ets
ĠR ing
Ġthe or
Ġneutral ity
Ġg aps
sc ript
Ġignor ance
Ġan k
Ġtw itter
l ass
ov o
Ġorgan ised
Ġinter medi
Ġtouch ing
amp ed
Ġconcent rated
Rem ember
\ \
Ġregul ated
Ġconsult ing
ĠR aw
Ġassault ed
on ies
ĠPortug al
Ġopp ression
Ġc ra
ve t
Ġle thal
c lick
ĠK os
ĠL an
ĠBe er
Ġr ab
umb ai
Ġev olve
Ġcur s
ĠAn imal
Ġhor izont
Ġeuro s
Ġinvent ory
Ġsa ves
G L
Ġo st
Ġc um
k n
rav is
le ased
ĠC ox
ast rous
G R
Ġris es
ĠPict ures
Ġdesign ing
Ġconfront ation
ĠHol mes
se arch
Ġn asty
Ġsk i
Cal if
Ġdr ain
U lt
Ġimport s
ere k
ĠI L
J on
Ġtrans mit
ĠMat ter
Ġto oth
sp oken
ĠMot ors
ĠRo osevelt
Ġquant ity
ĠCar ib
Ġover ly
Ġcrow ded
ĠG ive
Ġadminist rators
ĠM E
ĠUS D
Ġmer it
G N
Ġscript s
ĠW ol
h u
irl ines
us cript
Ġinv itation
ok o
ĠSur v
igh te
Ġbr ick
ne apolis
Ġoff enders
Ġh ated
Ġdon or
ĠFire fox
ch ief
as ures
Ġse aled
Ġvar iant
Ġcommit ments
ĠL G
im eter
ĠHug hes
Over all
P erson
Ġb ay
col m
ĠR PG
ĠPD F
Ġfix es
Ġ196 5
li ers
Ġremem bers
Ġw rist
ĠAngel a
Ġcost ume
ĠEp isode
P ort
are z
oc o
Ġnav igation
Ġ196 4
ĠN athan
Â ©
gg le
ed uc
ĠM O
ĠRodrig uez
Ġcomprom ised
Ġinc arcer
ĠPal mer
ĠFin land
s qu
Ġj am
Ġstar ters
ic ating
Ġfree ze
ide os
Ġc ord
Ġprec ision
Ġreject ion
Ġmathem atical
sh ow
Ġg re
Ġcur rencies
Ġflaw ed
Ġt ire
est a
Ġcomm em
Ġbelong ing
ĠOb serv
Ġn arc
our ge
ilit ary
Ġover th
ĠOccup y
ĠY e
anc ies
ĠD ise
Ġcl ash
Ġpitch ing
Ġembarrass ing
ĠSh aw
Ġrob bery
Ġhol idays
h ots
Ġpro xy
Ġun cle
us hed
ĠBroad way
E xt
ore n
Ġab uses
Ġquestion able
ĠF oster
Ġcur ric
Ġapp et
se en
ment ioned
bel iev
Ġpresent ing
Ġble w
Ġn erve
ĠQueens land
Ġupgr ades
Ġen v
Ġdispro portion
Ġconstrain ts
ĠS ullivan
Ġm im
Ġad oles
S um
ĠIndian apolis
ri ved
Sm ith
ĠC op
ĠCh ase
Ġrend ered
Ġinfect ions
Ġstead ily
ĠS ens
ĠBoe ing
Ġremind s
ĠDun can
Ġunc overed
Ġund ere
Ġpharm aceutical
Ġbase ment
Ġtradem ark
Ġb ats
ĠRod gers
Ġcont ing
Ġball ots
' :
Ke ep
ĠE RA
ĠP ubl
ind ex
less ness
ĠC ris
Ġa pt
as ive
W ASHINGTON
R eal
Ġdig it
ĠMont ana
Ġdist ribute
Ġopt ed
ĠS O
OM E
Ġbeh ave
Ġout look
orig inal
Ġst iff
Ã º
rit ies
Ġmanufact ured
Ġins ert
ect ed
Ġboot s
Ġgrand mother
Ġat e
ĠR acing
Ġan throp
V ID
C ount
ĠMoh ammed
min ster
and o
Ġcomple ment
Ġpack s
Ġback wards
Ġtu ition
Ġa usterity
k now
Ġsu ited
ĠK ash
Ġper ce
Ġsaf egu
st ick
Ġevangel ical
ic ides
Ġs ab
Ġcontain ers
Ġnons ense
Ġmake up
Ġlink ing
Ġprison er
Ġdownload ed
ĠL l
y our
Ġoff ence
Ġextrem ist
ĠC abinet
ĠAth let
av i
Ġthro at
co very
Ġinj ust
Ġch ron
do ing
Ġint imate
c all
p ol
Ġshar ply
Ġprote ins
ĠA ven
j u
Ġcred entials
Ġcorrespond ent
ĠIn iti
r aged
ĠC hem
Sc ott
Ġhot els
Ġsecret ly
ew s
Ġcol umns
el er
Ġtrack ed
Ġpress ures
pl ant
OR K
Ġinv alid
Ġ Ù
Ġland l
Ġsatell ites
ul ent
Ġoption al
ĠAss ange
Ġhack ed
Ġbud gets
Ġqual ifying
ĠQu ick
ĠBagh dad
G en
Ġto kens
Ġcomp ounds
ĠP ink
Ġl as
ãģ Ħ
Ġb er
Ġr ivers
Hill ary
Ġpun ished
Ġwho ever
sc he
s ocial
Ġemot ionally
S am
Ġpl ag
Aust ral
Ġsurv iving
Ġinject ion
Ġsol ving
Ġc ups
iction ary
Ġres id
Ġham mer
child ren
Ġelimin ating
ĠNiger ia
Ġcat tle
Ġaggress ively
ĠChance llor
pri v
Ġo ven
Ġmanip ulation
Ġhor izon
Ġswe at
Ġlaun ches
M o
esc ope
Ġlif ting
Ġde lete
E mail
et ition
ĠM ine
ĠS ierra
ĠBr ig
D I
ibl ical
Ġmet ric
Ġbo oth
ĠG ot
Ġsubur ban
ĠP H
com pass
ĠStud ents
ĠAle ppo
ĠCom b
se in
J une
ĠC ell
ĠJes se
ĠPet erson
ĠP red
ĠAlp ha
Ġhor rific
ĠBrother hood
pr ises
Ġnice ly
Ġextrem ists
l ocal
Ġconclud es
Ġbrew ery
ere n
er als
Ġamb ul
Ġmess aging
N one
Ġh ilar
ĠSac ramento
ĠCitiz ens
Ġpublic ity
ĠPresident ial
ĠF IFA
Ġjo ins
Ġbr ush
ĠH erald
Ġrecon c
f an
Ġcompl aining
ĠZ immer
Ġvac uum
Ġprev ents
ĠBangl adesh
zb ollah
] )
Ġprem ise
ĠD A
ĠCl in
Ġr ides
ens on
at isf
l iter
g om
ab i
ĠS em
Up dated
ag ain
Ġ Å
ĠB elt
Ġk g
Ġadvis ers
Ġhaz ard
ip se
Ġjust ification
ĠCat al
Ġunder go
Ġanch or
ĠS ave
Ġtrad es
v or
ĠHe y
ĠLeg al
In vest
Ġflo at
Ġdest ructive
F ull
Ġsle e
leg al
.âĢĻ âĢĿ
Ġo un
Ġneighb oring
ĠA round
oot s
ĠHer itage
Ġent ers
ĠM ong
ĠM I
V A
Ġpict ured
ĠAn aly
Ġtransf ers
ĠSh in
Ġvirt ue
Ġref und
ĠCh ip
Ġtroub ling
ĠCr iminal
ĠCol in
Ġfe as
iter ranean
iz ers
Ġacc idents
ĠOver all
Ġcor ps
10 1
Ġsovere ign
Ġo k
Ġpur ple
umin um
Ġannoy ing
w ould
i ological
ertain ly
Ġtur b
Ġrecord ings
H el
Ġtroub les
Ġnon etheless
Ġplug in
Ġun constitutional
ĠEd monton
Ġle ase
Ġ19 45
Ġam ateur
sp ons
atern ity
Ġby pass
ĠJess ica
worth y
Ġir rit
Ġdis astrous
p ay
ie ve
et a
ain er
Ġcommission ed
clus ive
ĠMS NBC
U se
Ġdim ension
T able
g reat
gener ation
Ġg reed
Ġcommit tees
Ġcompan ion
ĠH TC
Be ing
Ġl iver
ĠCost a
Ġte aches
ĠC av
ĠC T
Ġden ies
ĠRe ally
Ġp el
ĠAll ah
Ġ0 3
per t
b ank
ĠZ one
Ġsince re
Ġj acket
um atic
ĠL ic
ur ious
H ead
ĠPict ure
ĠPot ter
Ġin accur
N AS
ĠAnt ar
ĠD rew
ĠM urd
Ġexam ining
oc y
Ob viously
Ġmed itation
Ġcens orship
if iers
ĠR ivers
if iable
ĠBre nd
eal ous
ĠO z
Ġlegal ization
ĠG round
Ġin adequ
ĠAh med
Ġprom in
Ġdeli vers
ĠAct iv
Ġimpl icit
ĠFO X
Ġop io
ĠInc re
M ax
Ġrandom ly
Ġcalcul ate
in ner
ia z
T w
ĠF ac
ĠChall enge
Ġpriv at
ĠBar n
Ġboss es
Ġintern ationally
ĠR af
Ġexpl ored
Ġforeign ers
Ġunemploy ed
Ġh ike
op ic
Ġhand gun
Ġgrad uates
vent ions
oun cing
ĠE arlier
Ġintegr ate
ĠD ri
ur ry
Ġl azy
o ven
K ing
ĠÂ °
Ġcat ches
Ġcl ashes
ĠNe braska
if ully
ĠAr med
m ill
Ġb ans
ĠA irlines
play ing
at hetic
Ġfor k
d esc
Ġdisp utes
ĠIm agine
ĠN ar
Ġd war
ific ant
ĠO P
yl an
Ġirre levant
augh s
we b
[ /
ĠL ives
ĠTele graph
âĢ¢ âĢ
ĠB ald
¢ âĢ¢
Ġaccord ance
b oth
Ġretain ed
Ġdef enses
Ġcig arettes
Ġadj acent
ophob ia
F I
av ailable
r us
h ad
Ġcomp act
uff y
Ġland mark
ĠClar ke
ust ain
p os
ĠH E
B o
Ġencour ages
M uch
min ent
ver ted
l ength
Ġ16 0
ĠPrin cess
r ams
J im
ĠEv il
Ġnin th
uff ed
Hist ory
Ġch unk
ĠCurrent ly
ĠComm ander
Ġprop ose
ig s
Ġâ Ĩ
Ġterr ifying
Ġstri pped
ĠZ ach
Ġhyp oc
Ġint ends
AA A
Ġlight ning
ĠW ing
Ġdiscon nect
qu ire
os ity
ĠK er
Ġsub t
Ġstud ios
Te am
Ġmole cules
Ġreal ised
Ġcalcul ations
ĠM aur
L ear
Ġsan ction
ĠCub s
ĠNaz is
Ġcampaign ing
Ġfar mer
Ġenact ed
ĠR u
Ġover head
Ġtoug her
omet er
Ġintrig uing
Ġcal ories
ig ue
Ġaff irm
Ġrecru ited
Ġkn ees
B ron
N E
Ġsc are
Ġconf erences
Ġinvestig ative
Ġclar ify
ĠPro cess
Ġeconom ically
Ġdep ict
Ġshe ep
Ġatt ach
Ġsubst ances
ĠC art
undred s
] ;
Ġpro long
Ġdr agon
ograp her
Ġsymb olic
Ġr ugby
Ġprof iles
ĠK an
Ġsocial ism
us c
Ġcrit ique
Ġmor ality
ĠWeek ly
ĠD ynam
h or
Ġco pper
Ġgu ided
ĠWe ather
ar in
Ġcent res
Ġhomosexual ity
Ġflow ing
Ġcoll ision
ĠP owell
ond e
Ġload s
Ġpres erved
Ġst ones
ĠF am
ĠBoe hner
Ġsl ice
Ġplace ment
ĠV oice
Ġ> >>
Ġunw illing
Ġassess ed
Ġnorm s
it ations
Ġprosper ity
Ġn aming
Ġproceed s
Ġfurn iture
Ġcou pled
anche z
p her
ĠC and
ĠTib et
ĠPro s
by e
Ġspecial ized
Ġhed ge
imp se
Ġnot ified
Ġa ug
om ers
ĠSen ators
Ġgl impse
ok ia
Ġrelig ions
Ġimag ery
ograph ical
Ġple asant
en z
V M
Ġsubur bs
ĠEff ect
Ġsequ ences
ĠT u
Ġsimpl er
Ġfif ty
Ġdeliber ate
Ġcrit ically
âĢĿ :
ĠTr aining
Ġfav ored
c urrent
Ġv ag
Ġexpl oded
ĠBe aut
ok u
Ġch airs
ĠF ight
Ġporn ography
pe ction
ĠJo el
Ġind ie
izz ard
ĠSteven s
ĠCarib bean
> <
ĠT ogether
J uly
Ġor b
Ġhe y
ĠAlex and
ri ans
Ġdrag ged
ĠU ser
Ġsket ch
Ġcryptocur rency
ĠHung ary
Ġpot ent
Ġmind set
ĠP ic
Ġtri o
Ġref uses
Ġoffer ings
Ġencoun ters
ĠC ulture
Ġl ending
Ġh ometown
ĠM ana
ĠMed iterranean
ĠAny one
ident ified
Ġrevers ed
at able
Ġpack aging
Ġ12 5
Ġsc al
|> âĢľ
' )
Ġemphas ized
Ġinfring e
ĠG am
i ably
ĠZ en
Ġincorpor ated
lin ing
Ġsc roll
Ġfl ower
Ġreal ise
M D
ĠMil an
ĠCh an
Ġinc om
Ġen velop
et on
Ġgl ance
os ph
Ġ0 7
imens ional
id i
Ġcur b
Ġgest ure
ues e
F eb
Ġdisc retion
Ġdis gr
Ã ł
Ġst ole
E nd
on est
F il
ĠW or
Ġbre ed
ost ic
AM E
Ġtravel s
Ġtal ents
ul ously
ud a
Ġthr illed
ĠErd ogan
ĠP in
Â Ģ
d eb
oll o
Ġturn out
cont ent
M att
il ia
Ġl ing
Ġcop e
Ġa irst
Ġcontin ually
A pril
gh ai
ĠMin neapolis
Ġcance led
Ġindict ment
Ġany time
Ġstrength s
ed In
Ġmin ers
ĠCons ider
a q
Un ited
ĠB ak
ĠM ull
ĠImm igration
ĠG ore
Ġâ ĸ
per ty
ens en
Ġder iv
Ġcontrad ict
F eed
Ġm old
ĠK ay
mer cial
k ers
Ġfather s
m und
Ġcommun ist
Ġshare holders
ĠEd die
iber al
J eff
ĠMus k
1 30
Ġcon tempt
P ower
Ġe rect
ĠD ian
ous ands
and ing
Ġha un
ĠM umbai
ĠGO OD
ĠA G
OS E
rik es
Ġaccount ed
Ġres il
E U
Ġrest rain
Ġflee ing
Ġdes ires
asc us
Ġthread s
Ġdecent ral
ĠLu is
ĠEurope ans
ĠPriv acy
Ġapplic able
Ġtow ers
Ġind ivid
Ġ9 00
Ġg ambling
Ġte lev
ĠT ouch
B rien
ug ar
. ).
Ġvo iced
Ġhas ht
ĠId e
Ġreb ounds
e ep
ad ian
ĠT ask
Ġlack ed
ĠM eg
Ġsu cc
Ġpract icing
ĠStr ong
m atic
P ac
Ġorder ing
Ġnot ification
Ġd airy
gr at
Ġfact ions
Ġimport ed
on al
Ġoverwhelming ly
Ġhabit at
ĠÃ ł
Ġhead er
Ġdict ators
it ted
ĠLook ing
Ã© e
ol ics
u art
Ġref res
Ġcritic ised
ĠW es
am pton
Ġman uscript
Ġel ites
Ġscholars hip
ĠM ath
Ġins pection
h at
ĠMc D
Ġdep icted
F ile
ĠD im
re cy
s ight
ask et
an ies
Ġsw ap
ĠB aby
T Y
ĠE thereum
ĠTh ai
Ġfru its
ny der
ĠMart inez
sh aped
charg ed
Ġprec ip
ĠM aking
ĠGib son
on ut
Ġtr im
Ġpredict able
Ġmeasure ment
Ġconv ictions
Ġl ips
ĠJ ared
Micro soft
Ġcollect ions
ĠJ ed
ĠCast ro
ch ant
ĠHel p
ac cess
Ġsur plus
Ġfemin ism
Ġra ids
ĠPal m
O kay
Ġwas ted
tr ue
Ġactiv ated
ĠCo ff
Ġorg ans
ĠLat ino
ĠUn ity
Ġfe ver
Ġdist ress
Ġsu ite
ab lo
Ġcolumn ist
Ġwhe at
P ass
Ġab ortions
ĠHT TP
Ġpoet ry
Ġfinger print
V I
ĠWood s
s n
Ġ: )
m ember
Ġiss uing
Ġdepos its
y on
ĠE P
um my
gh azi
em et
Ġforth coming
Ġactiv ation
sec ution
Ġbe ans
ĠL akers
Ġj ets
Ġun law
Ġappreci ated
Ġt ender
Ġle ver
Ġsatisf y
xx x
C all
Ġpurs ued
Ġoff s
ĠB esides
ke ll
Ġrall ies
ĠN ine
Ġconst itute
ĠY ellow
Ġwe aker
Ġprogress ion
ĠAdv anced
Rober t
H ello
Ġru in
ON E
Ġsup reme
Ġlit igation
Ġcons cience
p resident
Ġh urd
Ġfin ances
Ġch ick
ĠLight ning
Ġcomp iler
ĠDem ocracy
Ġj unk
Ġamb ig
ĠAn a
ĠTex ans
J oe
Ġd awn
Ġfre el
Ġcrack down
Ġcont rac
ĠMer cedes
Ġbe ast
Ġschol ar
Ġm g
gom ery
Ġpost ers
ĠJeff rey
otten ham
ib les
Ġefficient ly
Ġwh oles
Ġelect ro
ĠM ade
ĠD w
ĠNorm an
ĠE S
ĠH ig
Ġs id
ĠC urt
s omething
ce ans
Ġobsc ure
Ġkilomet res
Sh ort
s un
v oc
Ġhel m
Ġguarante es
Ġcar ing
L ab
ĠSum mit
ĠTra ff
ĠD I
200 7
M ad
ĠAd ded
n ia
k ar
ĠMag n
Ġuncons cious
Ġmo ist
ĠS au
Ġt ast
ĠVis it
ĠLabor atory
Ġstart ups
ĠPoint s
Ġactiv ism
ĠStud ent
ãĢ ģ
Ġneg lig
ĠToy ota
ys on
b augh
iment al
Ġneed ing
Ġconfir ms
ateg ory
Ġdes cent
ĠK enn
le ague
AS S
Ġliber ties
Ġinf inite
Ġg ly
UL L
Ġconcent rations
Ġb ored
Ġsc attered
Ġaccording ly
Ġthreat ens
Ġinstall ing
Ġd un
ĠC it
ĠA ub
Ġ0 9
Ġrock ets
m ax
ĠCreat ive
Ġun int
Ġro oted
Ġsec uring
Ġwood s
Ġinstruct ed
Ġhy pe
Ġpass port
ĠHud son
Ġport rait
Ġdis hes
ĠNY C
Ġir ony
Ġgot ta
ĠGand hi
Ġinf ilt
ĠB omb
p aid
b b
Ġunh appy
Ġtransport ed
Ġassert ion
Ġfix ing
ĠFred er
D el
ĠCan cer
ĠAh mad
Ġwat ches
Ġr abb
Ġd ining
ogen ic
Ġman ually
Ġch im
ing le
Ġcry stal
Ġcustom s
Ġint ensive
ĠStat istics
am mar
B ro
Ġprofess ors
oul os
Ġpat ents
raw ling
ĠMarg aret
11 1
Ġassign ment
os aur
ĠB att
ĠL ion
ĠYou th
Ġund ocumented
Ġsp here
ĠC ool
ess age
Ġremain der
own er
ĠMos ul
ĠI R
ĠW alt
AC E
ĠSpr ings
ĠHe zbollah
ie ce
Ġ196 6
ĠB apt
ĠBoy s
Ġshout ing
Ġhe ating
g ue
uck ed
ris k
ĠCh ad
ĠInter ior
Ġceleb rities
ĠS K
ĠO pt
ĠW ang
ĠK um
Ġtra ject
Ġsurvey ed
ĠT ree
Ġproject ions
ĠC P
Ġen vision
Ġsh ark
Ġpost season
Ġge omet
Ġreact or
Ġdis gu
Ġc abin
arm ing
Ġl i
els h
Ġsl ated
Ġmarg ins
Ġbull ying
ĠL arge
AC T
ys ical
est on
Ġmix ing
Ġt ennis
Ġsystem atic
ĠSqu ad
ĠN ad
Ġeas iest
Ġbackground s
ers ed
Ġvacc ines
Ġsound track
Ġgr im
Ġfavor ites
ĠMon ster
Ġmin es
Ġment ality
ĠMov ie
Ġcommod ity
erv ice
Ġin k
ĠB anks
Ġdig est
Ġconce aled
Ġacadem ics
cl ub
N on
Ġapart ments
ĠId ent
Ñģ ÑĤ
Ind ia
Ġaer ial
Ġsu e
Â »
Ġbe ats
Ġadvent ures
Ġpr one
Ġd ug
g irl
ĠBM W
F ive
Ġw ra
Ġbatt ling
ĠH im
ĠCom cast
Ġforg ot
ĠL ower
Ġdress ing
12 5
Ġm ud
Ġm apping
ik o
Ġtou ches
_ {
Ġgrass roots
Ġcome back
Ph il
S il
Ġbl ade
Ġdis puted
ĠG aming
ĠCom ic
r ising
j pg
h art
ĠPri or
emet ery
ĠD rop
Ġmet eor
A E
Ġ0 8
m ount
C re
Ġc aucus
Ġ( Â£
Ġpromot ional
Ġhe els
.' "
Ġ0 4
Ġpark ed
Ġfl ies
ĠH onda
Ġch rom
Ġc ables
Ġsm iling
Ġshout ed
Ġappreci ation
ĠY ale
ĠMal colm
Ġcontinu ously
ĠP etro
Ġl ied
Ġdist urb
ĠNe uro
id ity
ix els
Ġnut rition
he y
Ġflags hip
Ġsl aughter
Ġble eding
Ġs od
agg ering
ĠOper ations
Ġindic ator
Ġgas oline
Ġca f
ens ed
b ra
Ġhand les
ph is
Ġsc i
Ġdispl aced
Ġan om
ĠForm ula
ĠTe levision
Ġdep uties
Ġremote ly
st ud
Ġmathem atics
ĠÂ »
Ġsc ales
Ġrhyth m
ĠKen ya
Ġsh oe
Ġm i
Ġtrop ical
Ġcol ony
sh it
z el
es ville
M E
r ace
ab lish
ĠAb raham
ĠF alls
ĠInd ependence
ĠA K
at ility
Ġm ol
Ġstr angers
Ġse gments
atch ing
Ġmulti pl
ĠCol lection
Ġ( -
Ġmount ing
Ġw ield
Ġstaff ers
Ġgen ocide
ĠP ract
ĠDam ascus
S N
Ġver bal
ĠBelg ian
Ġpolic ing
ĠSt rip
Ġacc laim
ot er
mid t
Ġimm unity
Ġfl ames
ĠFin als
Ġill usion
ĠBen ghazi
l isted
ĠVin cent
ĠK o
Te xt
ĠM ons
Ġl inem
w age
ĠCry stal
Ġd ough
on gh
or ically
Ġstat ute
Ġdis reg
Ġcle aring
Ġunp redict
Ġsh ook
ĠM is
Qu est
Ġpull s
ĠSim p
im g
Ġdig ging
Ġprompt ing
ĠSome one
Ġic ons
Ġcompet itor
ĠP or
W W
Ġport ions
Ġinherent ly
Ġcharacter istic
Ġg orge
ig ion
Ġconnect ivity
Ġcompar isons
Ġbr idges
Ġbench mark
ipe g
ĠCo in
ro v
ĠWal mart
AS E
ĠCar r
Ġ196 3
ad itional
ĠWe ap
th reat
Ġaffili ated
ĠM end
ĠX i
ĠWh ats
f ix
Ġamb itions
el ed
Christ ian
ĠBr ain
Ġto pped
ĠRaven s
ach t
Ġsh aking
ĠBr ight
ar se
w ait
ĠD elta
Ġcertain ty
Ġsmall est
Ġcent ered
ĠM ini
Ġcar n
Ġbehavior al
Ġcro re
P age
Ġbl unt
ĠW a
ĠB ren
W omen
r ise
cific ally
Ste ve
ĠNew castle
ĠMajor ity
Ġd are
ĠTom my
OU R
Ġsynt ax
Ġdispos al
ĠHop efully
ĠIniti ative
yn asty
lud ed
Ġapplic ants
ĠCont ent
ud ed
run ning
Ġpit ched
Ġfortun ate
Ġw ished
OR D
Ġmusic ian
Ġup hold
ĠW ITH
ĠUp on
Ed itor
Ġmed ieval
ĠC ash
Ġwild ly
Ġimpact ed
Ġreprodu ctive
ĠTH IS
ĠA er
gg ing
ĠSat an
Ġstorm s
Ġst ap
Ġdis ruption
ĠSch olar
Ob ject
le en
Ġpit ches
Ã¶ r
|> (
Ġview er
Ġwe ighed
ĠB ody
Ġcontribut ors
C AR
C onst
Ġgl ac
Ġhe m
ĠG raph
Ġat op
ĠC opyright
Ġur anium
ĠPortug uese
s ay
we gian
Ġanx ious
Ġcook ed
ĠApp arently
Ġfoot print
Ġd ent
Ġbe es
Ġh ipp
ĠR ank
Ġ| |
he art
Ġamend ments
ot ive
c amp
igg s
Ġaest hetic
ĠCoun ter
sh aring
Ġst ub
ĠA CC
Ġ0 5
Ġaver aging
ĠW ere
Ġeat en
ean or
ĠH ERE
tit le
n ar
Ġst int
Ġadjust ments
âĢĿ ).
s ite
Ġwe ed
Ġmy st
ong yang
Ġst akes
ĠRe yn
Ġas leep
Ġve ctor
h h
ĠW ings
ĠK i
Ġprior it
ĠEm peror
ÃŃ a
ur ally
Ġtheat re
ĠArch itect
p ical
Ġindivid ually
Ġem pir
Ġim minent
s u
ow itz
Ġrep ository
Ġfaith ful
Ġpat ches
B as
Ġphys ic
Ġsh adows
Ġr ipped
Ġcinem a
ĠR ule
akes pe
Ġp und
G C
ich t
Ġadvis ory
Ġe go
Ġdes erved
Ġcon grat
Ġattend ees
ĠSt alin
or um
et ooth
Ġst aring
ĠIndust ry
V is
Ġfe ather
ĠOther wise
Every thing
ĠDan ish
3 50
Ġfound ations
Ġsp ont
Ġcru ise
ra vel
Ġdemonst rators
Ġr anges
b ach
d ollar
ĠLegisl ature
P eter
ĠM ob
Ġrecover ing
F ore
ĠVal ent
ĠGr an
ĠCar roll
Ġcand y
ĠH S
Ġsufficient ly
ĠB ills
Ġdep osit
ope z
ĠM ann
Ġque ue
Ã© t
Ġdistinct ive
ĠCrime a
} ,
Ġju ven
Ġinspir ing
Ġcar b
Ġlegitim acy
ĠS id
Ġcl ue
ad ata
Ġp add
Ġbon uses
Ġjail ed
ĠS QL
chn ology
Ġj azz
,' '
Ġcert ified
Ġn ucle
Ġcr ap
Ġrail way
Ġque en
ĠReds kins
Ġhier archy
T T
Ġundere st
Ġhistor ians
Ġclim bed
ĠS ale
ĠIm pro
ĠK urt
bro ok
Ġal erts
Ġincumb ent
Ġmetab ol
ort on
Ġn ail
ĠColomb ia
Ġsupp ress
gu ard
Ġadjust ment
Ġpl ausible
ould er
ult z
Ġun believ
S w
om ore
Ġc age
ĠR A
ĠMet al
Ġpar as
ĠLe ave
Ġsuprem ac
Not es
Ġcr ashes
ĠUlt imate
Ġrein force
Ġab usive
ĠCons umer
Ġcook ies
Ġphys icians
pect ives
ĠGener ation
Ġt ide
Ġe cl
um per
im ity
Ġexplan ations
Ġa fore
Ġmin imize
ĠW E
ĠB ent
Ġcont ender
Ġut ilities
Ġshe lf
erv ative
ant ine
Ġamb ition
Ġimprison ment
Ġblow ing
op oulos
Ġneg lect
T est
% ),
Ġfound ers
ĠH az
ĠD ame
1 000
S ure
Ġresc ued
Ġoff enses
Ġposition ed
ĠId aho
orth y
Ġzomb ie
Ġlight ly
Ġconsult ation
ĠR O
Ġvel ocity
g ow
Ġmet er
Ġsc am
Ġdirect ing
ĠShan ghai
Ġcig arette
Ġelect orate
Ġdeleg ation
ĠCre ate
ĠSimp son
ĠCommon wealth
Ġflav ors
ĠE t
M ENT
min ing
Any one
Ġgi ants
st ation
als h
Ġde ar
ĠCh ampion
ĠPer formance
âĢĿ ?
Ġmotorcy cle
ĠWest minster
Ġboy cott
ĠN ut
Ġansw ering
Ġby tes
Ġ( +
em pt
H ome
Ġeduc ate
Ġsie ge
ĠK il
ĠG N
t ax
Ġbox ing
Ġhuge ly
Ġincorpor ate
Ġapp ar
Ù Ĩ
l av
ĠThe ory
! !!
Ġpersu ade
Ġmor ph
Ġpromot ions
ĠS witch
Ġexplo ited
ĠLeon ard
ob a
Ġv icious
Ġal igned
ĠCol ts
ĠLim ited
Ġp ork
Ġhalf way
uter te
n els
Ġrow s
ĠS anchez
ĠM asters
ne ed
ĠF ix
Ġrun ners
Ġf reed
ing rich
Ġab rupt
Ġlad der
osh i
Ġt a
ĠArm strong
ĠK end
prising ly
Ġcollect ively
AR K
ĠX L
Ġsim ulation
ĠM oss
Ð ²
Ġch asing
Sp ace
h aw
Ġoff line
ason able
Ġluc rative
ĠS ie
Ġgener ates
Ġintegr al
Ġrecogn ised
ĠK ane
d est
Ġshow case
am on
er ness
ash a
R ad
Ġdies el
an as
Ġconsist ing
ĠP orter
akespe are
Ġaccess ed
Ġabsor b
Ġplant ed
Ġelement ary
Ġautonom y
ĠV M
Ù Ĭ
ĠEs pecially
ĠW ant
Ġsli pped
Ġfif teen
Ġassoci ates
ĠSocial ist
I ES
Ġb ru
ĠSc he
Ġopt imal
ĠO culus
ĠU CLA
ĠA F
ĠM ut
Ġcurric ulum
Ġmilit ia
ĠSteel ers
C le
ĠInte gr
Ġjer sey
Ġcere mon
Ġm as
ĠAn alysis
ĠE ight
Ġp iano
R yan
Ġlow ered
Ġmar riages
olit ics
ĠConfeder ate
Ġ.. ..
per m
ĠM ol
Ġsp ike
al one
ĠLe x
ĠK aren
ĠCan n
Ġman a
ĠPriv ate
am iliar
Ġacc ent
ĠS B
ber ger
asc ript
I ran
ad ays
Ġnegoti ated
Ġadv ancing
Ġop ener
Ġancest ors
Ġs oup
Ġtri v
Ass ad
Ġpo em
½ ï¿½
ĠEm ir
ï¿½ ï¿
Ġw itch
c ourt
ĠStr ateg
Ġappeal ed
b us
ra f
He alth
Ġauthor itarian
Ġd orm
att ack
Ġeff ic
ĠD j
Ġrecruit ment
a que
Ġmatch up
Ġâ Ī
M ap
ĠF o
Ġbl at
Ġquant ities
Ġbr on
ale z
Ù İ
Ġslow ed
Ġpist ol
ew ay
ĠS add
ĠI Q
occ up
Ġport able
Ġsatisf ying
Ġmanip ulate
ĠQ ur
Ġimp osing
Ġinhabit ants
um ed
ĠÂ Ń
Ġquarterback s
ĠS ri
ef e
And rew
ĠâĢľ [
ĠT on
Tex as
Ġunp opular
Ġo w
Cont act
Ġbl oc
il itation
Ġprotect s
Re view
ment al
ch t
Ġper ipher
Ġillust rate
â Ļ
Ġt ales
ĠJ ama
b as
Ġal uminum
def ense
Ġu b
ĠT ravis
k it
Ġloc ate
Ġp iss
Ġclass ification
ĠMon th
Ġconsist ed
Ġemb ark
Ġhon ored
ĠH ousing
Ġpay roll
reg ular
Ġhom icide
Ġfact ion
Ġtreat s
M or
Ġche ss
ir ies
Ġdelight ed
Ġar rog
ĠG or
Not hing
Ġres ent
OC K
Ġo we
Ġprem ature
Ġblog ger
ĠN ord
ĠGreat er
ĠEn forcement
ator ial
add afi
Ġtrave lled
ĠK ap
re ctions
Ġup s
Ġcrus hed
ell ed
Ġp ond
Ġp estic
ĠM ills
Ġconsum ing
il ight
Ġdiam eter
Ġprotest ing
Ġfert il
Ġp ul
Ġadminist rator
ĠV ent
Ġlog s
Ġhapp ily
m ean
road s
ĠS outheast
ik er
ĠF ace
ĠD olphins
Ġinv ention
Ġmet rics
ĠOrig inal
Ġacadem y
ĠS nyder
ĠPr ison
Ġprol ifer
Ġdec isive
ĠAmb assador
Ġt ended
Ġat omic
oun ter
ke eping
RE D
Ġart illery
Ġover view
Ġy oga
Ġv ic
Ġpat ron
ball s
Cont in
ĠS eth
Ġinc ap
ant om
m ph
ĠN GO
ret ty
Ġg ates
Ġsent encing
Ġinstrument al
ĠSal v
l iv
Ġuns upp
Ġno ble
Ġex cer
ibl ings
Ġsimilar ities
ener ation
EN D
Ġclin ics
ad h
Ġrecogn ise
ĠCath olics
Ġdetect ive
ĠCase y
Bl ue
Ġdri ed
ĠD erek
l it
el ines
ĠR ut
Ġc ad
Ġqu ot
ĠS pl
ĠSc reen
ep s
A ir
N ob
H C
Ġdat as
el ong
ĠDel aware
ĠGl as
ech an
it ous
Ġsl ammed
Ġliv est
Ġconstitu ents
met ic
Ġcontem pl
ĠH ence
ĠTer min
ĠDar win
ll ah
Ġrest oration
F orm
ĠRichard son
ourn ament
Ġyield s
Ġupgr aded
Ġprob ation
ĠB rett
s ix
Ġincl ined
ĠÎ ¼
ĠL ate
Ġven ues
Ġlad ies
connect ed
S cient
ĠO ften
Ġd ude
Ġprohib ition
Ġrif les
ĠY u
Ġcomb o
ĠLouis ville
Ġmark ing
k ov
Ġmasc ul
W ould
Ġsp ying
Ġseek ers
Ġcat alog
Ġapp le
r ational
Ġgen ome
Î ½
C ome
Ġenthusi astic
Ġshow c
ĠG az
Ġincons istent
og yn
ĠWe bsite
ĠNich olas
Ġmis er
Ġbreat he
Ġr ip
Ġfart her
Ġappl aud
ĠV a
M ain
Ġ196 2
Ġsl ides
ĠHus sein
Ġr ider
Ġexp ans
ĠW elsh
Ġfrag ile
Ġinvestig ator
ĠDise ase
Ġl ion
Ġbi ased
Ġthr ust
ĠGene va
ĠNo ah
dep th
ĠN okia
ĠHop kins
Ch ild
Ġhum ble
uff le
Ġlic ence
ĠT rip
Ġpr iced
ns ic
Ġpost p
Ġh ref
ig o
Ġcor rection
lev ard
Ġremark ably
Ġimm un
ĠPar ks
T otal
is le
ĠMont gomery
ĠRepresent ative
Ġadvis or
Ġspe ar
ĠLoad ing
Ġcon form
ĠMatthew s
Ġvari ants
ĠC rew
" ).
ĠLear n
Ġrecip ients
Ġsynt hetic
Ġshel ves
om on
Ġdep ressed
ĠA br
Ġun related
ĠW rest
ĠNorth west
Ġweakness es
Ġn ostal
Ġend angered
Ġt ires
Ġbail out
Ġcl ips
Ġcatast rophic
Ġc otton
asc ular
Ġtro phy
ĠHuff ington
ĠEll is
ĠP ierre
Ġtight ly
b ane
Ġjud ged
Ġg ren
ĠSy n
ID E
Ġnic he
ĠC airo
he ster
Ġo ath
w ent
ourn als
ĠL oc
v ance
Ġev olving
ĠLeaf s
Ġun con
p ad
ĠB ach
Ġutil ize
ĠW ait
ĠEag le
serv ice
it ially
amp ire
ĠB O
Ġalleg es
Ġst aggering
Ġcol ored
f inal
Ġair ports
d ist
Ġgang s
Ġup ward
Ġp oured
Ġnurs es
c ond
Q ue
Ġpract iced
names e
Ġbre wing
Ġfor ty
Ġdown s
Ġsec urities
he arted
reat ing
o ir
Ġmon itors
Ġcooper ate
ĠT ak
ĠD oc
D ate
ĠVeter ans
p ose
and als
Ġr iots
Ġinterven e
ĠV ideos
on o
ĠH appy
ĠAn onymous
Ġm a
Ġsl im
ĠAs k
Ġcoinc idence
ans om
Ġencry pted
ĠT ab
ĠSur face
Ġcamp uses
Ġpros pective
ĠK ids
U G
We b
Ġbook ed
Ġextensive ly
Ġrel iability
f un
Ġhor r
Ġchap ters
Ġinterf ere
ĠSt ories
Ġank le
ot ics
Ġoptim ism
ach i
q a
Ġecho ed
Ġmonit ored
ĠCD C
ĠH A
iat ric
Ġrem inis
ĠP ew
a uth
ĠY am
Ġprop osition
Q U
que z
ĠUS C
il ers
Ġpredomin antly
Ġflo ors
ĠMun ich
ĠThanks giving
ĠJ in
ĠBer g
Ġsepar at
Ġwar ns
Ġang les
p ically
Ġsymp athy
oy le
ĠVis ual
B B
ĠS ter
Ġtask ed
ĠIS BN
ĠH ass
Î ¿
F ar
E s
Ġint oler
Ġm igrant
Ġinsect s
Ġdefic its
Ġgenet ically
ĠA FL
l ance
Ġwell s
ent ry
Ġwe ars
Ġre nown
ĠV illa
i ott
b ast
ĠA pr
ĠGr ace
ĠAg ent
e ree
Ġbound ary
Ġver b
Ġenfor ced
Ġfore most
ĠArn old
ĠS r
p res
Ġw ives
ĠB eth
ĠU P
b ucks
ĠPr ide
U ser
Ġste ering
De velop
Ġne arest
ĠACL U
Ġpract ition
r ays
ĠSom alia
B rown
Ġfil ters
Ġwhistle bl
ĠTun is
ĠE sp
in ers
ĠJ ays
ĠE le
r ar
ĠP ub
Ġnav ig
Ġcoord ination
ĠHe brew
Ġext inction
Spe cial
Ġinher ited
Ġcl iff
d imensional
ĠK ush
st ated
Ġbre eding
ov an
Ġpositive ly
pro cess
ard i
ĠBudd hist
ĠR ot
itz er
ĠKurd s
ir us
AT H
Ġcomb ining
Ġfe ud
Ġpartic le
Ġincl usive
Ġfor wards
Ġad ul
Ġsh ine
ĠAct ually
Ġs acks
ĠTri ple
Ġ10 5
ir ation
ĠFor bes
Ġcul p
m ake
ĠSw an
s uper
os c
ann ers
Ġscar ce
Ġd ip
ĠReg ion
Ġe ld
Ġreward ed
Ġpri ests
Ġassist ed
ĠP engu
h all
Ġatmosp heric
D ou
Ġd oses
Ġemer gence
iet h
Ġdescript ions
Ġhand ing
ĠGet ting
s an
I ts
Ġp aste
ey ed
Ġche f
Ġt ense
ĠSchool s
B ox
acer b
Ġobtain ing
Ġsens ible
Ġrelax ed
Ġafore mentioned
Ġinput s
ĠMem phis
ĠC amb
is co
ĠWinn ipeg
y outube
Aug ust
ĠFl a
ĠT X
c ock
cons cious
ĠCl int
Ġg rief
ĠE ye
ĠCy ber
ator ies
Ġener g
ĠAbd ul
ĠMon te
ĠW AR
am ount
Ġkind a
Don nell
Ġw oke
an cer
ek ing
Col or
Ġins ufficient
Ġbo asts
ĠHend erson
sex ual
ĠL um
ĠK enny
Ġz oom
Ġther mal
Ġcaut ious
Ġcommer ce
Ġimpro per
16 0
Ġcandid acy
ĠP aper
Ġdeb ts
Ġrespect s
Ġillust rated
Ġconv entions
Ġc oding
200 6
are a
Ġuncom mon
Ġdys function
ĠR alph
Ġu m
Ġst airs
ĠH ack
Ġpl um
Ġpersonal ities
het ical
L ine
Ġlight weight
Ġreal ities
Ġslow ing
ãĥ ¼
od er
Ġreal izing
Ġbelong ed
Ġoverlook ed
Ġupload ed
Ġ12 8
{ "
r ina
act iv
ĵ âĢĵ
Ġbo o
Ġadd ict
Ġexp osing
Ġcycl ists
id y
ĠCur ry
ĠF ixed
Ġnurs ing
ĠD ust
M iss
Europe an
Ġc ensus
display style
Ġth rive
O p
Ġtest ify
Ġintu itive
Ġb od
sh adow
Ġperform s
ĠP HP
l anguage
Ġautom ation
ĠVal ue
f illed
Ġadd itions
ĠBar nes
Ġtour s
Ġpo ised
Ġunsupp orted
ĠPy ongyang
Ġquick er
Ġenjoy s
ĠBash ar
Ġord inance
Ġcirc ulation
Ġadm ire
Ġoutrage ous
ĠH off
ĠSt rike
ĠReg ister
Ġc ripp
Ġblank et
play ed
Inte rest
ĠN uclear
Ġbas ics
Ġtat too
Ġse ize
Ġred es
ĠRe lease
an throp
Ġass erted
st rom
Ġagg rav
ĠSte phan
Ġt ags
ĠB ark
Ġorig inated
er ie
Ġsubject ive
Ġpaint ings
ĠPre vention
ĠKle in
g rown
Ġrecip ient
Ġ196 1
Ã ¸
Ġje opard
t i
Ġty r
Ġa in
ane y
Ġvibr ant
Ġno on
ile m
Ġg em
Ġcomb inations
Ġcas ino
Rich ard
Ġwond ers
ĠRe act
ch at
Ġb ent
ĠSil va
Ġcoord inated
Re illy
L ocal
Ġrepe ating
Ġgu ides
ĠUn less
ins ki
Ġgr ades
Ġvol t
ĠWild life
Ġredu ctions
Ġawa iting
ĠSh akespeare
un al
f air
et z
Wh atever
g on
S un
ĠA j
Ġl oot
ĠKas ich
Ġmonop oly
Ġliqu or
Ġwh ales
ĠH ook
Ġparticip ant
ĠC raw
Ġfl own
Ġeval uated
eng ine
Ġspr int
ĠWord Press
ĠB ec
ĠSch ne
L L
Ġs way
ĠTit ans
Ġim aging
Pl us
ĠNor wegian
ĠM atch
ĠHold er
ĠAd rian
Ge orge
Ġred irect
cl ock
g ay
Ġdeal er
ĠJ ur
ĠFal cons
Ġcl ues
?? ?
xt on
il ogy
Ġhilar ious
ĠV I
ĠCom plete
ĠE aster
Ġmention ing
Ġtrad ers
Ġreflect ing
ĠBudd h
Ġ0 6
Ġh obby
amer a
ĠAl z
p ict
Ġtast es
ĠEmer gency
Ġdetain ees
Ġabund ance
ĠDod gers
ĠNov a
Ġsc iences
Ġmerch and
up iter
Ġnever theless
ener gy
.' '
Ġan ten
Ġbuy er
ĠRand y
ag le
Ġsoul s
os ion
Ġwh ale
Ġpick up
A AA
Ġs i
ĠJ unior
f amily
ĠC I
S al
Ġdev il
Ġinher it
iz oph
ĠH ob
Ġtriv ial
~~ ~
ĠT ories
ĠF aith
ĠEm ily
az or
ĠH ost
Ġc ared
ĠR ust
ĠPear l
ec d
ĠR ules
Ġbot hered
ĠG ang
u ber
gg y
Ġlit eral
Ġform ats
Ġfl uct
ĠG oth
ĠAt hens
Ġwatch dog
L ove
ĠBa iley
ine a
ĠIsa ac
ĠGab riel
T L
ĠAgricult ure
Ġopt ical
L og
Ġsl ogan
us p
ĠK id
ruct ed
Ġdatab ases
W elcome
Ġu mb
ĠU l
h it
Ġdist ances
Ġman ga
cy cl
Ġunder grad
Ġbl u
b illion
Ġrece i
Ġsam pling
S ources
ĠC ob
ĠEr n
am ples
Ġc ivic
Ġaston ishing
ĠT ottenham
Ġdark er
Ġobs essed
Ġdemonst rating
Ġgr ams
l at
ÂĢ Â
Ġhur ting
ĠMet ropolitan
st airs
Ġsun light
Ġinadequ ate
Ġins isting
Ġexha usted
Ġwrit ings
ĠTh rones
ĠS ite
rop he
Ġunder water
ĠK iev
Ġemp athy
ĠT win
Ġp unk
ut ton
ĠFerr ari
Ġfin est
ĠJosh ua
s ens
Ġcou ch
Ġlobby ists
ep rint
it ime
S ocial
Ġs iblings
ĠEv an
ĠPere z
Ġoverwhel med
ac i
Ġorgan isms
C ON
ĠHy d
Ġdiplom ats
Ġe ternal
ĠJen kins
Ġst agn
Ġvast ly
Ġserv ants
ĠMc N
ĠAustral ians
ad os
Ġm es
Ġprotocol s
Ġmicro sc
ĠM UST
ĠDep ression
" ),
Ġcon gest
Ġsn ake
Ġsm iled
ĠC F
en es
ĠB our
us k
es ar
ĠSt uart
Ġhorizont al
Ġpremium s
Ġassault s
ear th
alk ing
Ġde portation
Ġpus hes
dri ving
Ġex acerb
Ġmole cular
Ġw olf
Ġen compass
ĠP oke
ĠJ ob
Ġprox imity
Ġmet ro
d id
Ġunderstand able
Ġconj unction
ant a
W as
ĠLe aders
ĠHer oes
Ġcraft ed
ĠS weet
Ġpay load
Ġspin ning
ĠA IDS
im edia
ĠT iger
ro e
ĠS gt
ĠHe avy
Ġbank ers
Ġproceed ed
ĠF uk
Ġbarg aining
Ġwork out
Ġcapt uring
Ġb og
Ġjew el
Ġ--- --
N O
Ġadv ise
o at
c ur
Ġver ified
Ġprim aries
Ġen light
ophob ic
ĠN y
Ġg ases
Ġ19 48
Ġinaug uration
Ġb ounce
ĠProp het
Ġmed ications
ĠSt range
im ination
Current ly
Ġapolog ized
v id
Ġst aged
inent al
Ġl ingu
osa urs
Ġshall ow
Ġk et
Ġactiv ate
Ġaccompany ing
ĠPro bably
Ġax is
ĠD ylan
Ġsec recy
G P
inte gr
ere rs
ĠA ur
Ġsurf aces
Ġinjust ice
ĠNot es
Ġimprison ed
D isc
ĠSc ript
Ġpromot es
Ġsus cept
Ġj ar
Ġimpl ied
ĠKash mir
ĠViet namese
ĠSach s
Ġsupp liers
ĠP ul
im er
Ġrebell ion
ĠShe ll
izoph ren
ĠM ix
ĠAp ollo
sh ine
other apy
Ġun named
Ġind ul
Ð ´
r ab
Ġnational ism
ĠB in
i u
ĠL av
D ear
Ġfiref ighters
Ġalph a
ĠN um
Ġsp am
ĠG ingrich
h ouses
ig el
Ðµ Ð½
Ġcomp ile
ĠHe aven
ĠE A
ise xual
Ġlo oph
ĠSh op
S QL
Ġdisapp ro
Ġstate wide
Ġin ning
le um
H and
Ġwho lly
Ġrele g
Ġbe am
Ġtra it
Ġadminist ered
e i
ĠRe x
Ġpast or
Ġgener ator
Ġnot or
Ġtr ails
Ġincom plete
f ood
R ub
Ġretail er
Ġdr astically
ĠEconom ics
Ġcompl iment
ĠD ow
Ġshot gun
Ġassum es
âĢĵ âĢ
ĠN am
ĠF ew
Ġb aking
Ġen rolled
Sand ers
s ic
Ġsl ots
Ġb rib
ĠD at
Ġto ggle
Ġhur ts
Ġcont ention
Ġpop ulated
ĠCro at
re a
Ġfit ted
Ġeleph ant
ĠMar ie
Ġhint s
ĠInd y
Ġpa ired
Ġborrow ing
q l
Ġd uck
ĠTH AT
Ġnew com
Ġl amb
Ġp ets
Ġhighlight ing
ĠR B
ighte ous
Ġbat ting
Ġstab bed
Con clusion
ind ust
Ġvit amin
mit t
Ġar row
Ġpar a
the ning
7 50
Ġf lick
Ġlot tery
Ġam ended
Ġl enses
ĠIns ider
Ġint ro
V C
Ġgra pp
Ġathe ist
ĠFl int
Th us
Ġb ang
ĠT PP
aw i
Ġplaint iffs
ĠIndust rial
Ġso y
Ġobject ions
ĠR ab
Ġcontest ed
ĠGl en
Ġaffect ion
Ġback ward
author ized
Ġcomed ian
Ġst ing
ĠC AN
intend ent
Ġext ensions
if a
ĠE ug
ĠW ag
Ġphenomen a
Ġm asters
Ġprob able
Ġparad igm
Ġout line
re lla
g one
Ġro pe
Ġc ites
ish a
ĠArab s
ie ves
In s
AR Y
Ġpen is
Ġth y
Ġj aw
// /
Cl oud
Ġun equ
ĠOr d
step s
Ġsub urb
Ġgorge ous
ĠCole man
uss ions
Sh ould
rig er
ĠIM F
ĠAsh ley
Ġmot ive
nd ra
Ġrev is
Ġrespond s
Ġc ater
osp here
Ġr h
ĠIn g
is se
Ġtort ured
Ġmain land
ourge ois
Ġpass words
ãģ Ĺ
Ġemb ry
Ġinter ventions
Ġhelicop ters
ĠH alo
Ġg ently
sec ret
Ġpopul ist
Ġmat rix
Ġanaly tics
Ġself ish
Ġadmit ting
Ġobs ession
ĠEll iott
Ġan them
c iously
R un
Ġcat aly
ĠS ask
Ġp ills
Ġcontro llers
Ġco h
Ġstand point
ĠM ak
ct ed
ĠApp eals
Ġsum s
ci ation
os oph
A ut
ot ine
ĠBur ke
in burgh
Ġterrit orial
iet al
Ġware house
ĠPat rol
Ġexplos ives
ĠD ad
ĠCh a
Ġconf isc
Ġcast le
ĠM our
Ġhur ricane
ĠJ os
M ass
B erry
Ġun ified
ĠGT X
Ġconcent rate
ump s
Ġcry st
Ġfig uring
ĠP and
it ational
conf ig
Ġcol ours
ĠV irtual
in v
ĠV el
Ġsyn chron
You ng
Ġlog ged
ĠInd igenous
ĠOff icial
ut ral
Ġens ures
Ð¾Ð ²
F ixed
D ev
ar ious
R P
ook ie
s um
Ġsymp athetic
Ġlog ging
Ġval ley
ib al
Ġprot agonist
Ġmin ors
AM Y
Ġse as
C ent
Ġo wed
ou x
Ġprivile ged
p al
Ġ* /
az ar
200 5
ĠSh o
ĠD rake
Ġeru pted
ĠN aval
igg ins
ĠQu arter
Ġcons oles
Sub scribe
ĠApp ro
uk a
ĠE sc
Ġs atur
Ġide als
ĠTreat y
O k
ĠL anc
ut ic
Ġan ecd
E p
Ġprosecut ed
ĠSt ream
Ġsad ly
Ġdes irable
Ġpsychiat ric
oint ed
Ġsurf aced
Ġemphas ize
ĠSC P
Ġrev ision
Ġpl ots
man y
p olitical
). <|
d et
Ġwel coming
Th ink
ĠEm ma
r ill
du llah
ant on
ĠU FO
Ġfeed s
Ġdef er
ĠGu ild
commun ications
ĠâĢ ĭ
Ġsoph omore
pe ace
Ġto pp
ĠF ocus
Off icials
Ġweek ends
ick er
Ġstret ched
Ġcan on
Ġmos qu
d eep
Ġsand wich
ĠPel osi
oc used
M arc
Ġcal culation
ĠGo ing
Ġ ×
ĠT ol
year s
ãģ «
14 0
S ix
ĠT at
Ġdistingu ished
ĠW end
Ġmag net
ract ed
Ġincomp et
Ġconstit utes
ĠW alsh
Ġconf ined
Ġg ru
Ġcorrid or
Ġselect ing
ĠRoberts on
Ġen rich
Ġd ice
m and
Ġintern ally
if le
ĠSim ply
In c
Ġcorrect ed
ĠN RA
Ġhack er
ĠJ agu
Ġpool s
b ird
Ġinform al
Ġsens ation
ri um
ĠM t
an ing
Ġgreet ed
ĠBapt ist
AN S
ĠL anguage
Ġat roc
at tering
Ġcool er
Ġpartners hips
Ġunder cover
M ult
Ġdefin itions
Ġreact ed
Ġprocess ors
ĠCirc le
Ġgau ge
ĠV ersion
Ġtraject ory
ĠKn ights
Ġhome owners
Ġc el
ĠCon cer
op ath
ĠRe b
Ġprov oc
bu ilt
Oct ober
Ġflood ed
ĠL opez
Ġvend or
Ġcompl ications
Ġjump s
ĠO mar
ĠH od
Ġcont ests
ĠR idge
Ġass ure
St op
Ġcur iosity
ĠF u
hol m
Ġla wn
ne ys
IT E
Ġfin ed
Ġconced ed
Ġsk ate
Ġpedest rian
Ġball oon
ĠB ot
ĠD ale
Ġhom eland
Ġup rising
ĠLl oyd
Ġo ceans
or p
Ġl od
. (
ĠS ak
stan bul
com mon
Ġliber ation
Ø ±
C BS
o qu
Ġcommand ers
yl on
w ald
Ġcompe lled
ind uced
Ġsyn c
ĠCon n
Ġmax im
re v
H y
Ġprop osing
ĠD iet
Ġdeb ated
Ġmach inery
Ġpropri etary
Ġfair ness
ĠSt ay
ĠW A
ĠAdvent ure
Ġall ocated
Ġh ills
âĢĿ ),
Ġsh irts
Ġreck less
Ġo ct
g mail
c ue
ĠNS W
ans on
ela ide
Ġbuck et
ĠEth iop
h l
Ġhar ness
ĠDub ai
hed ral
Ġarm ies
do ors
ĠGu ant
Ġcompr ised
Ġpres cribed
ĠHe ights
ĠAlz heimer
is ite
Ã ª
Ad ded
B ob
Ġsuccess es
Ġunlaw ful
Ġsex y
f its
ĠÐ ¾
Ġcolor ful
ĠInn ov
Ġpur ported
ĠN early
ĠC inem
Ġdelic ate
set t
ĠTrans it
Ġbe e
he res
od ied
Ġvar ies
Ġsing ular
Ġsl am
Ġcell ular
Ġair plane
Pro ject
Ġwas hed
Ġstere otypes
Ġc ried
Ġcho oses
ãģ §
iff e
ic ans
ĠC ensus
ĠWe instein
Ġnick name
ar ak
Ġment or
ĠThe resa
ĠE M
ĠS HA
Ġub iqu
sp an
Ġsuff ers
Ġnot ifications
ĠMar ines
aze era
\ /
Ġstory telling
Ġprompt ly
ĠC e
Ġ19 00
Ġfemin ists
Ġth a
S IS
P T
Ġqu eries
ĠGreg ory
Ġpl ural
Ġproject ion
Ġambul ance
ĠL amb
Ġdebut ed
load ed
ĠAlf red
ĠF ine
ĠL O
Ġparad ox
ĠC li
rist ol
he ed
ĠV o
ĠW el
Ġconnect s
Ġbroadcast ing
Ġafter ward
c ision
Ġrecru its
Ġun b
respons ible
Ġstrateg ist
Ġten ants
ĠFal con
Ġmor ally
Res earchers
ract ion
ĠSh a
ĠK ell
ĠH ood
Ġexem pl
l ain
Ġha w
Ġcompet itions
Ġvar ieties
S aturday
ĠSch umer
Ġgri ev
p ark
az er
Ġvis ibility
Ġcl oth
ĠU g
Ġpot atoes
ĠU T
Ġtrans mitted
cr acy
ĠT i
Ġprest igious
Ġsen iors
Ġstun ned
ĠHar bor
ĠSol id
ĠPolit ico
D an
Ġmethod ology
ĠD uterte
Ġmaneu ver
Ġperce ive
uff s
Ġvoc als
|> "
Ġcomment ators
Ġalarm ing
ĠT E
che m
Ġgl oves
Ġeleg ant
With in
Ġobst acle
Ġbur gl
Ġout reach
ry s
re view
Ġmil estone
Ġstruct ured
it an
Ġmis dem
M ORE
ĠD ana
Ġco vert
asp berry
be cca
ustain able
Ġpit chers
Ġcolon ies
ĠTh om
ĠChampionship s
Ġsystem ic
Ġunpredict able
se at
Ġgr an
Ġfool ish
IC O
Al ong
Ġweigh ing
ĠE arl
aun ting
Ġsw orn
Ġsm ok
Ġhasht ag
a ic
Ġver se
Ġb acon
ĠB io
ĠN as
d ess
Ġcr ush
Ġyell ing
Ġmax imize
Ġhost age
ov ak
ĠLib yan
Ġexclus ion
Ġhe ck
I B
p c
Ġbless ing
ld a
Ġignor ant
ĠPost ed
vert ising
Ġrom ance
Ġrenown ed
t ag
Ġinsure rs
L ive
D am
ĠM aterial
gg er
ĠN FC
ĠImp act
ĠR BI
it ches
W ant
ĠOr acle
Ġlo vers
Ġinterrupt ed
at ivity
Ġconsider ations
ĠF ortunately
Ġimp ly
Ġmin us
ri ents
Th ings
Ġteach ings
ĠBou levard
m ajor
Ġimpro ves
Ġgar lic
im en
Ġhum ili
ĠC able
Ġinfer ior
Ġtime ly
Ġrel ates
Ġl ining
Ġhold er
iv ia
Ġbrut ality
" [
Ġunsuccess ful
Ġbarg ain
ocaly pse
Ġdest inations
Ġprem ises
Ġl ament
ian i
Ġacceler ate
ownt own
Ġp ixel
Ġfin ishes
Ġbund le
ĠCharg ers
h n
Ġpreval ence
Ġe Bay
Ġbr acket
Ġan nex
ĠC ele
Ġk its
Ġincon ven
ĠB rent
Ġvulner abilities
N or
Ġcr ises
Ġp ap
Ġs ore
Ġneighbour s
ĠD h
m ut
ĠT roy
ĠB ever
Ġdiscover ing
n ull
Ġworks hop
Ġl ur
f a
Ġout law
Ġuniform s
Republic an
ĠM oto
ĠLear ning
ĠWin ston
ĠF ear
ĠBro ck
OL L
Ġmer ger
ĠPar ad
f ax
ag ne
ĠLGBT Q
Ġexceed ed
Ġst ew
ĠP le
it ives
Ġr ust
ĠT weet
Ġdown ward
ĠAut om
ĠL ag
Ġprivile ges
Ġexc av
Ġdiscuss es
ĠSt age
J ul
Sh ow
Ġphr ases
Ġembarrass ed
ĠMor rison
ĠGonz alez
ĠGlas gow
Ġn g
C T
Ġappet ite
re ra
Ġel imination
Ġball istic
ĠJ upiter
ri ad
ang led
Ġ" [
IN T
! ).
ĠI van
Ġtoler ate
ĠH ab
ĠBlu etooth
Ġunw anted
Ġav iation
Ġgrad uation
hy d
Ġbrows ers
em ption
Sep tember
Ġtw isted
Ġmar ched
O per
ĠX P
b ps
ĠThe ater
Ġcle arer
ĠL ux
ĠAven gers
Ġsol ic
Ġchampionship s
ĠH app
Ġenjoy able
Ġaccept s
red ited
id av
b ard
ĠL iqu
it as
Ġrecogn izing
Ġper secution
B ern
Ġmis ogyn
ĠW ake
Ġgun man
Ġg ad
x on
l al
al iation
Ġa kin
Ġbl aming
Ġspecific s
Ġshut tle
Ġ10 80
ol ith
Ġbed s
t les
Ġwrong doing
og s
Ġresist ant
c in
Ġdis respect
Ġtyp ing
Ġa u
Ġappropri ately
ĠPri x
com fort
Ġvol can
Ġcon ceived
ĠA verage
ĠSer b
ĠGOOD MAN
Ġl end
ĠSpr int
ĠF ighter
ĠU pper
Ġvac ant
ĠReyn olds
c ot
Ġre per
Ġcul min
oci ated
Cong ress
Ġb ore
Ġdis abilities
m g
Jo in
Ġdesp air
Ġric hest
ĠJ eb
J S
ĠFil ip
an ity
ĠN ode
âĢĿ ;
at ism
Ġextrem ism
ĠM ik
ĠE rik
H op
Ġnomine es
Ġthought ful
ard on
R edd
Ġnotice able
ĠIns urance
int o
G I
C ourt
Ġpip es
Ġingred ient
with out
Ġdiam ond
Ġded ication
ĠM ets
Ġcorner back
ĠSat urn
work ers
Ġthr one
ä º
] ]
99 9
Ġtw ent
Ġright ly
Ġnum er
in yl
ric anes
Ġprohib it
Ġid iot
t z
oo o
Ġperform ers
Ġadvoc ating
ev al
ĠE L
Ġcondition ing
ĠM aps
Ġ} ,
L ead
Ġtun nels
ra ve
An n
Ġex otic
Ġpr ag
Ġfuel ed
Ġan at
Ġrep ay
ĠC el
ins ky
Ġmeth ane
c ro
den ly
Ġste alth
U TC
U RE
ĠTurn bull
Ġthe sis
Ġfr acking
Ġsens es
th ouse
ĠÂ «
Ġcritic ize
ĠT ap
Ġt il
ĠL ogan
Ġwar rior
Ġl over
Ġentire ty
Ġdetail ing
Ġpl asma
ĠI gn
Ġexem pt
Ġdisplay ing
ĠTrans port
Ġout field
Ġartif acts
Republic ans
ex cept
ĠRep orts
Ġg rit
ĠÐ ¸
ci pl
nder ing
Ġun just
ine ment
achel or
Ġsing les
p aper
gu ided
F ind
Ġrecogn izes
ĠScient ology
ĠFre eman
ĠAd vis
ish ment
C amp
Ġkn ocking
ĠF a
Ġbar red
Ġloc ks
~ ~~
ĠBas ically
10 5
Ġdis asters
ĠLeg ends
ion age
Ġprejud ice
Ġinflu x
C ode
ĠSing le
ĠPer l
Ġhead set
Ġmet adata
Ġadop ting
isp here
Ġmer its
Ġmar athon
red dit
Ġsur g
ic able
Ġfur ious
Ġacknowled ges
ic ularly
ĠCont act
ãĤ ĭ
ĠSadd am
Ġrest art
vas ive
Ġp ixels
Ġmer cy
Ġstory line
Ġf ren
ĠPC s
Ġtr aces
Ġcor tex
OU T
Ġw ary
sh irts
Ġwip ed
ĠEd inburgh
li ber
Ġdil ig
Ġband width
ĠPers ian
ĠB uc
Ġpun ct
Ġv ivid
Ġinaccur ate
Ġinst itute
al ion
Ġl ag
Ġillust ration
Ġalt itude
p arent
Ġoff ences
ĠFrank en
Ġman kind
Ġoccup y
Ġdet r
Ġatt ain
ĠU nd
ĠStart ing
200 4
Ġv est
cent er
M el
w ere
Get ting
Ġde er
Ġc ows
Ġpreval ent
ĠL ith
ãģ ¦
ĠK on
Ġ ë
Ġround ed
Ġprolong ed
ĠG y
ind a
ĠKn icks
ram id
Ġbl essed
Ġinaug ural
Ġexem ption
ĠFR OM
A round
Ġsett lers
Ġgl uc
Ġab st
br and
D aniel
ĠR ange
Pac ific
Ġcoc onut
ĠBurn s
ĠMill enn
Ġd y
Ġfreedom s
F in
Ġseason al
ch anging
ĠP os
I Z
Ġph osph
Th omas
E lect
US E
Ġsm arter
b usiness
ĠAud io
ĠSU V
ĠA RE
Ġc raz
Ġindu ced
Ġunst able
ĠPr adesh
Ġwarr ants
in el
Ġp ave
Ġref eree
Ġer ad
Ġcar pet
Ġcap ita
Ġexped ition
Ġb ourgeois
Al most
Ġf ist
Ġmot ives
Ġgr ind
Ġaggreg ate
p ers
Ġfact o
D en
ĠDev il
ĠB uch
oy s
Ġprogram mes
ĠEmb assy
Ġaccommod ation
atin um
Ġc ite
Ġ1 11
Ġh over
Ġcomb ines
ĠFif th
> </
viol ent
! âĢĻ
ĠSt o
ĠSN P
c ourse
ĠC aval
g rowing
ĠR ift
For ce
ĠSpe aking
Ġst ems
Ġlisten ers
ĠC ad
com plete
Ġt apped
Ġ19 44
Ġdefe ating
G H
Ġun m
Ex per
Ġdiet ary
Ġcon qu
k ara
Ġbenef ited
Ġmir acle
ing ham
ab we
B Y
Ġprogram mers
Ġcoun cill
Ġenthusi asts
Ġcr ust
ĠHait i
ĠI CE
V ery
ĠR hod
ĠA A
Ġrecomm ends
ĠT C
f light
c ig
C rit
ĠW izards
Ġdef ect
ĠD ash
Ġbureau cracy
Ġst yl
Ġsanct uary
Ġcriticism s
Ġhous ed
Ġsymp ath
/ //
Ġrig orous
op hers
im ag
ĠN ak
ĠE isen
ac a
Rec ently
port ing
Ġreb oot
Ġconcess ions
ick y
ent e
Ġprost itution
Ġpaper work
am el
Ġupd ating
Ġsne ak
ic ates
Ġorche st
Ġbom ber
ĠProgress ive
) -
Ġstatist ically
Ġunf amiliar
sequ ently
Pr int
Ġlength s
Ġpred ators
ĠS ales
Ġun a
Ġdet on
ĠBas ic
ren ched
ĠG L
Ġru ined
Ġme ga
ry pt
p i
Ġfor fe
ĠStar bucks
R ock
ĠHy per
av an
in qu
er k
W R
Ġhost ility
Ġheav ier
Ġd ilem
Ġchar itable
ĠSch midt
imb abwe
ount ain
ĠElect ronic
ĠR uth
ĠK ob
ĠJul ia
ĠI stanbul
ĠN L
Ġphilos opher
Ġuns afe
i ov
ess ors
ched el
Ġposition ing
ur st
Phot os
Ġcoordin ate
ĠH orse
Ġst unt
Ġter rific
Ġreb uilding
ĠRoll ing
Ġins ider
Ġden ounced
ĠC ork
ĠEver ton
Fr iday
ĠÃ ®
Ġacqu iring
spe aking
Nob ody
ixt y
ĠE ST
P o
lic t
Mc C
Ġter ribly
ĠGit Hub
Ġthere after
Ġsimpl icity
Ġpers pectives
ĠWH O
Ġcrack ed
Ġforb idden
ĠSu z
ight y
ĠSe oul
ĠAng els
Ġwh it
ĠN J
âĢ ²
Ġport al
ĠO kay
ond o
ĠO ri
Ġl aps
Ġsuper visor
ill es
ĠTim othy
ĠPartners hip
Ġillust rates
Ġf usion
ĠL P
Ġreferen ced
Ġj ournals
Be yond
ĠSe bast
Ġsoc io
ĠO t
place ment
Ġmult ip
ipp le
Ġpl at
Ġobject ion
f act
ãģ ¨
ist ical
Ġsh ade
ĠT ournament
ĠOw en
Ġinfringe ment
cast ing
Ġoff ended
ĠMor oc
ĠA V
Ġs perm
so ver
Ġbig ot
rest rial
Ġsch izophren
ĠRom ania
ĠCitiz en
Val ue
ters on
Ġanaly zing
Ġtr action
Ġintrodu ces
Ġrequest ing
lean ing
Ġantibiot ics
or ie
Ġj ungle
ograph ics
Ġident ifies
ĠSher man
M ex
Ġsl og
ĠE N
Ġ20 30
ire ction
Ġdiplom acy
ĠSpace X
Ġas c
bl ood
Ġch ill
ĠLe Bron
Ġintention al
Ġborrow ed
av in
pr im
rat ives
T ech
ish ops
ĠNot re
ac s
ĠS ame
ĠPrinc eton
fund ing
Bel ow
Ġskept icism
Ġsuper f
Ġbro ker
Ġcert ification
B uild
Add itionally
l ived
Ġaff idav
keep ers
ĠLind a
Ġvol atile
bl ue
ĠVictor ian
it us
Ġfright ening
Ġunch anged
t v
v ity
ĠScient ists
p atch
est ine
ĠMoh amed
Ġsuper b
Ġrec laim
g ie
ĠM az
ĠAl ways
Ġton nes
Ġreg ain
Ġar che
et ed
oles ter
ĠP ist
Ġso ap
Ġfat igue
ĠPoke mon
Ġshe lls
Ġdetect ives
Ġbet ting
ng th
N OT
ĠMa o
Ġend ured
ĠC lear
ĠBet a
ĠS tern
ĠR S
Ġv ine
ĠR are
ĠChe v
af ia
ĠExper ience
Ġindic ators
ĠAub urn
m ass
ĠJ ill
Ø§ ÙĦ
ĠL iter
Ġvis as
Ġterr ified
Ġsh red
W il
ress es
AN K
12 3
Ġhealth ier
Ġfav ors
Ġabsor bed
gg ie
Pl an
ia o
ĠAust rian
Ġrec ons
ĠDec l
o an
Ġvir uses
Ġcooper ative
ĠCourt esy
OW N
ĠC ities
us ers
Ġrestrict ion
ie u
% ).
Ġ11 5
T urn
Ġclean er
ern ame
Ġcirc ular
ĠLet ter
ay an
ĠMurd och
er m
sh ould
Ġmir rors
b ial
ĠV ince
Ġlower ing
Ġcap ac
itness es
Ġche ating
Ġinterrog ation
ĠIS IL
Ġbron ze
Ù ħ
ed in
ĠM ig
ĠH i
Ġv intage
Ġpe cul
Ġsh aping
ĠD ani
ĠCl are
av ior
Ġund is
ĠAb dullah
Ġback yard
Ġ19 41
om ical
Ġref riger
Ġsubmar ine
Ġaccess ories
spons ored
Ġexclud e
Ġaut op
ĠPl ant
Ġunus ually
Ġ17 0
Ġph ases
H i
op ers
on so
Ġn ortheast
he e
act ed
C y
P ay
Ġbe ard
P rodu
Ġunder going
Ġtack ling
ĠPerson al
Ġemail ed
let te
ink le
Ġfree zing
Ġnational s
Ġcy l
Ġun real
Ġcell phone
Ġtake over
Ġmin eral
Ġhorm one
ĠKum ar
Ġl av
Ġd od
Ġend uring
ĠDay ton
Ġsub po
Ġb ast
ĠN ice
ĠM iles
Ġce ment
ĠRich ards
anc ers
Ġsquee ze
Ġdevast ated
Ġfilm maker
Ġgoal keeper
bal ance
ĠSask at
l ings
et c
ices ter
Ġbrand ed
ĠBr is
S B
Ġadvoc ated
Ġstr ains
We ek
ãģ Ł
19 90
Ġbeaut ifully
ĠJul ie
ins pired
Ġcommunic ating
ĠAnn ual
Ġinv iting
u ador
ĠSp art
ĠR ugby
ĠP OL
ign ment
Ġpsych ologist
ĠFried man
Ġn avy
Ġint ric
Ġproud ly
um i
Ġpos ing
Ġhy ster
w en
Ġtour ing
w ave
\ -
ĠC raft
Ġgovern ors
Ġref ined
ĠCelt ics
g ro
Ġalleg ation
Ġmark er
ick ers
Ġenter prises
ĠH arm
Ġdo i
Ġback drop
Ġmet als
Ġswit ches
mod ern
Ġmodel ing
Ġhapp ier
Ġst ip
ĠSim mons
ĠNY PD
Ġcourt room
H am
ot ers
K im
Ġpal m
ĠG ur
Ġ24 0
ĠD ot
ett ings
Res p
Ġimper ative
Brit ish
Ġsc aling
Ġhand c
Ġexp on
ĠCore y
ev ent
Im agine
ĠR abb
or f
Ġrespons ive
Ġinterf aces
Ġins ulin
ĠEl ite
Ġsn apped
Ġannounce ments
ĠEvery body
we ather
oss ibly
ĠMe yer
Ġdeter mines
Ġarch ives
K en
Ġstretch ing
Ġbal ancing
Ġwa ist
Ġcontam ination
ĠCry pt
Ġ} );
pect or
pl ates
Ġret aliation
Ġreiter ated
Ġp ulse
Ġundert aken
Ġrival ry
Ġa rose
Ġth under
y ers
Ġrecept or
Ġdevelop s
fol k
Ġs oda
Ġf ost
Ġcha otic
ĠHaw ks
Ġ19 47
ĠDO J
Ġdepend ence
s ided
Ġar senal
S ave
Ġh orn
ĠL ay
P ict
ĠE instein
ĠON E
m ult
Ġst ellar
Ġtravel ers
Ġinf ants
Ġauthent ication
Ġp and
Ġhard core
Ġengine ered
Ġmerchand ise
Ġwas hing
Ġshort s
Ġattract ing
ump ing
Ġp ine
Ġgall ons
Ġobserv ing
Ġimp air
Ġdece ased
Ġconfir ming
rec ord
le ys
Ġje ans
ĠC atherine
ĠBah rain
H as
Ġcritic izing
Ġcompens ate
Ġagree ing
Ġappar atus
Ġpredict ing
squ are
ĠT W
Ġrev ival
Ġspecial ists
Ġre ef
Ġinnov ations
20 18
Ġfl ame
Ġanticip ate
ĠV ision
ĠPan ama
Ġvis ually
Ġposs essed
ount y
" ]
E ric
Ġele ven
Ġpen al
ĠGr ad
Ġey eb
w s
Ġl aughter
be h
Ġdeleg ate
ĠWalk ing
ĠB un
ster dam
b uster
ill on
Ġep it
ĠTill erson
ĠL ed
ax ies
S ar
K evin
Ġopio id
Ġrest ing
ĠCo ver
Ġcore s
ĠMap le
Ġw ipe
ĠUlt imately
ĠGil bert
200 1
Ġdistract ion
lu x
Ġpot ato
ĠSc ore
Ġ( .
ĠVal ve
Ġbroadc aster
Ġwar mer
all ah
Ġstar red
Ġaut umn
ì Ŀ
Ġt ant
ar ium
en berg
Ġclear ance
ed u
ĠUs ers
Ġkidn apped
18 0
Ġwar riors
Ġpri zes
Add itional
Ġburn s
Ġs idelines
if ted
n ings
Ġreg imes
ĠR apt
Other s
Ġdump ed
Ġdom ains
Ġur gency
ĠGr ass
Ġend ure
Ġhypot hes
Ġm s
ãģ ª
Ġec ological
B D
ĠExpl orer
in ters
Le ague
ĠCent ers
duct ed
ĠSim ple
Wind ows
Ġconcept ion
Ġo live
Ġbull shit
ĠMana fort
Ġvisit or
Ġnegative ly
Ġr im
Ġcontract ed
amm ad
ĠH erman
ĠDam age
! '
Ch ief
R ay
ĠPro duction
I AL
Ġtheir s
Ġselect ive
Ġcapt ures
Ġradio active
Ġb ilateral
Ġdub ious
land er
H R
ĠBrend an
Ġcateg or
Ġpr inter
Ġrod e
et itive
Ġbl ows
ĠP E
Ġreact ors
ort ium
ĠHay es
Ġvan illa
ĠS hip
Ġ ï¿½
Ġnod ded
Ġrad ically
ĠMerc ury
Ġseiz ure
Ġrep airs
ĠPen insula
ĠH ogan
or ian
Ġunbeliev able
Ġinst ability
Ġdepend ency
oster one
mo il
Ġlog in
Ġexplos ions
Ġst al
Ġsever ity
Ġvolunt arily
op ed
as is
Ġill icit
ĠCraw ford
pl aced
ien cies
Ġque er
Ġm arsh
Ġshel ters
Ġastronaut s
Ġscreens hot
pro ject
ĠLeg acy
Ġpe an
ans ing
ĠDet ails
Ġcontam inated
abl ished
Ġobser ver
ĠR iley
Ġgood ness
ĠCom ment
Ñ ħ
ok a
John son
ĠC ards
Ġs ights
Ġprogram mer
Ġlone ly
Up on
verse ly
os er
K it
Ġth wart
Ġacc use
S W
ĠCris is
ĠEmir ates
Ġassess ments
ĠG ross
ĠB ristol
Ġcr unch
Ġside walk
Ġsubsid iary
ĠâĨ Ĵ
Ġcontent ious
Ġcrypt o
Ä «
Bit coin
ĠPl aza
Ġh ollow
Ġthe rape
Ġprop he
Ad am
ĠCon way
Redd it
Ġd well
Ġpal ace
ff iti
Ġfre ak
Ġpath way
health y
Ġstret ches
Ġb isexual
ĠF F
p arents
U r
Ġrob otic
Ġhun ter
Ġdem ise
Ġdisadvant age
ĠH ernandez
Ġpour ing
Ġshut ting
Ġrig id
H ard
Ġf og
ĠHon or
More over
ĠSp icer
ĠVe h
ĠRou te
Ġdirect ive
200 3
N ovember
Ġredu nd
ĠSch ultz
Ġrese mble
w ic
Ġj ealous
Ġaw aken
ĠJ et
B P
ĠBru ins
ĠS end
Y ear
H uman
Ġre he
ĠFr ame
ore st
Ġcook ie
Ġcompet ent
Ġtransl ates
++ +
ĠLe o
Ġempir ical
Ġf ra
ĠVi enna
Ġt am
Ġru ins
ĠS aw
Ġmetaph or
Ġple as
Ġd iving
Ġv om
f ed
Ġb end
Ġs ack
Ġâ ī
Ġwithd rew
Ġto e
ĠT M
ĠSh ane
Ġsurpr ises
Ġsell er
ĠP ain
Ġren amed
Ä Ł
Ġlau nd
ĠSu ccess
ple asant
ĠW u
ĠAndre a
isc her
I ll
Ar ch
ĠBl izzard
ĠN an
c led
Ġchar ities
Ġex terior
b ag
Ġcost ing
ĠRe play
Ġr anged
ĠJed i
em a
Ġrelent less
ott esville
Ġrem ed
Ġineff ective
Ġpar an
Ġd ull
ĠC rist
Ġins erted
ĠF lickr
rah im
Ġdo omed
Ġ ï
oun ge
Ġchar m
ĠBren nan
ĠD ell
Ġtr aced
Ġdig its
Ġbr ig
ĠResp ons
ĠInvest ment
t imes
Ġreminis cent
ĠAP Is
Ġl ou
st atic
ĠAd elaide
Ġinto x
IS A
ĠInvest igation
ĠE gg
Ġle mon
Ġle aking
s ch
Am azon
Ġown ing
ant ry
P ublished
ĠJ azz
Ġpres ervation
Ġpo pped
ĠN est
ĠChe ney
Ġs rc
ĠReg ardless
Ġacceler ated
k owski
Ġs om
Ġmod ifications
Ġall ocation
Ġa ven
abul ary
Ġdict ator
pl anes
Ġcont end
Ġviol ates
Ġher b
Ġjuven ile
ĠFood s
Ġdownload s
Ġrepl icate
ãģ ¯
Ġpen cil
ĠS oph
ro b
Ġp ensions
Ġpres erving
De cember
Ġdepend encies
Ġpig s
Ġnot ices
w ife
Ġreward ing
Ġmerch ants
elect ed
ĠS ah
OR Y
Ġacceler ation
Ġfeas ible
Ġappoint ments
ĠC opy
AC A
ĠTh an
o ids
c ity
Ġrad ius
it em
at ured
^ {
Ġtw ins
Ġm asks
ĠWeb b
g em
S omething
B esides
Ġye ast
ĠL ance
in vest
Ġatt achment
,âĢĻ âĢĿ
ĠBeh ind
Ġout dated
a ft
Ġdiscont in
Ġlaugh s
ident ally
Ġm ast
Ch inese
Ġup held
Ġsp ouse
Ġprosec ute
J ones
C raft
Ġpo inter
F OR
Ġr apper
L ou
Ġposs essions
Ġv andal
ĠObserv atory
Ġde af
Ġrad i
Ġ 000
any on
) ?
Ġn urt
ĠS kin
ĠF act
Ġiron ic
Ġ195 9
ĠAr row
Ġat oms
ĠJud iciary
Ġup wards
Ġret ros
m atch
ĠKush ner
ĠPir ates
ĠBr anch
Ġenroll ment
f alls
Ġin ad
Ġneed le
Ġoper a
Ġnegoti ation
ĠR F
ĠP TS
r t
H E
Ġveget able
Ġspir al
Ġembr acing
be e
ĠE lementary
D i
Ġprim itive
ĠT aking
G roup
Ġtrain er
ro ot
D ig
Ġ18 00
in ational
c ould
Ġ10 2
Ġcont ributes
Ġres olutions
Ġfest ivals
Ġdis se
h ops
aw ays
E ver
Ġfert ility
M ur
Ġtoss ed
ĠT rent
ĠBeat les
S und
Ġmicro phone
Ġshr ink
Ġv apor
ate l
Ġbomb ings
Ġâ Ķ
Ġlean ing
Ġha iled
Ġcongress man
Ġ& &
Ġshoot s
Ġhun ters
Ġte asp
sec ure
Ġv inyl
ĠZ ucker
own s
S n
Ġre jo
Ġmer ge
Ġal lev
v ideo
Ġcop ied
B T
ĠPro du
( $
F inal
Ġp ier
ett i
Ġall ied
Ġcost umes
ob ject
ĠSpe cifically
Ġforecast s
ĠK in
Ġwithd rawn
Ġmod ification
bor o
Ġiter ation
st ad
Ġmechan ic
Î ¹
Bet ween
ĠVol ume
ĠDis covery
ĠDev ils
ĠB orn
Ġmyth s
AT A
Ġap ost
Å ¾
Ġstamp s
iv able
,âĢĻ âĢĻ
Ġ10 4
c f
Ġch amp
ĠConserv ation
st atus
m ails
P E
Ġhop eless
Ġdimin ished
ĠA be
Ġdiscover ies
Ġdisappear ance
ĠMan uel
omed ay
d in
Ġch uck
Ġinspect or
ĠCom edy
Supp ort
Ġt ally
Ġe man
ĠK iss
Ġ Ã©
ven ant
ĠG ul
Ġper tain
J ew
Ġaccess ing
ĠMe et
i ak
Ġanticip ation
Ġcos mic
Ġvolt age
ret urn
Ġv ault
Ġdoub les
ari at
D eb
Ġuns ure
V ict
ĠProf essional
r h
he id
ile aks
Ġr uth
Ġsmooth ly
Ġout spoken
ĠRock ets
s rc
A BC
Ġtur moil
ĠSter ling
ush i
Ġg aze
Ġl b
ent ric
Ġsal ad
ĠMir ror
c am
Ġgif ted
uff er
Ġmy riad
B ur
Ġmamm als
Ġfr amed
ĠTw enty
st y
Ġo lig
t ier
Ġathe ists
Ġinter val
larg est
Ġpod ium
Ġoccur rence
Ġfore front
Ġalleg ing
Ġairst rikes
f alse
Ġoffs pring
ĠZ imbabwe
ĠAct ive
Ġsex ist
Ġextract ed
ĠAli en
Ġfore nsic
ĠMem ory
ĠM ead
Ġvalid ity
Ġmilit ias
ĠWhats App
ĠC ord
Ġadequ ately
ĠGe off
ph oto
E nt
Ġt outed
ĠSouth west
ĠUs ually
ĠAd obe
ĠMount ains
ĠG ir
Ġna ive
ĠNational s
Ġnar ratives
ĠF M
Ġtrig gers
Ġintr ins
Ġcompat ibility
ĠL ud
ĠB oss
f ired
ĠTr ack
Ġcan cell
Ġneuro log
Ġcelebr ations
re z
read ing
ĠQual ity
Ġext rad
ĠD uty
c ified
ĠMon ica
s il
d oc
Le vel
Ġjud ging
am ic
Ġr ansom
Ġche ek
ĠTro phy
Ġstim ulation
Ġper ceptions
N ick
ĠBeng als
M a
Ġe cc
Ġhe ft
Ġground ed
ĠJo in
Dem ocrats
ĠB ass
Ġimm ort
ĠSim ilar
Ġcr ashing
L in
Ġcreep y
S F
Ġelev ator
ĠRec ently
Ġpret ending
an ol
iss an
ess a
ĠB irth
Ġsle pt
l ins
Ġaster oid
ud s
be fore
ĠFl ag
Ġw ires
V ol
our ing
c ross
Ġexch anged
ĠCle arly
Ġb un
Ġadoles c
En ter
cre ate
Ġnarrow ly
Ġun ite
Ġmark ers
ot he
ĠTer rit
ian n
part isan
Ġcollabor ative
Semit ism
Ġsuccess ion
e ur
Ġwholes ale
ĠP ars
over ty
d oes
ĠAl ger
J osh
Ġstreng thening
Ġjust ices
Ġclean ed
ĠBald win
ĠD LC
ot on
Islam ic
Ġtop s
Ġacknowled ging
ustom ed
Ġbol ster
Ult imately
Pr ime
Ġretrie ve
Ġplace bo
Ġun armed
Ġnorth west
ucc i
ĠH ond
ĠTr ain
ĠB ert
Ġ á
ĠKenn eth
is ure
Ġemploy s
ĠScient ific
ĠLeban ese
Ġsuper vision
ĠEx cept
l ia
ĠG rowth
IS I
Ġsustain ability
List en
Ġind oor
Ġsuper st
Ġind o
Ġ19 39
w ire
Ġperfect ion
W ow
Cre ate
Ġe ject
ĠK oh
ĠBudd ha
ĠSky pe
od s
ĠCoff ee
Ġcur se
Ġdom ination
Ġcomp ares
P y
f ight
Ġrefres hing
Ġcan s
Through out
Ġspe cially
Ġnut rients
Ġmeaning less
Ġlun ar
Ġash amed
b ands
Ġdepth s
Ġdec ay
ĠK ot
ĠCom ing
C ustom
Ġevac uated
D F
ĠFl oyd
ors che
Ġrel iance
Ġdisg usting
Ġb idding
Ġdis charge
ĠCurt is
Ġpredict s
Ġhypot hetical
.. .<|
ĠMy ster
ĠBeng al
Ġ4 50
Ġh alls
Ġdecentral ized
. ;
ors i
Ġsusp end
Ġsect arian
ĠB TC
11 5
L ittle
Ġoverl ap
Ġhonest y
c ulture
Ġl ob
Ġbl asted
Ġvers atile
Ġdefe ats
ĠA part
Ġleft ist
els en
Ġ2 20
Ġk in
ĠN ike
Ġsc andals
Se ason
ĠF resh
Ġr ack
ĠO g
Ġresearch ing
Ġregul ator
Ġperpet rators
Un iversity
L ess
Ġho ax
Ġpo orest
Ġbe aches
ĠYOU R
ĠP v
ve red
Ġso ber
art en
in as
Ġfrequ encies
ĠZ oo
ĠK em
ĠC ros
he ard
Ġgrant ing
Ġconcept ual
Ġ----- --
OS S
Ġexp ired
ĠR ew
ĠMons anto
ub a
ĠRe ce
ĠKurd istan
T em
Ġpr ince
ĠT L
Ġde ported
Ġfut ures
Ġanarch ist
ĠBuzz Feed
ĠJackson ville
ed a
iv o
ĠUlt ra
Ġfirm ware
Ġf rog
Ġnight club
st ru
ĠÂ ·
ĠJ SON
M aking
ĠZimmer man
dog s
ĠO val
âĢ¦ ]
l n
ĠE lder
ĠTechn ologies
ĠAn cient
Ġparent al
Ġgovern ed
ĠEv olution
count ry
Ġlo oming
Ġd os
Ġtang ible
Ġsign aling
Ġrele vance
C ard
ac ial
IS S
W estern
Ġramp ant
ĠAbb as
Ġturn over
Ġid ol
Ġto dd
ĠCh oice
c od
Ġeval uating
Ġdecl ines
Ġun cover
Ġsp ine
Ġlivest ock
Ġrecy cling
ĠF ernand
c oll
Ġcruel ty
Jan uary
A cc
Ġm ant
h agen
Ġjudge ment
Ġextract ion
ĠB og
Ġp ent
Ġdism ant
Ġbit coins
te chn
Ġembarrass ment
Ġrep s
ĠBris bane
is ans
rav ity
Ġg it
ĠAny thing
ĠHel en
Ġaccum ulated
Ġrelie ved
ĠLe ad
Ġer r
Ġbi ography
ĠCamb od
oust ic
L ee
Ġfalse ly
Yes terday
ĠCh arter
Ġfilm makers
ĠB le
C redit
Ġg y
ĠEc uador
F rench
Ġcorrespond ence
Ġstake holders
Ġgl orious
ĠB il
Ġtax ation
ĠBlack Berry
ĠRes ults
ĠCan ucks
Ġsex ism
ĠMid west
r ance
Ġfrag ments
ĠB T
Ġunder went
ĠMcC l
Ġstat istic
Ġreinfor ced
Ġdiplom at
Ġair lines
ass is
ol ia
right s
Ġwe ights
Sub ject
Ġreal ization
Ġpart ition
ĠEv ents
Ġyell ed
ĠCan on
æ ľ
Ġhook ed
Ġdistract ed
Ġw anna
Ġcl o
ĠCr us
ĠV P
ĠCon c
ĠE asy
Ġre print
ob ic
Ġsuper market
ĠViol ence
ul atory
Ġbr ass
ĠHe ath
Ġe ch
Ġresemb les
ĠD S
s cient
ex pl
Ġanal ogy
Ġsh iny
e ath
ĠH ag
P rior
Ġstuff ed
Ġgl oss
Ġconstitu ency
reg or
St r
Ġsound ing
ul ed
Ġthe ology
Ġdivor ced
ĠUp dated
ĠIr ving
o it
secut ors
Ġmem br
g age
Ġout raged
Ġbom bers
Ġindirect ly
ĠB ened
Ġdest abil
ge ons
ĠC ertainly
ĠB row
Ġj oked
Ġnom inations
Ġbur ial
Å Ł
board ing
are ndra
ĠSh ot
Ġtr ilogy
gl ass
Ġg room
ĠIn qu
ĠInd ividual
ĠIS Ps
ĠAnd ers
,' "
Ġs ung
Ġfundra iser
ĠLa unch
ĠCharl ottesville
Ġbu ys
met ry
Ġs outheast
ĠSalv ador
vention al
ĠPer fect
t urn
ak is
Ġgl ow
id ate
Ġo mn
ring ton
Ġdr ums
ĠPlan ning
Ġheight ened
Ġcomp uls
Ġoverth row
ĠT ah
I r
10 4
Ġillness es
Ġfraud ulent
12 8
Ġsell ers
id able
Ġkidn apping
g as
Ġutil ized
Ġgoal t
Ġbelie vers
lant ic
Ġcho pped
ĠF ans
ĠG ri
Ġ19 42
ba um
En large
re ne
ĠL il
Ġindef initely
Ġreconst ruction
â ĺ
im ation
200 2
arr ison
it ating
ĠDar ren
Ġcur tain
Ġac ids
th y
Ġsuscept ible
Ġir rational
ĠT ier
Ġmel ting
Further more
Ġs ang
Th ird
Ġsurround ings
Ġh ats
Ġcease fire
Ġt apes
Ġmiser able
Scient ists
Ġlike wise
ĠAR M
Top ics
Ġst acked
Ġur ine
Ġpop e
Ġmiss es
O ld
j ah
a qu
F oot
n umber
Ġobs ess
ĠS V
the med
rict ed
em y
On line
Ġpro claim
Ġcatast rophe
pl aces
Ġst oring
lud es
ĠMot ion
Ġunique ly
mark ed
Ġremark ed
ĠAng ular
h ig
10 2
Ġlapt ops
IN D
ĠRh ode
Ġchar ism
Ġspat ial
ĠC er
is ch
Ġcouncil s
Ġcom r
Ġhe ights
Ġex ile
Î µ
Ġinqu iries
Ġf aint
ĠDes ert
Ġ195 8
Ġcomment ator
Ġrec urring
qu arter
olester ol
Feb ruary
Ġ\ (
ĠGen esis
em ade
ĠW it
Ġj ugg
omet ric
AN G
ĠPan el
B rian
Ġsur geon
Ġende av
ĠV ers
a verage
Ġsuper natural
Ġshr inking
ĠJ azeera
ĠD ucks
um bs
F ederal
ĠJohn s
g ae
f ill
st ill
B at
Ġun pleasant
Ġdis like
Ġcr acks
ĠIll ust
o il
Ġtub es
ĠBl ade
ĠSchne ider
ĠProtest ant
ĠAd mir
ĠG iant
Ġan th
S u
c irc
Ġlif elong
Ġdest ined
Ġauthor ization
R om
A ri
ĠN ate
S ervice
B rad
Ġoper atives
ĠLike wise
ĠC E
ood y
ex per
ĠEx xon
W ater
Ch icago
Ġdisagree ment
ush ima
Ġdifferent ial
Ġvalid ation
ĠIm port
Ġgal axies
D ist
Ġelig ibility
Ġwith hold
Ġoff ender
ĠAr s
ul ators
a unch
Ġch lor
ĠKind le
Ġcont enders
D O
ĠWy oming
Ġovert urned
ĠC anyon
import ant
Ġreg ression
Ġphotograp hed
Ġmit igate
Ġrev olt
Ġb unk
pl er
Ġmilit ar
Ġmad ness
Ġsurviv or
Ġpund its
Ġdesign ation
Ġsc oop
lin er
ig ators
ĠAm sterdam
Ġweaken ed
ĠD owntown
Ġ195 6
Ġsl ap
ir teen
ĠLi u
ĠCustom s
ĠM illion
im o
h ash
Ġintermedi ate
I tem
ĠFort une
Ġded uct
ĠPart icip
ĠF REE
Ġch ambers
d ue
Mart in
Ġsh arks
Ġprop onents
h un
ÑĤ Ð¾
L ight
ĠH ugh
ĠGall up
PD F
ĠDav ies
Ġhon ors
C ore
Ġsh am
ĠW er
P an
Ġhint ed
Ġb ounds
ĠN ear
en ment
Ġheter osexual
ĠB erry
pir acy
Ġinter ceptions
t ar
ĠBre aking
Ġsab ot
Ġpun ched
Ġprepar ations
qual ified
ĠTre vor
ĠEconom y
Ġpl ague
ĠRest aur
ĠQuest ion
Ġto mb
Ġhero ic
Ġcan vas
ĠDian e
Ġgrab bing
ĠSh ia
Ġconver ting
art z
ĠS hen
ĠRhod es
Ġwor s
ĠCl iff
OU ND
Ġ10 3
ĠV as
S orry
00 3
ĠP ra
sm all
Ġfair y
ang ular
Ġunp aid
ĠO L
Ġworth while
C ast
Ġrehab ilitation
Ġhel pless
ĠE R
Cons ider
A ud
ĠBar rett
ĠProv ince
ĠE ston
Ġc ort
ĠThrough out
Ġclos et
ĠCh in
ott est
" );
ĠT as
ific ent
Ġcompos er
ĠD iff
Ġcrus hing
iv ism
it ures
ĠP rest
Ġre op
ot le
L ondon
Ġt enth
Ġex h
Ġdiscipl inary
Ġd ess
ump ed
ĠPir ate
Qu ery
ĠT ag
Ġfranch ises
Ġrum or
ol ation
Ġon set
per ing
Ġg el
Ġpo orer
ĠKit chen
e on
ĠM ega
Ġw olves
G ov
c ule
og ene
ĠP RE
ub s
Ġforg ive
Ġspec ulate
Ġlung s
N umber
al ong
ĠM int
ĠBay ern
l ate
Ġun authorized
Ġmar vel
ĠF X
ĠAm anda
ĠP ierce
Ġconting ent
ern ick
Ġlaw maker
Ġdraw ings
ĠAdd itional
Ġreject ing
ic idal
Ġab normal
4 50
ĠW orth
ĠC oy
stand ard
G ET
Ġprint s
S k
ĠN ortheast
Ġcoll ar
Ġpedest rians
ĠIntern al
ig ger
ave z
W E
Ġaspir ations
Donald Trump
D ue
ĠColon el
d eath
Ġzomb ies
- $
Ġsc outing
J es
Ġsu ing
Ġland sc
Ġkid ney
Ġad vertisements
Ġret ention
id ad
Ex p
qu et
Ġabund ant
Ġedit ions
ra red
ic us
ĠÂ §
Ġsm oked
Ġgluc ose
ĠMy ers
Ġinfant ry
Ġfore see
Ġspl ash
Ġg ays
Ġcl one
ris y
Ġv oy
Ġimag in
Ġmin erals
ĠM ate
v s
Ġdi agram
ĠP am
f rac
Ġhe x
Ġl bs
affe ine
Ġreb ound
Ġinstall ment
Ġsuprem acy
Ġfall out
Ġreconc iliation
ĠH aven
B er
10 3
Ġw inger
ĠHass an
ĠF ell
Ġz oo
ĠM oy
Ġby te
ĠV ita
Ġver ification
ĠRe becca
h ou
C ould
.. ...
Ġtel escope
Ġs add
ĠGu inea
Ġplay ground
Ġchance llor
Ġalign ment
Ġtelev ised
im an
i ya
com b
ari us
ON D
Ġco erc
R ather
Ġres h
Ġcomp ilation
Ġeffic acy
F un
Ġt in
ĠD ance
ĠL akes
Ġ195 4
P ER
ĠStand ing
osp ace
Ġt sun
Ġro gue
ĠW ine
g io
person al
iz a
ĠJud a
Pr ice
Ġco herent
Ġdraft ing
c ano
Israel i
Ġmortg ages
Ġexc uses
v able
Con nect
ĠR SS
Ġsupp ression
e a
Ġcl usters
Ġcock tail
ĠAt las
Ġdis able
ass ed
O pp
Ġsm ashed
Ġsouth west
Ġl id
f ocused
l ich
be y
Ġorganiz er
b ons
Ġs aga
Ġfant as
Ġd ur
il ib
ĠP ine
d ies
Ġsc out
Ġst umbled
Ġblu eprint
ri o
ĠTest ament
um en
Ġstri ve
umn i
Ġapp les
ĠR ating
r ice
m ag
Ġsuper star
Ġmon arch
ĠH av
Ġplag ued
Ġdictators hip
ĠM oses
P ath
d eter
J UST
ĠJ ak
m ove
udd y
Ġdisag reed
ĠD iaz
Ġcirc ulated
ĠQu ant
Ġgl uten
Ġcountry side
Calif ornia
ĠCom plex
tr ade
Ġunanim ously
N P
Ġch orus
Ġunders c
Ġpro claimed
Ġumb rella
Ġroll er
he avy
Ġaccus ation
ĠCoun sel
ĠGu jar
Ġpecul iar
ĠV ote
J ose
Ġmer ged
gr and
ĠRock y
Ġ10 6
Ġmanip ulated
p rop
ĠLe icester
W all
ĠPrem ium
J ournal
Ġdismiss al
Ġpersu aded
Ġstaff er
Ġaccomplish ments
t arians
Ġrecept ors
Ġt iles
kins on
ĠUS S
Ġmult inational
Ġdial og
Ġprohib its
Ġ ion
Ġost ens
eff icient
Ġaffidav it
ĠR ol
y ll
ãĤ Ĵ
st ro
Ġener get
Ġs omeday
ĠIs is
Ġcomp ression
ĠWag ner
ĠJack ie
ĠC AP
hen ko
Ġintimid ation
Ġinstruct or
T M
De ath
Ġlear ns
ĠLyn n
Ġtor rent
Ġl ith
Ġm aid
Ġprem ie
à ¥
Ġl akes
x xx
pro duction
Ġs or
Ġbe lly
Ġd ots
ĠPl atform
ĠHug o
Ġcontin uation
ĠNep al
ĠComp anies
ĠV ern
ĠWar rior
z an
Ġunl ocked
ĠM ist
Ġprotest ed
Ġmess y
icult ural
Ġdr astic
Ġbrew eries
ĠW on
Ġ19 17
Ġcraft ing
educ ated
ĠS R
ĠIndust ries
ĠOs borne
Ġp anc
Ġst air
Ġinnoc ence
Ġb iblical
wart z
f iction
Ġn as
ang a
Ġm esh
Ġrational e
bour g
R on
ĠRe venue
in x
Ġsqu at
ĠL ar
Ġbrows ing
ott i
if ax
Ġf ade
Ġd ock
Ġhead phones
ablish ment
Ġtherape utic
Ġstap le
ox ic
bel ief
ĠS ugar
N early
Ġm int
ĠMan ufact
ĠF argo
ĠN OW
Ġmarch ing
Ġtele com
Ġfr inge
Ġcler k
rat t
Austral ia
= '
ĠÐ º
Ġmaj ors
Ġcommod ities
em er
NAS A
ĠYork er
ĠN arendra
In side
Ġprogress ives
ve ment
reat ment
Prof essor
Ġb ark
Ġc ros
ĠA zer
s or
S ky
ĠRep ly
ĠRef uge
real DonaldTrump
Ġsh attered
Ġswift ly
Ġfreel ance
Ð ¼
Ġse gregation
Ġinteract ing
us ra
ĠB ag
Ġne oc
Ġkill ers
ĠB ast
Ġox id
ĠR unning
au f
Ġacc ustomed
ĠK ub
ĠIS O
rel igious
Sec ret
Ġadjust ing
Ġubiqu itous
Ġbad ge
ĠT IME
Ġund en
Ġresist ed
Ġprop oses
Ġins urg
ĠWat ers
Ġ7 50
Ġp uls
u ilt
w ild
Ġpol ite
Ġreprodu ction
Ġcar ved
lling ton
ĠN W
od ore
Ġneg lected
Ġdest iny
Ġind icted
ĠH uck
ĠM AR
ĠZ omb
__ ___
ĠH our
Ġsett ling
ab ase
ĠMan it
Ġw ax
ĠR ise
ol iberal
Ġopp oses
Ġscan ning
ãģ Ļ
Author ities
Ġsk ies
Pro v
ĠStr ategy
Ġdecor ated
spe cial
ĠG em
ĠBur ton
Ġg ospel
Ġdilem ma
ĠKore ans
et r
20 2
Ġadvert isers
Ġsol itary
ĠFe el
ĠW ave
ĠEuro pa
IL E
Ġant it
ĠBor is
Ġback pack
Ġpoison ing
Ġharm ony
Ġco hes
ĠT ay
ĠInter view
Ġdisreg ard
ger ald
ĠA WS
enz ie
Every body
F ort
Ġaccident al
ĠLuck ily
gener al
ĠW ald
ĠLen in
ed ience
Ġunt o
io let
ĠOff icials
Ġsp ider
Ġshoot ers
Ġl iable
ĠLink edIn
yr us
Ġthank ful
Ġcross es
Ġadvert ised
at ri
ĠEug ene
oc hem
Ġmight y
Ġrep ression
W al
Ġemer ges
ĠSh awn
ĠPun j
ĠCl aire
Ġmisdem eanor
ĠMour inho
f acebook
Ġw aking
Ġrepl ies
Ġge ographic
Ġcollect or
ĠAng lo
ij i
ĠSt ark
ĠChurch ill
orm an
ĠG addafi
ĠCON T
ĠS it
ĠArmen ian
ĠLe h
br ing
Ġy a
Ġgovernment al
wh y
Ġst alled
pher d
ĠAv iv
cho ice
Ġang el
ĠOrig inally
ĠV ic
ci um
Ġwild erness
ĠNew man
Ġthank ed
ĠRel igious
art icle
Ġdoub ling
ĠSerb ia
ĠMarx ist
ĠPer u
Ġ195 7
D ark
Ġver ge
ar is
ĠRe y
ĠB oot
ĠM ale
Eng lish
f aced
ĠI F
s afe
Ġsub missions
ET A
ĠN PC
Pl ayer
Ġstation ed
Ġreprodu ce
od o
Ġrem ake
Ġcyn ical
ĠSt yle
ĠAmeric as
m t
ĠF ury
Le ft
Ġric her
Ġa ka
ĠSh ut
Ġ195 3
f ashion
te enth
Ġschedul es
Ġexist ential
Ġtr aps
she et
ĠR ising
Ġdownload ing
Ch arl
Ġweigh s
Ġbr ace
r anking
Ġpar ole
ĠLab s
ĠHung arian
S ad
M ary
Ġm ansion
coh olic
the ir
Mem bers
AC H
Ġspecific ations
f est
Ġpir acy
Ġveget arian
Ġscreens hots
F und
ĠD y
Ġtrans plant
ĠPer iod
C BC
Ġant agon
Ġconcer ts
ĠDem s
enc ia
Ġsystem atically
ĠO UT
Ġunanim ous
Ġcl utch
al ine
Ġproc ure
Ġgar nered
un ion
or ously
ace y
Ġrest ruct
Ġgard ens
ĠD ocker
10 9
Ġsurg ical
Ġl akh
Ġv ow
ĠConst itutional
L ocation
Ġtum or
ĠFle et
ord e
Ġpsy chedel
Ġpolicy makers
ĠHe ather
are l
Ġdem ocrat
ast ics
Ġth riving
Ġdiv isive
ĠG E
IN K
Ġ} ;
Ġearn est
n om
Ġl enders
Ġf ried
Ġcomment ing
Sund ay
Ġp ac
Ġmedic ines
ĠS orry
Ġlog istics
ĠRes earchers
ĠHam mond
Ġcertific ates
Ġir regular
Ġrem edy
Ġexagger ated
Ġchar ming
Ġbrand ing
ĠâĢ ķ
og ram
Ġdown side
cript ions
Gl obal
m is
ĠOut side
Ġwas ting
Ġsent iments
Ġenfor cing
Any way
ĠF eed
Ġmyth ology
Ġst igma
Ġinc arn
ĠM aid
I ron
Ġdin osaurs
ĠÂ Ĺ
Ġf al
Ġc it
Ġ< <
ist ence
Ġs ized
ĠRock et
ĠRe ich
Ġspons orship
Ġarchitect ural
product ive
Ġblog gers
ĠFor ward
ill as
ĠCongress man
l ove
ĠT ool
ov y
anger ous
Con nor
ĠSy nd
Ġign ores
Ġcommun al
Ġam ple
ĠNob le
Ġserv ant
ĠL enn
ĠAn kara
Ġshort ages
ĠF ri
z ip
ich i
he rence
Start ing
Ġimp art
Ġ( #
U t
Ġtweet ing
Ġdepict ing
Ġcl oses
ĠRap ids
Ġa rom
Ġarchitect s
Ġ19 43
Ġcongest ion
ĠA ce
Ġp ads
Ġform idable
ĠSyri ans
UC K
Ġret iring
ĠFreder ick
ĠCons ult
Ġse ated
Ġd amp
Ġanim ations
Ġconce al
Ġeven ly
ĠHig her
ass er
ĠRay mond
Ġpat rons
ĠNe igh
u u
Ġcrack ing
Ġacclaim ed
Ġ19 55
Ġloud ly
ĠWhe eler
com pet
Ġsoc ietal
ĠLeg ion
ad ic
Ġdr ills
ĠCong o
Ġpath ways
Ġne p
Ġar ises
Ġaggrav ated
Ġbu cks
ĠRE AD
ĠBr ing
Ġmass ively
Go vern
Ġmon key
Ġm um
m oon
Ġbod ily
Ġincap able
Ġinject ed
ruct ions
IC S
ĠWrit ing
b ishop
Ġref resh
ĠC W
y et
Ġske let
Ġseiz ures
Ġenvelop e
f ig
ĠKat ie
ĠA FC
Ġplum met
ong o
Ġcann on
ĠZe lda
ab ee
ĠP owers
m ia
J ason
ott a
Ġover c
Ġgoal ie
Ġdesc ended
old own
ĠVen us
ef ined
ĠM R
Ġsupp lier
Ġper imeter
Ġmerch ant
Ġevac uation
ĠC ert
Ġref rain
Ġimp ending
Ġdeep est
ik ed
Ġfire works
en za
Ne ill
Ġgrad ual
sole te
ĠGard ner
f ires
H en
Ġsc ans
ĠLaure n
Ðµ ÑĢ
D D
ip es
L oad
ĠS onic
Ġm ans
Ġiniti ate
Ġjurisd ictions
whe el
Ġlast s
Ġwhere by
ĠBuddh ism
17 0
Ġwho pping
Ġp act
Ġanten na
ĠSm ash
ĠSex ual
ĠS ikh
Ġc ough
ĠL anka
ree ze
op ia
gu y
ĠRC MP
cl ose
ĠD B
Ġun identified
Ġaver ages
Ġmed d
Ã ¯
Ġann ot
ih il
ĠRel igion
ĠSaf e
ĠM Y
ĠOff icers
Ġpup ils
Ġindu ce
ĠEll en
G G
ĠPh ase
Ġreserv ations
Ġcompan ions
ĠCom bat
Ã¡ s
t ical
priv ate
d ependent
Ġproport ions
Ġcounsel ing
ĠHans en
as io
ĠJoy ce
C am
ic ular
Ġd itch
Ġfor ged
ĠP orsche
Ġ------- --
Ġde gr
h m
Ġplay able
ĠHe in
Ġexplo its
Ġpredec essors
Ġaffili ation
ĠVict ory
ĠD re
Ġtruth s
Ġspect acle
Ġt apping
Ġrul ers
Ġnit rogen
ĠL SU
oh yd
) [
Ġir responsible
Ne ither
Ġd op
Ġs ir
se ys
Ġrenew al
Ġrent ed
Ġfasc ist
ep ernick
pr us
Ġopp ressed
Ġbr akes
Ġsw all
mean ing
M ond
Ġbur ger
ĠF ighting
ĠL TE
n as
ĠB rief
Ġcl an
Ġmed als
ĠIn come
ĠAp ache
Ex pl
Ġsw ear
ĠG ut
t arget
ĠN olan
Ġsens ory
Ġphil anthrop
ĠAndrew s
R ev
E st
ĠSp ark
Ġcirc ulating
ĠMin ority
ĠCard inal
Ġreg istry
Ġphotograp hers
Ġ10 7
Ġca fe
ĠC ous
ĠSant os
ĠP u
edd y
Ġprolifer ation
Ġeleph ants
Ã± o
ar us
Ġdem ons
Ġatroc ities
ĠS ans
ĠG ET
Ġtransform ing
Ġstub born
Ġv ou
Ġund o
Ġgest ures
ĠKu wait
Ġ19 49
r ue
ĠT umblr
sc ill
. /
ĠRe ality
Ġstr ongh
Ġhigh s
ran ch
Ġbre asts
Ġ10 8
Ġrun time
Ġf ier
ĠFro st
ĠE manuel
ĠN iet
ĠB om
ill ions
Ġo z
Ġhe mp
Ġdisrupt ive
Ġculp rit
ron ics
ody nam
Ġspeed ing
Ġch unks
st re
Ġmem e
Ġal ley
Ġaw ake
at ra
Ġgood bye
Ġflood s
ĠI o
ĠProduct ions
Ġun in
Ġsuccess ive
ĠMah m
U B
Ġstri ps
ĠG ent
is man
ĠBra ves
Ġlim bs
ĠG olf
Semit ic
M ont
T B
Ġhal ted
ĠMed al
ĠD ifferent
Ġinad vert
ĠNe o
c reat
Ġand roid
ĠS leep
open hagen
ĠR aspberry
Ġmut ations
Ġalleg iance
B usiness
ĠC ultural
Ġrem n
Ġlau ndering
ĠIns pector
ĠSav age
ĠRoy als
Ġst all
Ġmut ation
Ġgrat itude
ĠSuper ior
ĠCelt ic
et ics
Ġpo pping
Ġsl ope
re b
ĠEn joy
Ġr ude
ld on
Ġrev ive
ĠCor nell
Ġexpend iture
W ed
Ã Ł
Ġo m
Step hen
Ġgrab s
Â Ĺ
its u
Ġplanet ary
p resent
Ġmemo ir
ĠP resent
ĠC OU
ĠGar rett
v on
ĠElect oral
ĠJuda ism
Ġon ion
VID IA
C ru
Ġrespect ful
Ġsp ur
ĠF en
Ġpseud o
Ġcomfort ably
Ġsur real
Ġlim itation
ru gged
Ġrest oring
ĠD uck
.âĢĿ )
com merce
10 6
Ġvill ains
ĠRel ated
ĠE cho
Tr ue
Ġp oker
Ġchick ens
pict ured
ĠW enger
Ġh ug
Intern ational
Ġcontinu ity
ĠM add
com mittee
ĠD NS
3 60
+ ++
M ic
Ġsad ness
Ġdepart ed
Ġcor related
Des ign
Ġundergrad uate
Ġ11 2
Ġtri angle
M R
ĠMed ium
Ġrob bed
ĠGree ks
ĠCamer a
Ġharass ed
ĠCharl eston
ett es
osh op
ĠPeters burg
r ath
25 6
ĠRes istance
Ġtempor al
b ai
ĠK ur
n ick
Ġmicro bi
ĠB A
Ġworld view
Ġpiv otal
Ġincorrect ly
Ġexcept ionally
Ġauthent icity
ric ks
Ġfor c
p ensive
ap i
Ġsu cks
ĠBel fast
aj a
Ġprofound ly
Ġinc ub
Mus ic
Ġgr ains
Ġinter ception
ĠP av
Ġge op
Ġbud dy
ass ing
ĠP ale
inc re
Ġsl ate
Ġdi ets
R o
Ġel bow
Ġdisc rep
Ġsimpl est
ver ts
re lease
Ġsl iding
Ġdisc ern
Ġst d
Ġcommer cially
asket ball
it ant
ĠAl ban
Ġo v
Ġgener als
j ournal
Ġge ek
Ġcamp ing
os lav
ĠMarket ing
Ġun official
en ame
s kin
M ag
Ġassess ing
å ¤
l ang
alk er
ex isting
Ġhit ter
ĠPre p
Ġs ins
Ġper former
t im
ch in
h on
ĠJ ail
s ince
ĠWe ight
ep tion
Ġrem oves
ĠT ucker
ĠK re
Ġresp ir
ĠRep orter
Ġdis comfort
Ġincarcer ation
ort heastern
Ġam en
ĠT SA
ĠHar old
idel ity
Ġske leton
Reg ardless
Ġimpe achment
ĠPod esta
Ġl ure
Ġess ays
Ġall erg
ĠJo an
d ain
Ġnep hew
ut ory
ĠL un
Ġs ou
â Ĺ
ĠExt ra
st ant
cent ric
B ad
Ġhypoc risy
Ġdr ift
ãģ Į
ew orthy
Ġexecut ing
ĠE z
Ġspec s
ĠTechn ical
ĠSt ur
ĠMoh ammad
ĠÐ ´
Ġz ip
Ġinc idence
Ġequ als
Ġ19 46
Ġse af
Ġc ove
Å «
oh an
Ġsynt hes
ĠD uc
Ġpharm ac
Ġwork load
Ġem pt
b order
Ġmis ery
ĠChrist ine
Ġbl oom
ĠPop ular
Ġspec ulated
Ġconf essed
char acter
ik ers
LA Y
ĠRevolution ary
Ġper t
Ġpil gr
Ġinj unction
Ġhall uc
Ġe lic
Ġtiss ues
act ly
Ġgra ffiti
ĠC aucus
in th
Ġrain fall
T en
Ġtest osterone
Ġprovoc ative
Ġdecre ases
ĠNic ole
Ï Ħ
Ġn ud
gress ive
ĠSebast ian
ĠR ole
Can adian
ĠMult i
ĠCol bert
ĠEth ics
ĠList en
any e
iss ue
Ġtot als
ĠMar athon
ĠM TV
ĠCom put
Ġx en
Ġsit uated
oot er
em on
Ġprep ares
ĠTe en
Ġdec omp
ĠR i
ĠCar p
Ġbigot ry
w on
W ait
Ġrail road
Ġcampaign ed
c ounter
Ġdev ote
just ed
Ġinflamm ation
Ġsy rup
u ously
ON G
Ġcoll usion
tt a
Ġrul er
Ġboard ing
Ġsh ining
Ġinv aded
Ġd Ã©
Ġtend encies
es que
Ġpuzz les
H H
threat ening
ĠPed ro
ĠBl ocked
Ġt an
ĠFull er
ĠDur ant
ĠAm nesty
og o
ub arak
Ġb aked
oy a
ĠStrateg ic
T it
N F
ĠRec ent
at z
ĠPatri ot
cap ital
Ġinter vals
ĠApp lication
Ġst ain
ĠV it
Ġun aff
ĠM AN
ĠTh ing
L P
ĠN D
W C
Ġnot ions
ĠAud i
ĠD EA
ĠF actory
Ġper il
ĠN R
ĠJ ab
gl obal
Ġt abs
St ream
Ġschizophren ia
Ġsm ash
Ġdict ate
ĠDrag ons
r itional
k top
Ġvill agers
Ġnew born
ĠZh ang
ĠP oor
auc as
Ġtheoret ically
Ġb aff
10 7
B ase
Will iams
Ġk ings
ĠAr ist
Ġprol ific
Ġbo il
rain e
Ġre play
Ġpreced ing
ĠHe b
ĠBut ter
utter stock
Ġfil ib
ĠS ize
Ġspecial ty
ĠFly ers
het ics
Ġconflic ting
ĠS aid
ĠD HS
Ġqu ir
ĠTH C
ĠP retty
ous se
ĠSe vent
00 000
g ithub
Ġout we
sp ot
hard t
ir ling
OL D
Ġtoug hest
Ġsal mon
Ġr app
Ġpair ing
ĠLe eds
m oney
Ġcoun ters
t aking
but ton
ĠArch ives
Ġ2 30
Ġpref ers
Ġpro w
not es
ĠU AE
ĠJ as
ĠB ug
ĠP itt
Ġ-- >
us a
Ġbra ke
K now
ĠV ander
G T
ĠInf o
Sec urity
Go ing
ĠW itch
ĠPat terson
Ġstr at
Never theless
Ġinex pensive
Ġneighbour ing
ĠM echan
Ġsur rog
ĠNot ice
ĠZ ika
ĠV oy
ĠBul gar
d ens
Ġyear ly
Ġl ocking
Ġinv asive
Ġsm iles
r aining
ĠLam ar
ĠEp ic
Ù Ī
Ġf ills
Ġpl ac
Ġcl ing
Ġwh ip
Ġex pelled
Ġcl ay
ĠLie utenant
Ġexpl ode
Ġur ges
ĠSh ore
Fr ance
Ġpl ight
th ose
13 5
Ġsim ulations
Ġrot ating
Ġ10 9
ĠÃ ¢
c ats
19 99
Ġins iders
ĠLic ense
c p
Ġem ission
ĠIndones ian
Ġrab bit
Ġgig antic
ĠMel issa
ĠL ac
ĠFe atures
W orks
e ast
ĠCal vin
iv or
Ġrestrict ive
Ġadmin ister
ĠBrad ford
Ġpass er
ĠA id
Ðµ ÑĤ
German y
Ġconfig ure
ĠSt am
Ġexpl ores
hib ition
Ġste er
Ġmail ing
ĠGod s
be ck
Ġvoc abulary
ĠS ke
Ð° Ð½
Ġche at
ĠS ara
Ġapp end
IC A
ĠX ia
cr ime
Ġat om
ĠCu omo
ĠCh i
Ġguess ing
ĠR ash
Ġgr in
ĠH oney
ĠMy an
Ġunivers ally
Ġinstall ations
Ġpack ing
ĠGujar at
Ġc ues
ĠWi Fi
ĠWh ole
Ġgl am
ĠGro ve
ĠCh ang
ĠAv ailable
Ġimper fect
ym es
M il
h awks
Ġscore r
Ġnow adays
Ġch olesterol
C arl
Ġgr ammar
Ġal erted
Ġcondemn ation
Ġam azed
c amera
Sen ator
Ġaccum ulation
Ġther m
bo at
Ġvacc ination
Ġimp aired
com pl
Ġperson a
Ġh ottest
ĠIss ue
Ġlif es
ĠG erald
ĠBill board
S ystem
ket ch
Ã± a
Ġh ates
M ajor
F ast
Ġcommercial s
Ġappl ause
ĠFitz gerald
g ering
aw k
Ġcelebr ates
en h
Ġdevelopment al
ĠJoh ann
. *
Ġpost ure
ĠDe V
Ġdefense man
ĠN om
Ġlect ures
ĠCh avez
att a
Ġrat ios
Ġbr ink
IG N
Ġpolit ic
Ġa we
Ġcommun ism
e us
Ġsal v
Ġdisproportion ately
och ond
Ġlaw ful
Ġjihad ists
j ava
Ġexp ire
ĠBay lor
Ġritual s
d uty
w y
rent ice
Ġsmugg ling
ĠSol utions
Ġcris p
sw er
Will iam
ra its
Ġd ictionary
rend ered
Ġsubsid y
Ġdistur bed
Ġ/ *
Ġinsult ing
ĠU E
nt on
ĠNAS CAR
ĠW yn
ĠKey stone
g ard
ĠGu ate
Ġle v
Ġdescend ants
ĠSor os
Ġremember ing
ĠChap man
Ġunder mining
Ġr av
Ġco ached
ĠW ong
f ounded
ct ica
ĠS ettings
ĠMar ijuana
T I
Sen ate
ĠMyan mar
Go vernment
ĠD ocument
ĠLiber tarian
f ell
ĠG amer
er ter
Ġch illing
ĠC oul
Ġf ox
w omen
Ġqu ar
Ġoil s
Ġinfect ious
oc ating
Ġexpend itures
Ġinsurg ents
P riv
Ġgl owing
ĠTw ilight
Ġrum ored
ĠLind sey
Ġfo am
Ġhorm ones
11 2
che wan
av ier
Ġexperiment ing
ĠW ash
ic z
Ġspecific ation
Ġdiscrimin atory
ĠNic olas
Ġair ing
ĠP P
man ned
ĠH os
k ick
Ġpractition ers
Ġconstruct ive
ĠPhilipp ine
C oll
Ġcler gy
ĠShe ikh
ĠOrig in
ĠFl ore
od us
ĠW AS
ĠL B
Ġtra umatic
Ġimp uls
ĠStephan ie
Ġfam ed
Ġmot ors
g all
Ġext inct
ail ure
Orig inally
Ġtrans cend
Ġsle w
Ġb apt
Ġ13 5
C ost
ext reme
ber ries
Ġdefin ite
ĠS ig
Â ½
C ase
Ġdecre asing
Ġfr iction
ĠSh ir
ĠDis play
Sim ilarly
ĠW rite
Com ment
Ġconfig ured
ĠZion ist
li able
S ize
ur istic
d an
Ġhands ome
en ary
Ġpro se
AR S
ĠResp onse
Ġpatri ot
Ġd ynasty
Ġc emetery
Ġrest s
ĠFuk ushima
T aking
! ),
T s
ĠM ental
ĠCom ments
if ts
Ġpe as
ĠP izza
Ġpet ty
ĠC ain
Ġ) :
ĠW id
f at
Ġpol ished
ĠR id
ĠPh arm
ign ant
Ġm ocked
Ġmunicipal ities
Ġexhib ited
St and
Ġnic otine
ĠSt rat
ĠLes lie
ĠA CA
Ġconf ess
ĠBe e
Ġo ri
ov sky
ĠC openhagen
Ġtsun ami
Ġconsult ed
Ġfort unes
ĠOpp osition
ĠE ld
Ġunre asonable
Ġjud iciary
ĠFred die
Ġt ipped
ĠW ILL
ĠUnder ground
ĠStand ards
am oto
ĠSol omon
Ġtr act
Ġrestrain t
Ġs ulf
Ġout doors
ĠC ed
te ms
ms on
Ġdwar f
Ġhist ories
Ġcontrad iction
ĠSS D
Ġins ign
ĠT yson
iv ities
Ġrevers al
ĠPsych ology
t xt
Ġsand wic
Ġphenomen al
Ġ15 00
Ġtr unk
Ġbub bles
our cing
Ġcyber security
E ff
i very
ĠA W
Ġf aded
uper t
ĠHell o
ĠHas kell
Ġrecons ider
reg ulated
Ġdisp atched
Ġschedul ing
Ġl amp
Ġinterpret ations
b c
ĠAn s
sh ort
all ic
a ude
L uc
vid ia
id as
P ack
Ġemploy ing
10 8
ĠTe ams
ĠOs ama
ob il
N ov
Ġ195 2
f inals
Ġt earing
Ġplug ins
Pal est
Ġcher ry
lu ent
ĠFr aser
ĠConst ruction
ãĥ ³
bro ken
ĠCy prus
r Ã©
ĠOper a
ĠBened ict
at hing
Ġmon uments
ĠTre nd
Ġinstinct s
is y
Ġprin cess
Ġcommem or
iov ascular
IS H
ĠTr inity
Ġmush rooms
ĠOb server
ĠL ore
ĠI PA
Ġgeomet ry
ĠChar acter
ĠR um
Ġp ains
ĠBrig ade
Ġdistribut ing
Ð° Ð»
Ġesp ionage
E conom
.âĢĻ âĢĻ
Ġrent s
Ġra ided
E arth
Ġmillenn ials
Ġgrand parents
Ġge ography
Ġboost ing
ĠDog s
ĠAst ros
Ġs arc
Ġp ins
ĠN issan
Ġpart nered
ĠShort ly
ĠAss ass
Ġpenet ration
an amo
Ġfulf illing
w agen
medi ately
Ġouts iders
Ġblat ant
Ġ1 19
Ġuns pe
Ġsh ale
need ed
Orig inal
EM A
Ġcollect ors
ess im
Mat thew
Ġpass ages
ĠNon etheless
ent on
c ritical
ĠE VER
ALL Y
Ġmand ated
Ġkind ness
ĠM alt
man agement
am bo
Ġsl ash
Ġfemin ine
Ġdrag ging
ĠValent ine
c uts
Ġecl ipse
Ġconc ussion
ĠG ru
m aid
c orn
Ġsupp lements
Ġobst ruction
Ġoptim ization
ĠSh arks
st en
r il
Ġdiscour age
ĠDet ective
P op
ar ations
Ġstart ling
az ingly
ĠM K
Pro t
ĠUn block
ĠInnov ation
ĠUn known
ĠRoc hester
Ġpres crib
k t
Ġs inking
h ma
. âĢĶ
ĠSh arp
ĠG C
Ġlong standing
tle ment
Ġrac ially
Ġstrengthen ed
Ġhome work
ĠFranc o
Ġregul ating
Ġclar ified
def ault
ĠB end
Å Ĥ
iv ist
Ġfront s
Ġs acked
Ġread ings
Ġin mate
ĠInterest ingly
ĠFront ier
Ġhe ars
Ġecosystem s
ĠC V
Ġconc urrent
ĠAs ked
im i
ĠMig uel
Ġfin anced
udd le
Ġmanifest o
Ġsort ed
Ġexcell ence
Ġn ap
ĠArch ive
Ġ iv
r anked
and ro
yn chron
Ġr ighteous
D M
Ġgun fire
Ġeth ic
orn ings
F lor
il ot
ip al
Ġbl ur
Ġv or
Ġstat ues
Ġmar itime
l aughs
ter t
Ġsub set
Ġgu iding
i ating
ĠKir by
ak o
Ġheavy weight
Ġgen res
iol a
ar ray
E ast
ĠSch war
Ġoptim ized
ĠJav ascript
Ġcompet ed
Ġ19 33
pat rick
Ġm aternal
uc ing
he ne
Ġbl ues
ĠY ug
ĠMotor ola
osoph y
ĠEx pect
Pre vious
Ġfront ier
ĠH ers
z ero
Ġjewel ry
Ġfat ally
ĠDecl aration
Ġleg ends
Ġyouth s
ĠL ords
reat h
Ġoun ce
Ġindic ations
ach ine
Ġch ased
ĠAv iation
Ġout going
ĠArt icles
Ġgate way
Ġfulf illed
Ġen cl
l ide
Ġh amm
ĠSpot ify
I AN
ĠFr ances
v ine
Ġethnic ity
sh are
am my
Ġd wind
Ġarc ade
Ġproceed ing
ĠBar on
m ot
her ty
Ġinv oked
Ġinflamm atory
est ablished
ĠO dd
act ivity
Ġrun way
umb les
ld om
ĠAst ron
Ġcart oons
ĠJohn ston
N R
Bl ock
ĠCh icken
Ġpestic ides
Ġtrail ing
Ġsp un
Ġreal izes
Ġb ully
J udge
U MP
aid a
Ġopen ness
ĠArt ist
ĠAll ied
ĠL uk
ĠJac obs
ys ics
Ġdeploy ing
Ġad am
Ġpump ing
Ġworks hops
Ġunle ashed
ĠPubl ishing
Ġmis represent
ĠIs n
el o
... ]
Ġpen insula
Ġun available
Ġimpl ication
Ġexplo iting
ĠPay Pal
mans hip
he a
Ġoblig ed
ĠN er
l ists
Ġoverr ide
ĠT ank
cept ive
Ġf eder
Bre aking
Ġorganiz ational
ĠAny way
Ġs unk
Ġdef ects
ĠT ut
ĠCustom er
Ġ25 6
Ġt ac
To o
Ġrock y
ĠPre vious
: [
Ġc ant
Ġnarc iss
Ġastron omers
Ġpr aying
n n
ĠMon roe
ĠIb rahim
Ġunexpected ly
ov able
Ġmoist ure
Ġcoh ort
Ġbur nt
Ġabrupt ly
Ġoversee ing
Ġm und
Ġkn ives
og rams
ĠL ok
Ġhold ings
ĠAfric ans
ĠG ren
ĠDo om
Ġpar cel
Ġch ord
ĠF ry
s end
Ġpe aks
Ġframe works
bet ween
Ġparent ing
Ġob ese
Ġf erry
ing es
Ġbl ink
ĠV PN
P rop
Ġmod ular
Ġhes itate
Ġyield ed
ĠV on
H appy
Ġchall enger
Ġbi om
ĠSh annon
ĠAr ms
ĠCon nor
Ġwor m
Ġun ins
Ġe ve
old en
Oh io
Ġsplit ting
ig ated
Ġvib e
ĠOtt oman
Ġtermin ation
Ġad missions
Ġvisual s
Ġas semble
Ġw ishing
T F
ĠK ris
g os
ĠInt o
ĠX in
Ġphilos ophers
ĠAthlet ic
st own
ĠStock holm
ĠCy cling
ĠSol o
Ġch assis
Ġnotor iously
Cle arly
ĠJan et
Ġto re
Ġnot ify
Ġsummon ed
Ġplant ing
Ġlabel ing
ĠWATCH ED
ĠSc out
ĠH il
k ish
R est
Ġsn ipp
ĠC oc
ment ia
r ag
oss ip
if ty
Ġill umin
A ction
Ġh iking
att led
Ġspont aneous
en f
Ġp enny
us ually
Ġret ali
Ġk idding
Ġenerget ic
Ġc av
vis ors
ut sche
Ġwith stand
Ġgrand children
Ġcon ve
AN C
Ġens l
Ġdecl ares
Ġceremon ies
ĠL is
Ġmic row
Ġ( (
uck ing
Ġbroadcast s
p ires
en o
Jew ish
Ġslog ans
Ġbacter ial
Ġfl ipped
ĠA ber
ĠKa epernick
å ħ
ĠAN Y
l ated
11 4
aci Ã³n
Ġwand ering
ĠK ol
ĠCom mercial
t ree
Ġhand ler
sm ith
Ġ17 5
Ġgener ators
Ġcontrac eption
Ġunder mined
Ġhom emade
Ġcos m
us ch
L im
Ġsil icon
Ġmod s
Ġcentral ized
Ġbl onde
acc ount
Ġdemol ition
ĠAl bum
Ġper vasive
R a
Ġf ixture
ĠOpp ortun
reg ulation
Ġs lick
o i
ĠG IF
Ġbe verage
g ot
Event ually
in av
Ġtrig gering
Ġmotiv ations
Ġexc luding
Ġescal ation
c ool
ĠBur ger
ra ven
Ġstr anded
Ġsoc ks
ĠGold berg
ut z
Ġw izard
Ġhe ap
ĠReg ist
it ious
V e
U k
olic y
l oss
M rs
O B
Cont ent
Ġtom atoes
EN S
uck land
Ġdrunk en
Ġretain ing
ĠAl v
Ġprogress ed
17 5
ĠS ally
ĠK abul
Ġcar te
ĠSw ord
ĠAur ora
Ġb ids
ĠSec urities
lu ence
Ġl ent
Ġfil ings
Ġev id
ĠField s
ĠB ath
x imately
Ġsp rawling
Ġproced ural
Ġp as
Ġd ental
ĠS ark
ĠMac ron
p ng
Ġor thodox
bur se
ĠÂ ĸ
rec ogn
)) )
ĠPengu ins
Ñ İ
ĠSc and
Ġob solete
ĠD raw
2 40
Ġdiss atisf
AN N
/ -
ĠH iro
V an
Ġmet ropolitan
ĠN igel
get own
v d
Ġsat ir
ĠTor res
ĠO ption
Ġrespect able
Ġlos ers
ĠW ool
are th
ĠHann ity
Ġbureaucrat ic
ĠM Hz
Ġblock ade
Ġ19 14
ic ially
Ġdom est
" ?
Ġsid eline
Ġimm ers
Ġsqu ares
o os
Ġmis guided
ĠC ec
Ġsod ium
ĠSant orum
Ġpione er
V ia
ĠNew ark
ĠHor izon
j son
S ean
Ġresist ing
Ġcon quer
ĠD as
el in
ag ent
ĠP ure
ĠP ixel
Sc roll
Ġd urable
ud get
Ġbus h
Ġgl ue
j ury
Ġhigh ways
Ġdatas et
Ġ--------- --
go ogle
Ġrese ar
dig it
ĠMo zilla
Ġreject s
ĠRut gers
ocaly ptic
Ġa isle
Ġstat utory
Ġl ord
Ġcancell ation
che t
Ġmat urity
ĠÎ ±
Ġc affeine
ĠGuant anamo
ĠSte ele
ĠPer th
ĠLu cy
Ġrestrict ing
S oon
Ġsynt hesis
ĠMad uro
on ial
t ab
ĠD ew
Ġimag inary
ĠBlack s
ĠA AA
Ġaw ait
ĠR andom
Ġmetab olic
om orph
at ible
avor ite
Ġund ec
Ġbal ances
uss y
go ers
Ġmon keys
Ġvan ished
d ou
Ġtest ament
Ġass im
ĠLaw s
R Y
Ġassist ing
ĠF it
Ġrespir atory
i ago
Ġcub ic
Ġ.... ..
Ġse ating
Ġle isure
ĠAdvis ory
AM A
Ġs igh
Ġche ering
Ġalph abet
Ï ģ
k an
c hens
Ġlab s
Ġimp over
Ġsmok ers
ĠVol ks
ĠRes cue
Er ror
ĠP ip
Ġutil izing
Ġstress ful
Ġcan cers
ĠÃ® n
Ġmagn ificent
not hing
Ġvis ions
Th ursday
Ġdisc arded
Ġar rows
ĠPTS D
Ġprev ailing
Ġarm ored
Ġconsult ants
ib o
onge vity
is ine
Ġsin ister
Ġrum ours
Ġdem ographics
S at
M essage
Ġun for
W in
Mond ay
Ġvers a
ĠBoy d
m ith
Ġre write
ĠPod cast
ĠH ang
ĠMo z
Ġth ieves
Ġce ased
ĠF usion
ĠF ah
Ġobject ed
G ate
cl air
al most
ĠN I
Ġf uzz
Ġstandard ized
Ġlik ing
j ad
Ġlaund ry
Ġelect rons
ĠZucker berg
Ġab using
at ts
ĠJoe y
ows hip
Just ice
Ġinsist ence
Ġcirc uits
ĠPro blem
ĠA gg
ru ce
re ally
ĠF ul
d rive
Ġexp ands
Ġlive lihood
ud o
rac use
ĠF i
ĠQuest ions
Ġpro let
Ġarbit ration
ĠJ P
ib a
Ġimpress ions
ĠE y
oper ation
ĠS ou
Ġ195 1
Ġtele communications
Ġaut obi
ord ered
ve illance
ish i
Ġsc aled
ess ment
S ex
Ġne oliberal
Ġjud gments
Ġe in
ĠT witch
ĠP ool
ir rel
F riend
Ġrel iably
Ġad here
Ġac oustic
ĠWe ber
Ġa ided
ĠS ina
ĠCre ated
Ġ19 18
O A
ĠAg es
pe x
Res earch
CL OSE
Ġrehe ars
Ġpump ed
ĠF E
ĠDani els
Ġ19 38
ĠGreen e
oc re
bet ter
Ġpromin ence
Ġde ception
ĠM ubarak
Ġstim ulate
Ġswing ing
ĠSub ject
ĠR iot
Ġincons ist
ĠN u
ev il
ĠSad ly
Ġfear ful
ĠL I
Ġde port
ĠAntar ctica
ron ting
Ġg n
Ġcondem ning
mod el
ĠMon itor
Or gan
Ġdiff ers
Ġsacrific es
ĠPhys ics
ĠWhe never
Ġgrad uating
on el
Ġteasp oon
ĠMart y
ĠMar riage
ĠHoff man
ĠCom pl
Ġprov oked
ĠM au
Com ments
ble ms
Ġjihad ist
ĠAna heim
ym ph
raft ed
ĠAl leg
F E
Ġg ast
Ġdisrupt ed
ĠAC T
Ġrou ter
ĠWol ver
Ġn ause
Ġdisgr ace
Ġtext ures
Ġb olt
ĠV II
ilib rium
ag netic
ĠStat us
Ġtermin ated
ĠR OM
Ġelev ation
ĠL inks
ĠHann ah
Ġpack et
d ates
Ġpir ate
Ġbull pen
let ion
j et
Ġconf ession
St ay
Ġori ented
Ġnostal gia
Ġ[ âĢ¦]
Ġhur ry
Ġcomp ute
aa a
Short ly
Ġtheat rical
Ġst ared
ĠSch wartz
ĠFinn ish
Ġcollabor ate
ĠTon ight
ĠManit oba
ĠS uff
B on
ĠI X
Ã ¦
Ġsubst it
Ġ11 4
ĠHist orical
ĠH ash
Ġheft y
Ġconserv atism
ĠCrit ics
Ġun sett
Ġres umed
ĠG ust
M oney
ĠR NA
Ġsky rock
Ġpir ates
ĠS z
Ġpossess es
ĠWik ileaks
Ġpresum ed
Ġmel ted
Ġbur dens
Ġwheel chair
Ġdownt urn
Ġ12 3
Ġtro lls
A ccess
Ð¾Ð »
ang ling
Ġend urance
Ġing en
Ġc apped
ĠElect ions
fashion ed
Ġre written
Ġl ays
Ġoverse es
F M
Ġmim ic
F re
Ġostens ibly
Ġtem pted
in ness
Japan ese
ĠB U
ad an
Ġconf inement
ĠRa q
Ã ´
L ow
Ġpun ches
Ġsc outs
Ġm og
Writ ten
Ġunfair ly
Ġkey word
per cent
l aughter
Ġw aving
Ġchrom os
ĠMic key
ĠDI Y
yr r
y g
g ic
Ġmon st
ĠOri oles
per fect
16 8
Ġth igh
Ġinsult s
indust rial
Ġrev ol
ĠV C
ff ield
ĠM H
in ion
ĠAr ray
ĠY ORK
ĠWill ie
ĠR anch
ĠKaz akh
c z
Sm all
Act ually
Ġfold ed
ĠID F
Ġgun shot
Ġban ana
ag i
Ġout ward
Ġentit lement
Ne il
Ġt ones
ow ler
D L
Ġviol ently
Ġrot ate
Ġharm less
or st
Ġa ce
Ġlegal ized
ĠUg anda
OT H
Ġguess ed
ĠBund es
ut able
Ġrec ap
Ġext r
ĠBook er
d ead
Ġgrav itational
[...]
