{
    "vocab": {
        "0": "Ā",
        "1": "ā",
        "2": "Ă",
        "3": "ă",
        "4": "Ą",
        "5": "ą",
        "6": "Ć",
        "7": "ć",
        "8": "Ĉ",
        "9": "ĉ",
        "10": "Ċ",
        "11": "ċ",
        "12": "Č",
        "13": "č",
        "14": "Ď",
        "15": "ď",
        "16": "Đ",
        "17": "đ",
        "18": "Ē",
        "19": "ē",
        "20": "Ĕ",
        "21": "ĕ",
        "22": "Ė",
        "23": "ė",
        "24": "Ę",
        "25": "ę",
        "26": "Ě",
        "27": "ě",
        "28": "Ĝ",
        "29": "ĝ",
        "30": "Ğ",
        "31": "ğ",
        "32": "Ġ",
        "33": "!",
        "34": "\"",
        "35": "#",
        "36": "$",
        "37": "%",
        "38": "&",
        "39": "'",
        "40": "(",
        "41": ")",
        "42": "*",
        "43": "+",
        "44": ",",
        "45": "-",
        "46": ".",
        "47": "/",
        "48": "0",
        "49": "1",
        "50": "2",
        "51": "3",
        "52": "4",
        "53": "5",
        "54": "6",
        "55": "7",
        "56": "8",
        "57": "9",
        "58": ":",
        "59": ";",
        "60": "<",
        "61": "=",
        "62": ">",
        "63": "?",
        "64": "@",
        "65": "A",
        "66": "B",
        "67": "C",
        "68": "D",
        "69": "E",
        "70": "F",
        "71": "G",
        "72": "H",
        "73": "I",
        "74": "J",
        "75": "K",
        "76": "L",
        "77": "M",
        "78": "N",
        "79": "O",
        "80": "P",
        "81": "Q",
        "82": "R",
        "83": "S",
        "84": "T",
        "85": "U",
        "86": "V",
        "87": "W",
        "88": "X",
        "89": "Y",
        "90": "Z",
        "91": "[",
        "92": "\\",
        "93": "]",
        "94": "^",
        "95": "_",
        "96": "`",
        "97": "a",
        "98": "b",
        "99": "c",
        "100": "d",
        "101": "e",
        "102": "f",
        "103": "g",
        "104": "h",
        "105": "i",
        "106": "j",
        "107": "k",
        "108": "l",
        "109": "m",
        "110": "n",
        "111": "o",
        "112": "p",
        "113": "q",
        "114": "r",
        "115": "s",
        "116": "t",
        "117": "u",
        "118": "v",
        "119": "w",
        "120": "x",
        "121": "y",
        "122": "z",
        "123": "{",
        "124": "|",
        "125": "}",
        "126": "~",
        "127": "ġ",
        "128": "Ģ",
        "129": "ģ",
        "130": "Ĥ",
        "131": "ĥ",
        "132": "Ħ",
        "133": "ħ",
        "134": "Ĩ",
        "135": "ĩ",
        "136": "Ī",
        "137": "ī",
        "138": "Ĭ",
        "139": "ĭ",
        "140": "Į",
        "141": "į",
        "142": "İ",
        "143": "ı",
        "144": "Ĳ",
        "145": "ĳ",
        "146": "Ĵ",
        "147": "ĵ",
        "148": "Ķ",
        "149": "ķ",
        "150": "ĸ",
        "151": "Ĺ",
        "152": "ĺ",
        "153": "Ļ",
        "154": "ļ",
        "155": "Ľ",
        "156": "ľ",
        "157": "Ŀ",
        "158": "ŀ",
        "159": "Ł",
        "160": "ł",
        "161": "¡",
        "162": "¢",
        "163": "£",
        "164": "¤",
        "165": "¥",
        "166": "¦",
        "167": "§",
        "168": "¨",
        "169": "©",
        "170": "ª",
        "171": "«",
        "172": "¬",
        "173": "Ń",
        "174": "®",
        "175": "¯",
        "176": "°",
        "177": "±",
        "178": "²",
        "179": "³",
        "180": "´",
        "181": "µ",
        "182": "¶",
        "183": "·",
        "184": "¸",
        "185": "¹",
        "186": "º",
        "187": "»",
        "188": "¼",
        "189": "½",
        "190": "¾",
        "191": "¿",
        "192": "À",
        "193": "Á",
        "194": "Â",
        "195": "Ã",
        "196": "Ä",
        "197": "Å",
        "198": "Æ",
        "199": "Ç",
        "200": "È",
        "201": "É",
        "202": "Ê",
        "203": "Ë",
        "204": "Ì",
        "205": "Í",
        "206": "Î",
        "207": "Ï",
        "208": "Ð",
        "209": "Ñ",
        "210": "Ò",
        "211": "Ó",
        "212": "Ô",
        "213": "Õ",
        "214": "Ö",
        "215": "×",
        "216": "Ø",
        "217": "Ù",
        "218": "Ú",
        "219": "Û",
        "220": "Ü",
        "221": "Ý",
        "222": "Þ",
        "223": "ß",
        "224": "à",
        "225": "á",
        "226": "â",
        "227": "ã",
        "228": "ä",
        "229": "å",
        "230": "æ",
        "231": "ç",
        "232": "è",
        "233": "é",
        "234": "ê",
        "235": "ë",
        "236": "ì",
        "237": "í",
        "238": "î",
        "239": "ï",
        "240": "ð",
        "241": "ñ",
        "242": "ò",
        "243": "ó",
        "244": "ô",
        "245": "õ",
        "246": "ö",
        "247": "÷",
        "248": "ø",
        "249": "ù",
        "250": "ú",
        "251": "û",
        "252": "ü",
        "253": "ý",
        "254": "þ",
        "255": "ÿ",
        "256": "<|endoftext|>",
        "257": "Ġt",
        "258": "he",
        "259": "Ġa",
        "260": "Ġs",
        "261": "Ġw",
        "262": "nd",
        "263": "Ġthe",
        "264": "ed",
        "265": "Ġb",
        "266": "Ġto",
        "267": "Ġand",
        "268": "Ġh",
        "269": "Ġf",
        "270": "in",
        "271": "ĠT",
        "272": "Ġwa",
        "273": "re",
        "274": "it",
        "275": "ou",
        "276": "Ġl",
        "277": "Ġd",
        "278": "Ġc",
        "279": "Ġp",
        "280": "ay",
        "281": "Ġm",
        "282": "er",
        "283": "Ġwas",
        "284": "om",
        "285": "ĠThe",
        "286": "Ġhe",
        "287": "is",
        "288": "ar",
        "289": "Ġn",
        "290": "im",
        "291": "on",
        "292": "Ġsa",
        "293": "id",
        "294": "ll",
        "295": "Ġha",
        "296": "Ġg",
        "297": "at",
        "298": "ĠS",
        "299": "ing",
        "300": "ot",
        "301": "en",
        "302": "an",
        "303": "le",
        "304": "or",
        "305": "ir",
        "306": "am",
        "307": "et",
        "308": "ĠH",
        "309": "Ġit",
        "310": "Ġth",
        "311": "ig",
        "312": "ĠThey",
        "313": "Ġin",
        "314": "il",
        "315": "Ġpl",
        "316": "ĠHe",
        "317": "Ġ\"",
        "318": "ow",
        "319": "ver",
        "320": "ri",
        "321": "ut",
        "322": "Ġbe",
        "323": "Ġu",
        "324": "Ġsaid",
        "325": "Ġplay",
        "326": "ith",
        "327": "Ġday",
        "328": "Ġwith",
        "329": "pp",
        "330": "On",
        "331": "Ġo",
        "332": "Ġy",
        "333": "oo",
        "334": "ked",
        "335": "Ġr",
        "336": "Ġher",
        "337": "ce",
        "338": "ĠI",
        "339": "ĠShe",
        "340": "ld",
        "341": "ĠTim",
        "342": "Ġhis",
        "343": "Ġst",
        "344": "ke",
        "345": "Ġe",
        "346": "Ġbig",
        "347": "nt",
        "348": "ck",
        "349": "Ġyou",
        "350": "very",
        "351": "st",
        "352": "ve",
        "353": "end",
        "354": "Ġon",
        "355": "un",
        "356": "Ġhapp",
        "357": "riend",
        "358": "Ġfriend",
        "359": "all",
        "360": "ily",
        "361": "ĠL",
        "362": "Ġthey",
        "363": "Ġwe",
        "364": "Ġhad",
        "365": "Ġnot",
        "366": "Ġli",
        "367": "Ġup",
        "368": "her",
        "369": "Ġwant",
        "370": "Ġof",
        "371": "ad",
        "372": "itt",
        "373": "se",
        "374": "ĠB",
        "375": "Ġdo",
        "376": "Ġhappy",
        "377": "ent",
        "378": "Ġvery",
        "379": "ĠM",
        "380": "es",
        "381": "Ġthat",
        "382": "Ġsaw",
        "383": "One",
        "384": "'s",
        "385": "ould",
        "386": "Ġmom",
        "387": "Ġfor",
        "388": "Ġsh",
        "389": "ittle",
        "390": "Ġlittle",
        "391": "Ġso",
        "392": "Ġshe",
        "393": "ch",
        "394": "ime",
        "395": "Ġne",
        "396": "Ġnam",
        "397": ".\"",
        "398": "Ġtime",
        "399": "Ġk",
        "400": "ound",
        "401": "Ġthere",
        "402": "Ġnamed",
        "403": "Ġsm",
        "404": "Ġbo",
        "405": "Ġwere",
        "406": "ĠLily",
        "407": "Ġwanted",
        "408": "Ġbut",
        "409": "out",
        "410": "The",
        "411": "Ġfriends",
        "412": "ved",
        "413": "!\"",
        "414": "ht",
        "415": "ĠTom",
        "416": "ird",
        "417": "el",
        "418": "Ġbird",
        "419": "al",
        "420": "Ġan",
        "421": "ake",
        "422": "Ġtoo",
        "423": "ome",
        "424": "ĠIt",
        "425": "ug",
        "426": "ide",
        "427": "Ġwent",
        "428": "Ġwh",
        "429": "Ġhel",
        "430": "Once",
        "431": "Ġis",
        "432": "Ġall",
        "433": "Ġhelp",
        "434": "ue",
        "435": "Ġloo",
        "436": "Ġlo",
        "437": "ter",
        "438": "ĠA",
        "439": "Ġupon",
        "440": "ry",
        "441": "ore",
        "442": "ind",
        "443": "Ġfun",
        "444": "get",
        "445": "Ġtoy",
        "446": "ill",
        "447": "ame",
        "448": "Ġas",
        "449": "Ġat",
        "450": "ra",
        "451": "Ġj",
        "452": "Ġdid",
        "453": "gether",
        "454": "Ġre",
        "455": "ur",
        "456": "Ġse",
        "457": "Ġtogether",
        "458": "ack",
        "459": "Ġcat",
        "460": "ly",
        "461": "Ġtre",
        "462": "ood",
        "463": "ic",
        "464": "ted",
        "465": "Ġdog",
        "466": "Ġcould",
        "467": "Ġcan",
        "468": "Ġtheir",
        "469": "ard",
        "470": "ec",
        "471": "ark",
        "472": "Ġgir",
        "473": "Ġplayed",
        "474": "Ġhim",
        "475": "Ġball",
        "476": "?\"",
        "477": "Ġgirl",
        "478": "way",
        "479": "Ġro",
        "480": "Ġgo",
        "481": "hed",
        "482": "my",
        "483": "Ġare",
        "484": "Ġout",
        "485": "Ġle",
        "486": "Ġfr",
        "487": "ain",
        "488": "Ġkn",
        "489": "hen",
        "490": "Ġthem",
        "491": "um",
        "492": "'t",
        "493": "ax",
        "494": "Ġsad",
        "495": "ul",
        "496": "Ġboy",
        "497": "Ġtree",
        "498": "other",
        "499": "Ġhave",
        "500": "Ġman",
        "501": "Ġcl",
        "502": "Ġloved",
        "503": "Ġlooked",
        "504": "oug",
        "505": "Ġfound",
        "506": "Ġsp",
        "507": "Ġstar",
        "508": "ĠSue",
        "509": "one",
        "510": "hing",
        "511": "Ġsc",
        "512": "Ġback",
        "513": "own",
        "514": "ĠMax",
        "515": "are",
        "516": "Ġlike",
        "517": "ful",
        "518": "side",
        "519": "Ġme",
        "520": "Ġbec",
        "521": "Ġpark",
        "522": "ight",
        "523": "ong",
        "524": "Ġcar",
        "525": "op",
        "526": "elt",
        "527": "ĠOne",
        "528": "Ġliked",
        "529": "Ġwould",
        "530": "Ġmake",
        "531": "round",
        "532": "Ġla",
        "533": "Ġfa",
        "534": "Ġfelt",
        "535": "You",
        "536": "ĠW",
        "537": "ell",
        "538": "Ġsee",
        "539": "ĠBut",
        "540": "omet",
        "541": "Ġasked",
        "542": "ag",
        "543": "Ġnew",
        "544": "Ġno",
        "545": "ice",
        "546": "ĠSam",
        "547": "ouse",
        "548": "Ġstarted",
        "549": "ared",
        "550": "Ġcame",
        "551": "ĠBen",
        "552": "Ġal",
        "553": "Ġother",
        "554": "ought",
        "555": "iled",
        "556": "Ġsomet",
        "557": "Ġag",
        "558": "Ġgood",
        "559": "Ġsmall",
        "560": "ss",
        "561": "Ġbr",
        "562": "Ġsmiled",
        "563": "Ġsay",
        "564": "ried",
        "565": "ade",
        "566": "ings",
        "567": "ob",
        "568": "pot",
        "569": "Ġwor",
        "570": "Ġfind",
        "571": "Ġex",
        "572": "ia",
        "573": "Ġaway",
        "574": "ty",
        "575": "Ġput",
        "576": "Ġwhat",
        "577": "Ġsomething",
        "578": "Ġco",
        "579": "Ġfrom",
        "580": "Ġmade",
        "581": "Ġthought",
        "582": "ened",
        "583": "Ġhome",
        "584": "Ġplaying",
        "585": "ook",
        "586": "Ġevery",
        "587": "Ġwal",
        "588": "Ġmu",
        "589": "uc",
        "590": "ach",
        "591": "arn",
        "592": "ĠSpot",
        "593": "Ġran",
        "594": "ile",
        "595": "ĠF",
        "596": "ie",
        "597": "ĠJ",
        "598": "ave",
        "599": "Ġagain",
        "600": "Ġsome",
        "601": "Ġlaug",
        "602": "dd",
        "603": "Ġhouse",
        "604": "Ġdown",
        "605": "Ġfl",
        "606": "king",
        "607": "Ġtook",
        "608": "Ġscared",
        "609": "Ġpr",
        "610": "ny",
        "611": "ure",
        "612": "Ġtoys",
        "613": "Ġlearn",
        "614": "ĠYou",
        "615": "if",
        "616": "Ġwill",
        "617": "Ġbox",
        "618": "ick",
        "619": "ret",
        "620": "ab",
        "621": "ep",
        "622": "Ġmy",
        "623": "Ġaround",
        "624": "Ġthings",
        "625": "Ġyour",
        "626": "oud",
        "627": "Ġbl",
        "628": "uck",
        "629": "Ġwhen",
        "630": "ish",
        "631": "Ġlived",
        "632": "Ġfe",
        "633": "Ġthen",
        "634": "Ġsun",
        "635": "as",
        "636": "Ġsw",
        "637": ",\"",
        "638": "Ġch",
        "639": "us",
        "640": "pped",
        "641": "Ġab",
        "642": "ĠMia",
        "643": "ank",
        "644": "Ġget",
        "645": "ucy",
        "646": "Tim",
        "647": "ump",
        "648": "Th",
        "649": "Ġlot",
        "650": "ist",
        "651": "oth",
        "652": "Ġtried",
        "653": "ap",
        "654": "Ġknow",
        "655": "Ġsays",
        "656": "Ġgot",
        "657": "ited",
        "658": "Ġwho",
        "659": "Ġkne",
        "660": "ust",
        "661": "Ġmany",
        "662": "nder",
        "663": "Ġint",
        "664": "Ġabout",
        "665": "Lily",
        "666": "Ġpret",
        "667": "Ġdec",
        "668": "Ġany",
        "669": "Ġred",
        "670": "ĠD",
        "671": "ive",
        "672": "Ġknew",
        "673": "ace",
        "674": "ous",
        "675": "Ġmore",
        "676": "ise",
        "677": "Ġcare",
        "678": "ally",
        "679": "Ġpic",
        "680": "au",
        "681": "qu",
        "682": "Ġhug",
        "683": "ĠLucy",
        "684": "Ġlearned",
        "685": "Ġpo",
        "686": "Ġwater",
        "687": "fter",
        "688": "Ġv",
        "689": "Ġbecame",
        "690": "Ġbest",
        "691": "ause",
        "692": "Ġop",
        "693": "Ġgre",
        "694": "Ġexc",
        "695": "urp",
        "696": "ways",
        "697": "âĢ",
        "698": "Ġoutside",
        "699": "Ġlaughed",
        "700": "Ġlook",
        "701": "Ġalways",
        "702": "Ġdecid",
        "703": "Ġshow",
        "704": "Ġun",
        "705": "ant",
        "706": "ĠBob",
        "707": "Ġroom",
        "708": "fe",
        "709": "Ġdecided",
        "710": "Ġho",
        "711": "Ġbecause",
        "712": "ĠSo",
        "713": "Ġinto",
        "714": "Ġeat",
        "715": "ite",
        "716": "Ġjump",
        "717": "ĠAnd",
        "718": "Ġpe",
        "719": "Ġboth",
        "720": "ers",
        "721": "ĠMom",
        "722": "Ġdad",
        "723": "They",
        "724": "udd",
        "725": "Ġke",
        "726": "Ġone",
        "727": "nn",
        "728": "Ġthis",
        "729": "Ġexcited",
        "730": "Ġfast",
        "731": "Ġnice",
        "732": "ĠE",
        "733": "Ġfeel",
        "734": "Tom",
        "735": "Yes",
        "736": "Ġrun",
        "737": "Ġlong",
        "738": "Ġtold",
        "739": "Ġsk",
        "740": "Ġam",
        "741": "urpr",
        "742": "our",
        "743": "Ġinside",
        "744": "ull",
        "745": "Ġtr",
        "746": "Ġsurpr",
        "747": "Ġmo",
        "748": "ink",
        "749": "Ġpretty",
        "750": "iny",
        "751": "Ġsor",
        "752": "Wh",
        "753": "Ġtake",
        "754": "og",
        "755": "Ġsl",
        "756": "Ġeach",
        "757": "Ġgave",
        "758": "Ġmuch",
        "759": "Ġgra",
        "760": "lew",
        "761": "nna",
        "762": "Ġrock",
        "763": "Ġhow",
        "764": "Ġstr",
        "765": "ara",
        "766": "imal",
        "767": "Ġanimal",
        "768": "ged",
        "769": "Ġneed",
        "770": "Ġthan",
        "771": "But",
        "772": "ven",
        "773": "etter",
        "774": "Ġtow",
        "775": "Ġor",
        "776": "ĠC",
        "777": "Ġunder",
        "778": "ess",
        "779": "Ġold",
        "780": "Ġsorry",
        "781": "ge",
        "782": "ised",
        "783": "ro",
        "784": "urt",
        "785": "Ġcle",
        "786": "Ġfish",
        "787": "Ġwalked",
        "788": "Ġclo",
        "789": "and",
        "790": "Ġbear",
        "791": "ft",
        "792": "ase",
        "793": "ast",
        "794": "Ġhand",
        "795": "urn",
        "796": "ĠWe",
        "797": "Ġkind",
        "798": "ĠHis",
        "799": "Ġte",
        "800": "here",
        "801": "Ġhappened",
        "802": "Ġjust",
        "803": "Ġflow",
        "804": "Ġfood",
        "805": "Ġlist",
        "806": "Ġdidn",
        "807": "Ġanimals",
        "808": "Ġhig",
        "809": "pl",
        "810": "Ġnear",
        "811": "Ġwat",
        "812": "Ġide",
        "813": "Ġtry",
        "814": "ched",
        "815": "Ġsky",
        "816": "ine",
        "817": "Ġsn",
        "818": "ving",
        "819": "Ġfi",
        "820": "rom",
        "821": "Ġus",
        "822": "Ġidea",
        "823": "Ġbetter",
        "824": "ĠAmy",
        "825": "Ġbug",
        "826": "Ġheard",
        "827": "gry",
        "828": "Ġits",
        "829": "Ġtw",
        "830": "Ġlet",
        "831": "pec",
        "832": "ate",
        "833": "able",
        "834": "ff",
        "835": "Ġen",
        "836": "Ġcareful",
        "837": "Ġshare",
        "838": "ex",
        "839": "Ġif",
        "840": "Thank",
        "841": "Mom",
        "842": "Ġfly",
        "843": "Ġstor",
        "844": "ial",
        "845": "Ġflew",
        "846": "more",
        "847": "Ġanymore",
        "848": "ĠTh",
        "849": "Ġspec",
        "850": "Ġspecial",
        "851": "ion",
        "852": "Ġcom",
        "853": "Ġlots",
        "854": "Ġnever",
        "855": "Ġby",
        "856": "lf",
        "857": "ream",
        "858": "Ġdan",
        "859": "Ġbu",
        "860": "Ġfo",
        "861": "Ġwind",
        "862": "Ġdon",
        "863": "Ġtal",
        "864": "Ġclean",
        "865": "ort",
        "866": "Ġgr",
        "867": "Ġlove",
        "868": "rm",
        "869": "ber",
        "870": "Ġend",
        "871": "ĊĊ",
        "872": "ĠThen",
        "873": "ople",
        "874": "Ġeven",
        "875": "Ġmag",
        "876": "Ġhard",
        "877": "Ġshiny",
        "878": "udden",
        "879": "Ġfore",
        "880": "Ġover",
        "881": "Ġcake",
        "882": "ak",
        "883": "Ġbook",
        "884": "Ġcol",
        "885": "Ġturn",
        "886": "Ġfam",
        "887": "Ġbad",
        "888": "Ġsafe",
        "889": "Ġafter",
        "890": "ady",
        "891": "ĠAnna",
        "892": "uddenly",
        "893": "Ġpeople",
        "894": "Ġproud",
        "895": "ĠEvery",
        "896": "Ġsurprised",
        "897": "pected",
        "898": "Let",
        "899": "Ġhigh",
        "900": "Ġcu",
        "901": "Ġhurt",
        "902": "Ġcome",
        "903": "imb",
        "904": "arden",
        "905": "Ġdoor",
        "906": "Ġgarden",
        "907": "bb",
        "908": "Ġground",
        "909": "Ġopened",
        "910": "Ġpicked",
        "911": "Ġloud",
        "912": "Ġclimb",
        "913": "expected",
        "914": "Ġunexpected",
        "915": "Ġgl",
        "916": "Ġche",
        "917": "ild",
        "918": "Ġim",
        "919": "As",
        "920": "Ġgive",
        "921": "Ġway",
        "922": "ail",
        "923": "'m",
        "924": "Ġthanked",
        "925": "Ġcolor",
        "926": "Ġblue",
        "927": "Ġstill",
        "928": "Ġever",
        "929": "Ġhugged",
        "930": "ĠFrom",
        "931": "Ġcall",
        "932": "Ġfar",
        "933": "ip",
        "934": "ĠHer",
        "935": "ĠSara",
        "936": "ĠWhen",
        "937": "No",
        "938": "Ġoff",
        "939": "Ġmagic",
        "940": "iz",
        "941": "ough",
        "942": "age",
        "943": "ummy",
        "944": "ĠK",
        "945": "Ġjumped",
        "946": "Ġshould",
        "947": "Ġfamily",
        "948": "Ġpar",
        "949": "ool",
        "950": "Ġkid",
        "951": "Ġsmile",
        "952": "hes",
        "953": "uff",
        "954": "Ġplace",
        "955": "kay",
        "956": "Ġwalk",
        "957": "Ġnow",
        "958": "ct",
        "959": "ĠIn",
        "960": "Ġgreat",
        "961": "em",
        "962": "ture",
        "963": "Ġqu",
        "964": "les",
        "965": "Ġstrong",
        "966": "Ġstay",
        "967": "Ġunt",
        "968": "Ġsto",
        "969": "aut",
        "970": "Ġforest",
        "971": "ane",
        "972": "Ġbra",
        "973": "itty",
        "974": "ĠP",
        "975": "Ġfrog",
        "976": "Ġbro",
        "977": "Ġuntil",
        "978": "oon",
        "979": "Ġbeaut",
        "980": "dy",
        "981": "Ġsqu",
        "982": "Ġstick",
        "983": "xt",
        "984": "Ġnext",
        "985": "Ġboat",
        "986": "lease",
        "987": "ning",
        "988": "Ġhappily",
        "989": "Ġlisten",
        "990": "aking",
        "991": "Ġkids",
        "992": "Ġtra",
        "993": "ies",
        "994": "iful",
        "995": "Ġbeautiful",
        "996": "Ġapp",
        "997": "th",
        "998": "Ġhelped",
        "999": "Ġdra",
        "1000": "Ġshowed",
        "1001": "Ġclos",
        "1002": "be",
        "1003": "Ġimp",
        "1004": "Ġstory",
        "1005": "unny",
        "1006": "oy",
        "1007": "Ġwhile",
        "1008": "Ġtown",
        "1009": "rel",
        "1010": "pt",
        "1011": "Ġrain",
        "1012": "ress",
        "1013": "Ġpicture",
        "1014": "Ġbeing",
        "1015": "Ġrem",
        "1016": "Ġeveryone",
        "1017": "It",
        "1018": "ary",
        "1019": "ree",
        "1020": "Ġmor",
        "1021": "Ġhat",
        "1022": "Ġcalled",
        "1023": "Ġmet",
        "1024": "Ġstopped",
        "1025": "Ġad",
        "1026": "Ġgame",
        "1027": "Now",
        "1028": "He",
        "1029": "Can",
        "1030": "Ġangry",
        "1031": "ger",
        "1032": "uffy",
        "1033": "Ġopen",
        "1034": "Ġwo",
        "1035": "Ġtruck",
        "1036": "Ġkeep",
        "1037": "Ġsoft",
        "1038": "When",
        "1039": "Ġcry",
        "1040": "Ġyummy",
        "1041": "Ġlost",
        "1042": "Ġbed",
        "1043": "ĠLet",
        "1044": "ĠSally",
        "1045": "Ġwarm",
        "1046": "by",
        "1047": "vent",
        "1048": "Ġbrave",
        "1049": "Ġmouse",
        "1050": "ĠWh",
        "1051": "Ġate",
        "1052": "ĠKitty",
        "1053": "ished",
        "1054": "Ġde",
        "1055": "fore",
        "1056": "Ġdoll",
        "1057": "so",
        "1058": "Ġcouldn",
        "1059": "Ġwatch",
        "1060": "Ġleave",
        "1061": "Ġalso",
        "1062": "dded",
        "1063": "Ġfell",
        "1064": "Ġgreen",
        "1065": "Ġface",
        "1066": "Ġtwo",
        "1067": "gan",
        "1068": "iss",
        "1069": "Ġflowers",
        "1070": "bit",
        "1071": "What",
        "1072": "ĠR",
        "1073": "ble",
        "1074": "Ġnoise",
        "1075": "abbit",
        "1076": "irst",
        "1077": "owl",
        "1078": "Ġwhere",
        "1079": "az",
        "1080": "ock",
        "1081": "Ġsoon",
        "1082": "self",
        "1083": "Ġslide",
        "1084": "Ġrabbit",
        "1085": "Ġhole",
        "1086": "luffy",
        "1087": "Ġbefore",
        "1088": "irrel",
        "1089": "Ġpus",
        "1090": "ired",
        "1091": "Ġsat",
        "1092": "illy",
        "1093": "Ġhear",
        "1094": "Ġuse",
        "1095": "âĢĿ",
        "1096": "Hi",
        "1097": "Ġpa",
        "1098": "Ġkept",
        "1099": "âĢľ",
        "1100": "That",
        "1101": "Ġsquirrel",
        "1102": "ear",
        "1103": "Then",
        "1104": "ma",
        "1105": "Ġnodded",
        "1106": "Ġexpl",
        "1107": "Ġstore",
        "1108": "Ġcook",
        "1109": "Ġhands",
        "1110": "Look",
        "1111": "Ġbirds",
        "1112": "Ġpain",
        "1113": "Ġgoing",
        "1114": "Ġfunny",
        "1115": "Ġhaving",
        "1116": "day",
        "1117": "Ġsing",
        "1118": "aybe",
        "1119": "uch",
        "1120": "Ġey",
        "1121": "aug",
        "1122": "Ġcatch",
        "1123": "aught",
        "1124": "ĠCan",
        "1125": "ĠFluffy",
        "1126": "uit",
        "1127": "Ġyell",
        "1128": "Ġthink",
        "1129": "leep",
        "1130": "Ġcra",
        "1131": "Ġfin",
        "1132": "Ben",
        "1133": "Ġbre",
        "1134": "Ġfix",
        "1135": "Ġtired",
        "1136": "Ġbunny",
        "1137": "Ġused",
        "1138": "Ġlooking",
        "1139": "Ġbus",
        "1140": "ange",
        "1141": "air",
        "1142": "Ġwork",
        "1143": "Ġwr",
        "1144": "Ġour",
        "1145": "Ġpull",
        "1146": "We",
        "1147": "Ġthr",
        "1148": "thing",
        "1149": "ĠNow",
        "1150": "Ġwait",
        "1151": "Ġkit",
        "1152": "Ġsound",
        "1153": "ting",
        "1154": "Ġjo",
        "1155": "Ġhas",
        "1156": "ĠG",
        "1157": "Ġmean",
        "1158": "Ġpond",
        "1159": "ember",
        "1160": "Ġbeh",
        "1161": "Ġdr",
        "1162": "Ġsunny",
        "1163": "led",
        "1164": "Ġothers",
        "1165": "Ġask",
        "1166": "ng",
        "1167": "chen",
        "1168": "Ġkitchen",
        "1169": "Ġtalk",
        "1170": "Ġflo",
        "1171": "Ġdif",
        "1172": "rew",
        "1173": "Ġpie",
        "1174": "ĠJo",
        "1175": "Ġhead",
        "1176": "Ġreal",
        "1177": "Ġfirst",
        "1178": "Ġtri",
        "1179": "Ġmommy",
        "1180": "Ġeyes",
        "1181": "ello",
        "1182": "Ġimport",
        "1183": "Hello",
        "1184": "Ġfav",
        "1185": "ath",
        "1186": "joy",
        "1187": "Ġz",
        "1188": "Ġremember",
        "1189": "Ġright",
        "1190": "Ġflower",
        "1191": "Ġcon",
        "1192": "Ġmess",
        "1193": "Ġparty",
        "1194": "Ġcold",
        "1195": "ĠDo",
        "1196": "Ġvo",
        "1197": "Ġswe",
        "1198": "ious",
        "1199": "Ġsand",
        "1200": "ĠâĢľ",
        "1201": "ac",
        "1202": "orn",
        "1203": "Ġrace",
        "1204": "Ġcuri",
        "1205": "imes",
        "1206": "Ġimportant",
        "1207": "Ġduck",
        "1208": "Ġmoral",
        "1209": "Ġshared",
        "1210": "zy",
        "1211": "ount",
        "1212": "ĠJack",
        "1213": "Ġice",
        "1214": "Ġokay",
        "1215": "Ġadvent",
        "1216": "Ġworked",
        "1217": "llow",
        "1218": "At",
        "1219": "Ġenjoy",
        "1220": "Ġdress",
        "1221": "Ġbright",
        "1222": "Ġmaking",
        "1223": "Ġcurious",
        "1224": "Ġown",
        "1225": "ded",
        "1226": "Ġtall",
        "1227": "Ġdir",
        "1228": "Ġhop",
        "1229": "reed",
        "1230": "Ġhid",
        "1231": "Ġfavor",
        "1232": "Ġri",
        "1233": "hn",
        "1234": "Ġsleep",
        "1235": "Ġdis",
        "1236": "Wow",
        "1237": "Ġfavorite",
        "1238": "Ġthing",
        "1239": "Ġbegan",
        "1240": "Ġmon",
        "1241": "Ġbag",
        "1242": "Ġhill",
        "1243": "Don",
        "1244": "Ġcla",
        "1245": "Ġdraw",
        "1246": "Ġrest",
        "1247": "Ġhere",
        "1248": "Ġyard",
        "1249": "Ġtell",
        "1250": "ĠFin",
        "1251": "ster",
        "1252": "Ġwatched",
        "1253": "que",
        "1254": "Ġfollow",
        "1255": "Ġmove",
        "1256": "Ġbel",
        "1257": "ect",
        "1258": "Ġcut",
        "1259": "Ġnight",
        "1260": "Ġagreed",
        "1261": "Ġpick",
        "1262": "co",
        "1263": "Ġblock",
        "1264": "Ġhun",
        "1265": "aper",
        "1266": "lly",
        "1267": "Ġstop",
        "1268": "Ġbehind",
        "1269": "ĠThis",
        "1270": "Ġsurprise",
        "1271": "ied",
        "1272": "Ġsho",
        "1273": "Ġhot",
        "1274": "After",
        "1275": "Ġtable",
        "1276": "Ġgrass",
        "1277": "Ġworry",
        "1278": "Ġdark",
        "1279": "Ġtrees",
        "1280": "Ġvoice",
        "1281": "Ġwalking",
        "1282": "ede",
        "1283": "fere",
        "1284": "Ġfloor",
        "1285": "Ġfarm",
        "1286": "Ġlion",
        "1287": "Ġtop",
        "1288": "Ġdiffere",
        "1289": "Ġplease",
        "1290": "Ġru",
        "1291": "Ġsong",
        "1292": "Ġbutter",
        "1293": "Ġtail",
        "1294": "Ġsweet",
        "1295": "Max",
        "1296": "Ġshout",
        "1297": "Ġcolors",
        "1298": "Ġread",
        "1299": "ĠDad",
        "1300": "Ġlady",
        "1301": "Ġforg",
        "1302": "isy",
        "1303": "Ġleaves",
        "1304": "Ġcloser",
        "1305": "ign",
        "1306": "Ġcars",
        "1307": "Ġturned",
        "1308": "Ġneeded",
        "1309": "Ġtast",
        "1310": "Why",
        "1311": "aring",
        "1312": "Ġwood",
        "1313": "Ġcried",
        "1314": "Ġdifferent",
        "1315": "Ġlaugh",
        "1316": "Ġdel",
        "1317": "Ġpiece",
        "1318": "âĢĻ",
        "1319": "ered",
        "1320": "ĠMr",
        "1321": "Ġroll",
        "1322": "Ġadventure",
        "1323": "Ġfire",
        "1324": "Ġdoes",
        "1325": "ike",
        "1326": "Ġcr",
        "1327": "Ġhungry",
        "1328": "Ġhair",
        "1329": "ĠSuddenly",
        "1330": "Ġpaper",
        "1331": "Ġfeeling",
        "1332": "Ġyellow",
        "1333": "Ġfull",
        "1334": "Ġprin",
        "1335": "bo",
        "1336": "Sue",
        "1337": "Ġtouch",
        "1338": "ĠAs",
        "1339": "Anna",
        "1340": "Sam",
        "1341": "Ġwet",
        "1342": "Ġfriendly",
        "1343": "Ġper",
        "1344": "oom",
        "1345": "ken",
        "1346": "cked",
        "1347": "ached",
        "1348": "Ġswing",
        "1349": "Ġfruit",
        "1350": "ient",
        "1351": "Ġbroken",
        "1352": "Ġready",
        "1353": "bye",
        "1354": "ppy",
        "1355": "Ġprom",
        "1356": "ĠThat",
        "1357": "Ġanother",
        "1358": "Ġlight",
        "1359": "Ġpretend",
        "1360": "Ġdance",
        "1361": "ater",
        "1362": "Ġclimbed",
        "1363": "where",
        "1364": "Ġlistened",
        "1365": "ĠBobo",
        "1366": "Ġdanc",
        "1367": "Ġrunning",
        "1368": "Ġonly",
        "1369": "Ġplan",
        "1370": "Ġgone",
        "1371": "Ġswim",
        "1372": "bbed",
        "1373": "Suddenly",
        "1374": "sh",
        "1375": "Ġtrain",
        "1376": "ila",
        "1377": "ndma",
        "1378": "Sara",
        "1379": "ĠJane",
        "1380": "Ġclose",
        "1381": "av",
        "1382": "She",
        "1383": "Ġsmell",
        "1384": "So",
        "1385": "aby",
        "1386": "Ġamaz",
        "1387": "Ġhold",
        "1388": "Ġblocks",
        "1389": "Ġwonder",
        "1390": "ĠTimmy",
        "1391": "Ġrepl",
        "1392": "ĠAll",
        "1393": "Ġbutterf",
        "1394": "Ġsees",
        "1395": "Ġreached",
        "1396": "Ġwall",
        "1397": "Ġpu",
        "1398": "oney",
        "1399": "red",
        "1400": "Ġslow",
        "1401": "Ġhelping",
        "1402": "Ġdri",
        "1403": "Ġcream",
        "1404": "Ġcool",
        "1405": "Ġglad",
        "1406": "af",
        "1407": "Ġant",
        "1408": "Ġless",
        "1409": "ging",
        "1410": "Ġbeen",
        "1411": "Ġgoodbye",
        "1412": "Ġac",
        "1413": "Ġfight",
        "1414": "ather",
        "1415": "Mia",
        "1416": "Ġpushed",
        "1417": "iced",
        "1418": "Ġfair",
        "1419": "Ġmust",
        "1420": "Ġhide",
        "1421": "Ġmoment",
        "1422": "Ġwindow",
        "1423": "ĠO",
        "1424": "Ġsit",
        "1425": "Ġballoon",
        "1426": "Ġsnow",
        "1427": "Ġchild",
        "1428": "Ġexplore",
        "1429": "ĠEveryone",
        "1430": "Ġar",
        "1431": "Ġwished",
        "1432": "Ġbaby",
        "1433": "Ġdone",
        "1434": "Ġwag",
        "1435": "Ġste",
        "1436": "Ġbuy",
        "1437": "Ġstuck",
        "1438": "Ġperf",
        "1439": "Ġthank",
        "1440": "Ġmight",
        "1441": "icy",
        "1442": "Ġname",
        "1443": "ized",
        "1444": "Ġtrying",
        "1445": "Ġbit",
        "1446": "Ġcoming",
        "1447": "Ġbar",
        "1448": "Ġquick",
        "1449": "Ġfall",
        "1450": "Ġapple",
        "1451": "ash",
        "1452": "Ġscary",
        "1453": "Ġlooks",
        "1454": "Ġbuild",
        "1455": "Ġdoing",
        "1456": "Ġwin",
        "1457": "Ġunderst",
        "1458": "aisy",
        "1459": "Ġdin",
        "1460": "Ġdream",
        "1461": "Ġdirty",
        "1462": "Ġheld",
        "1463": "ames",
        "1464": "Ġbooks",
        "1465": "Ġmar",
        "1466": "In",
        "1467": "Ġbutterfly",
        "1468": "Ġleft",
        "1469": "Ġshouted",
        "1470": "Ġcount",
        "1471": "Ġreplied",
        "1472": "avy",
        "1473": "Ġreach",
        "1474": "Ġtiny",
        "1475": "Ġthrough",
        "1476": "ott",
        "1477": "Ġdro",
        "1478": "Ġwhy",
        "1479": "Ġair",
        "1480": "Ġbran",
        "1481": "Ġland",
        "1482": "key",
        "1483": "Ġthree",
        "1484": "Ġpulled",
        "1485": "Ġspl",
        "1486": "Ġgrow",
        "1487": "Ġtreat",
        "1488": "Ġbrother",
        "1489": "Ġwise",
        "1490": "Ġwoods",
        "1491": "Ġsure",
        "1492": "'re",
        "1493": "Ġchair",
        "1494": "ix",
        "1495": "Ġmat",
        "1496": "ins",
        "1497": "Ġseen",
        "1498": "Ġpink",
        "1499": "Ġclapped",
        "1500": "Ġplant",
        "1501": "ely",
        "1502": "Ġowl",
        "1503": "Ġcup",
        "1504": "ield",
        "1505": "Ġsometimes",
        "1506": "andy",
        "1507": "Ġfill",
        "1508": "Ġcloud",
        "1509": "ask",
        "1510": "Ġswam",
        "1511": "outh",
        "1512": "Ġjob",
        "1513": "Ġcolorful",
        "1514": "Ġremembered",
        "1515": "Ġbigger",
        "1516": "Ġnest",
        "1517": "Ġmouth",
        "1518": "pe",
        "1519": "Okay",
        "1520": "Ġlesson",
        "1521": "Ġjoin",
        "1522": "Ġcre",
        "1523": "ph",
        "1524": "ĠThere",
        "1525": "oup",
        "1526": "room",
        "1527": "art",
        "1528": "Ġwaved",
        "1529": "uddy",
        "1530": "Ġgrabbed",
        "1531": "Ġstayed",
        "1532": "Oh",
        "1533": "Ġpaint",
        "1534": "This",
        "1535": "Ġclot",
        "1536": "Ġcont",
        "1537": "Ġclothes",
        "1538": "Ġve",
        "1539": "ower",
        "1540": "ĠAfter",
        "1541": "Ġwaited",
        "1542": "Ġquickly",
        "1543": "cle",
        "1544": "Ġword",
        "1545": "Ġbroke",
        "1546": "ucky",
        "1547": "Ġgames",
        "1548": "Ġcast",
        "1549": "Ġblew",
        "1550": "Ġgent",
        "1551": "ĠMommy",
        "1552": "Ġenjoyed",
        "1553": "Ġnoticed",
        "1554": "Jo",
        "1555": "ries",
        "1556": "ation",
        "1557": "Ġset",
        "1558": "Ġlikes",
        "1559": "Ġpictures",
        "1560": "ton",
        "1561": "Ġsea",
        "1562": "Ġheavy",
        "1563": "Ġmus",
        "1564": "Ġalone",
        "1565": "Ġgif",
        "1566": "asure",
        "1567": "Ġanything",
        "1568": "Ġspot",
        "1569": "Ġmiss",
        "1570": "Ġhopped",
        "1571": "Ġworld",
        "1572": "Ġturns",
        "1573": "orm",
        "1574": "Ġyear",
        "1575": "der",
        "1576": "Ġbott",
        "1577": "Ġpat",
        "1578": "Ġpot",
        "1579": "Ġpen",
        "1580": "lc",
        "1581": "Her",
        "1582": "Ġmix",
        "1583": "Ġarm",
        "1584": "Ġbike",
        "1585": "Ġtight",
        "1586": "Ġeverywhere",
        "1587": "Ġwon",
        "1588": "Lucy",
        "1589": "Ġtower",
        "1590": "Ġthrew",
        "1591": "Ġhimself",
        "1592": "Ġfollowed",
        "1593": "ĠBuddy",
        "1594": "Ġride",
        "1595": "man",
        "1596": "less",
        "1597": "Ġju",
        "1598": "Ġje",
        "1599": "amp",
        "1600": "Bob",
        "1601": "ape",
        "1602": "Ġcomp",
        "1603": "Ġkey",
        "1604": "row",
        "1605": "\".",
        "1606": "Ġwhite",
        "1607": "ctor",
        "1608": "Ġwrong",
        "1609": "ini",
        "1610": "ĠDaisy",
        "1611": "Ġmakes",
        "1612": "ĠWhat",
        "1613": "Ġbreak",
        "1614": "Ġblack",
        "1615": "arent",
        "1616": "ee",
        "1617": "ner",
        "1618": "Spot",
        "1619": "Do",
        "1620": "Ġdeep",
        "1621": "thy",
        "1622": "Ġmusic",
        "1623": "Ġpol",
        "1624": "Ġdelic",
        "1625": "nin",
        "1626": "cess",
        "1627": "ued",
        "1628": "Ġforgot",
        "1629": "Ġbee",
        "1630": "Ġparent",
        "1631": "Ġcastle",
        "1632": "ves",
        "1633": "olly",
        "1634": "Ġem",
        "1635": "ingin",
        "1636": "iet",
        "1637": "Ġwear",
        "1638": "Ġhit",
        "1639": "ister",
        "1640": "oun",
        "1641": "Ġquiet",
        "1642": "Ġround",
        "1643": "ance",
        "1644": "Ġstu",
        "1645": "Ġdanced",
        "1646": "Ġvis",
        "1647": "ully",
        "1648": "Ġwants",
        "1649": "Ġleaf",
        "1650": "Ġmonster",
        "1651": "Ġnap",
        "1652": "ĠJohn",
        "1653": "Ġunderstand",
        "1654": "Ġbowl",
        "1655": "os",
        "1656": "rot",
        "1657": "ren",
        "1658": "Ġbor",
        "1659": "Ġtalked",
        "1660": "itten",
        "1661": "Ġdry",
        "1662": "Ġfaster",
        "1663": "Ġcookies",
        "1664": "Ġbrought",
        "1665": "fully",
        "1666": "Ġleg",
        "1667": "ross",
        "1668": "Ġmum",
        "1669": "zz",
        "1670": "Ġside",
        "1671": "ts",
        "1672": "From",
        "1673": "Ġsign",
        "1674": "ĠInside",
        "1675": "Ġsmart",
        "1676": "ang",
        "1677": "cy",
        "1678": "Ġrocks",
        "1679": "Ġsomeone",
        "1680": "His",
        "1681": "Ġpoin",
        "1682": "Ġsec",
        "1683": "Ġsharing",
        "1684": "Ġfox",
        "1685": "Ġwell",
        "1686": "Ġres",
        "1687": "Ġrel",
        "1688": "Ġhappen",
        "1689": "Ġbutton",
        "1690": "Ġbranch",
        "1691": "ĠLila",
        "1692": "Ġreally",
        "1693": "Ġfinished",
        "1694": "ence",
        "1695": "ards",
        "1696": "Ġdinner",
        "1697": "Ġsister",
        "1698": "Ġflying",
        "1699": "eddy",
        "1700": "Ġcontin",
        "1701": "Ġworried",
        "1702": "Ġele",
        "1703": "ĠTo",
        "1704": "Ġvisit",
        "1705": "ĠMaybe",
        "1706": "Ġbeach",
        "1707": "Ġque",
        "1708": "Ġsecret",
        "1709": "Ġel",
        "1710": "ĠSarah",
        "1711": "Ġking",
        "1712": "John",
        "1713": "gy",
        "1714": "Ġtoday",
        "1715": "Ġperfect",
        "1716": "Ġriver",
        "1717": "Ġeverything",
        "1718": "Ġsilly",
        "1719": "ĠJoe",
        "1720": "Ġdanger",
        "1721": "ipp",
        "1722": "Ġchildren",
        "1723": "Ġgu",
        "1724": "ĠSoon",
        "1725": "Ġfield",
        "1726": "Ġfilled",
        "1727": "Ġfur",
        "1728": "Ġelse",
        "1729": "Ġsmiles",
        "1730": "Ġwelc",
        "1731": "ĠAt",
        "1732": "Ġshin",
        "1733": "Ġwish",
        "1734": "ĠEm",
        "1735": "While",
        "1736": "Ġsang",
        "1737": "Ġgi",
        "1738": "ze",
        "1739": "Ġpudd",
        "1740": "Ġsnack",
        "1741": "Ġeating",
        "1742": "Ġrealized",
        "1743": "Ġpieces",
        "1744": "Ġpromised",
        "1745": "Ġspr",
        "1746": "Ġpig",
        "1747": "Ġfree",
        "1748": "Ġcontinued",
        "1749": "Ġbite",
        "1750": "ead",
        "1751": "Ġparents",
        "1752": "Ġcarefully",
        "1753": "ated",
        "1754": "itting",
        "1755": "Ġear",
        "1756": "Just",
        "1757": "Ġjar",
        "1758": "Maybe",
        "1759": "Ġcow",
        "1760": "Amy",
        "1761": "Ġblank",
        "1762": "Ġdrag",
        "1763": "stead",
        "1764": "Ġorange",
        "1765": "Ġmud",
        "1766": "Ġcrying",
        "1767": "Ġblanket",
        "1768": "Ġenough",
        "1769": "Ġrolled",
        "1770": "cket",
        "1771": "Ġsoup",
        "1772": "Ġsail",
        "1773": "Ġpurp",
        "1774": "imi",
        "1775": "Ġyes",
        "1776": "ale",
        "1777": "Ġdrink",
        "1778": "Ġsnake",
        "1779": "ses",
        "1780": "Ġboun",
        "1781": "Ġpet",
        "1782": "Ġcrab",
        "1783": "Ġthrow",
        "1784": "Ġlaughing",
        "1785": "Ġfairy",
        "1786": "Ġwords",
        "1787": "Ġamazing",
        "1788": "Ġbath",
        "1789": "ich",
        "1790": "Ġpurple",
        "1791": "ĠZ",
        "1792": "Ġwithout",
        "1793": "ire",
        "1794": "ana",
        "1795": "Ġbottle",
        "1796": "ord",
        "1797": "ĠBilly",
        "1798": "Ġgift",
        "1799": "Ġgrandma",
        "1800": "Fin",
        "1801": "used",
        "1802": "ons",
        "1803": "Ġpast",
        "1804": "Ġmoney",
        "1805": "iver",
        "1806": "fort",
        "1807": "Ġmail",
        "1808": "ĠGra",
        "1809": "Ġbarked",
        "1810": "Ġwagged",
        "1811": "Ġatt",
        "1812": "chool",
        "1813": "Ġmonkey",
        "1814": "Ġdoctor",
        "1815": "unch",
        "1816": "Ġbrown",
        "1817": "Ġmoved",
        "1818": "ises",
        "1819": "Ġasks",
        "1820": "Ġgetting",
        "1821": "Ġclosed",
        "1822": "Ġwhe",
        "1823": "Ġwelcome",
        "1824": "Ġsu",
        "1825": "Ġcandy",
        "1826": "Ġschool",
        "1827": "Ġmorning",
        "1828": "Ġowner",
        "1829": "Ġlon",
        "1830": "Ġmother",
        "1831": "Ġhigher",
        "1832": "Ġsitting",
        "1833": "Ġtreasure",
        "1834": ".âĢĿ",
        "1835": "Ġsmo",
        "1836": "!âĢĿ",
        "1837": "gg",
        "1838": "Ġdangerous",
        "1839": "Ġlonely",
        "1840": "ĠCh",
        "1841": "Ġliving",
        "1842": "Ġapples",
        "1843": "ush",
        "1844": "Ġshop",
        "1845": "ased",
        "1846": "Ġstrange",
        "1847": "vel",
        "1848": "Ġshining",
        "1849": "Ġroad",
        "1850": "ere",
        "1851": "ĠTommy",
        "1852": "Ġcreat",
        "1853": "una",
        "1854": "Ġpaw",
        "1855": "ey",
        "1856": "Ġra",
        "1857": "Ġshoes",
        "1858": "Ġpre",
        "1859": "ible",
        "1860": "Ġ-",
        "1861": "Ġstre",
        "1862": "Ġtalking",
        "1863": "althy",
        "1864": "Ġcaught",
        "1865": "Ġegg",
        "1866": "ol",
        "1867": "Ġpass",
        "1868": "Ġlake",
        "1869": "Ġruns",
        "1870": "Ġbuck",
        "1871": "Ġletter",
        "1872": "Ġwings",
        "1873": "Ġchee",
        "1874": "fish",
        "1875": "Ġmad",
        "1876": "Ġfan",
        "1877": "asket",
        "1878": "Ġbasket",
        "1879": "ass",
        "1880": "Ġdragon",
        "1881": "app",
        "1882": "est",
        "1883": "Mommy",
        "1884": "set",
        "1885": "cks",
        "1886": "Ġstone",
        "1887": "Ġthinks",
        "1888": "Ġstand",
        "1889": "Ġdelicious",
        "1890": "Ġnose",
        "1891": "Ġpuddle",
        "1892": "Ġtom",
        "1893": "ĠBl",
        "1894": "ĠMimi",
        "1895": "Ġbelie",
        "1896": "Ġsam",
        "1897": "Ġfarmer",
        "1898": "Ġsame",
        "1899": "Ġyears",
        "1900": "board",
        "1901": "Ġteddy",
        "1902": "Ġbat",
        "1903": "isk",
        "1904": "itch",
        "1905": "Ġmine",
        "1906": "Ġsear",
        "1907": "Ġcoat",
        "1908": "ches",
        "1909": "igh",
        "1910": "Ġdays",
        "1911": "Ġbring",
        "1912": "Ġgentle",
        "1913": "Ġfit",
        "1914": "Ġstart",
        "1915": "Ġfinally",
        "1916": "Ġwhist",
        "1917": "Ġcray",
        "1918": "Ġscream",
        "1919": "Ġkite",
        "1920": "Ġpill",
        "1921": "phant",
        "1922": "arm",
        "1923": "Ġvill",
        "1924": "gly",
        "1925": "Ġcho",
        "1926": "Ġsinging",
        "1927": "ella",
        "1928": "sw",
        "1929": "ined",
        "1930": "Ġtasty",
        "1931": "Ġph",
        "1932": "Ġben",
        "1933": "Ġtrou",
        "1934": "Ġshell",
        "1935": "Ġherself",
        "1936": "Ġhoped",
        "1937": "Ġansw",
        "1938": "Ġwore",
        "1939": "Ġswings",
        "1940": "sy",
        "1941": "Ġhor",
        "1942": "Ġbelong",
        "1943": "Please",
        "1944": "Ġpush",
        "1945": "Ġbush",
        "1946": "iskers",
        "1947": "Ġcarrot",
        "1948": "Ġarri",
        "1949": "aughty",
        "1950": "Ġteach",
        "1951": "bow",
        "1952": "ract",
        "1953": "Ġnaughty",
        "1954": "Ġelephant",
        "1955": "Ġdropped",
        "1956": "Ġshap",
        "1957": "Ġcoll",
        "1958": "sc",
        "1959": "Ġteac",
        "1960": "emy",
        "1961": "Ġwoke",
        "1962": "ball",
        "1963": "Ġpile",
        "1964": "Ġhiding",
        "1965": "Ġcour",
        "1966": "isa",
        "1967": "erry",
        "1968": "Ġtouc",
        "1969": "Ġpuppy",
        "1970": "'ll",
        "1971": "Ġseem",
        "1972": "ier",
        "1973": "llie",
        "1974": "Ġmin",
        "1975": "Ġtwins",
        "1976": "ama",
        "1977": "Ġlunch",
        "1978": "Ġbow",
        "1979": "Ġsack",
        "1980": "Ġpers",
        "1981": "Ġcourse",
        "1982": "Ġcheered",
        "1983": "Ġshapes",
        "1984": "ĠJen",
        "1985": "Ġgrew",
        "1986": "fused",
        "1987": "Ġrope",
        "1988": "Ġvillage",
        "1989": "irth",
        "1990": "irthday",
        "1991": "Ġjuice",
        "1992": "ipped",
        "1993": "Ġrainbow",
        "1994": "Ġspin",
        "1995": "OK",
        "1996": "Ġshook",
        "1997": "Jack",
        "1998": "Ġspoon",
        "1999": "Ġbench",
        "2000": "Ġstreet",
        "2001": "Ġfence",
        "2002": "ĠFred",
        "2003": "Ġrob",
        "2004": "Ġnut",
        "2005": "Ġcheese",
        "2006": "Ġprob",
        "2007": "Ġcute",
        "2008": "Ġtouched",
        "2009": "idge",
        "2010": "col",
        "2011": "Ġjoy",
        "2012": "ĠWhiskers",
        "2013": "Ġarrived",
        "2014": "Ġseed",
        "2015": "Ġwar",
        "2016": "Ġteacher",
        "2017": "Ġcorn",
        "2018": "Good",
        "2019": "Ġforever",
        "2020": "Ġable",
        "2021": "Ġbell",
        "2022": "Ġfew",
        "2023": "Ġcarry",
        "2024": "Ġmost",
        "2025": "Ġplane",
        "2026": "ĠBlue",
        "2027": "lem",
        "2028": "Ġeas",
        "2029": "Ġsounds",
        "2030": "lla",
        "2031": "Ġdes",
        "2032": "Ġspo",
        "2033": "Ġproblem",
        "2034": "Ġbirthday",
        "2035": "Ġpower",
        "2036": "Ġinc",
        "2037": "umb",
        "2038": "br",
        "2039": "ĊĠ",
        "2040": "Ġbugs",
        "2041": "ilk",
        "2042": "Ġwonderful",
        "2043": "Ġdolls",
        "2044": "Ġbusy",
        "2045": "ato",
        "2046": "irp",
        "2047": "eb",
        "2048": "Ġwra",
        "2049": "Ġpromise",
        "2050": "ĠThank",
        "2051": "Ġfeels",
        "2052": "ĠEmma",
        "2053": "eter",
        "2054": "Ġbread",
        "2055": "Ġneck",
        "2056": "Finally",
        "2057": "Ġmilk",
        "2058": "Ġrobot",
        "2059": "Ġrec",
        "2060": "ian",
        "2061": "Ġshy",
        "2062": "ountain",
        "2063": "Ġkiss",
        "2064": "irt",
        "2065": "Ġheart",
        "2066": "Ġband",
        "2067": "Ġcave",
        "2068": "Ġpocket",
        "2069": "ub",
        "2070": "Ġhelpful",
        "2071": "Ġslowly",
        "2072": "Ġbelieve",
        "2073": "Ġshake",
        "2074": "umpy",
        "2075": "eared",
        "2076": "Ġpatient",
        "2077": "Ġpop",
        "2078": "Ġob",
        "2079": "arp",
        "2080": "Ġlive",
        "2081": "Ġstorm",
        "2082": "Ġholding",
        "2083": "Ġugly",
        "2084": "Ġtowards",
        "2085": "Ġupset",
        "2086": "Ġturt",
        "2087": "Ġshr",
        "2088": "adow",
        "2089": "Ġcover",
        "2090": "Ġkitten",
        "2091": "ost",
        "2092": "ĠRemy",
        "2093": "Ġsharp",
        "2094": "Ġdisapp",
        "2095": "Ġstories",
        "2096": "Ġsuc",
        "2097": "Ġhoney",
        "2098": "ove",
        "2099": "ĠBella",
        "2100": "read",
        "2101": "Ġnoises",
        "2102": "ĠLe",
        "2103": "Ġcir",
        "2104": "Ġballs",
        "2105": "Ġspark",
        "2106": "Ġgray",
        "2107": "Ġdist",
        "2108": "Ġdirt",
        "2109": "oggy",
        "2110": "Ġlate",
        "2111": "Ġdriver",
        "2112": "gle",
        "2113": "Ġseat",
        "2114": "Ġbucket",
        "2115": "Ġmeet",
        "2116": "Ġyoung",
        "2117": "Ġamazed",
        "2118": "alm",
        "2119": "Ġturtle",
        "2120": "Ġspid",
        "2121": "Ġtreats",
        "2122": "Ġmagical",
        "2123": "unt",
        "2124": "ator",
        "2125": "Ġglow",
        "2126": "Ġseek",
        "2127": "Ġzoom",
        "2128": "Ġlem",
        "2129": "Ġsandw",
        "2130": "fortable",
        "2131": "umber",
        "2132": "Ġtrip",
        "2133": "Ġmist",
        "2134": "ourn",
        "2135": "Ġsplas",
        "2136": "Ġmark",
        "2137": "Ġjourn",
        "2138": "Ġfold",
        "2139": "Ġmach",
        "2140": "Ġpuzz",
        "2141": "Ġpart",
        "2142": "ling",
        "2143": "Ġhorse",
        "2144": "Ġorgan",
        "2145": "Ġwild",
        "2146": "Ġprincess",
        "2147": "pping",
        "2148": "oose",
        "2149": "Ġcookie",
        "2150": "Sure",
        "2151": "ens",
        "2152": "Ġhugs",
        "2153": "ĠMark",
        "2154": "Ġtaking",
        "2155": "Ġwheel",
        "2156": "epend",
        "2157": "Ġcloth",
        "2158": "ĠLisa",
        "2159": "Ġsug",
        "2160": "Ġinstead",
        "2161": "Ġbubb",
        "2162": "Ġstring",
        "2163": "Ġrud",
        "2164": "Ġnet",
        "2165": "Ġdrove",
        "2166": "iling",
        "2167": "Ġrude",
        "2168": "Ġhuge",
        "2169": "ĠJim",
        "2170": "Ġcoin",
        "2171": "Ġstars",
        "2172": "Ġfighting",
        "2173": "Ġspicy",
        "2174": "Ġlucky",
        "2175": "Be",
        "2176": "Of",
        "2177": "Ġcraw",
        "2178": "Hey",
        "2179": "Ġbone",
        "2180": "Ġinv",
        "2181": "ĠGrandma",
        "2182": "ors",
        "2183": "not",
        "2184": "Ġca",
        "2185": "pper",
        "2186": "Ġforget",
        "2187": "up",
        "2188": "Ġdi",
        "2189": "aur",
        "2190": "Ġsal",
        "2191": "ĠFinally",
        "2192": "Ġcannot",
        "2193": "Ġwhistle",
        "2194": "Ġcard",
        "2195": "Ġsick",
        "2196": "Ġpath",
        "2197": "Ġcou",
        "2198": "Ġspider",
        "2199": "Ġwide",
        "2200": "Lila",
        "2201": "Ġfoot",
        "2202": "Ġsnowman",
        "2203": "Ġsongs",
        "2204": "Ġlife",
        "2205": "Ġpillow",
        "2206": "ize",
        "2207": "ular",
        "2208": "ĠJust",
        "2209": "Later",
        "2210": "ĠAnn",
        "2211": "ert",
        "2212": "Ġfixed",
        "2213": "Ġgiant",
        "2214": "oph",
        "2215": "rill",
        "2216": "Ġnod",
        "2217": "Ġboss",
        "2218": "Ġlast",
        "2219": "Ġcomes",
        "2220": "Ġjoke",
        "2221": "Ġmoon",
        "2222": "Ġtaste",
        "2223": "Ġmachine",
        "2224": "Ġgrumpy",
        "2225": "den",
        "2226": "Ġwave",
        "2227": "Ġthin",
        "2228": "Ġdrive",
        "2229": "Ġcart",
        "2230": "Ġash",
        "2231": "Ġser",
        "2232": "Ġgrab",
        "2233": "Ġpeace",
        "2234": "lower",
        "2235": "Ġdaddy",
        "2236": "ĠOn",
        "2237": "ĠLeo",
        "2238": "ery",
        "2239": "Ġsel",
        "2240": "Ġshelf",
        "2241": "Ġhidden",
        "2242": "erest",
        "2243": "Ġsuddenly",
        "2244": "Ġwasn",
        "2245": "Ġwrite",
        "2246": "Ġlanded",
        "2247": "Ġconfused",
        "2248": "Ġring",
        "2249": "Ġchange",
        "2250": "Ġworm",
        "2251": "Ġinterest",
        "2252": "Ġchased",
        "2253": "oop",
        "2254": "Ġfruits",
        "2255": "Ġsour",
        "2256": "ity",
        "2257": "Ġmyster",
        "2258": "Ġbark",
        "2259": "Ġrad",
        "2260": "Ġsmooth",
        "2261": "ĠCome",
        "2262": "Ġadventures",
        "2263": "Ġval",
        "2264": "Ġstepped",
        "2265": "Ġfle",
        "2266": "ope",
        "2267": "Ġoven",
        "2268": "Ġtakes",
        "2269": "Ġmissed",
        "2270": "Ġselfish",
        "2271": "kin",
        "2272": "Ġsheep",
        "2273": "Ġmessy",
        "2274": "To",
        "2275": "Ġacross",
        "2276": "Ġban",
        "2277": "Ġent",
        "2278": "Ġexp",
        "2279": "to",
        "2280": "Ġce",
        "2281": "Ġlater",
        "2282": "elly",
        "2283": "ĠN",
        "2284": "ife",
        "2285": "Ġsticks",
        "2286": "Ġtie",
        "2287": "St",
        "2288": "ever",
        "2289": "ĠLuna",
        "2290": "Ġstep",
        "2291": "Ġbought",
        "2292": "Ġdrew",
        "2293": "Ġtea",
        "2294": "pect",
        "2295": "irpy",
        "2296": "box",
        "2297": "?âĢĿ",
        "2298": "Ġwash",
        "2299": "Ġlay",
        "2300": "Ġpour",
        "2301": "Ġbeak",
        "2302": "ose",
        "2303": "Ġjog",
        "2304": "Ġgrate",
        "2305": "Ġducks",
        "2306": "Ġspe",
        "2307": "Ġlegs",
        "2308": "Ġdig",
        "2309": "Ġfil",
        "2310": "ĠBu",
        "2311": "Ġemp",
        "2312": "mer",
        "2313": "Ġhope",
        "2314": "Ġempty",
        "2315": "Ġslid",
        "2316": "Ġfeather",
        "2317": "Ġsleepy",
        "2318": "Ġdrum",
        "2319": "amed",
        "2320": "ars",
        "2321": "eth",
        "2322": "Ġzoo",
        "2323": "Ġpan",
        "2324": "Ġphone",
        "2325": "Ġgrateful",
        "2326": "Ġfing",
        "2327": "ions",
        "2328": "Ġlemon",
        "2329": "let",
        "2330": "ĠCat",
        "2331": "Ġclever",
        "2332": "ĠMolly",
        "2333": "Ġsmelly",
        "2334": "nan",
        "2335": "Ġimag",
        "2336": "Ġsplash",
        "2337": "Ġinteresting",
        "2338": "ĠJill",
        "2339": "Ġsave",
        "2340": "Ġchick",
        "2341": "Ġcalm",
        "2342": "Ġmed",
        "2343": "Ġwatching",
        "2344": "Soon",
        "2345": "izzy",
        "2346": "izz",
        "2347": "Ġplate",
        "2348": "Ġign",
        "2349": "yard",
        "2350": "Ġclouds",
        "2351": "Ġline",
        "2352": "Ġfaces",
        "2353": "Ġba",
        "2354": "Ġact",
        "2355": "Ġlift",
        "2356": "Ġthough",
        "2357": "Ġwolf",
        "2358": "Ġbackyard",
        "2359": "wel",
        "2360": "Ġseemed",
        "2361": "Ġdogs",
        "2362": "Ġspray",
        "2363": "Come",
        "2364": "Ġprot",
        "2365": "Ġwhole",
        "2366": "Ġmot",
        "2367": "Ġfancy",
        "2368": "ĠDaddy",
        "2369": "Ġquest",
        "2370": "Ġarms",
        "2371": "Ġpuzzle",
        "2372": "Ġhealthy",
        "2373": "Ġsupp",
        "2374": "ward",
        "2375": "Ġfinish",
        "2376": "erly",
        "2377": "Ġalong",
        "2378": "llo",
        "2379": "Ġrocket",
        "2380": "Ġexplain",
        "2381": "Ġrod",
        "2382": "dge",
        "2383": "Ġeasy",
        "2384": "Ġjewel",
        "2385": "ont",
        "2386": "Ġpract",
        "2387": "Ġjelly",
        "2388": "ĠChirpy",
        "2389": "Ġtid",
        "2390": "Ġfake",
        "2391": "Ġcrayons",
        "2392": "Ġwondered",
        "2393": "Ġmaybe",
        "2394": "Ġscar",
        "2395": "Ġship",
        "2396": "Ġnothing",
        "2397": "onest",
        "2398": "Ġemb",
        "2399": "iger",
        "2400": "Ġpool",
        "2401": "Ġlonger",
        "2402": "Ġanyone",
        "2403": "ĠBe",
        "2404": "ĠJerry",
        "2405": "ually",
        "2406": "Ġfront",
        "2407": "Ġworking",
        "2408": "Ġgives",
        "2409": "irr",
        "2410": "Ġpack",
        "2411": "Ġsuch",
        "2412": "ĠBunny",
        "2413": "ocked",
        "2414": "ment",
        "2415": "Ġbossy",
        "2416": "ĠDoggy",
        "2417": "Ġtrouble",
        "2418": "Ġsmelled",
        "2419": "Ġsaved",
        "2420": "Ġpin",
        "2421": "rass",
        "2422": "Ġneigh",
        "2423": "arrass",
        "2424": "iting",
        "2425": "Ġhonest",
        "2426": "Ġav",
        "2427": "arge",
        "2428": "Ġembarrass",
        "2429": "Ġvan",
        "2430": "Ġforgive",
        "2431": "Ġtidy",
        "2432": "Ġweak",
        "2433": "urse",
        "2434": "Ġputs",
        "2435": "unk",
        "2436": "Ġkick",
        "2437": "Ġshirt",
        "2438": "ĠWith",
        "2439": "Ġmind",
        "2440": "ĠOllie",
        "2441": "Ġneighb",
        "2442": "Ġplants",
        "2443": "Ġsol",
        "2444": "ĠMomo",
        "2445": "Ġgently",
        "2446": "Ġcozy",
        "2447": "orrow",
        "2448": "ming",
        "2449": "Ġexplor",
        "2450": "sp",
        "2451": "Ġmistake",
        "2452": "Ġyog",
        "2453": "oc",
        "2454": "oomy",
        "2455": "Ġpointed",
        "2456": "Ġlad",
        "2457": "Ġaf",
        "2458": "Ġstood",
        "2459": "ork",
        "2460": "Ġonto",
        "2461": "Ġwaiting",
        "2462": "Ġjumping",
        "2463": "Ġprince",
        "2464": "Ġcross",
        "2465": "Ġlock",
        "2466": "Ġcheer",
        "2467": "Ġqueen",
        "2468": "ĠWhy",
        "2469": "ĠMary",
        "2470": "Ġwing",
        "2471": "ones",
        "2472": "we",
        "2473": "Ġlarge",
        "2474": "Ġlovely",
        "2475": "ult",
        "2476": "Ġsur",
        "2477": "Ġret",
        "2478": "And",
        "2479": "Ġdeer",
        "2480": "Ġchew",
        "2481": "Ġcouch",
        "2482": "Ġbal",
        "2483": "aughter",
        "2484": "Ġstret",
        "2485": "era",
        "2486": "ĠTheir",
        "2487": "Ġplaces",
        "2488": "ĠMy",
        "2489": "Ġladder",
        "2490": "oof",
        "2491": "Ġreturn",
        "2492": "raid",
        "2493": "Ġants",
        "2494": "Ġdish",
        "2495": "Ġafraid",
        "2496": "Ġcleaned",
        "2497": "Ġtomorrow",
        "2498": "Ġbuilding",
        "2499": "Ġsandwich",
        "2500": "Ġperson",
        "2501": "Sally",
        "2502": "ned",
        "2503": "Ġpretended",
        "2504": "Ġbounce",
        "2505": "Ġwip",
        "2506": "gest",
        "2507": "Ġmatch",
        "2508": "Ġrich",
        "2509": "uce",
        "2510": "Ġpizz",
        "2511": "Ġgather",
        "2512": "Ġsearch",
        "2513": "Ġboring",
        "2514": "oman",
        "2515": "ĠSomet",
        "2516": "Ġteeth",
        "2517": "Ġhum",
        "2518": "Kitty",
        "2519": "My",
        "2520": "aced",
        "2521": "Ġdaughter",
        "2522": "Ġwoman",
        "2523": "Ġscarf",
        "2524": "Ġgoes",
        "2525": "ĠTogether",
        "2526": "Ġlaw",
        "2527": "Ġstra",
        "2528": "Ġswimming",
        "2529": "Ġfurry",
        "2530": "Ġsplashed",
        "2531": "Ġpri",
        "2532": "Ġloves",
        "2533": "Ġtrue",
        "2534": "Ġscreamed",
        "2535": "Ġlazy",
        "2536": "Ġgen",
        "2537": "Ġanswer",
        "2538": "Ġnumber",
        "2539": "Ġeag",
        "2540": "Ġashamed",
        "2541": "Ġpizza",
        "2542": "aw",
        "2543": "Ġappeared",
        "2544": "Ġfear",
        "2545": "Ġnearby",
        "2546": "Ġpowerful",
        "2547": "Ġflag",
        "2548": "ĠSt",
        "2549": "Ġhang",
        "2550": "vous",
        "2551": "Ġclown",
        "2552": "ek",
        "2553": "Ġchase",
        "2554": "Ġmotor",
        "2555": "Ġwand",
        "2556": "ĠTV",
        "2557": "Ġrub",
        "2558": "Ġsuccess",
        "2559": "Ġchocol",
        "2560": "ĠIf",
        "2561": "Ġcreative",
        "2562": "Ġtrust",
        "2563": "Ġwearing",
        "2564": "Ġnoisy",
        "2565": "Ġmatter",
        "2566": "pa",
        "2567": "Ġhello",
        "2568": "Ġner",
        "2569": "Ġtool",
        "2570": "Ġsaf",
        "2571": "ĠBird",
        "2572": "ado",
        "2573": "Ġnervous",
        "2574": "elp",
        "2575": "Ġtest",
        "2576": "Ġsmiling",
        "2577": "Ġsold",
        "2578": "icked",
        "2579": "oppy",
        "2580": "osaur",
        "2581": "Ġcircle",
        "2582": "mb",
        "2583": "Ġmap",
        "2584": "Ġdrank",
        "2585": "Ġclass",
        "2586": "Ġtries",
        "2587": "Ġchocolate",
        "2588": "ĠPlease",
        "2589": "Ġimpress",
        "2590": "Ġknee",
        "2591": "Ġgener",
        "2592": "Ġdinosaur",
        "2593": "Ġpolite",
        "2594": "Ġmirr",
        "2595": "ĠBobby",
        "2596": "ĠTiny",
        "2597": "Ġballoons",
        "2598": "Ġgold",
        "2599": "Ġrare",
        "2600": "Ġprotect",
        "2601": "Ġcand",
        "2602": "Stop",
        "2603": "Ġcarried",
        "2604": "ĠGo",
        "2605": "ensive",
        "2606": "Ġap",
        "2607": "Ġshadow",
        "2608": "Ġmirror",
        "2609": "gled",
        "2610": "ĠDon",
        "2611": "Ġbald",
        "2612": "Ġgun",
        "2613": "ina",
        "2614": "Ġexpensive",
        "2615": "Ġreg",
        "2616": "iff",
        "2617": "Ġmysterious",
        "2618": "ĠSp",
        "2619": "Ġpump",
        "2620": "Ġnote",
        "2621": "Ġhero",
        "2622": "Ġmarch",
        "2623": "Ġhar",
        "2624": "arl",
        "2625": "Ġicy",
        "2626": "Ġrespect",
        "2627": "Ġweird",
        "2628": "Ġsnee",
        "2629": "Ġcri",
        "2630": "Ġgate",
        "2631": "Ġsoap",
        "2632": "ute",
        "2633": "issors",
        "2634": "Ġthese",
        "2635": "Ġpoor",
        "2636": "Ġtowel",
        "2637": "Ġwhale",
        "2638": "Ġfeet",
        "2639": "Ġtape",
        "2640": "Ġdizzy",
        "2641": "itter",
        "2642": "Ġgenerous",
        "2643": "ndpa",
        "2644": "Ġpres",
        "2645": "ĠBenny",
        "2646": "nic",
        "2647": "Ġdisco",
        "2648": "Help",
        "2649": "ventually",
        "2650": "Ġpicnic",
        "2651": "Ġmic",
        "2652": "Ġlead",
        "2653": "Ġsque",
        "2654": "Ġembarrassed",
        "2655": "Ġjourney",
        "2656": "Ġsugar",
        "2657": "isp",
        "2658": "scape",
        "2659": "Ġboot",
        "2660": "Ġtent",
        "2661": "Ġpeaceful",
        "2662": "Ġfat",
        "2663": "ĠBear",
        "2664": "Ġscissors",
        "2665": "Ġtasted",
        "2666": "Ġyelled",
        "2667": "Tommy",
        "2668": "Ġtick",
        "2669": "Ġmel",
        "2670": "Ġbrush",
        "2671": "Ġdancing",
        "2672": "ness",
        "2673": "Ġglue",
        "2674": "Ġhur",
        "2675": "Ġrough",
        "2676": "Ġclap",
        "2677": "Ġbridge",
        "2678": "ote",
        "2679": "Ġdecor",
        "2680": "Ġcloset",
        "2681": "Ġcrown",
        "2682": "Ġstir",
        "2683": "ual",
        "2684": "imp",
        "2685": "Ġprint",
        "2686": "ĠSometimes",
        "2687": "owed",
        "2688": "airs",
        "2689": "ĠHow",
        "2690": "ume",
        "2691": "Ġcap",
        "2692": "Ġmod",
        "2693": "Ġlamp",
        "2694": "Ġvase",
        "2695": "Ġscare",
        "2696": "Ġgig",
        "2697": "lebr",
        "2698": "Ġrelie",
        "2699": "lves",
        "2700": "any",
        "2701": "Ġeld",
        "2702": "Ġtele",
        "2703": "Ġcelebr",
        "2704": "Ġwhisp",
        "2705": "Ġlog",
        "2706": "Ġsco",
        "2707": "Ġblow",
        "2708": "rag",
        "2709": "Ġpainted",
        "2710": "ĠDucky",
        "2711": "Ġpay",
        "2712": "erries",
        "2713": "Ġwis",
        "2714": "Ġberries",
        "2715": "Ġmixed",
        "2716": "Ġspread",
        "2717": "Ġwouldn",
        "2718": "Ġcage",
        "2719": "Ġbake",
        "2720": "rob",
        "2721": "getable",
        "2722": "Ġmountain",
        "2723": "Ġadm",
        "2724": "Ġdrawing",
        "2725": "Ġbecome",
        "2726": "Ġfamous",
        "2727": "Ġknocked",
        "2728": "Ġbean",
        "2729": "Ġnorm",
        "2730": "Ġvegetable",
        "2731": "asp",
        "2732": "Ġkicked",
        "2733": "ustr",
        "2734": "Ġshark",
        "2735": "ser",
        "2736": "Ġincred",
        "2737": "Ġlose",
        "2738": "Ġnormal",
        "2739": "Ġwrap",
        "2740": "ced",
        "2741": "Ġgroup",
        "2742": "Ġthick",
        "2743": "Ġ3",
        "2744": "Ġfine",
        "2745": "Ġglass",
        "2746": "Ġignor",
        "2747": "Ġclock",
        "2748": "Ġteam",
        "2749": "Ġelderly",
        "2750": "Ġclear",
        "2751": "Ġcorner",
        "2752": "Ġfrustr",
        "2753": "Ġmighty",
        "2754": "robe",
        "2755": "Ġcone",
        "2756": "Ġincredible",
        "2757": "ĠBr",
        "2758": "ighed",
        "2759": "Dad",
        "2760": "Ġmoms",
        "2761": "Ġbalance",
        "2762": "Ġsock",
        "2763": "Ġspace",
        "2764": "Ġjam",
        "2765": "ragile",
        "2766": "Ġfright",
        "2767": "Ġorganized",
        "2768": "Ġbranches",
        "2769": "Ġroar",
        "2770": "port",
        "2771": "Ġsword",
        "2772": "alous",
        "2773": "ĠMama",
        "2774": "Ġguess",
        "2775": "Ġfool",
        "2776": "Ġsell",
        "2777": "Ġfeed",
        "2778": "ĠSome",
        "2779": "Ġwhich",
        "2780": "Ġhorn",
        "2781": "Ġpresent",
        "2782": "Ġjealous",
        "2783": "Ġyarn",
        "2784": "ony",
        "2785": "Ġfragile",
        "2786": "Ġburn",
        "2787": "Ġunderstood",
        "2788": "Ġmis",
        "2789": "Ġstubb",
        "2790": "Ġter",
        "2791": "Ġfrustrated",
        "2792": "Where",
        "2793": "ray",
        "2794": "Ġhose",
        "2795": "cient",
        "2796": "Ġspent",
        "2797": "Ġshoe",
        "2798": "Ġtaught",
        "2799": "Ġstubborn",
        "2800": "Ġtwist",
        "2801": "Ġchan",
        "2802": "Ġcreature",
        "2803": "Ġchest",
        "2804": "Ġspoiled",
        "2805": "Ġrelieved",
        "2806": "ym",
        "2807": "Ġancient",
        "2808": "ique",
        "2809": "Ġwake",
        "2810": "Ġfier",
        "2811": "Ġpray",
        "2812": "Ġfierce",
        "2813": "Ġeggs",
        "2814": "Ġcab",
        "2815": "Ġterri",
        "2816": "Ġbarn",
        "2817": "Ġord",
        "2818": "Ġpumpkin",
        "2819": "Ġcomfortable",
        "2820": "Ġfrightened",
        "2821": "orry",
        "2822": "Ġtoug",
        "2823": "Ġunique",
        "2824": "Ġmeasure",
        "2825": "Ġgoat",
        "2826": "Ġwagon",
        "2827": "Ġunus",
        "2828": "Ġbreath",
        "2829": "Ġfoolish",
        "2830": "Ġuseful",
        "2831": "Ġexploring",
        "2832": "dle",
        "2833": "Ġstraw",
        "2834": "Ġunusual",
        "2835": "Ġdug",
        "2836": "Ġclay",
        "2837": "Ġdiscover",
        "2838": "Ġtomato",
        "2839": "ĠPe",
        "2840": "Ġdead",
        "2841": "Ġfinding",
        "2842": "Ġpolice",
        "2843": "Ġwrote",
        "2844": "Ġclum",
        "2845": "Ġexam",
        "2846": "lace",
        "2847": "Ġwaves",
        "2848": "Ġsquare",
        "2849": "Ġhears",
        "2850": "Ġcabin",
        "2851": "Ġtells",
        "2852": "Ġnecklace",
        "2853": "Ġdull",
        "2854": "Ġclumsy",
        "2855": "Ġtough",
        "2856": "Ġbubbles",
        "2857": "Ġnosy",
        "2858": "kn",
        "2859": "Ġsearched",
        "2860": "Together",
        "2861": "Ġwashed",
        "2862": "Ġbathroom",
        "2863": "Ġpaws",
        "2864": "bby",
        "2865": "ond",
        "2866": "unn",
        "2867": "Ġboard",
        "2868": "fic",
        "2869": "known",
        "2870": "Ġasking",
        "2871": "Ġcrazy",
        "2872": "Ġthankful",
        "2873": "Ġsunf",
        "2874": "Ġbitter",
        "2875": "yal",
        "2876": "Ġpir",
        "2877": "berry",
        "2878": "alk",
        "2879": "Ġind",
        "2880": "Ġdiffic",
        "2881": "Ġrose",
        "2882": "cil",
        "2883": "Ġswan",
        "2884": "Ġbloom",
        "2885": "Ġunknown",
        "2886": "ĠElla",
        "2887": "Ġcovered",
        "2888": "Ġdifficult",
        "2889": "Ġadd",
        "2890": "Ġpencil",
        "2891": "Ġfinger",
        "2892": "Ġham",
        "2893": "Ġhoop",
        "2894": "Ġjet",
        "2895": "Ġwitch",
        "2896": "Ġdrop",
        "2897": "Me",
        "2898": "Ġ'",
        "2899": "Ġchicken",
        "2900": "Ġgloomy",
        "2901": "apped",
        "2902": "Ġloyal",
        "2903": "als",
        "2904": "Here",
        "2905": "Ġwealthy",
        "2906": "com",
        "2907": "light",
        "2908": "Ġunl",
        "2909": "Ġcats",
        "2910": "Ġending",
        "2911": "Ġguit",
        "2912": "bled",
        "2913": "shine",
        "2914": "Ġdove",
        "2915": "Ġjoined",
        "2916": "Ġcher",
        "2917": "anut",
        "2918": "Ġmov",
        "2919": "Ġterrible",
        "2920": "Ġyours",
        "2921": "iant",
        "2922": "ĠU",
        "2923": "ĠRex",
        "2924": "Ġsalad",
        "2925": "ĠAndy",
        "2926": "Ġnuts",
        "2927": "Ġrat",
        "2928": "ground",
        "2929": "Ġtiger",
        "2930": "Ġpotato",
        "2931": "Ġmask",
        "2932": "xible",
        "2933": "selves",
        "2934": "Ġvalue",
        "2935": "Ġchanged",
        "2936": "Ġmoving",
        "2937": "Ġexciting",
        "2938": "ormous",
        "2939": "ĠMany",
        "2940": "Ġbody",
        "2941": "ĠTr",
        "2942": "Ġtoast",
        "2943": "erp",
        "2944": "Ġzip",
        "2945": "Ġdisg",
        "2946": "Ġcheap",
        "2947": "Ġguitar",
        "2948": "irsty",
        "2949": "Ġknowing",
        "2950": "Ġadventur",
        "2951": "Ġyourself",
        "2952": "Ġenormous",
        "2953": "Ġhairy",
        "2954": "Every",
        "2955": "Ġshoot",
        "2956": "ĠBrown",
        "2957": "Ġbored",
        "2958": "Ġpepper",
        "2959": "Ġremind",
        "2960": "ory",
        "2961": "land",
        "2962": "Ġacorn",
        "2963": "Ġadventurous",
        "2964": "Ġsunshine",
        "2965": "Ġsmaller",
        "2966": "Ġstuff",
        "2967": "Ġhats",
        "2968": "Ġsolve",
        "2969": "ĠJimmy",
        "2970": "Ġflexible",
        "2971": "Ġcost",
        "2972": "rilliant",
        "2973": "Ġknife",
        "2974": "Ġperform",
        "2975": "Ġsnacks",
        "2976": "Ġnods",
        "2977": "Ġshore",
        "2978": "Ġbrilliant",
        "2979": "Ġthirsty",
        "2980": "Ġdelicate",
        "2981": "Ġfrown",
        "2982": "Ġdisgust",
        "2983": "Ġcollect",
        "2984": "Ġstri",
        "2985": "Ġseeds",
        "2986": "Ġcounted",
        "2987": "Ġasleep",
        "2988": "Ġbanana",
        "2989": "reen",
        "2990": "Ġmailbox",
        "2991": "iness",
        "2992": "Ġdough",
        "2993": "Ġtrick",
        "2994": "Ġneighbor",
        "2995": "ungle",
        "2996": "Ġheal",
        "2997": "live",
        "2998": "Who",
        "2999": "Ġstage",
        "3000": "ident",
        "3001": "Ġmarket",
        "3002": "Ġcube",
        "3003": "Ġstat",
        "3004": "Ġjungle",
        "3005": "Ġsquee",
        "3006": "mbre",
        "3007": "Ġexplained",
        "3008": "ates",
        "3009": "Ġumbre",
        "3010": "Ġdisgusting",
        "3011": "Jim",
        "3012": "fted",
        "3013": "Ġlab",
        "3014": "Ġjolly",
        "3015": "Ġflash",
        "3016": "und",
        "3017": "Ġfridge",
        "3018": "inal",
        "3019": "pid",
        "3020": "ilt",
        "3021": "Ġcrane",
        "3022": "corn",
        "3023": "Ġsuit",
        "3024": "Ġrh",
        "3025": "iddle",
        "3026": "Ġsunflower",
        "3027": "Ġtimes",
        "3028": "ĠAl",
        "3029": "erpill",
        "3030": "Ġcaterpill",
        "3031": "Ġrelax",
        "3032": "Ġshiver",
        "3033": "Ġfour",
        "3034": "Ġisland",
        "3035": "iginal",
        "3036": "Ġharm",
        "3037": "ict",
        "3038": "ĠWhile",
        "3039": "ying",
        "3040": "Ġstupid",
        "3041": "Ġmedic",
        "3042": "ĠInstead",
        "3043": "Ġcomb",
        "3044": "Ġgoose",
        "3045": "Ġcro",
        "3046": "edient",
        "3047": "ĠWill",
        "3048": "Ġstove",
        "3049": "If",
        "3050": "Are",
        "3051": "Ġindepend",
        "3052": "Mum",
        "3053": "most",
        "3054": "Ġspring",
        "3055": "Ġgem",
        "3056": "Ġbatter",
        "3057": "Ġsighed",
        "3058": "Ġvegetables",
        "3059": "Ġstones",
        "3060": "pes",
        "3061": "Ġshine",
        "3062": "How",
        "3063": "Ġmedicine",
        "3064": "Ġdepend",
        "3065": "Ġrug",
        "3066": "ĠYour",
        "3067": "Ġcareless",
        "3068": "Ġoriginal",
        "3069": "Ġstamp",
        "3070": "Ġgar",
        "3071": "Ġcries",
        "3072": "Inside",
        "3073": "gu",
        "3074": "Ġcarrots",
        "3075": "Ġscr",
        "3076": "Ġsuccessful",
        "3077": "Ġsauce",
        "3078": "Ġjeep",
        "3079": "Ġpopcorn",
        "3080": "Ġmeal",
        "3081": "Ġobedient",
        "3082": "Ġalmost",
        "3083": "Ġmiddle",
        "3084": "Ġmagn",
        "3085": "Ġstudy",
        "3086": "Ġindependent",
        "3087": "Ġfearful",
        "3088": "Ġjack",
        "3089": "met",
        "3090": "inky",
        "3091": "Sorry",
        "3092": "ĠSammy",
        "3093": "Ġescape",
        "3094": "Ġcaterpillar",
        "3095": "Ġserious",
        "3096": "Ġpeanut",
        "3097": "Ġbedroom",
        "3098": "Ġeager",
        "3099": "aken",
        "3100": "Ġgets",
        "3101": "ung",
        "3102": "Ġparrot",
        "3103": "Ġstatue",
        "3104": "Ġhelmet",
        "3105": "Ġpebb",
        "3106": "ĠNo",
        "3107": "Ġfountain",
        "3108": "Ġraven",
        "3109": "Ġpasta",
        "3110": "Ġumbrella",
        "3111": "Ġcompet",
        "3112": "There",
        "3113": "Ġjacket",
        "3114": "Ġbelonged",
        "3115": "Ġdest",
        "3116": "Ġfilthy",
        "3117": "Ġang",
        "3118": "Ġdesign",
        "3119": "Ġborrow",
        "3120": "Ġcam",
        "3121": "erable",
        "3122": "Ġhouses",
        "3123": "Ġprize",
        "3124": "Ġhay",
        "3125": "Ġbrace",
        "3126": "Ġstanding",
        "3127": "Ġmiserable",
        "3128": "Ġraced",
        "3129": "Ġtaken",
        "3130": "ages",
        "3131": "Ġfork",
        "3132": "Ġcrayon",
        "3133": "Ġpainting",
        "3134": "io",
        "3135": "Ġtriang",
        "3136": "Ġjug",
        "3137": "Ġimpressive",
        "3138": "Ġchoose",
        "3139": "Ġfig",
        "3140": "Ġtied",
        "3141": "iable",
        "3142": "Ġspotted",
        "3143": "Ġlifted",
        "3144": "Ġslipped",
        "3145": "ours",
        "3146": "Ġtank",
        "3147": "Ġthoughtful",
        "3148": "Ġdependable",
        "3149": "Ġsteal",
        "3150": "Ġgarage",
        "3151": "enny",
        "3152": "Ġbuilt",
        "3153": "Ġmush",
        "3154": "Ġer",
        "3155": "ipe",
        "3156": "Ġmole",
        "3157": "Ġcrawled",
        "3158": "Ġscale",
        "3159": "Ġboats",
        "3160": "Ġpian",
        "3161": "Ġpant",
        "3162": "Ġhammer",
        "3163": "Ġbottom",
        "3164": "lph",
        "3165": "Ġcheerful",
        "3166": "Ġusing",
        "3167": "Ġsmoke",
        "3168": "Ġpicks",
        "3169": "Ġmoder",
        "3170": "berries",
        "3171": "Ġshows",
        "3172": "rn",
        "3173": "Ġpiano",
        "3174": "Ġmagnet",
        "3175": "dile",
        "3176": "codile",
        "3177": "Ġhurts",
        "3178": "inary",
        "3179": "Ġref",
        "3180": "Ġcrack",
        "3181": "Ġeng",
        "3182": "Ġaunt",
        "3183": "Ġmelon",
        "3184": "Ġwaff",
        "3185": "Ġmodern",
        "3186": "Ġdolph",
        "3187": "unnel",
        "3188": "cream",
        "3189": "pack",
        "3190": "Ġtunnel",
        "3191": "oin",
        "3192": "Ġarrow",
        "3193": "Ġreliable",
        "3194": "Ġhopping",
        "3195": "Ġmushroom",
        "3196": "Timmy",
        "3197": "Ġsquash",
        "3198": "Ġgum",
        "3199": "Ġsink",
        "3200": "Ġmovie",
        "3201": "Ġtax",
        "3202": "Ġflute",
        "3203": "Ġbeet",
        "3204": "Ġlean",
        "3205": "Their",
        "3206": "iv",
        "3207": "Ġpopular",
        "3208": "opter",
        "3209": "icopter",
        "3210": "Ġcryst",
        "3211": "Ġones",
        "3212": "Ġsil",
        "3213": "Ġcompetit",
        "3214": "Ġhelicopter",
        "3215": "aser",
        "3216": "Ġneeds",
        "3217": "ipop",
        "3218": "llipop",
        "3219": "Ġcrocodile",
        "3220": "Ġliz",
        "3221": "Molly",
        "3222": "Ġpress",
        "3223": "Ġtroubled",
        "3224": "Ġpige",
        "3225": "Ġlocked",
        "3226": "Ġtricks",
        "3227": "Ġlollipop",
        "3228": "Ġplayful",
        "3229": "Ġhumble",
        "3230": "Ġtaxi",
        "3231": "Ġkissed",
        "3232": "Ġlow",
        "3233": "appy",
        "3234": "comfortable",
        "3235": "amond",
        "3236": "Ġuncomfortable",
        "3237": "Ġrid",
        "3238": "host",
        "3239": "Ġwander",
        "3240": "atch",
        "3241": "Ġangel",
        "3242": "edy",
        "3243": "cles",
        "3244": "Ġtorn",
        "3245": "Ġgrace",
        "3246": "Ġanx",
        "3247": "Ġwrapped",
        "3248": "Ġmuff",
        "3249": "Ġtwig",
        "3250": "Ġpants",
        "3251": "Ġdisappoin",
        "3252": "ĠSn",
        "3253": "Ġhelps",
        "3254": "Ġdiamond",
        "3255": "Ġcamera",
        "3256": "atter",
        "3257": "oto",
        "3258": "Ġanxious",
        "3259": "Ġghost",
        "3260": "Ġtears",
        "3261": "Ġruined",
        "3262": "cident",
        "3263": "ĠJenny",
        "3264": "ilty",
        "3265": "Ġquar",
        "3266": "aff",
        "3267": "ĠEven",
        "3268": "Ġfis",
        "3269": "opl",
        "3270": "Ġbelt",
        "3271": "eropl",
        "3272": "Ġenv",
        "3273": "Ġguilty",
        "3274": "Ġbull",
        "3275": "Ġaeropl",
        "3276": "Ġhelpless",
        "3277": "Ġhappiness",
        "3278": "Ġlizard",
        "3279": "Ġboys",
        "3280": "cut",
        "3281": "ext",
        "3282": "Ġcere",
        "3283": "Ġwalks",
        "3284": "cean",
        "3285": "Ġpassed",
        "3286": "Ġmeant",
        "3287": "Ġocean",
        "3288": "Ġfluffy",
        "3289": "Ġwire",
        "3290": "Ġnail",
        "3291": "Ġbracelet",
        "3292": "Ġdeaf",
        "3293": "zed",
        "3294": "Ġstretch",
        "3295": "Ġcandle",
        "3296": "Ġcact",
        "3297": "tt",
        "3298": "Ġbeetle",
        "3299": "Ġmop",
        "3300": "Ġharmless",
        "3301": "umpet",
        "3302": "Ġordinary",
        "3303": "Ġanswered",
        "3304": "Ġcollar",
        "3305": "Ġcop",
        "3306": "Ġbees",
        "3307": "Ġtire",
        "3308": "Ġshape",
        "3309": "Ġquarrel",
        "3310": "Ġradio",
        "3311": "Ġflashlight",
        "3312": "Ġcrystal",
        "3313": "Ġharder",
        "3314": "Ġpoured",
        "3315": "Ġtrumpet",
        "3316": "Ġengine",
        "3317": "Mama",
        "3318": "Ġpersist",
        "3319": "Ġhunt",
        "3320": "Ġtooth",
        "3321": "Ġcereal",
        "3322": "Ġinvited",
        "3323": "Ġcomput",
        "3324": "Ġtag",
        "3325": "Ġoffice",
        "3326": "Ġmelt",
        "3327": "Ġspill",
        "3328": "Ġcharm",
        "3329": "coa",
        "3330": "Ġlit",
        "3331": "Ġscoot",
        "3332": "Ġcomet",
        "3333": "Ġtriangle",
        "3334": "ief",
        "3335": "Ġmug",
        "3336": "Ġrep",
        "3337": "ube",
        "3338": "Ġyogurt",
        "3339": "Ġspend",
        "3340": "Ġcompass",
        "3341": "Ġaccident",
        "3342": "Ġshade",
        "3343": "hett",
        "3344": "aghett",
        "3345": "aghetti",
        "3346": "Ġdisappointed",
        "3347": "Ġlicked",
        "3348": "Ġcactus",
        "3349": "Ġpale",
        "3350": "Ġcush",
        "3351": "Ġfigure",
        "3352": "Ġregular",
        "3353": "Ġgiving",
        "3354": "Ġavoc",
        "3355": "Ġpro",
        "3356": "Ġsheet",
        "3357": "Ġwhispered",
        "3358": "aze",
        "3359": "uth",
        "3360": "ellig",
        "3361": "Ġcreate",
        "3362": "Ġrecord",
        "3363": "Ġbarber",
        "3364": "Ġintellig",
        "3365": "Ġpipe",
        "3366": "Ġrode",
        "3367": "Ġroof",
        "3368": "Jane",
        "3369": "Ġthread",
        "3370": "ither",
        "3371": "Ġvi",
        "3372": "Ġload",
        "3373": "Ġlibr",
        "3374": "Ġgifted",
        "3375": "ccol",
        "3376": "Ġpracticed",
        "3377": "Ġdelight",
        "3378": "ccoli",
        "3379": "Ġharsh",
        "3380": "asses",
        "3381": "Ġpow",
        "3382": "Ġdust",
        "3383": "ĠTrue",
        "3384": "Ġbicy",
        "3385": "azz",
        "3386": "Ġspaghetti",
        "3387": "Ġcompassion",
        "3388": "Ġsailed",
        "3389": "urkey",
        "3390": "ubby",
        "3391": "Ġforward",
        "3392": "Ġpersistent",
        "3393": "Ġspeed",
        "3394": "Ġmitten",
        "3395": "Ġcocoa",
        "3396": "Ġenvel",
        "3397": "Ġquestions",
        "3398": "Ġcomputer",
        "3399": "Ġcoo",
        "3400": "Ġfeathers",
        "3401": "hip",
        "3402": "Ġglove",
        "3403": "Bobo",
        "3404": "Ġrice",
        "3405": "Ġshrimp",
        "3406": "Ġdesk",
        "3407": "Ġstream",
        "3408": "Ġinse",
        "3409": "Ġpigeon",
        "3410": "Ġcharming",
        "3411": "Ġears",
        "3412": "Ġcarp",
        "3413": "lcan",
        "3414": "Ġraft",
        "3415": "Ġenvious",
        "3416": "Ġknot",
        "3417": "Ġturkey",
        "3418": "ud",
        "3419": "Ġstronger",
        "3420": "omes",
        "3421": "Ġcoins",
        "3422": "Ġtap",
        "3423": "lcano",
        "3424": "weet",
        "3425": "Ġtrap",
        "3426": "umbers",
        "3427": "Ġaeroplane",
        "3428": "Ġtrunk",
        "3429": "Ġwheat",
        "3430": "Ġboxes",
        "3431": "Ġchubby",
        "3432": "Ġcarpet",
        "3433": "Ġrestless",
        "3434": "Ġintelligent",
        "3435": "Ġtube",
        "3436": "Ġspun",
        "3437": "Ġdreams",
        "3438": "Ġfriendship",
        "3439": "ulif",
        "3440": "olin",
        "3441": "Ġhalf",
        "3442": "Ġloop",
        "3443": "Ġcrawl",
        "3444": "Ġbroccoli",
        "3445": "Ġonion",
        "3446": "Ġdeliver",
        "3447": "Ġacce",
        "3448": "anger",
        "3449": "Ġvide",
        "3450": "Ġvolcano",
        "3451": "ĠJake",
        "3452": "Ġsle",
        "3453": "Ġtrack",
        "3454": "Ġbri",
        "3455": "Ġcaulif",
        "3456": "Ġvine",
        "3457": "ye",
        "3458": "Ġticket",
        "3459": "Ġthief",
        "3460": "essie",
        "3461": "cycle",
        "3462": "Ġlouder",
        "3463": "Ġinsect",
        "3464": "Ġnumbers",
        "3465": "asing",
        "3466": "Ġyaw",
        "3467": "Ġhaircut",
        "3468": "ital",
        "3469": "Ġsleeping",
        "3470": "ugg",
        "3471": "Ġmill",
        "3472": "Ġeventually",
        "3473": "Ġalert",
        "3474": "Ġexcite",
        "3475": "Ġpebble",
        "3476": "Ġhosp",
        "3477": "Ġattract",
        "3478": "Ġplanet",
        "3479": "ĠToday",
        "3480": "Ġuniver",
        "3481": "isted",
        "3482": "ulu",
        "3483": "Ġhospital",
        "3484": "Ġeraser",
        "3485": "Ġreturned",
        "3486": "Ġdestro",
        "3487": "Ġgraceful",
        "3488": "Ġhappening",
        "3489": "ache",
        "3490": "ĠOK",
        "3491": "ĠEmily",
        "3492": "Ġdecide",
        "3493": "Ġlearning",
        "3494": "Ġscreen",
        "3495": "rework",
        "3496": "Ġnicely",
        "3497": "Ġleop",
        "3498": "Ġcauliflower",
        "3499": "Ġcompetitive",
        "3500": "Ġpoem",
        "3501": "Ġcelebrate",
        "3502": "Ġcurt",
        "3503": "Ġpeach",
        "3504": "Ġsoldier",
        "3505": "Ġsaus",
        "3506": "Ġparade",
        "3507": "atient",
        "3508": "Ġattractive",
        "3509": "Ġcurtain",
        "3510": "Ġdolphin",
        "3511": "Ġbase",
        "3512": "Ġviolin",
        "3513": "Ġways",
        "3514": "Go",
        "3515": "ats",
        "3516": "Ġtravel",
        "3517": "ten",
        "3518": "Ġignorant",
        "3519": "ulb",
        "3520": "Ġwheels",
        "3521": "Ġyach",
        "3522": "Ġscatter",
        "3523": "Ġdeter",
        "3524": "Ġcompassionate",
        "3525": "Ġbarrel",
        "3526": "Ġenvelope",
        "3527": "Ġbubble",
        "3528": "Ġlying",
        "3529": "Ġfirework",
        "3530": "Ġsort",
        "3531": "Ġquestion",
        "3532": "zzy",
        "3533": "ĠPipp",
        "3534": "Ġscooter",
        "3535": "Ġdeterm",
        "3536": "Ġrag",
        "3537": "Ġbicycle",
        "3538": "elery",
        "3539": "Ġneedle",
        "3540": "ĠFr",
        "3541": "Ġjudge",
        "3542": "Ġbulb",
        "3543": "Ġleopard",
        "3544": "Ġtem",
        "3545": "Ġyacht",
        "3546": "Ġpony",
        "3547": "Ġcricket",
        "3548": "Ġorder",
        "3549": "Ġhomes",
        "3550": "Ġador",
        "3551": "tern",
        "3552": "Ġtruth",
        "3553": "Ġhook",
        "3554": "dom",
        "3555": "Ġrubbed",
        "3556": "ete",
        "3557": "igator",
        "3558": "Ġbushes",
        "3559": "Sarah",
        "3560": "Ġuncle",
        "3561": "Ġcushion",
        "3562": "Ġspell",
        "3563": "Ġgrown",
        "3564": "Ġcooked",
        "3565": "Ġadorable",
        "3566": "Ġchalk",
        "3567": "Ġsoar",
        "3568": "Ġpurse",
        "3569": "Ġskin",
        "3570": "Ġthemselves",
        "3571": "Ġimpatient",
        "3572": "Ġcelery",
        "3573": "Ġtray",
        "3574": "Ġshells",
        "3575": "Ġpengu",
        "3576": "Ġsniff",
        "3577": "Ġprun",
        "3578": "Ġwalls",
        "3579": "Ġseal",
        "3580": "Ġlively",
        "3581": "Ġcase",
        "3582": "Ġalligator",
        "3583": "Ġdistant",
        "3584": "Ġradish",
        "3585": "Ġsaying",
        "3586": "Ġspeak",
        "3587": "Ġmotorcycle",
        "3588": "Ġmeat",
        "3589": "Ġsend",
        "3590": "illa",
        "3591": "Ġspinning",
        "3592": "Ġforth",
        "3593": "Ġcounting",
        "3594": "Ġenth",
        "3595": "Ġbounced",
        "3596": "Ġchain",
        "3597": "Ġed",
        "3598": "Ġcleaning",
        "3599": "ebra",
        "3600": "Ġfilm",
        "3601": "Ġslept",
        "3602": "Ġpit",
        "3603": "Ġsurf",
        "3604": "Ġmarry",
        "3605": "usia",
        "3606": "Ġwallet",
        "3607": "Ġenthusia",
        "3608": "Ġmetal",
        "3609": "urb",
        "3610": "ebook",
        "3611": "Ġbin",
        "3612": "Ġweek",
        "3613": "Ġnotebook",
        "3614": "Ġwiped",
        "3615": "Ġskip",
        "3616": "ision",
        "3617": "chair",
        "3618": "Ġbiggest",
        "3619": "Ġimpro",
        "3620": "Ġavocado",
        "3621": "Ġbehave",
        "3622": "Ġdestroy",
        "3623": "vator",
        "3624": "Ġbandage",
        "3625": "Ġlaughs",
        "3626": "Ġsteak",
        "3627": "Ġpattern",
        "3628": "ĠSh",
        "3629": "Ġpost",
        "3630": "Ġelevator",
        "3631": "ĠBuzz",
        "3632": "usie",
        "3633": "Ġdive",
        "3634": "Ġshut",
        "3635": "Ġskipped",
        "3636": "Ġunlock",
        "3637": "Ġdiary",
        "3638": "ject",
        "3639": "Ġzebra",
        "3640": "Ġbags",
        "3641": "ating",
        "3642": "Ġarmchair",
        "3643": "rage",
        "3644": "aged",
        "3645": "under",
        "3646": "Ġdisturb",
        "3647": "Ġoy",
        "3648": "Ġpole",
        "3649": "Ġshowing",
        "3650": "Ġgathered",
        "3651": "Ġclub",
        "3652": "Ġnurse",
        "3653": "bul",
        "3654": "Ġearth",
        "3655": "Ġenc",
        "3656": "Ġstranger",
        "3657": "Ġsweater",
        "3658": "Ġjellyfish",
        "3659": "Ġscrew",
        "3660": "Ġtemp",
        "3661": "ĠPoppy",
        "3662": "Ġcompl",
        "3663": "Ġmixer",
        "3664": "Give",
        "3665": "Ġskull",
        "3666": "Ġlime",
        "3667": "Ġbump",
        "3668": "bulance",
        "3669": "Ġambulance",
        "3670": "nam",
        "3671": "Ġfather",
        "3672": "Ġjournal",
        "3673": "Gra",
        "3674": "Ġloudly",
        "3675": "ito",
        "3676": "Ġfolder",
        "3677": "Ġshield",
        "3678": "ĠBet",
        "3679": "ĠLulu",
        "3680": "Ġlibrary",
        "3681": "ĠPeter",
        "3682": "Ġbuttons",
        "3683": "Ġplayground",
        "3684": "Ġtrucks",
        "3685": "Ġink",
        "3686": "Ġlights",
        "3687": "Ġtummy",
        "3688": "Ġpointing",
        "3689": "Ġcity",
        "3690": "Ġdecorate",
        "3691": "Ġstation",
        "3692": "irit",
        "3693": "Ġprep",
        "3694": "Ġfalls",
        "3695": "quito",
        "3696": "ĠPolly",
        "3697": "Billy",
        "3698": "ĠFo",
        "3699": "Ġfu",
        "3700": "ention",
        "3701": "nger",
        "3702": "ĠBirdy",
        "3703": "lies",
        "3704": "Ġherb",
        "3705": "nament",
        "3706": "Ġornament",
        "3707": "Ġmodest",
        "3708": "Ġguard",
        "3709": "Ġmos",
        "3710": "Ġknows",
        "3711": "Ġcord",
        "3712": "Ġpolish",
        "3713": "Ġmarble",
        "3714": "oby",
        "3715": "Ġmosquito",
        "3716": "umbled",
        "3717": "Ġsalt",
        "3718": "Ġattic",
        "3719": "Ġwhenever",
        "3720": "Ġvest",
        "3721": "ctop",
        "3722": "Ġresc",
        "3723": "Ġyet",
        "3724": "Ġple",
        "3725": "Ġdisappeared",
        "3726": "ceed",
        "3727": "Ġstrawberry",
        "3728": "Ġonce",
        "3729": "ĠMum",
        "3730": "Ġkay",
        "3731": "Ġbrothers",
        "3732": "Ġitch",
        "3733": "Ġpirate",
        "3734": "Ġfootball",
        "3735": "Ġsplit",
        "3736": "kele",
        "3737": "keleton",
        "3738": "Ġhipp",
        "3739": "Ġaut",
        "3740": "Ġled",
        "3741": "uring",
        "3742": "ctopus",
        "3743": "Ġdriving",
        "3744": "Ġcable",
        "3745": "Ġsupport",
        "3746": "Ġcalling",
        "3747": "Ġcupboard",
        "3748": "aky",
        "3749": "ushed",
        "3750": "Ġwishes",
        "3751": "Ġcomplet",
        "3752": "Ġtripped",
        "3753": "Ġroot",
        "3754": "gl",
        "3755": "Ġkayak",
        "3756": "Ġoctopus",
        "3757": "obile",
        "3758": "Ġadded",
        "3759": "Ġedge",
        "3760": "Ġmild",
        "3761": "stic",
        "3762": "Ġdetermined",
        "3763": "Ġsucceed",
        "3764": "?\".",
        "3765": "Ġreading",
        "3766": "omobile",
        "3767": "Ġcoal",
        "3768": "Well",
        "3769": "utes",
        "3770": "par",
        "3771": "Ġsuggest",
        "3772": "Ġstack",
        "3773": "Ġthunder",
        "3774": "Ġkindness",
        "3775": "Ġautomobile",
        "3776": "Ġcomplain",
        "3777": "Ġenthusiastic",
        "3778": "Ġsneeze",
        "3779": "Ġcartoon",
        "3780": "Ġyoga",
        "3781": "ĠLittle",
        "3782": "Ġgrowl",
        "3783": "htub",
        "3784": "Ġflea",
        "3785": "la",
        "3786": "Ġmeadow",
        "3787": "Ġdrawer",
        "3788": "Ġbathtub",
        "3789": "Ġribb",
        "3790": "ophone",
        "3791": "Ġmeans",
        "3792": "Ġhall",
        "3793": "Ġgolf",
        "3794": "Ġskeleton",
        "3795": "Ġmath",
        "3796": "Ġveil",
        "3797": "Ġhunter",
        "3798": "Ġgor",
        "3799": "Ġflame",
        "3800": "Ġpoke",
        "3801": "Ġvideo",
        "3802": "Ġchess",
        "3803": "Ġtroph",
        "3804": "Ġcups",
        "3805": "Ġglowing",
        "3806": "Ġmatt",
        "3807": "Ġoyster",
        "3808": "work",
        "3809": "Ġpenny",
        "3810": "Ġspear",
        "3811": "Ġitself",
        "3812": "Ġdrawings",
        "3813": "Ġhippo",
        "3814": "Ġrepair",
        "3815": "Ġswitch",
        "3816": "glasses",
        "3817": "Ġsunglasses",
        "3818": "Ġteleph",
        "3819": "Ġcostume",
        "3820": "Ġdess",
        "3821": "Ġzipp",
        "3822": ",âĢĿ",
        "3823": "Ġrepe",
        "3824": "Ġmuffin",
        "3825": "Ġarg",
        "3826": "Ġpastry",
        "3827": "Ġpun",
        "3828": "Ġrolling",
        "3829": "Ġminutes",
        "3830": "Ġpacked",
        "3831": "Ġmakeup",
        "3832": "iron",
        "3833": "ric",
        "3834": "ĠPeople",
        "3835": "Ġwaffle",
        "3836": "case",
        "3837": "Ġhandle",
        "3838": "Ġpear",
        "3839": "Ġmaze",
        "3840": "Ġtelephone",
        "3841": "Ġpine",
        "3842": "ait",
        "3843": "Ġgear",
        "3844": "Ġhedge",
        "3845": "Ġmattress",
        "3846": "Ġpackage",
        "3847": "aving",
        "3848": "ĠMiss",
        "3849": "Ġshocked",
        "3850": "ines",
        "3851": "Ġtrophy",
        "3852": "Ġpowder",
        "3853": "Ġknight",
        "3854": "Ġcob",
        "3855": "Ġmissile",
        "3856": "Ġmanaged",
        "3857": "Ġframe",
        "3858": "Ġencou",
        "3859": "Ġwife",
        "3860": "Ġok",
        "3861": "Ġsepar",
        "3862": "web",
        "3863": "Ġstairs",
        "3864": "Ġrot",
        "3865": "Ġcamp",
        "3866": "urch",
        "3867": "rophone",
        "3868": "Ġmagaz",
        "3869": "Ġcolour",
        "3870": "Ġgrapes",
        "3871": "time",
        "3872": "Ġfile",
        "3873": "head",
        "3874": "ĠTina",
        "3875": "Ġbasketball",
        "3876": "Bye",
        "3877": "old",
        "3878": "per",
        "3879": "Ġcobweb",
        "3880": "Re",
        "3881": "Jimmy",
        "3882": "anas",
        "3883": "ĠTweet",
        "3884": "See",
        "3885": "Ġperm",
        "3886": "Ġwool",
        "3887": "Ġmicrophone",
        "3888": "esday",
        "3889": "Ġeye",
        "3890": "Ġleash",
        "3891": "Ġgasp",
        "3892": "iew",
        "3893": "keep",
        "3894": "Ġweep",
        "3895": "Ġbarking",
        "3896": "ature",
        "3897": "Ġsafely",
        "3898": "ĠDan",
        "3899": "Ġtear",
        "3900": "Ġview",
        "3901": "ffe",
        "3902": "Ġslides",
        "3903": "Ġsteps",
        "3904": "istol",
        "3905": "ffee",
        "3906": "Ġbananas",
        "3907": "Ġstaff",
        "3908": "Ġspirit",
        "3909": "Ġtask",
        "3910": "Ġgiggled",
        "3911": "Ġhoc",
        "3912": "Ġhockey",
        "3913": "Ġvend",
        "3914": "Ġthose",
        "3915": "Ġgorilla",
        "3916": "Jill",
        "3917": "Ġcooler",
        "3918": "ĠRose",
        "3919": "was",
        "3920": "cing",
        "3921": "Ġearly",
        "3922": "Ġmarched",
        "3923": "rosc",
        "3924": "Ġmint",
        "3925": "ĠLook",
        "3926": "washer",
        "3927": "Ġflour",
        "3928": "Ġhotel",
        "3929": "hic",
        "3930": "Ġsailor",
        "3931": "Ġdessert",
        "3932": "Ġphoto",
        "3933": "roscope",
        "3934": "Ġvehic",
        "3935": "ilot",
        "3936": "Ġoften",
        "3937": "Ġchurch",
        "3938": "ĠPete",
        "3939": "Ġcooking",
        "3940": "Ġremain",
        "3941": "Ġfive",
        "3942": "Ġsausage",
        "3943": "otter",
        "3944": "Ġten",
        "3945": "Ġtools",
        "3946": "Ġmedal",
        "3947": "Ġeither",
        "3948": "Ġfireman",
        "3949": "chor",
        "3950": "Ġgrandpa",
        "3951": "Ġotter",
        "3952": "Ġbaseball",
        "3953": "Ġpretending",
        "3954": "Ġpistol",
        "3955": "Ġdishwasher",
        "3956": "Ġrever",
        "3957": "Ġorganize",
        "3958": "Ġpee",
        "3959": "Ġvendor",
        "3960": "Ġknock",
        "3961": "Ġsight",
        "3962": "Ġgrill",
        "3963": "Ġtemple",
        "3964": "Ġbattery",
        "3965": "Ġthinking",
        "3966": "Ġopens",
        "3967": "Ġow",
        "3968": "Ġrealised",
        "3969": "Ġiron",
        "3970": "Ġlaser",
        "3971": "Ġsne",
        "3972": "Ġsandbox",
        "3973": "Ġoil",
        "3974": "Ġpatch",
        "3975": "Ġhours",
        "3976": "Ġrise",
        "3977": "Ġwhip",
        "3978": "'d",
        "3979": "ctory",
        "3980": "ĠGive",
        "3981": "Ġanchor",
        "3982": "Ġtrash",
        "3983": "ense",
        "3984": "Ġshort",
        "3985": "ney",
        "3986": "ĠBetty",
        "3987": "Ġrhin",
        "3988": "Ġfactory",
        "3989": "seum",
        "3990": "Ġmay",
        "3991": "Ġward",
        "3992": "ately",
        "3993": "Ġcardboard",
        "3994": "ugged",
        "3995": "Ġlotion",
        "3996": "Al",
        "3997": "Ġmessage",
        "3998": "Ġvalu",
        "3999": "Ġwardrobe",
        "4000": "Ġcell",
        "4001": "Ġmuseum",
        "4002": "apers",
        "4003": "Ġur",
        "4004": "ination",
        "4005": "Ġhanging",
        "4006": "ucet",
        "4007": "ailable",
        "4008": "ĠSunny",
        "4009": "ĠZoom",
        "4010": "Ġhive",
        "4011": "eer",
        "4012": "Ġtowers",
        "4013": "keeper",
        "4014": "Ġblackboard",
        "4015": "Ġmem",
        "4016": "Ġexcitement",
        "4017": "Ġcoffee",
        "4018": "Ġpilot",
        "4019": "ready",
        "4020": "Fluffy",
        "4021": "Ġnapkin",
        "4022": "Ġpenguin",
        "4023": "ron",
        "4024": "Ġcheck",
        "4025": "Ġreward",
        "4026": "loo",
        "4027": "Ġquit",
        "4028": "ĠPippin",
        "4029": "Ġcane",
        "4030": "Ġpicking",
        "4031": "place",
        "4032": "ĠSnow",
        "4033": "azor",
        "4034": "Ġfaucet",
        "4035": "Ġig",
        "4036": "Ġpassport",
        "4037": "ĠRob",
        "4038": "Ġstumbled",
        "4039": "Ġdreamed",
        "4040": "Ġigloo",
        "4041": "ĠBessie",
        "4042": "aroo",
        "4043": "angaroo",
        "4044": "Ġfreez",
        "4045": "Ġjuicy",
        "4046": "Ġallowed",
        "4047": "play",
        "4048": "Ġholds",
        "4049": "Ġalready",
        "4050": "Ġavailable",
        "4051": "Ġsett",
        "4052": "Ġbathe",
        "4053": "Ġtornado",
        "4054": "imney",
        "4055": "Ġfingers",
        "4056": "htray",
        "4057": "Ġhanger",
        "4058": "Ġnewsp",
        "4059": "Ġsize",
        "4060": "Ġlaund",
        "4061": "Ġlend",
        "4062": "Ġchimney",
        "4063": "Ġlaundry",
        "4064": "Ġoak",
        "4065": "Ġfisher",
        "4066": "Ġkangaroo",
        "4067": "Ġmen",
        "4068": "ĠEverywhere",
        "4069": "Ġtelling",
        "4070": "Em",
        "4071": "Ġnovel",
        "4072": "body",
        "4073": "Ġmummy",
        "4074": "Ġpal",
        "4075": "Ġmule",
        "4076": "Ġcherries",
        "4077": "Ġnotice",
        "4078": "Ġpractice",
        "4079": "Ġspilled",
        "4080": "Ġreind",
        "4081": "Ġcomplete",
        "4082": "Ġenjoying",
        "4083": "Ġmicroscope",
        "4084": "ampoo",
        "4085": "Ġgain",
        "4086": "Ġsub",
        "4087": "Ġfireplace",
        "4088": "Ġimagine",
        "4089": "anda",
        "4090": "arian",
        "4091": "Ġdisplay",
        "4092": "ocer",
        "4093": "ĠZip",
        "4094": "Ġfastest",
        "4095": "Ġmagazine",
        "4096": "Ġhurry",
        "4097": "Ġcabinet",
        "4098": "Ġshrink",
        "4099": "Ġashtray",
        "4100": "Wait",
        "4101": "Ġcows",
        "4102": "ĠSpike",
        "4103": "Joe",
        "4104": "gen",
        "4105": "Ġpalace",
        "4106": "Ġimprove",
        "4107": "aches",
        "4108": "Ġrake",
        "4109": "Ġreindeer",
        "4110": "Ġfalling",
        "4111": "oceros",
        "4112": "Ġskirt",
        "4113": "ured",
        "4114": "Ġdiscovered",
        "4115": "Ġstared",
        "4116": "Ġroared",
        "4117": "aid",
        "4118": "Ġsilver",
        "4119": "Ġtub",
        "4120": "Ġtrail",
        "4121": "Is",
        "4122": "Ġminer",
        "4123": "come",
        "4124": "Ġbill",
        "4125": "iction",
        "4126": "Ġfog",
        "4127": "Ġax",
        "4128": "stairs",
        "4129": "ilet",
        "4130": "Ġhut",
        "4131": "Ġhappier",
        "4132": "Ġtaller",
        "4133": "ictionary",
        "4134": "Ġoats",
        "4135": "Ġfisherman",
        "4136": "Ġobject",
        "4137": "Ġpor",
        "4138": "vision",
        "4139": "Ġvaluable",
        "4140": "Ġshampoo",
        "4141": "Ġholes",
        "4142": "Ġoffered",
        "4143": "Ġboots",
        "4144": "Ġrhinoceros",
        "4145": "Ġnames",
        "4146": "Ġtoilet",
        "4147": "Ġclimbing",
        "4148": "Ġblin",
        "4149": "vice",
        "4150": "Ow",
        "4151": "Ġstretched",
        "4152": "iest",
        "4153": "Ġzipper",
        "4154": "Ġlistening",
        "4155": "Ġsym",
        "4156": "Ġbathrobe",
        "4157": "alend",
        "4158": "Ġjewelry",
        "4159": "ĠHere",
        "4160": "Ġjokes",
        "4161": "Ġtelevision",
        "4162": "Ġprov",
        "4163": "Ġcalend",
        "4164": "Ġstops",
        "4165": "Ġaxe",
        "4166": "Ġjumps",
        "4167": "Ġfuel",
        "4168": "Ġsparkly",
        "4169": "cu",
        "4170": "Ġperfume",
        "4171": "ĠSusie",
        "4172": "Ġbury",
        "4173": "bol",
        "4174": "Mummy",
        "4175": "Ġpressed",
        "4176": "ĠKim",
        "4177": "reek",
        "4178": "Ġrece",
        "4179": "fa",
        "4180": "ĠToby",
        "4181": "Ġneat",
        "4182": "Ġcreek",
        "4183": "Ġpopped",
        "4184": "Ġopera",
        "4185": "Ġcalendar",
        "4186": "Ġsnap",
        "4187": "Ġgasped",
        "4188": "Ġattach",
        "4189": "Ġsymbol",
        "4190": "ĠMar",
        "4191": "Ġtuna",
        "4192": "Ġpapers",
        "4193": "Mr",
        "4194": "Ġunpack",
        "4195": "Ġresist",
        "4196": "Ġdictionary",
        "4197": "Ġsubway",
        "4198": "Ġletters",
        "4199": "Ġfreezer",
        "4200": "Ġchose",
        "4201": "Ġpinch",
        "4202": "zag",
        "4203": "Ġspoke",
        "4204": "Ġanyway",
        "4205": "Ġsuper",
        "4206": "Ġporch",
        "4207": "Ġhelper",
        "4208": "affe",
        "4209": "Ġbikes",
        "4210": "Ġlie",
        "4211": "arry",
        "4212": "iches",
        "4213": "Ġtightly",
        "4214": "Ġcomfort",
        "4215": "Ġshaking",
        "4216": "Ġbookcase",
        "4217": "Ġson",
        "4218": "Ġrazor",
        "4219": "aurant",
        "4220": "Ġsandwiches",
        "4221": "ĠAre",
        "4222": "igzag",
        "4223": "Ġweigh",
        "4224": "Ġagainst",
        "4225": "Ġstickers",
        "4226": "Ġrestaurant",
        "4227": "Ġnewspaper",
        "4228": "Ġblouse",
        "4229": "Ġvehicle",
        "4230": "Ġswinging",
        "4231": "Ġdisag",
        "4232": "Ġped",
        "4233": "Ġnature",
        "4234": "Ġsquirrels",
        "4235": "ival",
        "4236": "Ġbelongs",
        "4237": "Ġswamp",
        "4238": "Ġincl",
        "4239": "Ġbutterflies",
        "4240": "Ġgym",
        "4241": "Ġgrowing",
        "4242": "Ġbuckle",
        "4243": "omed",
        "4244": "Ġstirred",
        "4245": "Ġmustache",
        "4246": "Ġbillboard",
        "4247": "xy",
        "4248": "Ġbeep",
        "4249": "te",
        "4250": "Ġalarm",
        "4251": "Ġlightning",
        "4252": "Ġlip",
        "4253": "Ġfest",
        "4254": "Ġhung",
        "4255": "utor",
        "4256": "Ġdistance",
        "4257": "ogn",
        "4258": "Ġcards",
        "4259": "Ġobser",
        "4260": "Ġagree",
        "4261": "Little",
        "4262": "Ġext",
        "4263": "Ġtease",
        "4264": "Ġrecogn",
        "4265": "Ġrubber",
        "4266": "ik",
        "4267": "Ġhate",
        "4268": "fast",
        "4269": "ef",
        "4270": "Ouch",
        "4271": "Ġdoesn",
        "4272": "Ġmusician",
        "4273": "Ġadvice",
        "4274": "Ġbeef",
        "4275": "Ġserve",
        "4276": "aspoon",
        "4277": "Ġsweetie",
        "4278": "Ġmodel",
        "4279": "lter",
        "4280": "Ġcrib",
        "4281": "Ġblueberries",
        "4282": "Ġsofa",
        "4283": "Ġcircles",
        "4284": "Ġbreakfast",
        "4285": "Ġtutor",
        "4286": "asis",
        "4287": "Ġbookshe",
        "4288": "stri",
        "4289": "Ġgiraffe",
        "4290": "Ġfestival",
        "4291": "Ġseparate",
        "4292": "Ġshelter",
        "4293": "Ġgas",
        "4294": "Ġairport",
        "4295": "Ġolive",
        "4296": "ĠBig",
        "4297": "Ġrail",
        "4298": "Ġbookshelf",
        "4299": "Ġfrogs",
        "4300": "Ġteaspoon",
        "4301": "Ġreverse",
        "4302": "Ġjunk",
        "4303": "Ġriding",
        "4304": "Ġpleased",
        "4305": "Ġdrain",
        "4306": "ĠMrs",
        "4307": "Ġwipe",
        "4308": "Ġoasis",
        "4309": "Ġsoil",
        "4310": "Ġahead",
        "4311": "Ġrescue",
        "4312": "Ġleaving",
        "4313": "ummer",
        "4314": "Ġpainter",
        "4315": "Ġsqueeze",
        "4316": "Ġchance",
        "4317": "Ġpoked",
        "4318": "Ġknob",
        "4319": "ĠTeddy",
        "4320": "Ġpeeked",
        "4321": "Ġlumber",
        "4322": "Ġtrains",
        "4323": "Ġextra",
        "4324": "Ġslipp",
        "4325": "Ġquiz",
        "4326": "Ġrefused",
        "4327": "res",
        "4328": "rmomet",
        "4329": "Ġpage",
        "4330": "Ġrules",
        "4331": "Ġhappens",
        "4332": "Ġsounded",
        "4333": "Ġins",
        "4334": "Ġpoint",
        "4335": "Ġwinter",
        "4336": "Ġdancer",
        "4337": "ĠGrandpa",
        "4338": "Ġbirdc",
        "4339": "Ġdisappear",
        "4340": "rmometer",
        "4341": "ĠDolly",
        "4342": "Ġweather",
        "4343": "Ġwaste",
        "4344": "Ġlic",
        "4345": "Ġbirdcage",
        "4346": "Ġtheater",
        "4347": "Ġreef",
        "4348": "Ġcarrying",
        "4349": "Daisy",
        "4350": "Ġinvite",
        "4351": "iform",
        "4352": "Ġgoal",
        "4353": "Ġostri",
        "4354": "Ġuniform",
        "4355": "Ġswung",
        "4356": "Ġtrade",
        "4357": "Ġcliff",
        "4358": "Ġwig",
        "4359": "ience",
        "4360": "Ġlawn",
        "4361": "ola",
        "4362": "Ġleaned",
        "4363": "ĠPandy",
        "4364": "angu",
        "4365": "Ġaccept",
        "4366": "Ġadmire",
        "4367": "Ġfort",
        "4368": "Ġaccidentally",
        "4369": "Ġpastel",
        "4370": "bbles",
        "4371": "Ġstom",
        "4372": "Ġlangu",
        "4373": "Ġtwir",
        "4374": "Ġsuff",
        "4375": "Ġpanda",
        "4376": "riger",
        "4377": "Ġbet",
        "4378": "rigerator",
        "4379": "Ġpeek",
        "4380": "render",
        "4381": "Ġblinked",
        "4382": "Ġstarts",
        "4383": "Ġrefrigerator",
        "4384": "Ġanywhere",
        "4385": "!\".",
        "4386": "Ġimagined",
        "4387": "Ġdreaming",
        "4388": "Ġremove",
        "4389": "night",
        "4390": "Ġshower",
        "4391": "ĠLee",
        "4392": "ĠCo",
        "4393": "Ġclassroom",
        "4394": "Ġceiling",
        "4395": "Ġcaring",
        "4396": "ium",
        "4397": "Ġgrand",
        "4398": "Ġmissing",
        "4399": "aked",
        "4400": "Ġlicense",
        "4401": "Ġstable",
        "4402": "Ġthermometer",
        "4403": "Ġmonkeys",
        "4404": "astic",
        "4405": "Ġwarned",
        "4406": "Ġsummer",
        "4407": "ĠWhere",
        "4408": "Ġabove",
        "4409": "Ġbrick",
        "4410": "ected",
        "4411": "Ġcudd",
        "4412": "Ġproblems",
        "4413": "amber",
        "4414": "Ġchasing",
        "4415": "Ġlabel",
        "4416": "Ġapron",
        "4417": "Ġsent",
        "4418": "urnit",
        "4419": "urniture",
        "4420": "Ġlawy",
        "4421": "Ġlid",
        "4422": "uggage",
        "4423": "med",
        "4424": "Ġrespectful",
        "4425": "Ġfurniture",
        "4426": "Ġfrowned",
        "4427": "Ġzoomed",
        "4428": "Ġpages",
        "4429": "Ġprevent",
        "4430": "Ġbent",
        "4431": "Ġluggage",
        "4432": "Ġmistakes",
        "4433": "Ġsunset",
        "4434": "Ġostrich",
        "4435": "ison",
        "4436": "Ġsuggested",
        "4437": "Ġwindows",
        "4438": "ations",
        "4439": "Ġjail",
        "4440": "low",
        "4441": "Ġwine",
        "4442": "Ġribbon",
        "4443": "Ġolder",
        "4444": "Ġshouts",
        "4445": "Ġgrape",
        "4446": "ĠCl",
        "4447": "Ġstrug",
        "4448": "ucture",
        "4449": "Ġstructure",
        "4450": "Ġspoil",
        "4451": "eor",
        "4452": "Ġfixing",
        "4453": "Ġchamber",
        "4454": "Ġlions",
        "4455": "Ġdelay",
        "4456": "Ġfinds",
        "4457": "Ġhanded",
        "4458": "Ġsearching",
        "4459": "Ġunite",
        "4460": "Did",
        "4461": "Ġfought",
        "4462": "Ġlawyer",
        "4463": "Ġbrightly",
        "4464": "Ġpair",
        "4465": "Ġmeeting",
        "4466": "Ġchoice",
        "4467": "Ġsurprises",
        "4468": "ĠUn",
        "4469": "ĠEllie",
        "4470": "Ġart",
        "4471": "Ch",
        "4472": "Ġfavour",
        "4473": "eterin",
        "4474": "eterinarian",
        "4475": "adium",
        "4476": "Ġstadium",
        "4477": "Ġproudly",
        "4478": "iki",
        "4479": "Ġveterinarian",
        "4480": "vet",
        "4481": "Ġchairs",
        "4482": "rod",
        "4483": "Ġslip",
        "4484": "ĠSpe",
        "4485": "Ġsadly",
        "4486": "ĠBow",
        "4487": "Ġincre",
        "4488": "ĠCarl",
        "4489": "Ġpuddles",
        "4490": "Ġberry",
        "4491": "Ġintrod",
        "4492": "Ġranch",
        "4493": "veal",
        "4494": "ĠBoun",
        "4495": "Ġargue",
        "4496": "ĠV",
        "4497": "Ġadmired",
        "4498": "Ġcur",
        "4499": "Ġfavourite",
        "4500": "Your",
        "4501": "Ġinf",
        "4502": "Ġexcitedly",
        "4503": "Ġrac",
        "4504": "Ġgrabs",
        "4505": "mend",
        "4506": "Ġsteam",
        "4507": "thank",
        "4508": "Ġhuman",
        "4509": "eorge",
        "4510": "sity",
        "4511": "ĠHel",
        "4512": "Ġpushing",
        "4513": "Ġsaving",
        "4514": "ĠRed",
        "4515": "Ġreveal",
        "4516": "ommend",
        "4517": "alley",
        "4518": "Ġyield",
        "4519": "olog",
        "4520": "Ġmall",
        "4521": "Ġreminded",
        "4522": "Ġrecommend",
        "4523": "Ġleak",
        "4524": "Ġsurrender",
        "4525": "Ġharb",
        "4526": "Ġappl",
        "4527": "cuss",
        "4528": "aul",
        "4529": "Ġweap",
        "4530": "Ġregret",
        "4531": "Ġputting",
        "4532": "Ġvalley",
        "4533": "Ġmineral",
        "4534": "Ġevening",
        "4535": "chan",
        "4536": "elcome",
        "4537": "Ġmatches",
        "4538": "Ġforgave",
        "4539": "Ġsneezed",
        "4540": "Ġpup",
        "4541": "Ġaw",
        "4542": "Ġrushed",
        "4543": "ecause",
        "4544": "Ġspade",
        "4545": "Ġapolog",
        "4546": "Ġplates",
        "4547": "Ġdiscuss",
        "4548": "Ġbeg",
        "4549": "Ġprepare",
        "4550": "Ġharbor",
        "4551": "Ġignore",
        "4552": "Ġcountry",
        "4553": "Ġlanguage",
        "4554": "ĠBuzzy",
        "4555": "Ġpulls",
        "4556": "Ġplastic",
        "4557": "Ġsupply",
        "4558": "Ġfloat",
        "4559": "Ġsniffed",
        "4560": "ĠJazz",
        "4561": "Ġreplace",
        "4562": "Ġmeas",
        "4563": "Ġshovel",
        "4564": "ĠBill",
        "4565": "Ġraise",
        "4566": "ĠNext",
        "4567": "Ġfre",
        "4568": "Ġcared",
        "4569": "Ġsocks",
        "4570": "Ġstrip",
        "4571": "Ġdoors",
        "4572": "Ġmystery",
        "4573": "Ġlives",
        "4574": "Ġrestore",
        "4575": "Ġsticker",
        "4576": "Ġsudden",
        "4577": "ari",
        "4578": "Ġkinds",
        "4579": "Ġslippery",
        "4580": "ero",
        "4581": "ĠOw",
        "4582": "Ġplayer",
        "4583": "Ġpanic",
        "4584": "ricane",
        "4585": "Ġhoping",
        "4586": "iday",
        "4587": "Ġshone",
        "4588": "lex",
        "4589": "ude",
        "4590": "hero",
        "4591": "ĠMike",
        "4592": "ĠBinky",
        "4593": "Ġsuperhero",
        "4594": "Ġdelighted",
        "4595": "Ġgro",
        "4596": "Yay",
        "4597": "Ġchickens",
        "4598": "Ġshoulder",
        "4599": "Ġrained",
        "4600": "Ġcolourful",
        "4601": "Ġbreat",
        "4602": "ĠAlice",
        "4603": "Ġclaw",
        "4604": "ĠBubbles",
        "4605": "Yuck",
        "4606": "Ġsoftly",
        "4607": "rise",
        "4608": "Ġport",
        "4609": "Grandma",
        "4610": "Ġhol",
        "4611": "icer",
        "4612": "Ġholiday",
        "4613": "ĠâĢ",
        "4614": "Ġbarks",
        "4615": "ason",
        "4616": "Ġthrowing",
        "4617": "Ġplanes",
        "4618": "Mary",
        "4619": "Ġbend",
        "4620": "ĠFreddy",
        "4621": "Ġshakes",
        "4622": "Ġinfant",
        "4623": "Ġended",
        "4624": "Ġshivering",
        "4625": "Ġkneel",
        "4626": "Ġsunrise",
        "4627": "Ġpushes",
        "4628": "ĠOlive",
        "4629": "Ġthanks",
        "4630": "Ġfresh",
        "4631": "Ġsuffer",
        "4632": "Ġpoints",
        "4633": "imed",
        "4634": "wards",
        "4635": "ĠPat",
        "4636": "Ġtip",
        "4637": "ĠSpeedy",
        "4638": "Ġfreeze",
        "4639": "Ġkeeping",
        "4640": "ĠWould",
        "4641": "Ġgiggle",
        "4642": "Ġcopper",
        "4643": "Ġsmells",
        "4644": "Ġdear",
        "4645": "ah",
        "4646": "Ġenter",
        "4647": "Ġprovide",
        "4648": "cast",
        "4649": "chanic",
        "4650": "Ġdishes",
        "4651": "ĠEnd",
        "4652": "Ġapplau",
        "4653": "cond",
        "4654": "Ġunh",
        "4655": "Next",
        "4656": "Ġheads",
        "4657": "Ġhurricane",
        "4658": "Ġcherry",
        "4659": "Ġthumb",
        "4660": "Ġmenu",
        "4661": "Ġmeowed",
        "4662": "Ġmass",
        "4663": "Ġsecond",
        "4664": "Ġbrighter",
        "4665": "ince",
        "4666": "Ġsandcast",
        "4667": "Ġmechanic",
        "4668": "Ġwre",
        "4669": "Ġsprayed",
        "4670": "Ġletting",
        "4671": "Ġevent",
        "4672": "Ġweapon",
        "4673": "Ġlaught",
        "4674": "Ġx",
        "4675": "Ġlaughter",
        "4676": "Ġclapping",
        "4677": "Ġfeelings",
        "4678": "Will",
        "4679": "icky",
        "4680": "Ġsplashing",
        "4681": "ement",
        "4682": "ĠOr",
        "4683": "acked",
        "4684": "Ġcastles",
        "4685": "ĠFl",
        "4686": "cer",
        "4687": "Ġscore",
        "4688": "apping",
        "4689": "Ġuniverse",
        "4690": "Ġnavy",
        "4691": "Ġdem",
        "4692": "Ġsticky",
        "4693": "ophie",
        "4694": "Ġrooms",
        "4695": "Ġrow",
        "4696": "Ġflies",
        "4697": "igi",
        "4698": "ĠDave",
        "4699": "Ġunhappy",
        "4700": "Ġgreedy",
        "4701": "Ġdare",
        "4702": "Ġalive",
        "4703": "Ġbreaks",
        "4704": "Ġener",
        "4705": "Ġcourage",
        "4706": "Ġinvit",
        "4707": "Ready",
        "4708": "Ġrepeat",
        "4709": "Ġdemand",
        "4710": "gie",
        "4711": "Ġtrusted",
        "4712": "Lisa",
        "4713": "Ġsomewhere",
        "4714": "arlie",
        "4715": "Ġprune",
        "4716": "bles",
        "4717": "Ġwreck",
        "4718": "ĠY",
        "4719": "Ġskill",
        "4720": "Ġexamine",
        "4721": "Ġparts",
        "4722": "year",
        "4723": "Ġeaten",
        "4724": "oe",
        "4725": "All",
        "4726": "erc",
        "4727": "enry",
        "4728": "Ġmention",
        "4729": "Ġraining",
        "4730": "ĠHelp",
        "4731": "Ġsnug",
        "4732": "Buddy",
        "4733": "Ġthrows",
        "4734": "Ġjogged",
        "4735": "quest",
        "4736": "Ġstarting",
        "4737": "Ġrush",
        "4738": "Ġpoison",
        "4739": "Ġpirates",
        "4740": "heart",
        "4741": "Ġvac",
        "4742": "Ġcontent",
        "4743": "Emma",
        "4744": "ĠKiki",
        "4745": "Ġsigh",
        "4746": "Ġflapped",
        "4747": "Ġdrops",
        "4748": "Ġchirp",
        "4749": "Ġsport",
        "4750": "Qu",
        "4751": "Ġsparkled",
        "4752": "ĠZoomy",
        "4753": "Ġgiven",
        "4754": "Ġstreng",
        "4755": "Ġsteel",
        "4756": "Ann",
        "4757": "Ġbumped",
        "4758": "Ġyawned",
        "4759": "Ġstud",
        "4760": "Ġrequest",
        "4761": "Ġscold",
        "4762": "Ġmyself",
        "4763": "Ġstrength",
        "4764": "Ġshrugged",
        "4765": "Mark",
        "4766": "Ġcoats",
        "4767": "Ġpunish",
        "4768": "Ġequ",
        "4769": "Ġuniversity",
        "4770": "Ġpaid",
        "4771": "ĠJohnny",
        "4772": "Ġpigs",
        "4773": "Ġscratch",
        "4774": "Ġtoe",
        "4775": "Ġexerc",
        "4776": "Ġtracks",
        "4777": "Ġupstairs",
        "4778": "Ġprayed",
        "4779": "Ġcrossed",
        "4780": "Ġsqueezed",
        "4781": "Ġimpressed",
        "4782": "Ġflood",
        "4783": "Ġbouncing",
        "4784": "Alice",
        "4785": "Ġrabbits",
        "4786": "ges",
        "4787": "Ġbadly",
        "4788": "..",
        "4789": "Ġwarn",
        "4790": "Ġleather",
        "4791": "Ġtug",
        "4792": "Ġexpect",
        "4793": "Ġnews",
        "4794": "Ġtide",
        "4795": "ĠTed",
        "4796": "Ġminute",
        "4797": "Ġbears",
        "4798": "Ġclaws",
        "4799": "Ġbuzz",
        "4800": "Ġsweetheart",
        "4801": "ĠSm",
        "4802": "yth",
        "4803": "Ġnation",
        "4804": "Sh",
        "4805": "ythm",
        "4806": "Ġvacation",
        "4807": "Ġhist",
        "4808": "Ġheat",
        "4809": "Ġstrawberries",
        "4810": "Ġobserve",
        "4811": "Ġexplored",
        "4812": "Ġsettle",
        "4813": "Ġsandcastle",
        "4814": "Ġyawn",
        "4815": "Ġhistory",
        "4816": "ĠLilly",
        "4817": "ĠLola",
        "4818": "mare",
        "4819": "ĠMummy",
        "4820": "ĠSque",
        "4821": "ially",
        "4822": "inking",
        "4823": "Ġbelieved",
        "4824": "Ġhorses",
        "4825": "Daddy",
        "4826": "ĠHoppy",
        "4827": "Ġchecked",
        "4828": "ĠMandy",
        "4829": "Ġtour",
        "4830": "Ġnetwork",
        "4831": "Ġcheek",
        "4832": "ĠUnder",
        "4833": "Ġoffer",
        "4834": "Ġeasily",
        "4835": "Ġplaced",
        "4836": "spec",
        "4837": "Ġspots",
        "4838": "Ġsnowball",
        "4839": "ween",
        "4840": "men",
        "4841": "Ġenergy",
        "4842": "ĠBee",
        "4843": "Ġimagination",
        "4844": "Ġblueberry",
        "4845": "otten",
        "4846": "Ġbetween",
        "4847": "specially",
        "4848": "ĠGigi",
        "4849": "izes",
        "4850": "Ġdaisy",
        "4851": "Ġwaving",
        "4852": "reeze",
        "4853": "reat",
        "4854": "Ġvroom",
        "4855": "Ġsoak",
        "4856": "Ġsafari",
        "4857": "Ġrhythm",
        "4858": "Ġmassage",
        "4859": "Ġstomach",
        "4860": "Ġbaking",
        "4861": "quake",
        "4862": "Ġnightmare",
        "4863": "Ġinsisted",
        "4864": "Ġblowing",
        "4865": "Ġentered",
        "4866": "Before",
        "4867": "Ġstair",
        "4868": "Ġpalm",
        "4869": "Ġbeauty",
        "4870": "Ġtwisted",
        "4871": "Ġbother",
        "4872": "Ġwriting",
        "4873": "Ġscoop",
        "4874": "Ġprunes",
        "4875": "Ġbrain",
        "4876": "Ġing",
        "4877": "ipment",
        "4878": "Ġpoppy",
        "4879": "Ġhills",
        "4880": "noon",
        "4881": "Ġafternoon",
        "4882": "Ġequipment",
        "4883": "Ġespecially",
        "4884": "ĠRu",
        "4885": "hest",
        "4886": "Ġsir",
        "4887": "Ġpad",
        "4888": "ĠSee",
        "4889": "Ġingred",
        "4890": "Ġcalls",
        "4891": "Ġingredient",
        "4892": "ĠFox",
        "4893": "Ġearthquake",
        "4894": "Ġignored",
        "4895": "ĠSnowy",
        "4896": "Ġburned",
        "4897": "Ġnobody",
        "4898": "mble",
        "4899": "Ġsty",
        "4900": "apa",
        "4901": "Ġsew",
        "4902": "isty",
        "4903": "xygen",
        "4904": "Ġhearts",
        "4905": "Ġlear",
        "4906": "Ġlearnt",
        "4907": "Ġlemonade",
        "4908": "Ġincrease",
        "4909": "illie",
        "4910": "Jenny",
        "4911": "Ġgaz",
        "4912": "Ġbackpack",
        "4913": "Ġmailman",
        "4914": "Ġwhistled",
        "4915": "Ġpedal",
        "4916": "ĠSk",
        "4917": "Fred",
        "4918": "Ġshopkeeper",
        "4919": "ffic",
        "4920": "Ġpermit",
        "4921": "Ġtremble",
        "4922": "Ġyucky",
        "4923": "anges",
        "4924": "Ġmoves",
        "4925": "Ġintroduce",
        "4926": "Ġlemons",
        "4927": "Ġcrash",
        "4928": "Ġbeans",
        "4929": "Ġfloated",
        "4930": "edn",
        "4931": "ednesday",
        "4932": "ittens",
        "4933": "Welcome",
        "4934": "Ġplanned",
        "4935": "Ġstrike",
        "4936": "Ġtraffic",
        "4937": "Ġinclude",
        "4938": "Ġslap",
        "4939": "Ġracing",
        "4940": "ĠLucky",
        "4941": "resses",
        "4942": "Ġwisdom",
        "4943": "Ġpur",
        "4944": "Ġwags",
        "4945": "ĠFinny",
        "4946": "laimed",
        "4947": "ĠGeorge",
        "4948": "Ġluck",
        "4949": "Ġfollowing",
        "4950": "Ġprice",
        "4951": "ecting",
        "4952": "Ġmama",
        "4953": "Ġpitch",
        "4954": "Ġbelow",
        "4955": "ĠElly",
        "4956": "ĠHave",
        "4957": "Le",
        "4958": "Ġweight",
        "4959": "Ġexclaimed",
        "4960": "house",
        "4961": "Ġburied",
        "4962": "Ġfollows",
        "4963": "Ġcomf",
        "4964": "Ġrecognize",
        "4965": "Ġingredients",
        "4966": "ĠĊ",
        "4967": "Ġfurt",
        "4968": "tain",
        "4969": "mem",
        "4970": "Ġcandles",
        "4971": "eme",
        "4972": "Mimi",
        "4973": "Ġmarbles",
        "4974": "riage",
        "4975": "unday",
        "4976": "emember",
        "4977": "eration",
        "4978": "ĠAlex",
        "4979": "Ġapart",
        "4980": "ĠWednesday",
        "4981": "Ġgrowled",
        "4982": "uct",
        "4983": "ores",
        "4984": "Ġconf",
        "4985": "Ġteaching",
        "4986": "Ġhopes",
        "4987": "Ġfolded",
        "4988": "Ġclosely",
        "4989": "ĠFinn",
        "4990": "ĠWho",
        "4991": "Ġheel",
        "4992": "ĠSu",
        "4993": "ĠSunday",
        "4994": "Ġencourage",
        "4995": "ĠPaul",
        "4996": "ĠOwl",
        "4997": "Ġzigzag",
        "4998": "Ġpulling",
        "4999": "Ġbouncy",
        "5000": "Ġfurther",
        "5001": "Ġchewed",
        "5002": "Ġdigging",
        "5003": "Ġwinning",
        "5004": "Woof",
        "5005": "With",
        "5006": "Ġdresses",
        "5007": "Ġimage",
        "5008": "rec",
        "5009": "cery",
        "5010": "Ġencoura",
        "5011": "Ġshouting",
        "5012": "Ġgrocery",
        "5013": "Ġtwisty",
        "5014": "Ġpeanuts",
        "5015": "Ġpuzzles",
        "5016": "bbing",
        "5017": "ĠDog",
        "5018": "look",
        "5019": "Ġscrat",
        "5020": "Ġchores",
        "5021": "Ġwhisper",
        "5022": "ĠIs",
        "5023": "Ġspike",
        "5024": "ĠFroggy",
        "5025": "Ġcape",
        "5026": "Ġsnail",
        "5027": "Ġacorns",
        "5028": "Ġworms",
        "5029": "hood",
        "5030": "Ġdeeper",
        "5031": "Ġurge",
        "5032": "ifi",
        "5033": "Ġexper",
        "5034": "ĠWhenever",
        "5035": "ĠTilly",
        "5036": "ĠSqueaky",
        "5037": "ĠGrace",
        "5038": "Ġplanted",
        "5039": "Ġattention",
        "5040": "ecture",
        "5041": "Ġexercise",
        "5042": "ĠDanny",
        "5043": "Ġcub",
        "5044": "Ġoperation",
        "5045": "Ġunderground",
        "5046": "Ġhon",
        "5047": "Ġagre",
        "5048": "Ġquite",
        "5049": "Ġcreatures",
        "5050": "Ġsimp",
        "5051": "Everyone",
        "5052": "Ġstruggle",
        "5053": "oral",
        "5054": "ĠMittens",
        "5055": "ddy",
        "5056": "Ġblood",
        "5057": "Ġlecture",
        "5058": "Ġwashing",
        "5059": "Ġhurting",
        "5060": "Ġvanished",
        "5061": "Ġgifts",
        "5062": "Ġdressed",
        "5063": "Ġinvitation",
        "5064": "Ġsolved",
        "5065": "Ġlicks",
        "5066": "Ġsnuggled",
        "5067": "ĠSharing",
        "5068": "ippy",
        "5069": "Ġble",
        "5070": "Ġmarriage",
        "5071": "Ġquietly",
        "5072": "Ġwarning",
        "5073": "Ġjazz",
        "5074": "Ġbreathe",
        "5075": "reci",
        "5076": "Ġelephants",
        "5077": "Ġsizes",
        "5078": "Ġdried",
        "5079": "Ġfallen",
        "5080": "Ġlandscape",
        "5081": "ories",
        "5082": "Ġsprink",
        "5083": "Ġneighbour",
        "5084": "Ġmice",
        "5085": "uesday",
        "5086": "Ġappreci",
        "5087": "ĠSophie",
        "5088": "ĠJoey",
        "5089": "ĠâĢĵ",
        "5090": "Ġeagerly",
        "5091": "Ġsailing",
        "5092": "ĠCoco",
        "5093": "Ġpaused",
        "5094": "ips",
        "5095": "Ġcounter",
        "5096": "ĠGood",
        "5097": "ĠBounce",
        "5098": "ĠPenny",
        "5099": "Ġworth",
        "5100": "looking",
        "5101": "ĠRock",
        "5102": "Ġoxygen",
        "5103": "Because",
        "5104": "Ġrelease",
        "5105": "Ġshined",
        "5106": "Not",
        "5107": "pted",
        "5108": "Ġreaches",
        "5109": "Ġbalan",
        "5110": "ĠZara",
        "5111": "isses",
        "5112": "Ġoh",
        "5113": "Ġkisses",
        "5114": "Ġstyle",
        "5115": "Ġbricks",
        "5116": "Ġplays",
        "5117": "Ġglo",
        "5118": "ĠTuesday",
        "5119": "Ġideas",
        "5120": "sed",
        "5121": "Ġinst",
        "5122": "Ġwob",
        "5123": "Ġfireworks",
        "5124": "Bella",
        "5125": "iggly",
        "5126": "ucked",
        "5127": "Ġseeing",
        "5128": "Ġflap",
        "5129": "ops",
        "5130": "Ġaccepted",
        "5131": "right",
        "5132": "ĠPip",
        "5133": "Today",
        "5134": "Ġblink",
        "5135": "mm",
        "5136": "ĠRos",
        "5137": "Ġtremb",
        "5138": "These",
        "5139": "Ġmuddy",
        "5140": "Ġmemory",
        "5141": "Ġmarried",
        "5142": "Ġtomatoes",
        "5143": "Ġexit",
        "5144": "ĠAnnie",
        "5145": "Ġwagging",
        "5146": "Ġfash",
        "5147": "Remy",
        "5148": "ĠCharlie",
        "5149": "Ġwandered",
        "5150": "unately",
        "5151": "ipping",
        "5152": "Ġgloves",
        "5153": "Ġcaptain",
        "5154": "Ġpillows",
        "5155": "Ġreceive",
        "5156": "Ġresp",
        "5157": "ĠPinky",
        "5158": "Ġduring",
        "5159": "ĠEverything",
        "5160": "etch",
        "5161": "Ġweb",
        "5162": "Ġpetals",
        "5163": "Ġwatered",
        "5164": "ĠEventually",
        "5165": "Ġsi",
        "5166": "ived",
        "5167": "Ġmanage",
        "5168": "Ġpinched",
        "5169": "Ġbrings",
        "5170": "ux",
        "5171": "Ġvanish",
        "5172": "Ġcakes",
        "5173": "Ġfashion",
        "5174": "ĠBluey",
        "5175": "Ġprinter",
        "5176": "Ġdestroyed",
        "5177": "Ġtreasures",
        "5178": "nce",
        "5179": "Ġallow",
        "5180": "ups",
        "5181": "Ġhadn",
        "5182": "Ġworse",
        "5183": "ĠFifi",
        "5184": "Surpr",
        "5185": "Ġvel",
        "5186": "Ġhits",
        "5187": "Ġbur",
        "5188": "uxu",
        "5189": "Ġvelvet",
        "5190": "Ġappear",
        "5191": "Ġdisagree",
        "5192": "do",
        "5193": "Ġcatching",
        "5194": "Ġscattered",
        "5195": "ĠRo",
        "5196": "Ġmemories",
        "5197": "Ġsorts",
        "5198": "ĠPapa",
        "5199": "Ġhers",
        "5200": "Ġscolded",
        "5201": "Ġsigns",
        "5202": "Ġpears",
        "5203": "Ġoranges",
        "5204": "Ġbones",
        "5205": "Ġrang",
        "5206": "Ġsnapped",
        "5207": "Ġsits",
        "5208": "Ġseats",
        "5209": "Bl",
        "5210": "Ġgazed",
        "5211": "Ġraised",
        "5212": "ĠMaria",
        "5213": "Ġzipped",
        "5214": "Ġpies",
        "5215": "Ġprints",
        "5216": "Ġshot",
        "5217": "Ġsliding",
        "5218": "ĠGod",
        "5219": "Ġfro",
        "5220": "Ġeasier",
        "5221": "ssible",
        "5222": "Ġskills",
        "5223": "Ġclimbs",
        "5224": "Ġtwirled",
        "5225": "ccer",
        "5226": "Ġblankets",
        "5227": "ester",
        "5228": "Ġforgotten",
        "5229": "Ġapplaud",
        "5230": "Ġbaked",
        "5231": "Yum",
        "5232": "esterday",
        "5233": "Ġdifference",
        "5234": "orted",
        "5235": "Ġluxu",
        "5236": "Ġgolden",
        "5237": "ising",
        "5238": "Ġkitty",
        "5239": "ĠTw",
        "5240": "Ġcutting",
        "5241": "Ġseason",
        "5242": "aggie",
        "5243": "Ġnowhere",
        "5244": "Ġcrow",
        "5245": "Ġsoccer",
        "5246": "Ġdared",
        "5247": "Ġbites",
        "5248": "ĠHenry",
        "5249": "ĠHarry",
        "5250": "anny",
        "5251": "Ġcelebrated",
        "5252": "Ġlung",
        "5253": "choo",
        "5254": "chie",
        "5255": "Ġstraight",
        "5256": "Ġunlocked",
        "5257": "sters",
        "5258": "Ġsorting",
        "5259": "Ġcollected",
        "5260": "Ġbleed",
        "5261": "aped",
        "5262": "Ġwelcomed",
        "5263": "Ġvisited",
        "5264": "Ġspoons",
        "5265": "Ġours",
        "5266": "Ġstitch",
        "5267": "Ġjogging",
        "5268": "Surprise",
        "5269": "medi",
        "5270": "Ġemer",
        "5271": "ĠSpark",
        "5272": "mediately",
        "5273": "Ġisn",
        "5274": "Ġtong",
        "5275": "Ġtrave",
        "5276": "Ġwinner",
        "5277": "umble",
        "5278": "Ġsince",
        "5279": "Ġruin",
        "5280": "Ġprett",
        "5281": "Ok",
        "5282": "Moral",
        "5283": "ĠTony",
        "5284": "Ġattached",
        "5285": "Ġweeping",
        "5286": "Ġmarching",
        "5287": "Ġluxury",
        "5288": "Ġsimple",
        "5289": "ĠEach",
        "5290": "Ġshouldn",
        "5291": "Ġguessed",
        "5292": "Ġzero",
        "5293": "Ġcreated",
        "5294": "Ġstuffed",
        "5295": "Ġpets",
        "5296": "ction",
        "5297": "Ġwaist",
        "5298": "Ġfamil",
        "5299": "Ġurged",
        "5300": "Ġbowed",
        "5301": "Ġselling",
        "5302": "Ġfloating",
        "5303": "rr",
        "5304": "ĠSmith",
        "5305": "Ġbye",
        "5306": "ĠKing",
        "5307": "Ġvict",
        "5308": "Ġkingdom",
        "5309": "Ġolives",
        "5310": "Ġkicking",
        "5311": "ĠWiggly",
        "5312": "Ġpunished",
        "5313": "ĠLiz",
        "5314": "ĠBaby",
        "5315": "sit",
        "5316": "Ġtoes",
        "5317": "ĠAn",
        "5318": "Ġgrant",
        "5319": "Ġmuscles",
        "5320": "Ġjewels",
        "5321": "ĠRosie",
        "5322": "Ġbeds",
        "5323": "Ġmelted",
        "5324": "Goodbye",
        "5325": "Ġslice",
        "5326": "Ġgrin",
        "5327": "Ġunderstanding",
        "5328": "Ġcollection",
        "5329": "Ġtore",
        "5330": "Ġmeasured",
        "5331": "aker",
        "5332": "Ġcras",
        "5333": "omeday",
        "5334": "iers",
        "5335": "Ġtrapped",
        "5336": "Ġlined",
        "5337": "'ve",
        "5338": "Ġacted",
        "5339": "fortunately",
        "5340": "Ġencouraged",
        "5341": "va",
        "5342": "ĠSandy",
        "5343": "Ġreceived",
        "5344": "Ġwaffles",
        "5345": "ĠBefore",
        "5346": "ĠWally",
        "5347": "Ġwest",
        "5348": "Ġmeow",
        "5349": "ents",
        "5350": "Ġpatterns",
        "5351": "rin",
        "5352": "ino",
        "5353": "eath",
        "5354": "Ġbrus",
        "5355": "Ġmouths",
        "5356": "kins",
        "5357": "ring",
        "5358": "ĠKate",
        "5359": "Meow",
        "5360": "Ġpeaches",
        "5361": "Ġbreeze",
        "5362": "aded",
        "5363": "une",
        "5364": "Ġprinted",
        "5365": "Ġsoldiers",
        "5366": "Ġsomeday",
        "5367": "Ġpotatoes",
        "5368": "Ġpupil",
        "5369": "umes",
        "5370": "ĠMillie",
        "5371": "Ġdrinks",
        "5372": "Ġshed",
        "5373": "Ġexperience",
        "5374": "ĠTuna",
        "5375": "eep",
        "5376": "Ġpresents",
        "5377": "Ġfiref",
        "5378": "ĠRuby",
        "5379": "Ġsurround",
        "5380": "Ġnone",
        "5381": "osed",
        "5382": "ann",
        "5383": "Ġvoices",
        "5384": "Ġdrinking",
        "5385": "ĠUncle",
        "5386": "ishing",
        "5387": "Ġrelaxed",
        "5388": "Ġvictory",
        "5389": "cus",
        "5390": "Ġpaints",
        "5391": "Ġbreaking",
        "5392": "eve",
        "5393": "Ġhurried",
        "5394": "ission",
        "5395": "Ġtwink",
        "5396": "Ġtongue",
        "5397": "Ġrecor",
        "5398": "Ġcostumes",
        "5399": "Ġflat",
        "5400": "Ġmentioned",
        "5401": "Ġbegged",
        "5402": "Ġteasing",
        "5403": "Ġwhistling",
        "5404": "Ġfetch",
        "5405": "Ġpermission",
        "5406": "Ġsip",
        "5407": "Ġdisagreed",
        "5408": "Ġpearl",
        "5409": "akes",
        "5410": "Ġstro",
        "5411": "vest",
        "5412": "ĠThese",
        "5413": "Ġesc",
        "5414": "Ġappro",
        "5415": "Ġskipping",
        "5416": "Ġfishing",
        "5417": "ĠMay",
        "5418": "Leo",
        "5419": "Ġhighest",
        "5420": "Ġpra",
        "5421": "Ġwatches",
        "5422": "Ġsorted",
        "5423": "Ġringing",
        "5424": "ship",
        "5425": "Ġtonight",
        "5426": "ĠBo",
        "5427": "Ġopin",
        "5428": "Ġlets",
        "5429": "icing",
        "5430": "ĠQu",
        "5431": "Ġperfectly",
        "5432": "Ġshadows",
        "5433": "Ġimmediately",
        "5434": "Ġherbs",
        "5435": "Ġwarmth",
        "5436": "Ġspit",
        "5437": "Ġremained",
        "5438": "ther",
        "5439": "ĠIts",
        "5440": "walk",
        "5441": "Bobby",
        "5442": "irring",
        "5443": "Jen",
        "5444": "Ġsneak",
        "5445": "Ġsix",
        "5446": "Ġlips",
        "5447": "Ġkneeled",
        "5448": "Blue",
        "5449": "Ġcontest",
        "5450": "ĠChe",
        "5451": "utter",
        "5452": "Ġcartoons",
        "5453": "Ġsidewalk",
        "5454": "Ġcolours",
        "5455": "Ġstamps",
        "5456": "Ġago",
        "5457": "Ha",
        "5458": "ĠToto",
        "5459": "ĠBoo",
        "5460": "ĠFollow",
        "5461": "Ġeast",
        "5462": "Ġheaded",
        "5463": "oved",
        "5464": "\",",
        "5465": "Ġstrang",
        "5466": "Ġladyb",
        "5467": "Ġfed",
        "5468": "Ġsupposed",
        "5469": "Ġroots",
        "5470": "Ġlick",
        "5471": "Ġcrunch",
        "5472": "Ġmixing",
        "5473": "Ġworks",
        "5474": "Ġdecorations",
        "5475": "Ġmelting",
        "5476": "Ġknown",
        "5477": "Ġemergen",
        "5478": "Mandy",
        "5479": "Ġrested",
        "5480": "ĠAb",
        "5481": "Ġlines",
        "5482": "ĠSuzy",
        "5483": "Ġlily",
        "5484": "ĠJul",
        "5485": "Ġinstr",
        "5486": "Ġlaid",
        "5487": "ĠGr",
        "5488": "Ġsucceeded",
        "5489": "Ġcones",
        "5490": "Ġwiggle",
        "5491": "ety",
        "5492": "Ġbang",
        "5493": "sing",
        "5494": "Ġshock",
        "5495": "Ġsetting",
        "5496": "ĠSlow",
        "5497": "Ġstudied",
        "5498": "Ġstrangers",
        "5499": "ĠRocky",
        "5500": "Really",
        "5501": "Ġtwigs",
        "5502": "Ġbrid",
        "5503": "Ġtheirs",
        "5504": "ĠDr",
        "5505": "Ġgirls",
        "5506": "boo",
        "5507": "!\",",
        "5508": "Ġscreams",
        "5509": "Ġlands",
        "5510": "Ġordered",
        "5511": "Ġstirring",
        "5512": "Ġmoments",
        "5513": "Ġfields",
        "5514": "Ġalright",
        "5515": "Ġstealing",
        "5516": "Andy",
        "5517": "Ġrul",
        "5518": "Ġbravely",
        "5519": "avid",
        "5520": "ĠBoth",
        "5521": "Ġmister",
        "5522": "!'",
        "5523": "Ġinvest",
        "5524": "Ġscratched",
        "5525": "Ġplaytime",
        "5526": "Ġripped",
        "5527": "Ġinvestig",
        "5528": "Ġtucked",
        "5529": "Ġresting",
        "5530": "Ġburning",
        "5531": "ishes",
        "5532": "ĠClara",
        "5533": "ĠChicky",
        "5534": "Ġbridges",
        "5535": "Ġofficer",
        "5536": "please",
        "5537": "Sammy",
        "5538": "Bird",
        "5539": "abies",
        "5540": "Ġsettled",
        "5541": "Ġmatched",
        "5542": "Ġachie",
        "5543": "Ġtex",
        "5544": "Ġtexture",
        "5545": "Happy",
        "5546": "Ġwaits",
        "5547": "Ġturning",
        "5548": "ĠSky",
        "5549": "Peter",
        "5550": "ored",
        "5551": "Ġtrembling",
        "5552": "isten",
        "5553": "Ġnails",
        "5554": "atie",
        "5555": "Ġmuffins",
        "5556": "ĠSomeone",
        "5557": "ids",
        "5558": "Ġescaped",
        "5559": "ĠJames",
        "5560": "Ġpiles",
        "5561": "Ġinvestigate",
        "5562": "osity",
        "5563": "Ġbroom",
        "5564": "Ġladybug",
        "5565": "Ġsore",
        "5566": "ĠPepper",
        "5567": "Ġappreciate",
        "5568": "Ġadmir",
        "5569": "Ġthreat",
        "5570": "Ġbabies",
        "5571": "Ġsilence",
        "5572": "Ġsisters",
        "5573": "Ġemergency",
        "5574": "Ġarea",
        "5575": "ides",
        "5576": "Ġdads",
        "5577": "Ġanswers",
        "5578": "Ġpupp",
        "5579": "Ġkeys",
        "5580": "Ġchewing",
        "5581": "Ġslapped",
        "5582": "Ġwiz",
        "5583": "Ġimportance",
        "5584": "Boo",
        "5585": "Ġserved",
        "5586": "ĠHop",
        "5587": "Ġsafety",
        "5588": "izing",
        "5589": "Would",
        "5590": "Bu",
        "5591": "Ġsparkle",
        "5592": "Ġtouching",
        "5593": "ĠLater",
        "5594": "Ġsoared",
        "5595": "igail",
        "5596": "Ġsings",
        "5597": "Ġhen",
        "5598": "allen",
        "5599": "Ella",
        "5600": "bers",
        "5601": "antly",
        "5602": "Momo",
        "5603": "ĠDino",
        "5604": "Ġkeeps",
        "5605": "Ġamazement",
        "5606": "Ġchallen",
        "5607": "Ġtwin",
        "5608": "Ġhesit",
        "5609": "Ġrevealed",
        "5610": "achel",
        "5611": "Ġitem",
        "5612": "Ġdire",
        "5613": "Ġsoaked",
        "5614": "zing",
        "5615": "Ġwrit",
        "5616": "Ġfoods",
        "5617": "Ġrides",
        "5618": "Ġdinosaurs",
        "5619": "Ġrecorded",
        "5620": "Ġtickle",
        "5621": "Ġinch",
        "5622": "ĠZigzag",
        "5623": "ĠMe",
        "5624": "Ġwizard",
        "5625": "Ġvet",
        "5626": "Ġtrips",
        "5627": "Ġglowed",
        "5628": "ĠFrog",
        "5629": "Mmm",
        "5630": "Ġhi",
        "5631": "Ġbeamed",
        "5632": "Ġquack",
        "5633": "Ġcurled",
        "5634": "Ġhated",
        "5635": "Ġwink",
        "5636": "Ġshopping",
        "5637": "Ġeats",
        "5638": "Eventually",
        "5639": "ĠBug",
        "5640": "Ġpraised",
        "5641": "Ġwooden",
        "5642": "Ġbringing",
        "5643": "Ġmittens",
        "5644": "Ġstudying",
        "5645": "Ġguy",
        "5646": "Ġbrushes",
        "5647": "Ġspaceship",
        "5648": "Ġgust",
        "5649": "Ġcrawling",
        "5650": "ĠSomething",
        "5651": "Cat",
        "5652": "Ġruler",
        "5653": "Ġflav",
        "5654": "Ġdownstairs",
        "5655": "Ġshooting",
        "5656": "Ġtastes",
        "5657": "Ġnapping",
        "5658": "Ġsprinkles",
        "5659": "Ġmarks",
        "5660": "Ġcuddled",
        "5661": "Ġdot",
        "5662": "hello",
        "5663": "plash",
        "5664": "Ġfut",
        "5665": "ales",
        "5666": "aved",
        "5667": "Ġfuture",
        "5668": "Ġmonsters",
        "5669": "Ġcollecting",
        "5670": "Ġmeasuring",
        "5671": "ĠHappy",
        "5672": "'.",
        "5673": "Ġfamilies",
        "5674": "ĠOut",
        "5675": "ĠFirst",
        "5676": "ĠMo",
        "5677": "Ġthrill",
        "5678": "Ġoat",
        "5679": "irts",
        "5680": "Ġresult",
        "5681": "Jake",
        "5682": "Ġapproached",
        "5683": "ĠRabbit",
        "5684": "Ġcrunchy",
        "5685": "act",
        "5686": "Un",
        "5687": "ding",
        "5688": "Ġremem",
        "5689": "Ġbleeding",
        "5690": "Ġremembers",
        "5691": "Ġnicer",
        "5692": "Ġbeat",
        "5693": "Ġsneaky",
        "5694": "Ġdisturbed",
        "5695": "Ġleader",
        "5696": "Ġscaring",
        "5697": "Or",
        "5698": "hind",
        "5699": "Ġpeel",
        "5700": "ĠHope",
        "5701": "Ġfiremen",
        "5702": "Ġneighborhood",
        "5703": "ĠStar",
        "5704": "Ġgrey",
        "5705": "ĠNot",
        "5706": "Ġmotion",
        "5707": "Ġnoon",
        "5708": "Ġpossible",
        "5709": "Emily",
        "5710": "Somet",
        "5711": "Ġapologized",
        "5712": "ues",
        "5713": "Ġweighed",
        "5714": "Cl",
        "5715": "ĠDid",
        "5716": "Ġtickets",
        "5717": "Ġnaps",
        "5718": "Ġloose",
        "5719": "Ġpride",
        "5720": "Ġyouth",
        "5721": "Ġswims",
        "5722": "ped",
        "5723": "Ġstrings",
        "5724": "Ġrecognized",
        "5725": "Ġsiren",
        "5726": "Ġpoking",
        "5727": "fied",
        "5728": "ĠHo",
        "5729": "cious",
        "5730": "elvet",
        "5731": "Ġtricked",
        "5732": "Ġwonders",
        "5733": "Ġgained",
        "5734": "ha",
        "5735": "Ġwanting",
        "5736": "Ġcrashed",
        "5737": "Ġobe",
        "5738": "Ġseesaw",
        "5739": "Ġworker",
        "5740": "unnies",
        "5741": "ls",
        "5742": "oming",
        "5743": "Ġdraws",
        "5744": "Ġscooped",
        "5745": ".'",
        "5746": "Ġzooming",
        "5747": "Ġopinion",
        "5748": "Ġyelling",
        "5749": "Ġprepared",
        "5750": "Ġgrinned",
        "5751": "ĠSlowly",
        "5752": "Ġawe",
        "5753": "Ġpoems",
        "5754": "Ġdoggy",
        "5755": "Ġacting",
        "5756": "ĠBeep",
        "5757": "Ġhappiest",
        "5758": "Ġchef",
        "5759": "Ġsneaked",
        "5760": "Ġrespons",
        "5761": "Ġeff",
        "5762": "ĠAlways",
        "5763": "ĠLizzy",
        "5764": "Ġowned",
        "5765": "Ġbunnies",
        "5766": "Ġanytime",
        "5767": "Ġstruck",
        "5768": "Ġpedals",
        "5769": "oys",
        "5770": "Ġknelt",
        "5771": "ena",
        "5772": "Ollie",
        "5773": "Ġsecrets",
        "5774": "Ġpause",
        "5775": "Ġdecorated",
        "5776": "Ġhorns",
        "5777": "Ġagreement",
        "5778": "ĠSqu",
        "5779": "ided",
        "5780": "Ġfrost",
        "5781": "Ġtallest",
        "5782": "Ġobey",
        "5783": "Remember",
        "5784": "riends",
        "5785": "ogo",
        "5786": "ĠStop",
        "5787": "Ġgigg",
        "5788": "Have",
        "5789": "Ġdecides",
        "5790": "ĠOnce",
        "5791": "Ġbehaved",
        "5792": "Ġtugged",
        "5793": "Ġsides",
        "5794": "Ġwoof",
        "5795": "Ġslim",
        "5796": "zen",
        "5797": "Ġgoodnight",
        "5798": "Ġkeeper",
        "5799": "Ġsparkling",
        "5800": "Ġchirped",
        "5801": "Ġprecious",
        "5802": "mother",
        "5803": "uggling",
        "5804": "ien",
        "5805": "lier",
        "5806": "Tr",
        "5807": "Ġrepeated",
        "5808": "Ġclaps",
        "5809": "indy",
        "5810": "affes",
        "5811": "Ġsnowballs",
        "5812": "Ġcontain",
        "5813": "rs",
        "5814": "ĠRay",
        "5815": "Ġourselves",
        "5816": "allow",
        "5817": "Ġgiraffes",
        "5818": "Ġbalancing",
        "5819": "Ġkindly",
        "5820": "Ġspending",
        "5821": "Ġwrites",
        "5822": "ays",
        "5823": "ppers",
        "5824": "ĠLike",
        "5825": "omas",
        "5826": "Ġprop",
        "5827": "Ġhissed",
        "5828": "First",
        "5829": "Ġfrozen",
        "5830": "Ġfrosting",
        "5831": "Ġeffort",
        "5832": "Ġbuzzing",
        "5833": "Ġstruggled",
        "5834": "oh",
        "5835": "ĠSteve",
        "5836": "Ġadmiring",
        "5837": "Ġrele",
        "5838": "iggy",
        "5839": "Ġsweeties",
        "5840": "ĠVelvet",
        "5841": "Ġslimy",
        "5842": "Ġbrushed",
        "5843": "ĠAm",
        "5844": "Ġbloomed",
        "5845": "Susie",
        "5846": "Ġpolished",
        "5847": "ĠZoe",
        "5848": "arth",
        "5849": "Ġcomfy",
        "5850": "Ġboo",
        "5851": "Ġstaying",
        "5852": "Ġrubbing",
        "5853": "Ducky",
        "5854": "Ġrocking",
        "5855": "Ġpockets",
        "5856": "Ġthrilled",
        "5857": "Ġbeside",
        "5858": "Ġcomple",
        "5859": "ĠAunt",
        "5860": "ĠMaggie",
        "5861": "Ah",
        "5862": "Ġeight",
        "5863": "urry",
        "5864": "isdom",
        "5865": "Ġmachines",
        "5866": "Ġearlier",
        "5867": "Ġyesterday",
        "5868": "Ġseems",
        "5869": "Ġrust",
        "5870": "ĠKeep",
        "5871": "Sp",
        "5872": "Ġtraveled",
        "5873": "Ġfolding",
        "5874": "Ġboom",
        "5875": "Ġcracked",
        "5876": "ities",
        "5877": "Ġhugging",
        "5878": "Ġradishes",
        "5879": "ĠStitch",
        "5880": "Ġopening",
        "5881": "Ġloving",
        "5882": "Ġcircus",
        "5883": "Ġsurrounded",
        "5884": "Ġcuriosity",
        "5885": "ĠRachel",
        "5886": "Ġspraying",
        "5887": "Ġdemanded",
        "5888": "anted",
        "5889": "Ġpaintings",
        "5890": "amie",
        "5891": "ĠGreen",
        "5892": "Ġremoved",
        "5893": "Ġgaze",
        "5894": "Ġhonk",
        "5895": "Ġpebbles",
        "5896": "Ġzookeeper",
        "5897": "Ġhardly",
        "5898": "Ġcatches",
        "5899": "edding",
        "5900": "Ġsting",
        "5901": "Ġstripes",
        "5902": "Ġpowers",
        "5903": "Ġloaded",
        "5904": "ĠPippa",
        "5905": "Sometimes",
        "5906": "Ġsplashes",
        "5907": "Ġpots",
        "5908": "Ġpetted",
        "5909": "Ġmatching",
        "5910": "ĠDavid",
        "5911": "Thanks",
        "5912": "Ġtoss",
        "5913": "Ġstare",
        "5914": "Ġbelly",
        "5915": "Yummy",
        "5916": "ibb",
        "5917": "Ġwhatever",
        "5918": "Ġapologize",
        "5919": "Ġrocked",
        "5920": "Ġcomforted",
        "5921": "ĠBree",
        "5922": "Ġdecision",
        "5923": "Ġribbons",
        "5924": "ĠJoy",
        "5925": "ĠBirdie",
        "5926": "ern",
        "5927": "Ġstruggling",
        "5928": "Ġexpected",
        "5929": "Ġdeser",
        "5930": "Ġsteep",
        "5931": "wh",
        "5932": "Ġprotected",
        "5933": "Ġneighbors",
        "5934": "Ġsmiley",
        "5935": "Ġchases",
        "5936": "During",
        "5937": "Ġgranted",
        "5938": "Ġcrumb",
        "5939": "ĠMat",
        "5940": "Ġpurred",
        "5941": "Ġdiving",
        "5942": "Ġsadness",
        "5943": "Whiskers",
        "5944": "Ġorganizing",
        "5945": "lowers",
        "5946": "Ġeagle",
        "5947": "Ġheroes",
        "5948": "Ġdipped",
        "5949": "Ġsunlight",
        "5950": "Ġlied",
        "5951": "Ġpastels",
        "5952": "ĠFrank",
        "5953": "Ex",
        "5954": "Ġsafer",
        "5955": "Ġroads",
        "5956": "Ġscru",
        "5957": "Ġargued",
        "5958": "ĠMilly",
        "5959": "Ġgoals",
        "5960": "ĠWater",
        "5961": "Ġdiscovery",
        "5962": "ĠAbigail",
        "5963": "Ġvillag",
        "5964": "Ġpeered",
        "5965": "Ro",
        "5966": "ĠBouncy",
        "5967": "use",
        "5968": "loe",
        "5969": "Ġtim",
        "5970": "Ġdragons",
        "5971": "Ġbuildings",
        "5972": "Ġbuckets",
        "5973": "Ġparties",
        "5974": "Ġbeard",
        "5975": "Ġwedding",
        "5976": "Rex",
        "5977": "Ġflutter",
        "5978": "Ġplanets",
        "5979": "Ġann",
        "5980": "ĠRobby",
        "5981": "Ġpolishing",
        "5982": "Ġfasc",
        "5983": "ira",
        "5984": "Ġreleased",
        "5985": "ĠChr",
        "5986": "Ġcrabs",
        "5987": "ĠGogo",
        "5988": "Ġtails",
        "5989": "ĠWatch",
        "5990": "Ġsausages",
        "5991": "Ġargu",
        "5992": "Ġcontro",
        "5993": "Ġbottles",
        "5994": "Ġwiggled",
        "5995": "Ġteased",
        "5996": "uke",
        "5997": "Ġarguing",
        "5998": "Ġsled",
        "5999": "Ġpadd",
        "6000": "Ġdragged",
        "6001": "ĠCar",
        "6002": "Ġroaring",
        "6003": "Ġclearing",
        "6004": "Ġshirts",
        "6005": "Ġmovies",
        "6006": "Ġgathering",
        "6007": "Ġairpl",
        "6008": "Ġwid",
        "6009": "joyed",
        "6010": "Ġteaches",
        "6011": "Ġspiders",
        "6012": "Ġlimes",
        "6013": "ĠRemember",
        "6014": "ĠDare",
        "6015": "Ġoverjoyed",
        "6016": "Ġactually",
        "6017": "Ġsighs",
        "6018": "Ġcontinue",
        "6019": "Ġcuddle",
        "6020": "Ġsoaring",
        "6021": "Ġsmallest",
        "6022": "ĠJess",
        "6023": "Ġdrives",
        "6024": "ĠJu",
        "6025": "Ġsparkles",
        "6026": "Ġrip",
        "6027": "Ġsitu",
        "6028": "Ġcubes",
        "6029": "Ġrefres",
        "6030": "Ġtalent",
        "6031": "Ġchallenge",
        "6032": "ĠOlly",
        "6033": "Ġgrandmother",
        "6034": "ĠSplash",
        "6035": "Ġpouring",
        "6036": "umm",
        "6037": "Ġpretends",
        "6038": "Ġfascin",
        "6039": "Ġcuts",
        "6040": "Ġshrug",
        "6041": "Ġquarreling",
        "6042": "Ġpeppers",
        "6043": "Ġbank",
        "6044": "Ġshivered",
        "6045": "Ġmane",
        "6046": "Ġdusty",
        "6047": "ĠJenn",
        "6048": "ley",
        "6049": "Ġwondering",
        "6050": "Ġvillagers",
        "6051": "Ġstretching",
        "6052": "njoy",
        "6053": "ib",
        "6054": "Ġweeks",
        "6055": "Ġwherever",
        "6056": "Ġdarker",
        "6057": "jam",
        "6058": "Tiny",
        "6059": "sses",
        "6060": "ĠX",
        "6061": "Ġrings",
        "6062": "Ġonwards",
        "6063": "ĠKatie",
        "6064": "Ġunited",
        "6065": "Achoo",
        "6066": "Ġbead",
        "6067": "ĠEveryday",
        "6068": "ĠBeing",
        "6069": "Ġprettiest",
        "6070": "Johnny",
        "6071": "Ġcaut",
        "6072": "Ġrealize",
        "6073": "Ġcompany",
        "6074": "Ġpenguins",
        "6075": "annah",
        "6076": "Luna",
        "6077": "Fr",
        "6078": "ĠSpring",
        "6079": "Ġbedtime",
        "6080": "Ġcompleted",
        "6081": "ĠWisdom",
        "6082": "ĠLeave",
        "6083": "âĢĿ.",
        "6084": "Ġknights",
        "6085": "Ġflags",
        "6086": "ĠJe",
        "6087": "ĠBecause",
        "6088": "Ġplayroom",
        "6089": "ĠPrin",
        "6090": "Ġactions",
        "6091": "ĠZero",
        "6092": "Ġlearns",
        "6093": "Ġgotten",
        "6094": "Ġpatience",
        "6095": "inda",
        "6096": "dam",
        "6097": "Ġkites",
        "6098": "Ġresponsible",
        "6099": "Ġfears",
        "6100": "Ġdestination",
        "6101": "Ġwires",
        "6102": "Ġreply",
        "6103": "Ġwrist",
        "6104": "Ġdam",
        "6105": "aws",
        "6106": "Ġpacking",
        "6107": "Ġmountains",
        "6108": "Ġfault",
        "6109": "Ġapplauded",
        "6110": "Ġscrubbed",
        "6111": "Ġma",
        "6112": "Ġcrept",
        "6113": "ĠAva",
        "6114": "Uh",
        "6115": "ĠEarth",
        "6116": "Ġsatis",
        "6117": "Ġthird",
        "6118": "Ġphot",
        "6119": "Ġpencils",
        "6120": "Ġwins",
        "6121": "Ġsticking",
        "6122": "Ġbaker",
        "6123": "Ġvisiting",
        "6124": "Ġwound",
        "6125": "Ġuses",
        "6126": "Ġpeas",
        "6127": "Ġreminder",
        "6128": "Ġcontrol",
        "6129": "ashed",
        "6130": "Grandpa",
        "6131": "Ġjoking",
        "6132": "Ġawake",
        "6133": "Ġinstruct",
        "6134": "Ġstaring",
        "6135": "Ġhealed",
        "6136": "ĠPut",
        "6137": "An",
        "6138": "Ġhitting",
        "6139": "ĠFish",
        "6140": "Ġscreaming",
        "6141": "Ġbegin",
        "6142": "Rob",
        "6143": "uckily",
        "6144": "ĠFriends",
        "6145": "ĠMoo",
        "6146": "icorn",
        "6147": "Ġhelmets",
        "6148": "enty",
        "6149": "Ġunicorn",
        "6150": "seek",
        "6151": "Ġtowels",
        "6152": "Silly",
        "6153": "ĠLou",
        "6154": "Ġchips",
        "6155": "ica",
        "6156": "Ġcreation",
        "6157": "Ġwasted",
        "6158": "bie",
        "6159": "Mar",
        "6160": "ĠBehind",
        "6161": "laire",
        "6162": "Ġmasks",
        "6163": "Ġitems",
        "6164": "Ġforgi",
        "6165": "ler",
        "6166": "Ġfirefight",
        "6167": "Ġoutdo",
        "6168": "Ġlollipops",
        "6169": "Watch",
        "6170": "Ġheav",
        "6171": "Ġguns",
        "6172": "Ġdied",
        "6173": "ĠHippy",
        "6174": "Ġseas",
        "6175": "Ġglitter",
        "6176": "uddles",
        "6177": "Ġarrive",
        "6178": "Ġweren",
        "6179": "Ġstole",
        "6180": "Ġscales",
        "6181": "Ġperched",
        "6182": "Ġaccom",
        "6183": "Ġlogs",
        "6184": "Ġachieve",
        "6185": "die",
        "6186": "Ġpracticing",
        "6187": "ining",
        "6188": "Ġwhose",
        "6189": "Stay",
        "6190": "Ġpumpkins",
        "6191": "Ġinstructions",
        "6192": "Ġswoop",
        "6193": "Ġbatteries",
        "6194": "Ġcandies",
        "6195": "Ġagrees",
        "6196": "Ġproject",
        "6197": "Ġsnakes",
        "6198": "Ġchirping",
        "6199": "Benny",
        "6200": "Ġshelves",
        "6201": "Ġprotecting",
        "6202": "Ġparked",
        "6203": "Ġexact",
        "6204": "ĠCra",
        "6205": "Ġpatiently",
        "6206": "Ġactiv",
        "6207": "Ġvideos",
        "6208": "Ġshoulders",
        "6209": "Ġblows",
        "6210": "hee",
        "6211": "Fo",
        "6212": "Ġpromises",
        "6213": "go",
        "6214": "Ġdent",
        "6215": "usan",
        "6216": "uest",
        "6217": "jamas",
        "6218": "Ġexamined",
        "6219": "Ġairplane",
        "6220": "Doggy",
        "6221": "Ġroses",
        "6222": "ners",
        "6223": "Ġaccompl",
        "6224": "Ġtasks",
        "6225": "Dave",
        "6226": "ĠHoot",
        "6227": "Poppy",
        "6228": "ĠBop",
        "6229": "Bunny",
        "6230": "Ġbeads",
        "6231": "Ġbowls",
        "6232": "Ġcrumbs",
        "6233": "zes",
        "6234": "Ġlistens",
        "6235": "ĠLove",
        "6236": "ĠCatty",
        "6237": "ĠBrownie",
        "6238": "Pete",
        "6239": "ĠOl",
        "6240": "Ġdolphins",
        "6241": "Ġcough",
        "6242": "Ġbunch",
        "6243": "Ġguest",
        "6244": "cakes",
        "6245": "Ġrequested",
        "6246": "Ġremote",
        "6247": "Ġimproved",
        "6248": "anta",
        "6249": "Ġreaching",
        "6250": "Ġbrand",
        "6251": "ayla",
        "6252": "Ġalien",
        "6253": "ĠBye",
        "6254": "irm",
        "6255": "Ġcopy",
        "6256": "ĠSun",
        "6257": "Ġcheering",
        "6258": "Ġphotos",
        "6259": "ĠJulie",
        "6260": "ĠChew",
        "6261": "uggles",
        "6262": "Bad",
        "6263": "ĠJan",
        "6264": "ĠBlink",
        "6265": "Time",
        "6266": "Ġcans",
        "6267": "ĠCuddles",
        "6268": "...",
        "6269": "Ġtimer",
        "6270": "ĠBy",
        "6271": "Ġreplaced",
        "6272": "athy",
        "6273": "Ġworkers",
        "6274": "Ġstern",
        "6275": "ĠEnjoy",
        "6276": "aster",
        "6277": "Ġneither",
        "6278": "Mike",
        "6279": "Ġpassing",
        "6280": "Ġmisses",
        "6281": "Ġcurtains",
        "6282": "Ġconfl",
        "6283": "Chirpy",
        "6284": "Ġrainbows",
        "6285": "Ġrubs",
        "6286": "George",
        "6287": "uctantly",
        "6288": "Ġrolls",
        "6289": "Ġpatted",
        "6290": "ilo",
        "6291": "Ġpajamas",
        "6292": "Ġoutdoors",
        "6293": "esome",
        "6294": "dies",
        "6295": "Ġcomplaining",
        "6296": "ĠSquirrel",
        "6297": "Lola",
        "6298": "Run",
        "6299": "Ġpuppet",
        "6300": "ĠPrincess",
        "6301": "Ġcloses",
        "6302": "Ġbeneath",
        "6303": "Ġlap",
        "6304": "Ġdrums",
        "6305": "Ġtune",
        "6306": "ĠBeth",
        "6307": "ĠMouse",
        "6308": "Ġfilling",
        "6309": "Miss",
        "6310": "angled",
        "6311": "Ġrefuse",
        "6312": "ĠSorry",
        "6313": "Ġsweat",
        "6314": "Ġfaced",
        "6315": "Ġseven",
        "6316": "Ġbalanced",
        "6317": "eal",
        "6318": "Ġrescued",
        "6319": "neath",
        "6320": "bl",
        "6321": "Ġquacked",
        "6322": "ĠAbby",
        "6323": "uded",
        "6324": "Paul",
        "6325": "istle",
        "6326": "Ġawesome",
        "6327": "Ġ1",
        "6328": "Ġmission",
        "6329": "ĠHowever",
        "6330": "Ġguys",
        "6331": "Ġconflict",
        "6332": "Ġcautious",
        "6333": "Ġvent",
        "6334": "Ġobserved",
        "6335": "Ġcause",
        "6336": "Ġintroduc",
        "6337": "ĠThomas",
        "6338": "Ġpastries",
        "6339": "ĠĠ",
        "6340": "ĠOur",
        "6341": "Ġexactly",
        "6342": "Ġdoctors",
        "6343": "Ġrule",
        "6344": "Ġbecoming",
        "6345": "Ġpoliceman",
        "6346": "Ġmes",
        "6347": "uly",
        "6348": "Ġrockets",
        "6349": "you",
        "6350": "ĠYes",
        "6351": "ĠDot",
        "6352": "Ġfairies",
        "6353": "lay",
        "6354": "Ġpout",
        "6355": "Ġinsist",
        "6356": "Ġblooming",
        "6357": "Ġtractor",
        "6358": "Ġfarther",
        "6359": "ĠSad",
        "6360": "avi",
        "6361": "Oops",
        "6362": "Great",
        "6363": "Ġremembering",
        "6364": "Ġincluded",
        "6365": "gers",
        "6366": "Ġcurly",
        "6367": "Zoom",
        "6368": "Fine",
        "6369": "Ġteamwork",
        "6370": "zie",
        "6371": "Ġfascinated",
        "6372": "Ġwobbled",
        "6373": "Ġslam",
        "6374": "Ġtruly",
        "6375": "Ġhelpers",
        "6376": "Ġsights",
        "6377": "Ġpaddle",
        "6378": "Ġstumble",
        "6379": "Ġfirm",
        "6380": "onn",
        "6381": "Henry",
        "6382": "ĠJilly",
        "6383": "acob",
        "6384": "Ġcaused",
        "6385": "Ġprayer",
        "6386": "Ġspong",
        "6387": "Ġrecording",
        "6388": "kelly",
        "6389": "ais",
        "6390": "Ġtraded",
        "6391": "Ġstarfish",
        "6392": "Ġsupplies",
        "6393": "Ġthro",
        "6394": "Ġpointy",
        "6395": "Ġsituation",
        "6396": "Ġinviting",
        "6397": "eah",
        "6398": "Ġneighbourhood",
        "6399": "Ġeveryday",
        "6400": "Ġornaments",
        "6401": "ĠAlly",
        "6402": "inkle",
        "6403": "Ġvalued",
        "6404": "Ġadding",
        "6405": "Some",
        "6406": "Ġreluctantly",
        "6407": "Ġdots",
        "6408": "Ġstays",
        "6409": "Ġtables",
        "6410": "Ġprettier",
        "6411": "Ġbare",
        "6412": "Ġdesert",
        "6413": "Ġsnowmen",
        "6414": "Ġsteady",
        "6415": "Ġminerals",
        "6416": "araway",
        "6417": "Ġthorn",
        "6418": "ody",
        "6419": "Ġast",
        "6420": "Ġglasses",
        "6421": "Ġfaraway",
        "6422": "sm",
        "6423": "ĠGet",
        "6424": "ĠFoxy",
        "6425": "Ġswooped",
        "6426": "ĠWelcome",
        "6427": "ĠTwo",
        "6428": "ĠSure",
        "6429": "Ġunf",
        "6430": "Ġforks",
        "6431": "Ġusually",
        "6432": "Ġusual",
        "6433": "Polly",
        "6434": "Ġdar",
        "6435": "ĠJamie",
        "6436": "Ġwinked",
        "6437": "Ġsneezing",
        "6438": "Ġsolut",
        "6439": "Ġloading",
        "6440": "Ġsponge",
        "6441": "ĠQuick",
        "6442": "Ġinsects",
        "6443": "Ġpans",
        "6444": "Dog",
        "6445": "Ġsobbed",
        "6446": "ĠSanta",
        "6447": "James",
        "6448": "Ġgrowling",
        "6449": "arter",
        "6450": "Ġthroat",
        "6451": "ĠChloe",
        "6452": "Ġnoses",
        "6453": "ĠJosh",
        "6454": "ĠDizzy",
        "6455": "Ġscarves",
        "6456": "Ġconfident",
        "6457": "Ġyourselves",
        "6458": "ĠWant",
        "6459": "agull",
        "6460": "Ġhomework",
        "6461": "Ġsuperheroes",
        "6462": "ĠStay",
        "6463": "Joey",
        "6464": "rrr",
        "6465": "Ġsmarter",
        "6466": "Ġwindy",
        "6467": "Ġlibrarian",
        "6468": "Tina",
        "6469": "ĠKids",
        "6470": "Ġgems",
        "6471": "Days",
        "6472": "ora",
        "6473": "Ġunderneath",
        "6474": "Ġkicks",
        "6475": "Ġknowled",
        "6476": "Ġitchy",
        "6477": "Ġknowledge",
        "6478": "Ġjackets",
        "6479": "ĠSkelly",
        "6480": "ĠFor",
        "6481": "Ġsurface",
        "6482": "Ġuntie",
        "6483": "Ġcomm",
        "6484": "ĠDuck",
        "6485": "Ġprincesses",
        "6486": "...\"",
        "6487": "Those",
        "6488": "ido",
        "6489": "Hold",
        "6490": "Yeah",
        "6491": "coon",
        "6492": "Ġsquares",
        "6493": "ĠHenny",
        "6494": "Ġwarnings",
        "6495": "Ġgiggling",
        "6496": "iar",
        "6497": "Ġreads",
        "6498": "vin",
        "6499": "Our",
        "6500": "Ġchoo",
        "6501": "eed",
        "6502": "son",
        "6503": "Ġyounger",
        "6504": "Ġclowns",
        "6505": "ĠMix",
        "6506": "Toby",
        "6507": "Ġropes",
        "6508": "Ġbiting",
        "6509": "Ġcrowd",
        "6510": "ĠUnfortunately",
        "6511": "pite",
        "6512": "Danny",
        "6513": "True",
        "6514": "Ġseagull",
        "6515": "Ġpaddled",
        "6516": "Ġwears",
        "6517": "Ġdelivered",
        "6518": "ĠMon",
        "6519": "Ġtwirl",
        "6520": "Ġonions",
        "6521": "Ġbuzzed",
        "6522": "Ġcomplained",
        "6523": "Ġbumpy",
        "6524": "Ġstem",
        "6525": "Ew",
        "6526": "Ġpiggy",
        "6527": "Mrs",
        "6528": "ĠAnne",
        "6529": "Ġdirection",
        "6530": "ouch",
        "6531": "Ġdived",
        "6532": "Roar",
        "6533": "Ġtangled",
        "6534": "Ġstartled",
        "6535": "ults",
        "6536": "Ġleaning",
        "6537": "bbie",
        "6538": "ĠAnt",
        "6539": "ĠJones",
        "6540": "Ġbadge",
        "6541": "ĠPo",
        "6542": "Grace",
        "6543": "Ġunp",
        "6544": "Ġdeal",
        "6545": "though",
        "6546": "Annie",
        "6547": "Ġvowed",
        "6548": "Ġnapkins",
        "6549": "anes",
        "6550": "Ġtickled",
        "6551": "Ġrisk",
        "6552": "Ġcovers",
        "6553": "Ġpec",
        "6554": "Shh",
        "6555": "Ġyells",
        "6556": "Ġsatisfied",
        "6557": "int",
        "6558": "Ġknocks",
        "6559": "Ġrefreshed",
        "6560": "tuce",
        "6561": "ĠSc",
        "6562": "cuse",
        "6563": "Ġcous",
        "6564": "Ġarrows",
        "6565": "Maggie",
        "6566": "ĠWhistle",
        "6567": "Pe",
        "6568": "Ġwipes",
        "6569": "Ġspeaking",
        "6570": "Ġlettuce",
        "6571": "Ġguessing",
        "6572": "Unfortunately",
        "6573": "ĠQuack",
        "6574": "Ġripe",
        "6575": "ĠSusan",
        "6576": "Ġhides",
        "6577": "Ġchoices",
        "6578": "ĠDodo",
        "6579": "ĠRover",
        "6580": "Buzz",
        "6581": "Ġsigned",
        "6582": "Ġslower",
        "6583": "Ġseeker",
        "6584": "Ġintroduced",
        "6585": "Ġsinger",
        "6586": "Ġcreating",
        "6587": "ĠMatt",
        "6588": "Ġfroze",
        "6589": "Ġcent",
        "6590": "Ġjoked",
        "6591": "Ġsqueal",
        "6592": "Ġtoaster",
        "6593": "Ġexplorers",
        "6594": "fit",
        "6595": "Ġavo",
        "6596": "Sophie",
        "6597": "Ġpraying",
        "6598": "Ġwritten",
        "6599": "Ġdiscovering",
        "6600": "Ġprovided",
        "6601": "ĠDara",
        "6602": "Ġrefle",
        "6603": "ĠLion",
        "6604": "Excuse",
        "6605": "Ġmushrooms",
        "6606": "ĠJeff",
        "6607": "ĠPaws",
        "6608": "Ġpaying",
        "6609": "Ġknees",
        "6610": "ences",
        "6611": "Ġhider",
        "6612": "Ġwandering",
        "6613": "ĠAsh",
        "6614": "Ġimages",
        "6615": "Charlie",
        "6616": "Ġstung",
        "6617": "ĠWink",
        "6618": "Ġmagnets",
        "6619": "Ġbarely",
        "6620": "Ġbehaving",
        "6621": "Ġtipto",
        "6622": "?\",",
        "6623": "Ġmarked",
        "6624": "brush",
        "6625": "Ġrestored",
        "6626": "ĠDee",
        "6627": "Ġleading",
        "6628": "lled",
        "6629": "Big",
        "6630": "Ġchuck",
        "6631": "ados",
        "6632": "Ġnine",
        "6633": "Ġgreet",
        "6634": "Teddy",
        "6635": "Ġgears",
        "6636": "Ġbravery",
        "6637": "ĠSnuggles",
        "6638": "ky",
        "6639": "Ġcompetition",
        "6640": "Ġoutfit",
        "6641": "oline",
        "6642": "Ġwishing",
        "6643": "Ġproperly",
        "6644": "Ġventured",
        "6645": "tle",
        "6646": "aa",
        "6647": "Ġmuscle",
        "6648": "Ġdances",
        "6649": "Ġchat",
        "6650": "Ġsalty",
        "6651": "Ġpens",
        "6652": "amb",
        "6653": "ĠBetsy",
        "6654": "Ġranger",
        "6655": "ĠZiggy",
        "6656": "Ġdeserve",
        "6657": "Ġhowever",
        "6658": "sequ",
        "6659": "Ġmatters",
        "6660": "Ġdarkness",
        "6661": "Ġburst",
        "6662": "ĠFu",
        "6663": "Ġrainy",
        "6664": "Ġcobwebs",
        "6665": "Ġruining",
        "6666": "Ġchefs",
        "6667": "Ġconsequ",
        "6668": "Ġblocking",
        "6669": "Ġbak",
        "6670": "usted",
        "6671": "itely",
        "6672": "sty",
        "6673": "Ġscur",
        "6674": "Ġvines",
        "6675": "Ġfab",
        "6676": "abel",
        "6677": "Ġfabric",
        "6678": "Ġentire",
        "6679": "Ġbasement",
        "6680": "Ġperformed",
        "6681": "Ġleast",
        "6682": "ĠBuggy",
        "6683": "Sn",
        "6684": "Ġscratches",
        "6685": "Ġheavier",
        "6686": "ĠClaire",
        "6687": "Ġmints",
        "6688": "Ġtwirling",
        "6689": "Ġavocados",
        "6690": "However",
        "6691": "ĠLinda",
        "6692": "rink",
        "6693": "fl",
        "6694": "Ġscurried",
        "6695": "Ġlosing",
        "6696": "Ġsunflowers",
        "6697": "ĠJenna",
        "6698": "Ġrainco",
        "6699": "Ġswords",
        "6700": "Tweet",
        "6701": "Ġclick",
        "6702": "ĠĊĠ",
        "6703": "agic",
        "6704": "ĠLaser",
        "6705": "Ġsilent",
        "6706": "Ġjobs",
        "6707": "Ġnecklaces",
        "6708": "Ġflames",
        "6709": "ĠLuke",
        "6710": "Ġrelief",
        "6711": "ĠGrumpy",
        "6712": "Ġsnat",
        "6713": "Ġsewed",
        "6714": "Ġrotting",
        "6715": "len",
        "6716": "Listen",
        "6717": "Follow",
        "6718": "Ġtricky",
        "6719": "Jerry",
        "6720": "Ġlighter",
        "6721": "ophia",
        "6722": "Ġbows",
        "6723": "ĠSkip",
        "6724": "Ġexha",
        "6725": "Ġsolution",
        "6726": "Ġconsequences",
        "6727": "Alex",
        "6728": "ĠLena",
        "6729": "Ġtires",
        "6730": "Ġstain",
        "6731": "Beep",
        "6732": "Ġunpacked",
        "6733": "Ab",
        "6734": "Ġpartic",
        "6735": "rance",
        "6736": "Ġraces",
        "6737": "Ġpins",
        "6738": "Ġbumps",
        "6739": "Ġwraps",
        "6740": "aisies",
        "6741": "Ġwow",
        "6742": "Ġdecorating",
        "6743": "Ġbacked",
        "6744": "cher",
        "6745": "Ġdentist",
        "6746": "Ġpurr",
        "6747": "Ġneedles",
        "6748": "Ġcautiously",
        "6749": "Ġlifting",
        "6750": "izzie",
        "6751": "ĠPr",
        "6752": "Ġaccomplish",
        "6753": "Ġtriangles",
        "6754": "Ġdaisies",
        "6755": "ept",
        "6756": "Ġhesitated",
        "6757": "Ġannoy",
        "6758": "ĠThose",
        "6759": "Ġgrowls",
        "6760": "Ġcrackers",
        "6761": "oke",
        "6762": "Ġstomped",
        "6763": "Ġgrabbing",
        "6764": "Ġcott",
        "6765": "Ġfigured",
        "6766": "Ġbodies",
        "6767": "Ġmater",
        "6768": "Ġbuying",
        "6769": "ĠTree",
        "6770": "Ġmaterial",
        "6771": "ĠRolly",
        "6772": "ĠFido",
        "6773": "ĠAdam",
        "6774": "Ġswans",
        "6775": "Ġties",
        "6776": "Ġgri",
        "6777": "vers",
        "6778": "Ġgrows",
        "6779": "Ġsweets",
        "6780": "ĠGoodbye",
        "6781": "ĠEl",
        "6782": "Ġowners",
        "6783": "Ġflavor",
        "6784": "Ġcheeks",
        "6785": "ĠCathy",
        "6786": "Ġsuffering",
        "6787": "ĠJessie",
        "6788": "vroom",
        "6789": "Ġfact",
        "6790": "Ġgroups",
        "6791": "cl",
        "6792": "bly",
        "6793": "Ġforehead",
        "6794": "Ġlungs",
        "6795": "Harry",
        "6796": "Ġrepa",
        "6797": "Ġinterested",
        "6798": "Ġbakery",
        "6799": "ĠMilo",
        "6800": "Ġfreed",
        "6801": "Lilly",
        "6802": "itches",
        "6803": "ĠNothing",
        "6804": "Ġchuckled",
        "6805": "For",
        "6806": "Ġswept",
        "6807": "Ġconn",
        "6808": "?'",
        "6809": "Ġthud",
        "6810": "Ġexhausted",
        "6811": "Tw",
        "6812": "Ġtwinkling",
        "6813": "Ġtapped",
        "6814": "Ġnect",
        "6815": "rosty",
        "6816": "Ġnectar",
        "6817": "elle",
        "6818": "Ġfeast",
        "6819": "Ġdarling",
        "6820": "indr",
        "6821": "ĠMad",
        "6822": "Ġworries",
        "6823": "Ġuns",
        "6824": "Ġtunnels",
        "6825": "Ġfuzzy",
        "6826": "Ġrepaired",
        "6827": "Ġreason",
        "6828": "ĠTrust",
        "6829": "ĠCopper",
        "6830": "ĠBall",
        "6831": "Ġactivities",
        "6832": "lets",
        "6833": "Ġpecked",
        "6834": "ĠHannah",
        "6835": "Ġentrance",
        "6836": "ĠTry",
        "6837": "Ġraindr",
        "6838": "Ġmeals",
        "6839": "ĠListen",
        "6840": "Ġparticular",
        "6841": "Ġcompletely",
        "6842": "Ġmailed",
        "6843": "ctions",
        "6844": "Ġnests",
        "6845": "Ġwaiter",
        "6846": "Ġcuddly",
        "6847": "Ġsense",
        "6848": "Ru",
        "6849": "ĠNana",
        "6850": "Ġcolored",
        "6851": "arky",
        "6852": "Ġleap",
        "6853": "step",
        "6854": "band",
        "6855": "Ġplenty",
        "6856": "Ġpeeking",
        "6857": "Ġslammed",
        "6858": "ĠCara",
        "6859": "no",
        "6860": "Ġplayers",
        "6861": "Ġmonth",
        "6862": "Ġbudge",
        "6863": "ĠBirthday",
        "6864": "ĠQ",
        "6865": "Ġscra",
        "6866": "Ġinclud",
        "6867": "Ġforgets",
        "6868": "Ġden",
        "6869": "Ġhandful",
        "6870": "ĠOliver",
        "6871": "Ġmer",
        "6872": "ossible",
        "6873": "Ġgenie",
        "6874": "ĠChrist",
        "6875": "Ġstool",
        "6876": "Ġtalks",
        "6877": "ĠPup",
        "6878": "ĠSuzie",
        "6879": "Ġpassports",
        "6880": "Ġfeeding",
        "6881": "Ġfilms",
        "6882": "Ġbaths",
        "6883": "Ġimpossible",
        "6884": "Ġdetermination",
        "6885": "May",
        "6886": "Ġprinting",
        "6887": "boat",
        "6888": "Ġdesigned",
        "6889": "Ġbuses",
        "6890": "Ġopp",
        "6891": "ueen",
        "6892": "lephant",
        "6893": "Ġsuitcase",
        "6894": "Ġbars",
        "6895": "Ġcounts",
        "6896": "Ġstolen",
        "6897": "Ġspreading",
        "6898": "Ġspikes",
        "6899": "ĠSnap",
        "6900": "Ġwiping",
        "6901": "Ġsteer",
        "6902": "Ġlamb",
        "6903": "ĠRain",
        "6904": "Ġhonked",
        "6905": "etty",
        "6906": "Whee",
        "6907": "Ġcowb",
        "6908": "Ġseparated",
        "6909": "blings",
        "6910": "Ġsiblings",
        "6911": "Ġhops",
        "6912": "Ġchop",
        "6913": "Ġsewing",
        "6914": "Ġfires",
        "6915": "ĠTwinkle",
        "6916": "Ġfever",
        "6917": "Ġtwinkle",
        "6918": "Ġty",
        "6919": "Ġcamping",
        "6920": "ĠMira",
        "6921": "Ġlower",
        "6922": "Ġchanging",
        "6923": "yes",
        "6924": "retch",
        "6925": "Ġbehavi",
        "6926": "ĠBloom",
        "6927": "mas",
        "6928": "Ġliqu",
        "6929": "Ġcelebration",
        "6930": "but",
        "6931": "Ġsquealed",
        "6932": "Ġdollhouse",
        "6933": "Sunny",
        "6934": "Ġbackward",
        "6935": "Ġage",
        "6936": "Ġsnatched",
        "6937": "Ġcash",
        "6938": "ho",
        "6939": "Ġtwice",
        "6940": "lee",
        "6941": "Ġsway",
        "6942": "itched",
        "6943": "Ġcelebrating",
        "6944": "ĠPeanut",
        "6945": "Ġshrinking",
        "6946": "Ġache",
        "6947": "weed",
        "6948": "Ġkings",
        "6949": "rious",
        "6950": "Ġshops",
        "6951": "Ġkittens",
        "6952": "cope",
        "6953": "Rose",
        "6954": "ĠJessica",
        "6955": "ĠJacob",
        "6956": "rig",
        "6957": "ĠGina",
        "6958": "aura",
        "6959": "Ġhus",
        "6960": "Ġtouches",
        "6961": "airy",
        "6962": "Ġpancakes",
        "6963": "nies",
        "6964": "Ġavoid",
        "6965": "Ġspat",
        "6966": "ĠFrosty",
        "6967": "hog",
        "6968": "ĠNina",
        "6969": "Ġpaths",
        "6970": "ives",
        "6971": "cky",
        "6972": "ĠHold",
        "6973": "Ġrotten",
        "6974": "Ġcalmed",
        "6975": "Sandy",
        "6976": "Ġseaweed",
        "6977": "Ġdropping",
        "6978": "ĠMel",
        "6979": "iles",
        "6980": "Pipp",
        "6981": "Ġtwisting",
        "6982": "Ġstroked",
        "6983": "ĠJon",
        "6984": "Ġuntied",
        "6985": "llen",
        "6986": "Ġplayhouse",
        "6987": "Millie",
        "6988": "Ġstudents",
        "6989": "Ġpuppies",
        "6990": "ĠSof",
        "6991": "hi",
        "6992": "Ġscrews",
        "6993": "Ġastron",
        "6994": "ĠRe",
        "6995": "Ġsomebody",
        "6996": "igning",
        "6997": "Ġliquid",
        "6998": "aren",
        "6999": "ammy",
        "7000": "Ġwakes",
        "7001": "Ġsquish",
        "7002": "ĠWoof",
        "7003": "Ġbracelets",
        "7004": "Ġastronaut",
        "7005": "immer",
        "7006": "Ġthrown",
        "7007": "Ġloops",
        "7008": "ĠOther",
        "7009": "Luckily",
        "7010": "Ġwrapping",
        "7011": "Ġplain",
        "7012": "Ġtramp",
        "7013": "Ġplanning",
        "7014": "Ġskunk",
        "7015": "Ġaimed",
        "7016": "Ġpennies",
        "7017": "Ġshoo",
        "7018": "Ġlifts",
        "7019": "Ġdancers",
        "7020": "Ġsparks",
        "7021": "Ġfirefly",
        "7022": "pen",
        "7023": "Ġposter",
        "7024": "yan",
        "7025": "endy",
        "7026": "Ġcust",
        "7027": "ĠChristmas",
        "7028": "Dan",
        "7029": "Ġrewarded",
        "7030": "Ġobjects",
        "7031": "Ġdirections",
        "7032": "using",
        "7033": "ingo",
        "7034": "Ġreflection",
        "7035": "Ġhusband",
        "7036": "âĢĶ",
        "7037": "Take",
        "7038": "river",
        "7039": "Ġclues",
        "7040": "uppy",
        "7041": "Ġleads",
        "7042": "Ġincreased",
        "7043": "Ġblocked",
        "7044": "Ġrising",
        "7045": "Ġdod",
        "7046": "Ġcousin",
        "7047": "ĠYesterday",
        "7048": "ĠWithout",
        "7049": "Ġforgetting",
        "7050": "rigued",
        "7051": "Ġcustom",
        "7052": "Kate",
        "7053": "Ġtrampoline",
        "7054": "Ġbeginning",
        "7055": "Ġstorekeeper",
        "7056": "Ġpouted",
        "7057": "Ġzebras",
        "7058": "Ġhedgehog",
        "7059": "Ġaff",
        "7060": "ĠâĢĺ",
        "7061": "Ġborrowed",
        "7062": "ĠRollie",
        "7063": "Ġsnowfl",
        "7064": "Ġcountryside",
        "7065": "Jump",
        "7066": "Ġmesmer",
        "7067": "ĠJay",
        "7068": "Ġvehicles",
        "7069": "Ġinstrum",
        "7070": "ĠMic",
        "7071": "ĠKayla",
        "7072": "ĠUp",
        "7073": "Ġfrowning",
        "7074": "ivity",
        "7075": "Pat",
        "7076": "Under",
        "7077": "Ġmarker",
        "7078": "yond",
        "7079": "Ġpresses",
        "7080": "Ġbeyond",
        "7081": "ĠQueen",
        "7082": "Ġdamage",
        "7083": "ĠOnly",
        "7084": "iece",
        "7085": "ivery",
        "7086": "Ġfart",
        "7087": "ĠTara",
        "7088": "ĠBiggie",
        "7089": "jo",
        "7090": "Ġhealth",
        "7091": "Ġwhispers",
        "7092": "Ġswimsuit",
        "7093": "Ġslips",
        "7094": "Ġnibb",
        "7095": "ĠJulia",
        "7096": "armer",
        "7097": "Ġwarmer",
        "7098": "Ġflapping",
        "7099": "Ġtiptoed",
        "7100": "Ġregretted",
        "7101": "itted",
        "7102": "Zip",
        "7103": "Ġlaying",
        "7104": "ĠRobo",
        "7105": "ades",
        "7106": "Ġyelp",
        "7107": "ĠFire",
        "7108": "Ġrains",
        "7109": "Ġglued",
        "7110": "Ġeverybody",
        "7111": "Ġcreations",
        "7112": "Ġhearing",
        "7113": "Ġswir",
        "7114": "Ġcolder",
        "7115": "iversity",
        "7116": "ael",
        "7117": "Ġshaped",
        "7118": "ĠElephant",
        "7119": "Ġstreets",
        "7120": "Ġfins",
        "7121": "Ġrusty",
        "7122": "Ġcushions",
        "7123": "Out",
        "7124": "Ġsan",
        "7125": "Ġfarthest",
        "7126": "Ġcreativity",
        "7127": "ĠMikey",
        "7128": "ans",
        "7129": "Ġsale",
        "7130": "Always",
        "7131": "Co",
        "7132": "Ġstrongest",
        "7133": "ibbit",
        "7134": "Ġfits",
        "7135": "ĠSparky",
        "7136": "Ġbells",
        "7137": "Ġdollars",
        "7138": "ĠLarry",
        "7139": "Ġearn",
        "7140": "iam",
        "7141": "angle",
        "7142": "Ġlending",
        "7143": "ĠMoon",
        "7144": "ĠChirp",
        "7145": "eese",
        "7146": "Ġcashier",
        "7147": "Milly",
        "7148": "Ġincluding",
        "7149": "Ġsniffs",
        "7150": "Ġsank",
        "7151": "Ġraincoat",
        "7152": "ĠRich",
        "7153": "Ġtrembled",
        "7154": "Ġstopping",
        "7155": "Ġsource",
        "7156": "iti",
        "7157": "imon",
        "7158": "ae",
        "7159": "ĠMissy",
        "7160": "Ġwobbly",
        "7161": "Ġindeed",
        "7162": "ters",
        "7163": "Ġguests",
        "7164": "Ġsingle",
        "7165": "Ġrecommended",
        "7166": "Ġwee",
        "7167": "Ġspells",
        "7168": "Ġaccomplishment",
        "7169": "Ġbelts",
        "7170": "Ġsurprising",
        "7171": "Ġends",
        "7172": "Ġhopeful",
        "7173": "eet",
        "7174": "Ġseasons",
        "7175": "ĠTake",
        "7176": "ĠSnowman",
        "7177": "ĠEls",
        "7178": "Bear",
        "7179": "Ġplans",
        "7180": "ichael",
        "7181": "Ġsupported",
        "7182": "stick",
        "7183": "illed",
        "7184": "Ġsuffered",
        "7185": "Ġartist",
        "7186": "Ġperformance",
        "7187": "Nina",
        "7188": "Ġslowed",
        "7189": "Ġgross",
        "7190": "Ġflavors",
        "7191": "iding",
        "7192": "ertain",
        "7193": "Ġspins",
        "7194": "cho",
        "7195": "Quack",
        "7196": "Ġlabels",
        "7197": "uing",
        "7198": "Ġraindrops",
        "7199": "Ġdelivery",
        "7200": "arac",
        "7201": "Ġraccoon",
        "7202": "Ġforgiving",
        "7203": "obody",
        "7204": "ĠWoo",
        "7205": "Ġpours",
        "7206": "the",
        "7207": "ility",
        "7208": "Ġvanilla",
        "7209": "Ġturtles",
        "7210": "Ġstands",
        "7211": "Bill",
        "7212": "uess",
        "7213": "Ġrecipe",
        "7214": "Ġbeam",
        "7215": "Ġtying",
        "7216": "ĠSw",
        "7217": "Ġgeese",
        "7218": "Ġwilling",
        "7219": "Ġrobber",
        "7220": "Ġdrawn",
        "7221": "Vroom",
        "7222": "Ġwept",
        "7223": "ĠBones",
        "7224": "Ġcharac",
        "7225": "Ġpops",
        "7226": "Ġcorners",
        "7227": "ĠSophia",
        "7228": "elia",
        "7229": "Ġqueens",
        "7230": "Ġsailboat",
        "7231": "Ġgrip",
        "7232": "Ġdie",
        "7233": "Ġdrivers",
        "7234": "itude",
        "7235": "Ġmoo",
        "7236": "Ġhallway",
        "7237": "Ġimagining",
        "7238": "Ġseconds",
        "7239": "ĠFuzzy",
        "7240": "Mine",
        "7241": "Ġpreparing",
        "7242": "Ġwidened",
        "7243": "Ġadult",
        "7244": "ĠSpirit",
        "7245": "Ġgrocer",
        "7246": "Ġcoop",
        "7247": "Ġtalented",
        "7248": "ĠPam",
        "7249": "ĠBeaky",
        "7250": "ĠIzzy",
        "7251": "ummies",
        "7252": "Ġsailors",
        "7253": "lling",
        "7254": "Ġsofter",
        "7255": "Ġaside",
        "7256": "Ġwatering",
        "7257": "Ġsending",
        "7258": "Ġknots",
        "7259": "Ġunsure",
        "7260": "Ġtipped",
        "7261": "Lulu",
        "7262": "Ġtreehouse",
        "7263": "Ġhoriz",
        "7264": "ĠLizzie",
        "7265": "Ġnotes",
        "7266": "Ġecho",
        "7267": "igers",
        "7268": "Ġachieved",
        "7269": "Ġhorizon",
        "7270": "Ġsqueak",
        "7271": "Ġdelivering",
        "7272": "Ġpleasure",
        "7273": "Ġhotter",
        "7274": "ĠStella",
        "7275": "Clara",
        "7276": "Ġpupils",
        "7277": "Ġburrow",
        "7278": "Ġangels",
        "7279": "Ġcuriously",
        "7280": "Ellie",
        "7281": "Ġyum",
        "7282": "Ġblinking",
        "7283": "ĠJune",
        "7284": "Ġtweet",
        "7285": "Ġsymbols",
        "7286": "Ġdet",
        "7287": "ĠStretch",
        "7288": "wk",
        "7289": "Ġpassen",
        "7290": "ĠRudy",
        "7291": "ĠCindy",
        "7292": "Ġtummies",
        "7293": "Ġtiss",
        "7294": "Ġpigeons",
        "7295": "Ġfigures",
        "7296": "umbling",
        "7297": "oey",
        "7298": "Ġbandages",
        "7299": "ĠRobert",
        "7300": "Ġcoup",
        "7301": "ĠDoctor",
        "7302": "Ġrobots",
        "7303": "alph",
        "7304": "Ġtossed",
        "7305": "Ġhour",
        "7306": "Ġbackwards",
        "7307": "Ġroars",
        "7308": "Baby",
        "7309": "Ġmerma",
        "7310": "uzz",
        "7311": "Ġrather",
        "7312": "atur",
        "7313": "Maria",
        "7314": "cited",
        "7315": "ĠPlay",
        "7316": "ĠCrab",
        "7317": "Moo",
        "7318": "ighting",
        "7319": "Dolly",
        "7320": "Ġgroceries",
        "7321": "Ġzipping",
        "7322": "Put",
        "7323": "Very",
        "7324": "Ġunw",
        "7325": "prin",
        "7326": "Ġamong",
        "7327": "Ġblown",
        "7328": "Ġicing",
        "7329": "!âĢĿ.",
        "7330": "Ġrumble",
        "7331": "Ġafterwards",
        "7332": "ipper",
        "7333": "Ġscrewd",
        "7334": "ushing",
        "7335": "Ġsped",
        "7336": "Ġprove",
        "7337": "Ġglee",
        "7338": "ĠTiti",
        "7339": "ĠTia",
        "7340": "Ġdip",
        "7341": "Ġovercome",
        "7342": "Ruby",
        "7343": "Quick",
        "7344": "Ġsurfboard",
        "7345": "Ġshovels",
        "7346": "Ġslices",
        "7347": "ĠToot",
        "7348": "Ġmerry",
        "7349": "Ġwobble",
        "7350": "Ġmate",
        "7351": "ĠTurt",
        "7352": "ĠAbbie",
        "7353": "Ġheading",
        "7354": "Ġdisturbing",
        "7355": "Ġswall",
        "7356": "Ġreversed",
        "7357": "Ġfirefighters",
        "7358": "Jul",
        "7359": "Ġswallowed",
        "7360": "Ġchip",
        "7361": "Ġscored",
        "7362": "Ġflipped",
        "7363": "eds",
        "7364": "awn",
        "7365": "ĠJump",
        "7366": "Ġsqueezing",
        "7367": "usty",
        "7368": "Frank",
        "7369": "aty",
        "7370": "Su",
        "7371": "Ġwaking",
        "7372": "Ġintrigued",
        "7373": "Sad",
        "7374": "Like",
        "7375": "Ġmaker",
        "7376": "ĠBarky",
        "7377": "Betty",
        "7378": "Ġpuff",
        "7379": "Ġhawk",
        "7380": "Ġencouraging",
        "7381": "Ġaud",
        "7382": "ĠEx",
        "7383": "osen",
        "7384": "onies",
        "7385": "Ġchosen",
        "7386": "hew",
        "7387": "ĠFarmer",
        "7388": "ĠAng",
        "7389": "Ġcouple",
        "7390": "Ġdesigns",
        "7391": "Ġslipping",
        "7392": "Ġscrewdriver",
        "7393": "Ġsquishy",
        "7394": "ĠEmmy",
        "7395": "Ġgardener",
        "7396": "Ġcenter",
        "7397": "Ġrivers",
        "7398": "Ġrespond",
        "7399": "Ġmarkers",
        "7400": "iley",
        "7401": "Ġtigers",
        "7402": "Ġjars",
        "7403": "pecting",
        "7404": "Ġfrowns",
        "7405": "bird",
        "7406": "Ġfluttered",
        "7407": "ĠSadly",
        "7408": "ĠKit",
        "7409": "Ribbit",
        "7410": "Ġfirefighter",
        "7411": "ĠSl",
        "7412": "ĠRyan",
        "7413": "Ġsuits",
        "7414": "Ġsecure",
        "7415": "Ġsprinkled",
        "7416": "Ġcreamy",
        "7417": "ashes",
        "7418": "Ġsharks",
        "7419": "Ġignoring",
        "7420": "Ġbru",
        "7421": "Ġgiggles",
        "7422": "Ġtissue",
        "7423": "Ġtighter",
        "7424": "Ġfirmly",
        "7425": "ounce",
        "7426": "ĠLaura",
        "7427": "fly",
        "7428": "Ġshown",
        "7429": "Ġfamiliar",
        "7430": "Ġthorns",
        "7431": "Spike",
        "7432": "ĠWo",
        "7433": "Ġdrawers",
        "7434": "child",
        "7435": "ĠZee",
        "7436": "Ġexpress",
        "7437": "Car",
        "7438": "ments",
        "7439": "Ġdef",
        "7440": "Ġdaring",
        "7441": "Ġcrossing",
        "7442": "Ġaudience",
        "7443": "Ġperforming",
        "7444": "Ġcoloured",
        "7445": "Ġcloudy",
        "7446": "Ġcor",
        "7447": "Ġais",
        "7448": "ĠNick",
        "7449": "rat",
        "7450": "Ġpedaled",
        "7451": "Get",
        "7452": "Ġmixture",
        "7453": "Ġtil",
        "7454": "Ġgracefully",
        "7455": "ggy",
        "7456": "Ġhaircuts",
        "7457": "Ġyielded",
        "7458": "Ġponies",
        "7459": "Ġdisob",
        "7460": "Ġcrowns",
        "7461": "Ġbits",
        "7462": "Ġtodd",
        "7463": "ĠSleep",
        "7464": "Ġnervously",
        "7465": "Ġhangers",
        "7466": "bbled",
        "7467": "ĠPatch",
        "7468": "Zoomy",
        "7469": "Ġpays",
        "7470": "Ġ2",
        "7471": "Ġpeck",
        "7472": "Ġstroke",
        "7473": "Ġev",
        "7474": "fall",
        "7475": "Bang",
        "7476": "een",
        "7477": "Ġrespected",
        "7478": "Ġnapped",
        "7479": "ĠRon",
        "7480": "aven",
        "7481": "Ġminded",
        "7482": "ddie",
        "7483": "Bessie",
        "7484": "ably",
        "7485": "Boys",
        "7486": "Ġtested",
        "7487": "ading",
        "7488": "parent",
        "7489": "ĠChris",
        "7490": "Kim",
        "7491": "ĠUniversity",
        "7492": "ĠNear",
        "7493": "Ġbeeh",
        "7494": "ĠTurtle",
        "7495": "Ġsurfing",
        "7496": "Ġneighbours",
        "7497": "arrow",
        "7498": "vered",
        "7499": "Ġshady",
        "7500": "iona",
        "7501": "arlings",
        "7502": "Ġmagician",
        "7503": "Ġenthusiasm",
        "7504": "Ġdarlings",
        "7505": "Ġwisely",
        "7506": "Ġstitches",
        "7507": "Ġsails",
        "7508": "kend",
        "7509": "Dear",
        "7510": "Ġweekend",
        "7511": "Ġthoughts",
        "7512": "Freddy",
        "7513": "ĠTweetie",
        "7514": "Ġreminds",
        "7515": "Ġtemper",
        "7516": "oring",
        "7517": "tha",
        "7518": "antha",
        "7519": "Ġsurroundings",
        "7520": "Ġspits",
        "7521": "Ġfleas",
        "7522": "Ġteams",
        "7523": "Ġlessons",
        "7524": "Ġfills",
        "7525": "Ġflip",
        "7526": "ĠAlong",
        "7527": "Ġpaintbrush",
        "7528": "Ġmelons",
        "7529": "Ġmermaid",
        "7530": "oni",
        "7531": "Katie",
        "7532": "rac",
        "7533": "Ġgrandchild",
        "7534": "Ġhoops",
        "7535": "Ġexplo",
        "7536": "Ġelbow",
        "7537": "Ġsports",
        "7538": "Guess",
        "7539": "Ġlies",
        "7540": "ĠFighting",
        "7541": "Ġpanicked",
        "7542": "Ġcleaner",
        "7543": "Ġamount",
        "7544": "cused",
        "7545": "Ġlongest",
        "7546": "Ġscooters",
        "7547": "Ġlent",
        "7548": "ita",
        "7549": "immering",
        "7550": "Ġsill",
        "7551": "Ġbeloved",
        "7552": "Pippin",
        "7553": "Ġbeehive",
        "7554": "Alright",
        "7555": "ongrat",
        "7556": "oga",
        "7557": "lle",
        "7558": "ongratul",
        "7559": "Ġoysters",
        "7560": "Ġgrandparent",
        "7561": "Ġforgiven",
        "7562": "Ġmagazines",
        "7563": "Ġarr",
        "7564": "ĠWise",
        "7565": "Ġelf",
        "7566": "Ġrepeating",
        "7567": "Ġdiscussed",
        "7568": "Ġsweetest",
        "7569": "ĠThanks",
        "7570": "Keep",
        "7571": "Ġwadd",
        "7572": "ĠMaya",
        "7573": "Ġreass",
        "7574": "Ġlace",
        "7575": "ĠGranny",
        "7576": "Ġnightmares",
        "7577": "Ġtubes",
        "7578": "ĠWilly",
        "7579": "Am",
        "7580": "Ġunderstands",
        "7581": "Ġspoonful",
        "7582": "Ġnood",
        "7583": "Ġbathing",
        "7584": "ĠZoey",
        "7585": "asty",
        "7586": "Ġsweep",
        "7587": "Ġmanners",
        "7588": "onna",
        "7589": "crow",
        "7590": "Uncle",
        "7591": "Ġwrink",
        "7592": "Ġsprang",
        "7593": "Ġnur",
        "7594": "Ġbully",
        "7595": "ĠHolly",
        "7596": "Ġguide",
        "7597": "ĠYet",
        "7598": "Ġcrew",
        "7599": "romise",
        "7600": "ancy",
        "7601": "Jazz",
        "7602": "Ġbreathed",
        "7603": "while",
        "7604": "steps",
        "7605": "ilda",
        "7606": "ently",
        "7607": "ĠBally",
        "7608": "Ġbulbs",
        "7609": "Ġneare",
        "7610": "Ġgrassy",
        "7611": "Ġwiggly",
        "7612": "Ġtesting",
        "7613": "Ġspies",
        "7614": "Ġcoug",
        "7615": "Ġsolving",
        "7616": "Ġsheets",
        "7617": "ĠRoo",
        "7618": "Ġfootsteps",
        "7619": "ntil",
        "7620": "Afterwards",
        "7621": "Ġspeeding",
        "7622": "Ġfocused",
        "7623": "ounced",
        "7624": "cept",
        "7625": "?!\"",
        "7626": "Ġmesmerized",
        "7627": "Ġcamel",
        "7628": "Ġbraver",
        "7629": "Ġhesitant",
        "7630": "ĠSparkle",
        "7631": "Ġlicking",
        "7632": "Ġrushing",
        "7633": "ĠWell",
        "7634": "ne",
        "7635": "Ġjoining",
        "7636": "ĠPuppy",
        "7637": "Ġpolar",
        "7638": "Ġgreeted",
        "7639": "ĠMartha",
        "7640": "espite",
        "7641": "anna",
        "7642": "--",
        "7643": "ĠBubb",
        "7644": "Which",
        "7645": "Kiki",
        "7646": "Ġworn",
        "7647": "Ġmaterials",
        "7648": "Ġchanges",
        "7649": "Ġaren",
        "7650": "ĠNobody",
        "7651": "undred",
        "7652": "Ġstored",
        "7653": "Ġbicycles",
        "7654": "Ġmast",
        "7655": "Ġanger",
        "7656": "Leave",
        "7657": "Ġpeacefully",
        "7658": "Ġships",
        "7659": "Ġspice",
        "7660": "Ġterrified",
        "7661": "Ġnuzz",
        "7662": "Ġgonna",
        "7663": "ĠShow",
        "7664": "Ġpolitely",
        "7665": "Snow",
        "7666": "Ġspills",
        "7667": "Ġscarecrow",
        "7668": "Ġknives",
        "7669": "Ġevil",
        "7670": "ĠMixy",
        "7671": "ppies",
        "7672": "Ġburying",
        "7673": "ca",
        "7674": "Ġhealing",
        "7675": "Ġdonkey",
        "7676": "Ġaeroplanes",
        "7677": "freeze",
        "7678": "Even",
        "7679": "Ġseals",
        "7680": "Ġscattering",
        "7681": "Ġmiles",
        "7682": "ĠChewy",
        "7683": "amboo",
        "7684": "Ġdump",
        "7685": "Ġworrying",
        "7686": "Bee",
        "7687": "zoom",
        "7688": "beep",
        "7689": "David",
        "7690": "ĠLenny",
        "7691": "Ġpuzzled",
        "7692": "Ġstacked",
        "7693": "ĠKip",
        "7694": "Penny",
        "7695": "ĠNice",
        "7696": "Ġloses",
        "7697": "dding",
        "7698": "Ġtravelled",
        "7699": "Ġbaskets",
        "7700": "ĠWin",
        "7701": "ĠOkay",
        "7702": "Ġgazing",
        "7703": "Ġblast",
        "7704": "ipes",
        "7705": "ĠTess",
        "7706": "Hurry",
        "7707": "Ġtemperature",
        "7708": "Ġund",
        "7709": "Ġtasting",
        "7710": "Ġdripping",
        "7711": "Ġclue",
        "7712": "Ġbelieving",
        "7713": "Ġpinching",
        "7714": "erm",
        "7715": "Ġsoaking",
        "7716": "Ġrats",
        "7717": "Ġ10",
        "7718": "isc",
        "7719": "Ġsandy",
        "7720": "rect",
        "7721": "ĠIsn",
        "7722": "ĠSimon",
        "7723": "rey",
        "7724": "anwhile",
        "7725": "gling",
        "7726": "ĠAbi",
        "7727": "Binky",
        "7728": "Ġpunishment",
        "7729": "Ġbanged",
        "7730": "Ġhumans",
        "7731": "Ġcrashing",
        "7732": "Ġforce",
        "7733": "ĠAna",
        "7734": "Ġhundred",
        "7735": "Ġgest",
        "7736": "ĠLia",
        "7737": "Ġswimmer",
        "7738": "ĠChess",
        "7739": "Ġsnowflakes",
        "7740": "Ġrelaxing",
        "7741": "Ġresisted",
        "7742": "Ġbeeped",
        "7743": "ĠFairy",
        "7744": "Ġquarreled",
        "7745": "form",
        "7746": "elie",
        "7747": "Ġramp",
        "7748": "ĠWendy",
        "7749": "Ġjoins",
        "7750": "abby",
        "7751": "Ġbackpacks",
        "7752": "ĠPh",
        "7753": "years",
        "7754": "Ġdressing",
        "7755": "Ġdelayed",
        "7756": "Ġtoddler",
        "7757": "ĠLuckily",
        "7758": "Ġflight",
        "7759": "Ġcovering",
        "7760": "ĠTe",
        "7761": "orter",
        "7762": "Two",
        "7763": "Open",
        "7764": "By",
        "7765": "Ġencouragement",
        "7766": "Ġbenches",
        "7767": "Ġtoward",
        "7768": "Ġscraped",
        "7769": "Ġpurpose",
        "7770": "Ġfocus",
        "7771": "ĠJudy",
        "7772": "Bow",
        "7773": "Ġcorrect",
        "7774": "'.\"",
        "7775": "Ġlipstick",
        "7776": "Ġbamboo",
        "7777": "Spe",
        "7778": "Ġtwinkled",
        "7779": "Ġpotion",
        "7780": "Ġpermitted",
        "7781": "Ġmonths",
        "7782": "ĠCow",
        "7783": "Ġlanguages",
        "7784": "Ġorders",
        "7785": "Ġfreedom",
        "7786": "Tony",
        "7787": "Ġrisks",
        "7788": "Ġpoppies",
        "7789": "Ġmaster",
        "7790": "shm",
        "7791": "Ġnoodles",
        "7792": "Ġfaded",
        "7793": "Ġwounds",
        "7794": "shmallow",
        "7795": "rier",
        "7796": "Kids",
        "7797": "isions",
        "7798": "ĠJojo",
        "7799": "Ġcreams",
        "7800": "Ġbirdhouse",
        "7801": "Ġcells",
        "7802": "Ġannoyed",
        "7803": "ĠHerb",
        "7804": "opes",
        "7805": "Ġsniffing",
        "7806": "Ġcheers",
        "7807": "Ġadults",
        "7808": "Birdy",
        "7809": "Ġunwra",
        "7810": "ecca",
        "7811": "Buzzy",
        "7812": "Ġpuck",
        "7813": "Ġopinions",
        "7814": "Ġfloats",
        "7815": "andas",
        "7816": "Instead",
        "7817": "Ġflown",
        "7818": "Ġsneezes",
        "7819": "Ġscen",
        "7820": "Ġhandsome",
        "7821": "ĠHug",
        "7822": "Ġnodding",
        "7823": "ĠMint",
        "7824": "Ġsmelling",
        "7825": "Ġburnt",
        "7826": "Ġ5",
        "7827": "Ġdrifted",
        "7828": "ider",
        "7829": "bage",
        "7830": "Ġwithin",
        "7831": "Ġscient",
        "7832": "Ġheight",
        "7833": "Ġdamaged",
        "7834": "Ġbothering",
        "7835": "Ġtearing",
        "7836": "Ġslither",
        "7837": "Ġpleaded",
        "7838": "Ġinstruments",
        "7839": "Ġease",
        "7840": "ĠAli",
        "7841": "Back",
        "7842": "Ġscientist",
        "7843": "ĠMarie",
        "7844": "Mira",
        "7845": "Goodnight",
        "7846": "Ġpound",
        "7847": "Ġseller",
        "7848": "Ġhanding",
        "7849": "da",
        "7850": "Ġgerm",
[...]
